[PAD]
[UNK]
[CLS]
[SEP]
[MASK]
!
"
#
$
%
&
'
(
)
*
+
,
-
.
/
0
1
2
3
4
5
6
7
8
9
:
;
<
=
>
?
[
\
]
_
`
a
b
c
d
e
f
g
h
i
j
k
l
m
n
o
p
q
r
s
t
u
v
w
x
y
z
{
|
}
~
##i
##l
##m
##d
##u
##w
##a
##z
##b
##r
##h
##n
##t
##k
##e
##s
##g
##o
##v
##y
##p
##c
##j
##3
##2
##f
##1
##9
##5
##x
##q
##0
##7
##6
##8
##4
##wa
wa
##li
ku
##ka
##an
ya
na
##ha
##at
##in
ma
##ia
##en
##ma
##na
##is
##ba
##ri
##hi
##ku
##ta
##ki
kwa
##zi
##yo
##za
##un
ki
##ati
##me
##di
##da
##on
##la
##ji
##ra
ha
##le
##ya
##si
##to
##mba
##hu
za
ka
kati
##ti
##sa
##ke
hi
##mu
hu
la
##ja
##fa
##ini
katika
##mb
##ye
##ga
##ch
##ili
##mo
ali
##we
##tu
ni
##ana
##ata
##ani
##go
##po
##ko
##se
##zo
##gu
kuwa
ba
##te
vi
##fu
##ina
##isha
amba
##sha
##sema
wana
cha
##ru
##mi
##ge
##bu
##ele
mi
mwa
sa
ili
##kuwa
##rika
##gi
##ua
wali
##re
##enye
##lo
##pi
kuto
##ano
ame
##ifa
##he
ta
mu
##moja
##end
##bi
##cha
tu
##chi
##sh
##shi
##fan
##ish
se
##pa
ju
##ro
ra
##wenye
si
##vyo
##do
ina
baa
##fi
mku
hiyo
##oni
##su
##eo
ana
##dhi
kutoka
20
##isa
mo
##uni
##idi
##ungu
##ing
##ataifa
##kati
##dha
##mia
kwenye
watu
##du
##ine
##ni
vya
##anga
kama
li
##kiwa
af
##isi
##atu
##ongo
##ze
##cho
baada
nch
kwamba
nchini
bw
##lia
##ria
ny
##endele
##vu
pa
ja
zaidi
##anda
##fanya
##ingi
##taka
mwaka
huo
uli
pia
##mbu
##bwa
ch
wame
maa
##ote
##ju
ime
##rikali
##chu
wakati
mataifa
yake
bi
serikali
kuhu
ken
kup
##che
mb
hata
##eng
zi
##mbo
##de
##liwa
waki
umoja
##je
##fun
##zwa
wake
mw
##kini
una
alisema
##ishwa
##wan
hilo
nchi
wi
##riki
##eni
##vi
hivyo
aki
##bali
da
##mani
##ishi
rais
##zu
##pan
en
hali
mkuu
aka
##kia
au
##kana
##mbe
wan
##pe
sasa
hii
##onge
##mbi
walio
zina
mara
##weza
##lu
kam
##sili
201
ambao
##enda
##hidi
##toto
kuhusu
shu
usa
##00
fa
##dia
kuli
mas
amesema
moja
lakini
huu
##mili
iliyo
ambayo
kila
##ne
uta
siku
##ongozi
shi
me
##endelea
##ho
kuji
##lama
##yi
##unti
kus
kupi
ko
zili
##kwa
an
po
mia
##angu
kis
kaunti
kenya
mat
##tia
co
hat
##ene
pamoja
hao
pe
##jini
eneo
##unge
##shin
##ingine
##kea
##babu
##engine
##engi
in
wanao
miaka
haki
##dili
##kazi
hadi
un
bara
watoto
##jia
ambaye
bo
huyo
##ang
kum
kab
##taji
afrika
kuu
so
##sia
hatua
kim
##pu
ndi
##anz
nai
su
kazi
kusa
sh
mbali
mna
##zaji
ji
yao
yana
##pita
##poti
##anza
kuna
##pin
huku
hayo
##mii
##wi
dhidi
ri
ambapo
yali
##shiriki
ho
##ilioni
##gon
wao
mnamo
shirika
um
##kisha
##jwa
masha
##shu
##hari
kili
kuka
##bo
##tano
wata
19
##ende
nyu
kwan
duni
##engo
maha
iki
##tumia
##er
##pya
hawa
##pata
kutokana
mwana
kun
##hitaji
##himu
kwanza
hizo
##wezi
ume
sababu
ida
jum
##ongeza
##idia
##damu
##isho
kui
ita
##so
muda
##uala
##va
kubwa
tuna
afya
jo
she
##chuku
wengi
aliye
duniani
##inga
kut
##dani
taa
leo
ke
##atia
kimataifa
##ung
to
##zungu
##enzi
maku
ga
##guzi
##toa
akasema
##kon
##faa
##gonjwa
##shara
sha
wazi
maba
##inadamu
##ce
##bili
maka
##unga
##kani
wanawa
##fisa
kua
usalama
##el
lili
mmoja
##ato
ulio
##wili
##ng
ru
##bari
kabla
##yu
##ham
msi
sana
ti
##unia
man
inayo
maji
##iasa
##kula
##haki
zilizo
fe
lina
nafa
##lewa
vile
juu
##uti
kamp
wanawake
al
##dhaa
##ghu
mare
##shwa
kita
##or
jamii
ripoti
poli
kufu
wasi
##iashara
ms
alikuwa
##etu
wengine
baadhi
##eneo
kia
##weze
ucha
nafasi
muhimu
kufanya
202
maeneo
##ghuli
##mizi
##thi
##risha
zao
##zungum
##fanyi
bila
kufi
asili
##dai
##ter
##mini
##ur
zinazo
kuta
000
maisha
##kili
##enga
milioni
mahaka
##mika
##nda
##husi
polisi
matu
##ondo
##ona
mtu
kina
kari
viongozi
kupitia
##jili
shule
##one
hicho
wenye
##zima
wak
##pango
##ong
##hemu
mjini
je
##and
##kt
amani
kusini
od
##endeleo
taifa
lime
##athi
##st
##duma
##limu
sheria
##ena
##yat
##eleza
##be
##ania
##taa
##jana
##bisha
huduma
##weka
dkt
##dogo
mwenye
kan
njia
anasema
kupata
##kele
##ran
maendeleo
habari
ikiwa
idadi
##mbizi
chakula
kuku
mechi
nyingi
##robi
##yatta
hai
nairobi
tangu
kenyatta
chini
kute
hasa
uchaguzi
mkutano
##mbali
haku
msa
##rifa
mka
##funzi
ndani
zime
dunia
##wahi
mwezi
mahakama
##inge
##wango
##onye
wakimbizi
ambazo
he
##rusi
##gwa
katibu
##hara
mfu
##mbia
##mea
##ise
##rani
mbili
hara
vijana
maafisa
##kuu
hivi
##chungu
mwan
##hakikisha
##tisha
chama
wote
kutoa
##jibu
uwe
##kosi
##mbani
##kta
yaliyo
##hudi
##mwa
vita
mpya
##lamu
mbalimbali
ak
masuala
baraza
uha
re
asilimia
wiki
##keza
##fadhi
ngu
##no
tume
##ada
ar
binadamu
chu
mkon
kisiasa
de
##miwa
ata
##it
sehemu
##jo
taarifa
kitu
##ida
##wemo
##enya
##chumi
##lima
##yari
waziri
jin
##rona
alipo
fedha
##anchi
yanayo
bora
##pati
##amu
##buni
##sisi
##ongoni
maz
##dwa
##co
kib
##dan
##chukua
uju
##pindi
miongoni
corona
nje
biashara
uki
##futa
marekani
lu
##maa
uni
##reza
##zuri
##mbuki
##onyesha
uka
mpango
raia
tatu
##kee
##dumu
##uri
##endo
kuhakikisha
be
##wapo
##saidia
##ngana
nya
usi
##fauti
##milia
hili
##ywa
##fanyika
bado
zote
ug
nili
do
tayari
##biti
##anzania
##wasili
ro
##ane
##dh
kulingana
##shirika
##kio
huko
##mali
pili
##yote
kipindi
che
##ezi
##huru
kutumia
##zia
le
virusi
akiwa
kiu
elimu
##vana
shughuli
##kosa
mali
##ingereza
##mbuli
##reje
##swa
##pote
##babisha
te
##ingira
yame
##ndi
##chang
ye
zake
##uli
##kari
##yan
aina
unao
kufikia
##zuia
kitaifa
naibu
tanzania
kin
msimu
kesi
##san
sudan
##misha
maalu
##atizo
##bia
##pande
##rufu
##tatu
##tanda
##ca
up
ca
ruto
##fo
changa
##zea
familia
##sta
##fungu
timu
##wala
##gha
ban
mambo
wakazi
kiwango
haya
jana
##zini
200
##fani
jinsi
##radi
##isema
##ate
uhuru
kutu
##kubwa
##wali
mazingira
##ingia
kiongozi
tofauti
##bunge
mkubwa
##keo
kampuni
nyingine
##mla
##jiri
juma
##moto
wale
##raji
vina
wakenya
chan
tak
wanafunzi
##rati
mkono
huwa
juhudi
ne
##diliko
umma
##vid
hatari
##mp
kwani
jumat
kukabili
mabadiliko
ilikuwa
##haribi
##dala
changamoto
##rua
mba
##zing
mbele
uwan
##th
##eno
ugonjwa
pekee
kusi
##zazi
pesa
kilimo
walikuwa
dha
ndio
odinga
##tolewa
kundi
kawa
##zani
##ris
##rug
fu
##wani
nyumbani
mada
karibu
kawaida
mujibu
##shindi
lazima
##rehe
licha
##badili
wafanya
##chana
bunge
kura
##ve
umri
kushiriki
##angaza
kuj
kuanz
bu
##miza
##inu
##pig
##rugenzi
##omba
uwezo
kadhaa
##huri
mengine
##piga
map
uko
##lea
anaye
##kabili
##andi
kika
##pokea
##chezaji
upande
##patikana
wananchi
ajili
humo
at
##takiwa
we
10
hakuna
pro
##dhibiti
##uzi
kikosi
hapa
##zungumza
kupungu
ambalo
maga
mar
gavana
vili
##athiri
pi
usha
mashariki
##ongeze
ai
##rs
##unda
wawili
mkurugenzi
##onekana
kisa
jijini
uchungu
hos
##gawa
##tana
##fiki
mata
##kiti
tena
ligi
yo
hospita
kampeni
ula
##she
mbunge
##elekea
##kumu
yenye
ut
##ingwa
##kika
waku
2020
mwisho
kocha
msingi
matumizi
of
suala
ujumbe
mati
##tiza
##fsi
uingereza
##wana
##lenga
iliyopita
iwapo
hospitali
janga
##lala
##anisha
##ck
wetu
##kilishi
ben
##mw
yote
dawa
##jari
##fika
##funga
mama
##fe
mag
##zara
uku
kija
kukabiliana
mta
mash
uchunguzi
kas
msaada
wizara
##poteza
mato
##fano
##enza
##leta
kw
hapo
##wanda
on
maju
fur
naye
##ongezeka
##rajiwa
##rc
##mano
##taba
##chama
##wahili
fursa
mashirika
##lazi
maj
kiasi
akisema
who
sita
utu
##lisha
mawa
mfumo
mji
##marisha
##uaji
baraba
##pia
waka
isi
bidhaa
lugha
sene
##kwe
lengo
##miaji
mis
##husu
kamati
kituo
##ban
nde
##ongoza
sekta
##wezesha
mtoto
##refu
##gua
##nzi
nne
kuzuia
maalum
gu
saa
uchumi
ura
##fiti
bwana
##wepo
kusaidia
bilioni
##kuru
maambuki
##lifu
##bio
##sababisha
alama
afisa
wako
jambo
##paka
wabunge
ufa
##usu
##mbua
##malia
jina
am
##dhu
##jeru
##mua
covid
matokeo
di
##chezo
##keleza
##zidi
mwingine
##jaa
kit
vit
ushiriki
##uka
ingawa
##koa
wakiwa
##lojia
mamla
huenda
mengi
##andaa
##tandao
kote
kima
baadaye
tuli
dakika
##paswa
##zee
visa
##husika
somalia
lililo
##kazini
##shtakiwa
lake
no
##labu
mfano
##ishe
ras
2019
jumla
hizi
##ibu
kaskazini
sawa
mab
##ataka
##jumu
kijamii
##lan
ute
##sisha
##sho
##engene
##ver
maambukizi
zamani
kiswahili
##twa
##ripoti
##mbana
##ishia
##hisi
ikiwemo
awali
##hoji
##rejea
ndo
##son
kufuatia
##zin
kuongeza
miezi
##ted
15
kupa
##kra
kuti
idara
kupunguza
kuondo
##ume
maso
maana
kabisa
##enge
macha
aliyekuwa
##changia
##tishwa
chanjo
jam
##fua
mal
gha
wafanyakazi
uja
mkataba
nina
waa
nyumba
##ungano
uganda
##pinzani
kibinadamu
##inafsi
##lani
wito
fi
##undi
mwili
takri
##rti
##rt
rasmi
kuanza
sh1
##lla
##sti
wakulima
##atwa
zia
wanachama
ushirikiano
kisha
##dua
nguvu
##hudumu
2018
ulaya
##tokea
##endesha
##faha
aliwa
kushu
kile
##rd
mika
##ratibu
jamhuri
##lika
aji
linalo
mwe
##jeshi
klabu
basi
kuendelea
vyo
sta
soka
vye
mashtaka
kilicho
mwenyekiti
##cr
aidha
##indi
kip
vitu
##inali
##gumu
muungano
12
chuo
mape
##jani
wo
##endeleza
waha
mamlaka
##zingatia
chi
##zozo
sio
##gemea
ardhi
united
mifu
haraka
yetu
ushindi
mapema
##kubali
kuki
wachezaji
##vun
kikuu
##pili
##mana
bei
##amini
##siasa
##men
##firi
##mbea
mradi
dola
##jali
kinacho
##biri
##fanywa
magharibi
katiba
hatu
##andishi
his
ulinzi
walimu
mt
kuimarisha
mashin
fainali
##his
lo
##shindwa
##man
machi
ulimw
wamekuwa
##shauri
##jadili
##fikia
matatizo
amekuwa
ambako
uongozi
siasa
##hitajika
##mbasa
kuweka
18
ama
##onga
as
barabara
jaji
mombasa
us
cho
huru
ndege
##pungu
##hcr
##amuzi
yoyote
mafun
wataa
##shukiwa
kuanzia
unhcr
mabao
mbinu
##shinda
ofisi
mbaya
kuchukua
sila
##tangaza
nao
##sisitiza
##mbulizi
kuzi
odm
##ath
##yama
matibabu
##ll
##baini
uamuzi
kuru
##anua
uba
vifo
misa
vifaa
##husiano
mauaji
nime
##tea
nga
kuingia
wala
new
mad
##ton
haja
kuo
wasichana
##fisadi
tarehe
2017
kuliko
##mokra
go
##kam
##juli
badala
bur
joh
wada
##ungo
##kutana
gi
##kome
mah
##hudia
bar
utafiti
alim
##dumia
mcha
mtaa
mrefu
##chan
##fariki
##pl
ukose
malengo
##ci
##hani
makundi
kwenda
wil
##ry
vilivyo
##pewa
##maini
ukosefu
kiuchumi
kudhibiti
simu
##fungwa
kwake
wanaume
##fari
##mbele
##dio
##leni
##mad
yangu
uhalifu
kuvu
mita
##al
kime
ajira
##jaribu
30
##rik
karibuni
##res
##athirika
saba
uwanjani
hati
wate
hau
ambacho
##dele
madai
##lai
usiku
##mbwa
silaha
##endeke
##elezea
ub
el
##toria
mafunzo
##miliki
chake
zita
##umu
ufisadi
2022
athari
hazi
mli
juni
##mamizi
drc
iju
ika
kucha
jumatatu
##kabiliwa
##ziki
ap
##elewa
vime
tano
##hama
john
##dano
nyo
##jito
mbo
tuta
##kno
mwakilishi
##us
##maliza
##zalisha
tatizo
##salia
##kumbu
##mke
vyombo
16
tun
##taja
wazazi
##rini
misaada
##anne
mahitaji
jumatano
##med
tha
sauti
inasema
##pele
##geni
14
##ziwa
mau
13
safari
taasisi
magari
utawala
##mbulia
##cef
ab
##kato
##atiwa
uj
unicef
huyu
##mokrasia
ndiyo
ziki
endele
kulinda
##atarajiwa
makubwa
yeye
##raha
11
nusu
miwili
kusema
kwe
wagonjwa
umu
vyema
mafuta
##knolojia
##fadhili
hewa
barani
ijumaa
damu
##sika
kutekeleza
##jua
##ph
##lee
##ande
ge
##giza
##shiki
##ster
umuhimu
wasio
##rura
wanasiasa
endelevu
25
##kundi
##fungua
##ity
ngo
##disha
mungu
wenza
##wekwa
##idizi
jumanne
ndogo
mwanamke
##ila
kupambana
kipa
nige
ng
##ransa
##ishoni
##zungumzo
##shika
makazi
matumaini
ule
mazungumzo
##mna
##katili
kubadili
masomo
onge
ghara
magonjwa
imekuwa
##penda
vikosi
##semaji
mchakato
##unua
walipo
fulani
##hada
##hifadhi
kauli
##chukuliwa
gharama
du
alham
kide
jumapili
##amua
namba
##fla
uwanja
##atoa
urais
##maduni
##hali
ok
bali
ilivyo
##enal
##husisha
kar
kadha
##ilia
##onya
##kodi
##epu
imesema
##tokana
##lozi
wangu
mipango
##sima
##ongozwa
17
mwishoni
##puko
##fahamu
##pania
kuona
##chuano
kumu
uhusiano
kupiga
msemaji
akizungumza
nia
##jumuisha
makuu
##ambia
21
yu
##ol
dharura
vinavyo
kambi
ziara
moi
##engwa
benki
##julikana
##takayo
alhamisi
teknolojia
city
nye
tru
##uza
jubi
##wasi
jubilee
wat
moyo
##jiji
##takao
vika
##bore
nyuma
inaweza
##lazimika
ua
##sheni
miradi
the
mapig
wadau
##ld
mapigano
michezo
jimbo
##milisha
##tihani
##toka
##ishu
wataalamu
mke
waliokuwa
##hili
##dhuria
kutafuta
watatu
jeshi
bbi
itakuwa
waandishi
ushahidi
199
janua
jukumu
uma
##bishwa
asi
uliopita
##gogo
ongeze
##ono
ujenzi
jumu
mbio
wakuu
##shuhudia
tukio
##zito
nini
soko
ongezeko
##kata
wanasema
uga
januari
##tumika
##uliwa
pwani
wahamiaji
kutosha
kume
##ghulikia
mala
mv
kifo
pale
takriban
aliyo
##itwa
##thibi
trump
vyama
ago
sera
##nia
lita
mashindano
ngazi
burundi
dara
##ent
liki
##anya
maarufu
makao
hofu
##liam
anga
namna
##gizo
##uawa
kikao
##tumiwa
viwango
congo
##lizi
makubali
##pte
mikakati
kikubwa
ambavyo
##biashara
ufu
##ktari
##cc
##rishwa
##undo
##mosi
ile
##pwa
ndiye
2015
kule
william
nzuri
zingine
##fuata
##rili
bao
##mamo
mwi
##tuma
##luma
ufaransa
fo
##nu
vituo
yata
seneta
kilo
##kano
2021
makubaliano
##mishi
septe
kasi
##wishi
##ripotiwa
walisema
jumamosi
ujao
vitendo
raila
yaki
kuwepo
lib
##angi
mur
nakuru
agosti
salama
mawili
baina
##jumbe
##thio
ila
kukosa
upinzani
chache
##chwa
sh2
kuwasili
ukatili
septemba
yeyote
##jerumani
##cheza
##andaliwa
shuleni
##kelezwa
mpaka
##wimu
epl
kumi
##toba
##athiriwa
kisi
##rah
husu
kuendeleza
tabia
mimi
kinyu
##land
##wada
kuhudumia
##anishwa
##ork
##shikilia
kuelekea
fao
##endekezo
ndoa
takwimu
##muzi
vizuri
##ika
##engeneza
##aji
binafsi
##gh
##choche
kuleta
pande
##iya
kali
##pokuwa
##biwa
dar
maanda
kamish
kusababisha
##boresha
##thiopia
##riwa
##zaliwa
min
amerika
##om
hatima
kuzingatia
ndipo
##shuru
wanyama
nayo
sulu
##ord
maradhi
##atilia
##mio
kanisa
##habari
ebo
##gombea
kushirikiana
oktoba
##jita
mus
misi
aj
mashambulizi
##dishi
##patia
kusamba
##endaji
ebola
kombe
##resheni
wanaweza
##mwi
##sea
2016
##mishwa
kuwapa
mvua
##yansi
##heshi
julai
##shambulia
ghasia
hiki
##rea
##pinga
njaa
baba
mtandao
mahoji
##gue
##ino
mei
##daiwa
mzozo
mafani
madara
mahojiano
##fp
uweze
wasiwasi
##kelezaji
24
st
##pende
##mbuliwa
moon
kivu
ija
nove
kupe
kanuni
kid
wow
mafanikio
lamu
##vunia
china
mikon
kweli
##chango
libya
mawasili
gari
##dhara
wowote
##pigwa
##andika
wfp
kula
kujenga
kinyume
york
kiba
##chache
wakili
imani
##ly
mazo
##firisha
ope
##tt
mzee
##gia
mari
kando
maalumu
il
kufani
##gaji
mswada
##jeruhi
yako
##inisha
##takapo
##zimio
nigeria
##ongamano
wenyewe
kuongezeka
mitandao
##giwa
novemba
sisi
kurejea
100
##gun
wanapo
mitatu
##gogoro
taji
wahudumu
maziwa
maamuzi
majukumu
marufu
hakimu
wai
is
50
kuko
##keti
##biki
mawasiliano
jose
##lili
##zindu
marufuku
marehemu
##kun
##enguni
mojawapo
##am
rwanda
thi
mja
ulimwenguni
ethiopia
##mon
mdogo
##kaji
##panga
mko
afisi
guter
zo
kishe
picha
ushuru
mabingwa
guterres
##zungumzia
japo
utekelezaji
##dhifa
kusu
hafla
##faka
##guliwa
zenye
##ling
##ruari
uwezekano
ukwe
homa
kidogo
husika
kutaka
ajenda
awa
feb
mpi
##zao
##gana
unaweza
##kua
kidemokrasia
ulikuwa
##kezaji
##ibuka
mbu
ndu
##ita
asu
vyu
mlipuko
tabi
mael
mwandishi
ombi
##gra
geo
##rat
kisheria
operesheni
usawa
ukanda
upili
historia
balozi
##fia
moto
aprili
kanda
maelfu
macho
##mes
##kuja
ujerumani
humu
##milioni
fran
hatimaye
##waji
asema
msu
kujito
##sani
kike
##bila
##stahili
##saba
miku
februari
##lin
mazao
ste
##gwe
##andamana
##kw
##beba
##chunguza
##kadi
##mbukizwa
##fany
wateja
##bani
ameongeza
yasi
kuya
##ziri
##mavu
matukio
##ondoa
##wasilisha
##mar
ukimwi
kupokea
##kuwepo
##hamana
kiaf
ars
##ts
jumuiya
##siana
##rikisho
kiambu
son
##fichu
hawana
##yiko
wazee
maoni
ange
##pool
kusima
liver
dhamana
harakati
oro
##yon
kaka
mutu
23
mwanamu
liverpool
##penzi
msimamo
##angazia
matunda
##hana
asubu
##zindua
kwao
makala
asubuhi
##changan
vid
##waa
viba
##inti
uvu
mwalimu
arsenal
hifadhi
dalili
22
##engu
tabianchi
maja
maele
##changa
##funza
mchango
##pendekeza
mwenza
nane
kuso
makosa
##iniki
iliyotolewa
kupo
kuhusiana
pakubwa
wavu
mawaziri
##kamatwa
mao
misri
##rajia
##jin
2013
kuishi
##celo
kufa
kumaliza
##hudiwa
ilhali
##hutu
##ruhusu
##zalishaji
pombe
##pindu
machafu
tisa
alia
tuzo
mwele
kuboresha
kira
thamani
zetu
une
fc
matatu
rekodi
##athmini
miji
##zingatiwa
##maarufu
ukweli
##lim
kamili
##rge
##mbini
##lii
faida
mapato
zin
bingwa
mashabiki
baha
ijayo
upya
usimamizi
kuepu
kuzu
makali
alieleza
##pp
kupoteza
##milika
prof
kuung
david
wawe
akili
joto
##sanya
washukiwa
##soka
vingine
##sishwa
lin
wenyeji
##ul
##dhani
##jitokeza
##tan
gani
amewa
##saji
##lme
iom
##ber
shaka
mimea
nambari
##wakilishi
##jivunia
##lle
##hula
miko
##wele
stars
kuonyesha
##saka
##anzisha
##zika
##samba
##fedha
wanahabari
mwanafunzi
##hanga
haramu
mikutano
wajibu
##kos
ajali
migu
kifedha
##rej
gene
##kishwa
ilipo
##vunja
26
kufunga
orodha
kijiji
##rejesha
##per
mchezaji
##hadi
##komeza
vu
##zoni
mume
mitano
kununua
car
##gizaji
sh3
##onal
usaidizi
##ley
##islamu
jirani
suluhu
iko
##pungua
##mbelea
itakayo
kudumu
rahisi
##indo
vyakula
bahari
maneno
##tegemea
mahali
ue
##enea
rangi
##zama
##chester
shirikisho
chel
kufanikisha
mapa
##taafu
##tarajiwa
machafuko
wau
uzalishaji
kambini
kiti
mwelekeo
risa
kulipa
ad
##kumbwa
##hudhuria
##ret
##piki
bra
##himiza
##toni
mchuano
mtihani
##fanyiwa
manchester
##zina
##50
malipo
27
##tiwa
kuwasaidia
##kwazo
##ssi
mbe
##rithi
##celona
saini
barcelona
##lam
wenzake
lishe
kujiunga
zilizopita
barua
##kizi
mazoezi
ataka
mamilioni
anaweza
##fuasi
chelsea
kc
##maanisha
##angazwa
vin
kiungo
500
##tari
kuanzisha
mai
##koni
##gawan
kuva
##pitia
##mbuzi
hususan
##pas
##fanyia
thika
mno
kitengo
##rudi
utamaduni
vikali
yan
kiingereza
##mita
azimio
joseph
##wezekana
kuondoa
##lahi
##mbulio
kufika
eu
muziki
sonko
kutengeneza
hawaja
##kezwa
mizozo
40
28
kisasa
mkulima
##hispania
mifugo
mvu
zile
neno
##sihi
cu
##kataa
king
mchezo
##livu
##linda
##fanikiwa
kibinafsi
aliji
filamu
##hiti
sy
##lau
italia
madhara
##kilisha
##yanya
yaani
jopo
shamba
mili
and
##tetea
uefa
##riko
james
##ff
hazina
manu
asa
mafu
##ongozo
##hihi
ulimwengu
masi
##qu
gor
tele
kongamano
##eli
##wo
hawaku
##ridh
##uliza
##lezi
masa
##toaji
wanajeshi
mahakamani
##fanua
##hakik
wafanyabiashara
muhula
nzima
lilikuwa
moha
##ima
##mko
ufadhili
##bati
##sco
##bisho
##ingo
##atumia
seneti
mimba
yasiyo
kutia
vipi
##kimbia
##mpa
masharti
kuondoka
kisumu
wajumbe
dese
kijeshi
##pishwa
kamishna
##zigo
ahadi
it
kutambua
kushughulikia
zisi
##pongeza
##chezea
##bc
mingi
##iri
##dhihi
mifumo
kuwania
usafiri
uhamiaji
ngozi
hote
enda
kujadili
mahindi
mjadala
ea
amri
kutokomeza
wafuasi
##les
mwanzo
##chochea
chipu
mate
mut
takribani
washirika
alio
ada
mon
kufanyika
##sababishwa
##ven
##lizo
mago
mshtakiwa
##tuba
ugani
##thibitisha
video
##shirikiana
yale
desemba
##chote
##undu
geneva
##taki
usta
shaba
endapo
utaratibu
##fichua
##lie
##vile
majanga
##gundua
sama
sare
##zeti
safi
ametoa
iwe
##id
kuunda
##skini
kupinga
##shima
limesema
kushinda
mwanamume
kuwe
utulivu
risasi
mlima
##rie
##yoka
##maji
umaskini
kutimiza
uhispania
kuja
##funguliwa
mshindi
visi
viwanda
2014
dini
sala
vilevile
mil
##sse
kuandaa
kigeni
malala
utoaji
kuhama
mapendekezo
hoteli
kukuza
wachache
kort
ik
peter
chochote
george
wingi
##rid
isiyo
kortini
jiti
ubaguzi
##kiri
madaktari
sherehe
##rg
ishara
##ulu
manufaa
##pika
kupanda
kuendesha
kufuzu
##linganishwa
wawakilishi
nisha
##liza
kikundi
sifa
ufan
mipaka
lenye
nita
ushauri
mte
mohamed
##elea
kushindwa
##lulizo
##shukuru
banda
##yana
##um
##unde
wanne
##rengo
##jeti
viji
mapya
##ongea
##peleka
chipukizi
##kh
wakiwemo
jitihada
watakao
##angazo
##ric
##liwe
##zua
bajeti
mshukiwa
##undwa
mfululizo
malaria
##singi
kukamilisha
##fikapo
kubaini
##red
real
wasa
kubuni
bodi
##enu
hadhi
kusaka
vibaya
##tezi
has
halisi
##reva
shida
##panda
##bora
nyota
maadili
ifikapo
##heshimu
##rin
##chiliwa
##kwaa
##tini
madi
daraja
mafuriko
##wadi
wapinzani
##angalia
yuko
##atua
kinga
nishati
##kita
waasi
29
##wasilishwa
mikono
abi
kuunga
vigumu
wafu
haija
mua
mashu
sahihi
##anzishwa
ikilinganishwa
##pasa
##iko
lea
kuweza
miundo
bon
##vya
##baki
ufanisi
kupati
ndugu
##rick
yalikuwa
##husiwa
ud
##ungwa
heshima
kujua
mbegu
ugaidi
wadhifa
sayansi
ukuaji
jioni
##ty
mtendaji
karne
198
mtaalamu
##fur
duru
kukutana
##kumba
##zoe
##endeshwa
musyoka
mkali
ndoto
60
##atana
vo
##hawa
##zamo
kuuza
majaji
##mikia
##jeruhiwa
##rusha
##lana
mkondo
##rasi
kupatikana
##sc
uwekezaji
vikwazo
mapenzi
kadhalika
majuzi
##milifu
hatarini
magu
##geme
uhaki
mboga
kupewa
iku
##husishwa
aliongeza
##ondoka
##ishwe
##umbele
hala
##tambua
mk
##pigia
kiafya
##tiki
ngumu
kuongoza
vyuo
##shiri
samaki
##dhiano
##mega
maelezo
##isitiza
##stani
##iliwa
anapo
zinaweza
jiji
mako
kitendo
##fafanua
dise
##rn
zinazoendelea
mawazo
usw
##ingilia
umeme
lao
ilisema
##shiria
tiba
matha
chombo
##pisha
darfur
kijin
##ufa
##lipa
maskini
hotuba
walinda
##mis
##risto
##tandaoni
##yika
uzazi
##ungeni
jinsia
kuwasilisha
oba
ara
alitoa
kilomita
awamu
san
kimoja
##zuru
##elewe
ujuzi
kuhifadhi
mwenzake
mwenyewe
vingi
##zui
kush
bungeni
kipu
##tajwa
tiketi
##dwali
kulikuwa
sam
maridhiano
##rk
##ruki
uto
zilikuwa
hisia
mage
2010
##takazo
jedwali
zisizo
##jenga
tuki
##ls
kakamega
kijinsia
paul
nyi
nja
##reke
tas
wamesema
##den
magavana
##sca
##yang
inter
alipokuwa
nafu
kupele
maandamano
##30
kifa
kubadilisha
##dhimisha
##dumisha
kuokoa
mzima
mazishi
##shuhudiwa
bandari
ombe
31
##dhe
kiga
uhakika
disemba
##vo
##isaidia
##zwe
##dudu
pengo
##rahi
kuibu
pembe
##uth
##rabu
alivyo
vyote
##don
watakuwa
##endi
##tafuta
##elezwa
rufaa
##shawishi
wanasoka
maslahi
sharti
##zil
walim
inavyo
es
##yenye
##kuma
##lote
mkazi
chanzo
##haribifu
kuni
##laani
ikulu
##simu
nyama
watano
##hiri
agizo
hana
##und
2012
vikundi
franc
utakao
wizi
hatia
ikizingatiwa
askari
##kufa
ukame
wadogo
kusiki
##uzwa
##shindani
##mbamba
mareke
##pekee
wanam
radio
##dhabu
sh5
kutangaza
francis
marekebisho
wash
##ut
##hadha
msha
makwa
katikati
kuamua
##tus
amesisitiza
uhaba
mwao
wanaoishi
196
majari
hasara
##anzi
akaongeza
minne
ber
wanataka
syria
madiwani
##wapa
wageni
##chaguliwa
west
barabarani
anata
kukubali
##bidhi
##amuru
ze
##kinga
mkewe
hassan
profe
taka
vitabu
az
##paji
##zinduliwa
##pepe
##hutubia
mzuri
iba
##ghari
kuha
##klia
mawakili
mn
afc
kuthi
misingi
##jui
mkakati
kutumika
mfanya
kuchangia
##eneta
##haribu
mwanzoni
kadi
##tenga
197
mtawa
##kamata
kutokea
usafi
70
##inda
kazini
##wazi
maje
atakuwa
##tter
##unu
shambulio
##zaa
lolote
nasa
##jazo
korea
##rejelea
##rai
madawa
kuwezesha
##kamilisha
spika
pat
##inishwa
pasi
ulemavu
##mbano
wamea
yanaweza
##hamisha
aa
nati
nguo
##pelekwa
kucheza
kufungwa
michuano
gazeti
profesa
kibiashara
kikamilifu
sarat
inaendelea
##fundi
kufuata
##patiwa
murang
##bika
japan
zitakazo
mtazamo
paris
robo
mart
##dri
##furah
saratani
im
##siki
ubora
league
##roni
progra
##tembelea
waso
kukam
den
idhaa
##idh
kipaumbele
njo
##seme
kesho
unapo
maswali
##andikisha
mitaa
wahusika
zijazo
mfupi
##hojiwa
##fungia
##ongezea
lon
##siri
madini
abiria
##ungufu
korti
washiriki
##jiandaa
hakuwa
iliyokuwa
dani
mudava
alipata
asia
##punguza
kusoma
mudavadi
alianza
kipute
##kis
mwangi
shambulizi
##hau
mashinani
ukiwa
machakos
kidini
##my
makwao
##bert
majaribio
mtawalia
##loni
kumbu
##toshe
miti
##fundisha
taaluma
haiku
##bwe
##karibisha
##lalamika
wakisema
nafuu
uo
kilifi
##ss
##vuni
ale
mbi
migogoro
kurudi
##hamishwa
rasili
wila
2011
majeraha
ujumla
mgogoro
##tengene
kuenea
kisu
uharibifu
##pigana
##shambuliaji
wenzao
olim
wanata
rasilimali
jene
wap
ham
cup
gra
##imarisha
kifua
##ation
kutwaa
madrid
ie
##kuza
wanahitaji
##ange
usio
seli
##ishio
kuchunguza
kipato
maombi
euro
mkenya
##od
micha
maandalizi
nyimbo
wanaendelea
##harakati
##mas
amea
umekuwa
kutetea
beki
majina
mpira
##her
hoja
mabaya
kuthibi
##mizwa
mashamba
uso
nilikuwa
##lon
kusitisha
demokrasia
furaha
unesco
kupu
mahia
bri
umaarufu
##kofu
##kundu
##itaka
##ishani
olimpiki
##mka
nyuklia
brazil
##kwenda
##unuzi
##hudumia
milan
##inikizo
jukwaa
##rodhe
maseneta
##tangu
misha
mashi
moham
ocha
##sajili
##rushwa
##lly
##higa
##simamia
mto
##ango
redio
marafiki
##shirikisha
##fisha
jamaa
nu
aust
kosa
mgombea
##ok
##mid
##endwa
##teuliwa
##badilika
##kubaliana
##enia
mwafaka
misitu
##kuta
jari
##mikali
atakaye
##disi
kidi
sukari
kiume
hospitalini
run
uteuzi
90
kuba
##zulu
##mbee
shinikizo
##ungana
kuacha
wange
iebc
##anja
mitihani
unga
kiraia
##ys
##inua
##idii
kulevya
mabo
kusimamia
kutatua
isitoshe
tra
##es
wadudu
kueleza
kijana
##dg
##soa
##mivu
siri
msaidizi
##rali
waji
ziada
con
kumwa
matiang
kuepuka
##mara
muafaka
mazuri
hawata
##jitali
kuch
##rugu
kamanda
##husiana
##mshi
joho
##inea
vyao
dhana
wastani
kodi
wapiga
##teua
angalau
kicha
unmis
mchangan
mingine
nika
azma
kipekee
##roka
kemikali
##jiunga
vikuu
coa
##pasuaji
##komesha
ustawi
##liki
##onald
majengo
anayo
unyanya
isra
##firishaji
kuhudhuria
##fahamika
oti
##anze
haina
##pitishwa
##pangwa
barakoa
##bunifu
serikalini
mishahara
##pelekea
ala
mgonjwa
##subiri
mohammed
kutolewa
##wania
utalii
uzito
##rio
mwingi
ubingwa
##ington
mwongozo
msichana
mstari
haita
daniel
miche
##hamu
##rupu
nyara
njama
mfa
kuwaa
maarifa
kurejesha
ushawishi
35
##kadha
300
##min
##uzulu
##ingiza
nani
##faulu
ou
va
mikopo
##kala
mkoa
vijijini
ibada
##ruga
mkopo
asasi
##dari
ang
sh4
kingono
twi
tete
guinea
uwepo
##kadhalika
##elekeza
##isini
abdu
tishio
tunataka
gesi
niki
inapo
maagizo
mwendo
##dhihirisha
aliwahi
##ruhusiwa
udhibiti
waweze
dci
kufungua
##angwa
mina
##tangazwa
daktari
wanga
ah
ps
##fikiwa
##jiriwa
marath
kukamatwa
adhabu
##kisa
##ssia
##onda
##hofia
kuibuka
wanayo
mwilini
git
##rwa
##misho
##iniwa
##vamizi
##endelee
kimsingi
##zana
matamshi
##malizika
wewe
bidii
icc
##fanye
india
##potea
32
dpp
2007
##chagua
##dhamini
80
nyeri
mza
##llo
mun
upasuaji
unamid
##jadiliano
makini
walia
upungufu
maumivu
##hodha
##ukwa
##tten
uchuku
kap
##ishiriki
##semekana
char
marathon
penal
kuhudumu
kigaidi
majadiliano
kumekuwa
unmiss
##unza
wanafaa
wapi
##ens
##fai
iv
##kaa
##las
kufuatilia
bahati
##mbabwe
kupigwa
totten
tottenham
madu
thabiti
wapya
nzi
ukubwa
kusambaza
kiwanda
wasani
migo
halikadhalika
ngon
washtakiwa
##nusha
coast
ilo
harambee
##usco
mpito
##atokana
kujitolea
##mat
penalti
##ngo
mamia
##shughulikia
mfuko
ui
waja
lei
##isu
##hakikishia
##ct
siyo
sanaa
programu
inge
2030
antoni
makan
##dishwa
hasi
kongo
##plo
waliyo
wilaya
pendekezo
##pitisha
kupungua
madaraka
##hitimu
wasanii
ushindani
##uwa
hakika
mp
##vin
rafiki
washington
kiji
alizo
ubongo
##ategemea
nazo
##china
antonio
iran
monusco
val
kujaribu
##yesha
chris
darasa
mzigo
udongo
##fuli
kutumiwa
##ufaika
uchukuzi
mchu
kuzo
##mbaji
hutumia
##han
##kumbuka
kuzungumza
kucho
karo
2008
kuomba
2009
##reno
##unzi
binti
viwan
sambamba
##bidi
viungo
kutekelezwa
wanavyo
##shirik
utapia
majani
twitter
nor
##ses
wanaishi
kitabu
watetezi
zoezi
uswisi
utenda
##ifu
amem
london
ria
chad
inata
zimbabwe
##der
anaeleza
upo
##ford
waathirika
dr
kuchukuliwa
##anii
gre
##ren
##rds
##sajiliwa
##uki
##fuatilia
##buri
majimbo
##ridi
havi
iliyoko
chuki
waliwa
maswala
kupita
waathiriwa
##dokeza
salaam
mjumbe
##dhini
vipimo
wapo
kise
##ab
##zewa
magufuli
mageuzi
##romo
kibe
##ons
jua
##kamilika
magumu
mbadala
wavulana
kuandika
uturuki
michael
##rajio
ufugaji
##weleza
kihis
kuingilia
came
##rica
haswa
mtindo
mumewe
awe
kiko
aliko
ilio
##ongezwa
vurugu
##tro
ziwa
chumba
##jitolea
baye
usamba
##kadiriwa
##luh
nyakati
##enendo
##zote
##dhimisho
eneobunge
##ea
nahodha
##bar
limekuwa
walivyo
walioko
##gharimu
akim
uk
kukusanya
matarajio
kudumisha
anavyo
jenerali
vitisho
madeni
##kut
##fuzi
nyanya
akiongeza
kuwekeza
sdg
##hia
##tua
##cco
##baka
##tengenezwa
##sikia
##geza
##tarisha
##tilia
fowadi
psg
sin
##muliwa
##anada
mashauri
##zoefu
kukomesha
kusafiri
maadhimisho
45
wamiliki
pla
usu
uzindu
anataka
makamu
zimekuwa
uhai
eti
alicho
mande
usafirishaji
##mbilia
##tumi
##beria
mshahara
dhu
utakuwa
##bainika
kivumbi
ir
mshambuliaji
lile
##chapishwa
mwanawe
alidai
##patikanaji
uzinduzi
##cy
linasema
kwingine
##rekebisha
##isheni
##fungo
wandani
kuambukizwa
upatikanaji
kuwalinda
kupitisha
##badilisha
##ment
ghana
kiki
##tima
##gambo
kumpa
##lanta
wadi
wafanyi
##valia
##jengwa
tunahitaji
malalamishi
pindi
##soma
##sabu
kusajili
zozote
juven
juventus
mchana
tangazo
##kwama
kichapo
##ms
inafaa
vyake
##mbora
##eld
kinara
##mbukiza
jinai
##kumbusha
400
kuonekana
akina
raga
##vutia
##shuka
masoko
dada
meru
##zisha
##eneja
mike
##fautiana
riadha
ufungu
maina
kai
ekari
nd
tang
elfu
utendakazi
tuko
meli
mwanasiasa
fk
for
##pendeke
##dhamu
##thibitishwa
##wakilisha
##hami
karan
waajiri
donald
##yua
##chukulia
otieno
imara
mstaafu
taratibu
##vamia
msimamizi
kandarasi
runinga
aja
##dhuri
tunaweza
##mbatia
fasihi
##taya
kichwa
kufanyiwa
inaonyesha
wiper
njema
##kiuka
##gal
##atoka
kuruhusu
kumbukumbu
minajili
kufahamu
kiini
kha
liberia
askofu
wanakabiliwa
##roon
unaendelea
yatakayo
mawe
##kanusha
##tekeleza
charles
##atanga
fkf
##lipwa
##bara
kidato
##tani
kuvunja
##chia
ameeleza
moses
##gonga
mlo
akaunti
ninge
ubunifu
bayern
kale
minu
##jika
hawezi
ib
kujibu
kuzalisha
sakata
milenia
hand
mga
kukaa
##dy
##safiri
kutathmini
robert
kuondolewa
kukimbia
zikiwa
boda
##tawa
##kiliza
kubeba
kenne
##yima
##ploma
##yaga
aliambia
wakiongozwa
usoni
kuungana
##mvi
##faidi
kujifunza
kuthibitisha
almaarufu
##pinduzi
##df
##kte
##hai
##duliwa
##ory
##yun
made
ser
usambazaji
##mfanya
##ukwaji
kushika
##himili
##andikwa
tamaa
umbali
wapata
##geria
##pesi
hiv
walioa
zinaonyesha
kiufundi
mutua
##fikishwa
ukiukwaji
mitandaoni
har
wahalifu
##aminika
sia
mkufunzi
##sama
##fikisha
cameroon
upele
##boda
kihistoria
via
##port
viki
##lanzi
fer
maiti
urusi
kahawa
imetoa
mashine
mapambano
ever
##vuti
mtaani
miongo
akawa
kamwe
baharini
##moni
wanazo
##ukaji
kusambaa
##lonzo
##onesha
mratibu
##turi
##zuka
##unganisha
com
##zunguka
##jitahidi
miguna
fred
pengine
##kasi
dhuluma
##tekelezwa
kufadhili
##mbiji
niger
##piganaji
kukata
hay
alex
##tumu
kupanga
##vita
miguu
##usi
alifanya
bonde
##ft
##holanzi
mantiki
iti
##ron
data
kpl
hawawezi
##onea
mg
sho
##rans
##engele
bro
mshika
##ue
##anishi
moro
alifariki
rama
akitoa
##sheria
##ridhisha
debe
ipasa
##xi
wazima
kitaa
##lwa
##susi
kamau
akiwemo
flo
##ridhi
33
mrengo
punde
wataka
kuelewa
ivory
wafugaji
##use
##tenge
yamekuwa
uji
uongo
maishani
hadha
inahitaji
pointi
senegal
kuchagiza
##ker
hua
##book
##inikiza
##hadhari
kizazi
aliomba
hadithi
eldo
kisii
meneja
baridi
kukataa
ipasavyo
mapinduzi
##fiwa
voa
##oko
zambia
akiongea
ukiukaji
eldoret
ag
##kuliwa
wagombea
kanu
kujitokeza
wapatao
##kusan
##gizwa
msumbiji
##gopa
usajili
##elimisha
jeraha
uke
vyan
kujali
##weke
nidhamu
##pendekezwa
##leti
vyanzo
##riadha
kuelezea
vic
mijini
##giji
##shana
eacc
ngono
##visheni
wanapata
##shambuliwa
sekon
nyadhifa
sen
##mewa
##mira
##geuka
walipata
##rey
kukamilika
zangu
wapiganaji
kuzima
sau
##rekodi
kuua
haikuwa
mbolea
34
letu
ipo
uham
viti
miili
amewahi
kilikuwa
kwetu
hadharani
mchanga
kuheshimu
##tawala
kasa
##mbatana
sekondari
miamba
inatarajiwa
jela
nyinginezo
ghafla
lisi
##dp
##ando
kagwe
muse
##mlo
##tane
waislamu
sugu
kiarabu
mwema
##iti
##inho
##iambia
sh6
afcon
##vazi
mgumu
shtaka
kuadhimisha
kud
wanapaswa
kutibu
##tati
wanji
akis
kudai
mathalani
patrick
wama
kunywa
jengo
##lela
roma
uzoefu
kipi
kung
##rasa
##ilio
viwili
mchanganyiko
aeleza
mpenzi
husababisha
##mboni
##gora
wameanza
##elgiji
mataji
kimapenzi
mdo
upan
##habu
baringo
##ud
##zamiwa
unep
##yai
##lalamikia
##frika
kadri
hukumu
kuwawezesha
##thiri
##ywaji
yenyewe
wanamgambo
utapiamlo
mahusiano
42
face
ubakaji
##ikolojia
vijiji
##fuzu
##erra
vikao
##kumbana
##ungi
##shanga
akiba
mashahidi
##mbari
mit
tamko
uholanzi
##kabidhi
##gara
ilianza
obama
36
##karibia
mshikamano
vvu
##rabati
yemen
##indu
##hudhuri
dhati
##pha
kuwahi
macharia
madarakani
##eneza
utata
ngome
raundi
##bomo
kiserikali
canada
bayana
sokoni
##ibua
russia
opa
kabila
steph
ushirika
alii
mwake
nilipo
makanisa
kutokuwa
dhahabu
kupeleka
kiho
uliofanywa
uvuvi
waumini
##uzaji
##funi
##lian
##tarajia
anc
##mbulika
kimaisha
staka
##et
##mai
##laumu
kuunganisha
47
##inyi
madogo
muundo
reli
##mati
2000
##ondolewa
##isia
sh10
televisheni
ufunguzi
pu
war
wanasa
chao
chenye
dereva
##plomasia
everton
kwale
uhasama
kuangalia
##dhiri
mwanachama
##tishia
##orodhe
musta
hutumika
dhahiri
hatuwezi
malawi
mha
majeshi
##tor
zika
kikabila
##wajibi
vyenye
##the
rambi
ole
##kabiliana
isipokuwa
kibarua
kuzaliwa
alisisitiza
##firishwa
yanayoendelea
facebook
mzazi
tho
##kina
kiislamu
kuidh
maan
hamu
alitangaza
##puli
buru
##hiniwa
inawa
madereva
##tengwa
##jeni
yule
##scar
pre
kifungo
kutuma
##isheki
nami
ndivyo
mateso
##line
kuuawa
kujikinga
sumu
mgao
##chilia
##atasi
##ishiwa
sal
kwingineko
##tambuliwa
kariuki
handisheki
##kusu
jumbe
mamlakani
##sin
##cester
msanii
jezi
wadadisi
##anguka
ed
##ugua
##mbui
uliofanyika
##haribika
##gawanyiko
##furahia
##masi
##badhi
boko
##elele
inapaswa
intane
##stiki
sh7
magoha
wik
##llah
masaibu
##ler
kuhamasisha
nan
##umbe
mwenda
riziki
leicester
##ros
les
mashuhuri
maduka
##gezo
ureno
hal
##pards
wameji
majirani
mary
##tende
kuanga
wanafanya
##shughuli
shabaab
stakabadhi
##tovu
vip
kusalia
leopards
magoli
wikendi
pana
##gad
##somea
manne
kikanda
kuria
kingine
##ashiria
kukua
mvutano
kitaka
mwamba
kuhusika
kujisa
halafu
nzige
mda
omar
##gania
nakala
kusisitiza
mfanyabiashara
38
##okoa
##fuatia
##mbole
tani
##tumwa
##fanana
kuima
kutegemea
chifu
##rou
##atuzi
shahada
zikiwemo
jaribio
algeria
##unduki
ce
##iru
messi
unyanyasaji
kufanywa
##poke
papa
##kutanisha
mti
kirin
ndilo
mikononi
mashauriano
##rit
##lengwa
mizigo
kuamini
kufunguliwa
##rui
ungana
hawakuwa
tovuti
uigizaji
ini
nji
kumuua
halali
upelelezi
##ds
talanta
##mbiwa
##athimini
##ghai
ukumbi
mbuzi
bunduki
wen
##ire
##ony
wimbo
urahisi
tur
ubelgiji
##sikini
sara
simba
national
##zuiliwa
800
##richo
##vuka
martin
37
dia
##ralia
##ves
plastiki
msama
aliwataka
imeanza
##fungulia
kiafrika
##field
somo
urithi
##veni
washindi
##tosha
##muru
##haribiwa
##jumuishwa
kuathiri
haji
walinzi
##pakani
sil
anatarajiwa
kuanzishwa
dor
wam
walizo
ziko
##puka
kuinua
##engenezaji
wataalam
mfalme
kifu
umasikini
rati
##tich
muta
kusafirisha
ukurasa
##hisani
jangwa
kimani
##saidi
tahadhari
75
kato
stima
##ksi
##lei
samu
anawa
tathmini
##shifu
australia
##wn
kuchu
##enini
##paa
##vuno
ari
##muunga
hufanya
kuwapatia
chai
##wira
hela
ia
km
zanzi
##kuba
kcb
##tafu
haiwezi
kuhara
##chieng
imewa
##kwepa
##lishwa
##tolea
vipindi
kupima
mashairi
kupepe
mzawa
mavazi
##zio
walianza
motisha
##com
wah
tuka
sierra
anaamini
##angazi
itaendelea
kufikisha
asiye
vipya
sahara
##rekani
tunisia
##simama
kuangazia
viumbe
kumw
leone
##dhulu
museveni
zanzibar
fani
##jikita
kushuhudia
aba
tawi
house
2005
uhamisho
##kin
##kot
safu
salamu
##twaa
sdgs
kirinyaga
sport
madhu
##kuyu
##rus
##zuizi
burudani
ira
mauri
ugenini
em
kn
##wia
##haramia
samuel
uwazi
##ganda
unf
unaoendelea
matakwa
nzo
stadi
##katifu
mauzo
sina
kikati
##pigiwa
anafaa
utajiri
uchina
morocco
msamaha
gat
kuchochea
ulingo
ratiba
ibrahi
jane
mgu
wazo
##poli
##rota
##pang
##mpuni
gere
wakia
kifaa
##sara
kikatiba
##lazimisha
ahmed
migori
##lini
matangazo
##upe
##anu
##kimu
niaba
mikoba
abu
##diliwa
park
maraga
shambani
magaidi
##lalamishi
nyekundu
hususani
##sis
ugatuzi
kuvi
hatuna
##idhinishwa
maanani
wanacho
##ficha
kiholela
##len
yaka
##titu
liga
africa
mitaani
likizo
inalenga
nyanja
##rehekea
dua
##chele
##shwe
wahisani
matata
makampuni
mavuno
kalonzo
inamaanisha
##andarua
ndefu
##kisi
wavuni
kupanua
kupitishwa
spu
akaeleza
kujifungua
alla
kukidhi
mshauri
##heshimiwa
##leo
shujaa
peke
##andamanaji
ucho
mwanda
wakim
pole
kitamaduni
sh100
amo
ol
sote
##gola
kuwaji
jumba
msitu
demo
masikini
zinasema
##van
kufariki
kufanyia
##kumo
waititu
kondo
pen
##puuza
des
##rissa
pigo
utumwa
mana
wakubwa
##liko
tajiri
##takabali
wasimamizi
##onyeshwa
##dis
kujiandaa
makam
oko
##hel
##ratibiwa
kisukari
##cta
mabw
##rambi
sh8
hasira
ameji
tamaduni
ununuzi
ilivyokuwa
##imarika
yalio
##endeshaji
afu
vipande
##dhimishwa
##entina
uti
waandamanaji
vipaji
##atumika
mwenyezi
husaidia
hutumiwa
ilia
kitui
tulikuwa
##ress
karatasi
##hudhuriwa
ghali
wafanyikazi
leseni
bodaboda
41
##bon
bay
waliji
likiwa
kusonga
kidijitali
hen
kuwekwa
mayai
##giriki
intaneti
dc
##ad
aliamua
##angamana
nyoro
katoliki
mse
sampuli
oa
##cia
was
##fadhiliwa
##fungaji
alijiunga
uza
##shia
kupindu
imea
jeki
mwanga
##pangilio
hel
lango
##lazwa
enzi
kulipwa
mashambani
##jano
kivita
abdi
whi
kansa
bure
##kadiria
##mwe
kara
faini
uliopo
kitakacho
##mpi
##hisho
##tengeneza
kuwan
gerezani
wanaharakati
##doro
##kwamua
chumvi
ufahamu
visivyo
wacha
sura
ukaguzi
kaf
kupigania
mwanasoka
goli
kuche
##atar
trans
mabwa
##dhali
kunako
##atolewa
ele
langu
kuharibu
##kimbilia
##fara
chaguzi
petro
boti
##gemewa
ato
swali
##gen
serie
##takavyo
kuvalia
ow
sp
##tha
jipya
kuvutia
duka
##guru
vinara
kileleni
hazija
spurs
lingine
lika
kujiua
##changiwa
maazimio
wanatarajiwa
nafaka
arabia
##tayarishwa
nzoia
ford
194
amina
##dui
lig
piki
##oa
hutokea
##pewe
zilizopo
##zingati
msukumo
##bai
##mbulisho
##yunyi
kupindukia
akihutubia
wol
isa
mihada
bima
##chunguzwa
##pigania
kimya
arg
cheo
diwani
akia
##can
tunapo
utendaji
saudi
##anis
michache
kujihusisha
##angan
ufalme
mabomu
##shangaa
mihadarati
kurekebisha
anajivunia
##dharia
##stina
chep
kushuka
kamu
nikiwa
##dhila
wanatumia
##zunguko
##ssein
##mala
##bit
ndizo
kuachiliwa
aibu
nju
uh
##rimu
inatoa
##yango
mchujo
deni
gua
##mbinu
kuwafikia
sahel
##ston
villa
makueni
2002
ikawa
asilia
mustakabali
kana
zu
watumiaji
zinaendelea
kuzuka
kafyu
hisa
hussein
iliwa
2006
githu
kuratibu
kwangu
##atokea
suluhisho
equ
ilim
kusta
##buniwa
wawekezaji
##ishirikiana
itakapo
kra
wavuvi
kuepusha
##ctad
39
fidia
wachanga
kuzindua
##kosoa
wakidai
garissa
ajabu
##kara
nasi
##yarisha
##tiliwa
kcse
kame
##wer
fara
doria
babake
##bel
##humiwa
##milikiwa
linaweza
##kteria
rambirambi
##wazito
##met
##ingizwa
unctad
##shikiliwa
stephen
wapenzi
##kusanya
##endelezwa
women
kupelekwa
wajawazito
43
##gan
##andisi
israel
mtandaoni
maua
##sekana
amei
watalii
pikipiki
##rok
mosi
unavyo
kisiwa
##letico
600
bin
tsc
alikamatwa
tusi
##chika
alifunga
atletico
##kithiri
ametaka
ronal
##lli
##bs
##tang
wahanga
##kumiwa
vihiga
ametangaza
ujasiri
waafrika
kibaki
ronaldo
##gesha
angola
river
195
##lazimishwa
mikataba
##que
lang
##wasaidia
kimbari
##vuta
watahiniwa
##hitimisha
##simulia
##spe
niko
##rudisha
undp
48
kata
##hirishwa
##zizi
maafa
##shua
##tangulia
argentina
##liti
kuzua
##ungaji
all
##fsiri
uandishi
kuchezea
##huma
mamake
kaimu
##mir
##pum
machozi
jingine
watumwa
akifanya
##kanda
##mbunga
sigara
bungo
##iki
ulipo
anyi
##wisha
maria
kuchagua
muturi
white
umiliki
iraq
idhini
##tisi
kuf
##iari
haiba
urefu
kiha
ngugi
##kunde
mki
qatar
##duku
odhia
miundombinu
##kwisha
odhiambo
mgo
##dali
wanariadha
kutoweka
popote
kane
##pate
narok
zilizokuwa
##tm
mema
south
vinaweza
bungoma
##lif
kutakuwa
##ulizwa
##yanyua
busara
kuvuruga
mwito
fin
her
##ral
wimbi
msongamano
njoro
44
##win
siaya
ic
##chumba
kutembea
##ritrea
unfpa
kujiuzulu
mwandamizi
yakiwa
##ketaji
##zolea
##fuatwa
##rutu
##geuza
tus
wanaofanya
malindi
taswira
kabu
mahara
iwezekana
uwajibi
mabunge
tangatanga
##iso
##luthi
uliokuwa
kutua
nyanza
super
hatuta
tunata
kuimarika
55
##kuzwa
ameelezea
kris
##kan
##hatarisha
huji
##mwambia
##rican
kujeruhiwa
##julikani
kuvuna
##ridhika
dhi
kipindu
misimamo
mkwa
ngi
##elekezwa
nyavu
lee
##ridhia
uwajibikaji
##isani
bakteria
wanashikilia
kushuhudiwa
bla
nawa
##toroka
##fahamishwa
viatu
waliuawa
##endera
roho
kushtakiwa
##uzito
marga
nyon
ligini
hiari
##likwa
kuza
kuzuru
lisilo
nadharia
##atekelezwa
jumuishi
iwezekanavyo
ger
kulala
##letea
##seka
##rejeshwa
yakiwemo
##tika
laki
alizaliwa
inaonekana
jack
naiva
tunawa
mwananchi
##shtaki
nywele
akidai
tumekuwa
##idhinisha
wanaji
tuhuma
wamepata
wamepoteza
kinyang
ujauzito
##ema
alitumia
tawala
jomo
kukumbwa
mpakani
##bainisha
##miri
muga
##angazaji
ubalozi
kipindupindu
mmiliki
##via
##jisi
##way
maandishi
mila
eritrea
umbo
wafungwa
##int
mwanasheria
##chukue
##ates
okoth
tana
kuz
kuchang
kipya
##gar
##pur
budi
tanga
##tho
marupu
##sari
##salama
##mic
matano
wanaotaka
ikasema
##ishughuli
kusubiri
hupata
juli
afisini
kukiuka
turkana
##lendo
kufun
tumba
sija
anapaswa
##stan
toka
mfanyakazi
viazi
uuzaji
##ikh
##langu
##by
##shaji
kutunza
star
##shauriwa
kipimo
anao
cop
pilla
marupurupu
uwi
kericho
anacho
onyango
150
wauguzi
##paswi
kitaaluma
mashambulio
##hamasisha
akisisitiza
##buti
##pangiwa
##limali
utotoni
##gadishu
waj
##rifu
##tofautiana
##mie
kujieleza
yanaendelea
rose
wetang
kamisheni
obado
ukeketaji
ibrahim
afueni
pillay
ambo
kamba
rift
inayoendelea
polio
fupi
##hakikishe
makamish
kuajiri
##ids
anyiro
del
uana
##hubiri
##puuzi
guar
waina
afgh
##vuna
biden
upe
alikiri
##lango
embu
##lishi
##dayi
lab
sajili
medali
##yuta
kuteuliwa
kilele
nandi
##iro
##uzia
mogadishu
mgongo
##iaji
ametaja
mbona
##endea
bangi
2003
madhila
kipande
##mpyuta
protini
br
##nati
##atanishi
##shind
ruiru
wakisa
upanzi
dortm
52
walioathirika
iliyopo
mwanaharakati
dortmund
##acha
kuvun
naomba
##laba
kupigia
richa
##fanyike
busia
lori
ochieng
##letwa
##tion
miwa
akizungumzia
mwanaume
##epusha
kujaza
lis
sekunde
##pambana
nguzo
burkina
kuvuka
kipaji
kasarani
wainaina
nel
kukiwa
kufurah
##ranya
chembe
##mari
##sukuma
klo
kug
##vyote
zima
hesabu
fujo
wema
onyo
##anistan
gishu
ugumu
uvamizi
##cent
##sifu
hutoa
walifanya
unalenga
mexi
alimweleza
##chochewa
madarasa
berna
##tengewa
oparanya
mmea
kujumuisha
benja
uasin
kuzungumzia
majeruhi
anam
wakitumia
kuugua
mwanadamu
kiusalama
israeli
##shangaza
juba
wametoa
waliom
ndizi
##beth
alin
alitaka
kuwahudumia
##orodheshwa
kajia
lawa
##shtu
##kistan
kigumu
aliamuru
kunaweza
upendo
johnson
kuelimisha
waliko
kunawa
##shutumu
joshua
gide
kajiado
sabuni
kutokuwepo
inafanya
fal
surua
##teza
nyayo
##simamiwa
##sikitisha
margaret
##zingi
kuiba
silva
atu
##wazisha
kompyuta
kusikia
mabanda
kuzorota
githurai
mexico
54
dan
##msha
##hamia
makaa
kufanikiwa
##sambaa
viwanja
bendera
##dra
##haba
kushe
yesu
##aland
kcpe
afghanistan
kingi
vidogo
##hoo
walemavu
kumuunga
mandera
##languzi
kumalizika
##athe
##raa
##safirisha
##roro
kujipatia
waiguru
wapate
unaids
unatarajiwa
tumbaku
bangu
zawadi
hots
##pigaji
##rson
ugavi
##kiza
kupand
##zuili
faso
itikadi
fre
mbwa
mzunguko
##tis
##wawa
zama
alfa
##fikiri
makamishna
muongozo
udha
##fred
##masha
hama
##mil
unata
uwiano
mishi
tendo
tafiti
##anzia
##kubaliwa
naivasha
gideon
58
65
kaya
##rembo
watafiti
fikra
1990
ugavana
##hangaisha
internati
labda
mpangilio
##pendelea
##20
##rir
alikutana
chuma
dijitali
mwanamuziki
##dorora
ac
eli
est
kuenda
##safa
radhi
medi
caf
##feli
##dhui
aca
kulia
##kura
##tazama
mour
shin
sh50
linalohusika
nin
##kashifu
##riba
laiki
alifichua
kusomea
benjamin
inataka
uchafuzi
kite
##jihami
imem
kupigana
aliyem
heri
utengenezaji
nimekuwa
gozi
misimu
hotspur
upigaji
##mkia
##wari
kio
alishtakiwa
umewa
swala
##unt
waliote
anaendelea
kiso
##diola
vyumba
mourinho
##yot
##raka
##sitisha
##unguu
anne
kutawa
laikipia
phili
##egemea
##sua
##waya
mienendo
##ule
##zitaka
huwezi
##wiri
mutuku
mteja
kupumua
cent
sto
mifano
watumishi
maabara
makabila
##sanyiko
mitambo
valley
guardiola
international
##rm
hutegemea
anth
ikiwamo
##usuru
mabilioni
##jenge
imeongezeka
sheikh
##dhibitiwa
hauja
uhifadhi
zinazowa
mwenyeji
rotich
##fikiria
##kwet
kifahari
##zingira
##sto
##diwa
harusi
zilizotolewa
haram
kisayansi
maovu
fifa
kang
##lat
##lewe
kimati
tosha
##rejelewa
makombora
europa
uelewa
##tere
majibu
ukuzaji
muni
tri
desturi
##bakia
##chapisha
msami
minusca
thomas
##olo
unge
mathare
##matika
700
edwa
kand
kushikilia
madaga
##muni
kuridhisha
##eleke
sh9
##tumiaji
hedhi
2004
inakuwa
imetayarishwa
marakwet
##sambazwa
##bishi
##ssa
##ingili
litaka
mkasa
maudhui
##bal
##kie
##dhibu
majumbani
mtaji
old
wamem
kujitoa
##rilioni
uda
##uno
mwathi
zinapaswa
koo
rushwa
kufufua
milimani
ii
kueneza
kibali
mizizi
##usura
hatuja
pin
alitaja
wanane
dozi
kimaendeleo
ndiposa
wolves
49
##nis
kujituma
jumwa
kero
mabasi
manusura
##veta
uraia
##khbali
##tawazwa
##zoea
mso
##ura
amelaani
##fikiana
haziku
##muziki
##teta
chungu
upatu
camp
59
##ir
##furahi
saka
sayari
tumbo
imetangaza
wakifanya
kumsaidia
anthony
cla
upi
##teni
aliongoza
african
##ville
riwaya
uzani
mahiga
##yakua
##toshi
##rere
limi
sikukuu
kuambukiza
itu
kumiliki
kupotea
nicho
kupende
##peli
##yimwa
ukuta
##puuzilia
46
wy
##mau
##vuruga
mwenendo
##vic
tunayo
makadi
kukumbu
mbiu
richard
##rdo
kuzaa
alilo
##gusia
muu
ndicho
kusafisha
##duara
vyovyote
##mond
##tafutia
lawama
mgawanyiko
kuzidi
##eleka
simon
ulianza
wanaotumia
##anganya
vipengele
duale
madagascar
range
##wakutanisha
##rii
##sai
##ruba
musalia
sivyo
##atumiwa
akiji
cheti
sarafu
glo
orengo
##mbaa
kaba
kash
unaonyesha
kukumbatia
##romoka
julius
limited
mduara
kuundwa
##kiria
##zake
##mbazi
mikubwa
kutaja
msalaba
mwigizaji
swa
##takia
marais
##erre
##songa
##itwayo
mustakhbali
huweza
alikataa
chafu
sambu
akitaka
bomet
home
##hamini
zilizopigwa
##onyesho
##yonyesha
kustaafu
##hadharisha
karanja
makadirio
que
uchi
##iwa
##limisha
##kane
##huo
ameonya
taveta
anafanya
mwakani
manjano
kiasili
kiakili
vitamini
maonyesho
##miana
##liance
wanasayansi
nyongeza
bru
kon
kuhe
##timua
##wano
matendo
##puo
##atekeleza
kuhamia
viwandani
meno
mak
##mashauri
##zamia
##vaa
alliance
huruma
visiwa
grace
njoroge
nelson
atakapo
wanaote
inazidi
anti
kutembelea
amis
andre
halmashauri
mgomo
mj
##zangu
##goma
##burg
kupatiwa
umeanza
gir
win
##tali
raha
lilipo
zilizoko
ted
walipokuwa
##fford
ikisema
##shirikishwa
madhubuti
itatu
mlalamishi
##geu
##mbile
##nes
sout
kutiwa
wasomi
kijijini
57
bre
uro
washika
kuisaidia
mach
umesema
tok
safaricom
##zimu
siwezi
kampa
kapuni
philip
##liga
zinahitajika
mazoea
victor
krismasi
##ahidi
##unuliwa
##pub
ababa
tunge
##teka
koro
majira
dhaifu
angani
eliza
kuripoti
##gusa
wanako
tuk
##dhibiwa
wanaohitaji
yaliyokuwa
hauku
##luhisha
kifupi
##pton
pakistan
kupona
may
kirefu
huitwa
##mbeni
inawezekana
shuk
##nut
bunde
mlango
kozi
##pilia
abda
mkoani
51
wafa
kujia
##zikwa
##fuatiwa
tamasha
inadaiwa
wakristo
##hifadhiwa
addis
milango
ubunge
kurejelea
nauli
mado
##tupa
joe
##chukuliwe
##ktroni
kusimama
east
kusikitisha
klopp
elizabeth
alionekana
##ruhusi
nyandarua
##ongesha
mwaniaji
mutahi
56
uung
kushawishi
nafsi
kimbunga
##mer
musa
wanaoji
yanayowa
nyasi
cherui
##mbulisha
##kumbukwa
munich
##heni
waanda
yam
##pimwa
wameuawa
jimboni
limetoa
wanjiru
nicholas
cheruiyot
kub
vizuizi
wanaamini
##ruru
mbuga
munya
green
trilioni
akihojiwa
kuifanya
kusikiliza
##sanyaji
kuvaana
democ
##pon
##kali
kitovu
hitaji
##fike
wamewa
wataendelea
kutisha
misuli
malkia
kuidhinisha
henry
iitwayo
knut
##risho
##fya
##rian
kifungu
mkuru
feki
tegeme
##kariri
kisaikolojia
zitakuwa
##ght
asali
bundes
##teng
kukwepa
vizazi
##ger
juzi
nys
utambuzi
##soro
##konya
vyeti
litakuwa
kuzuiliwa
amewataka
##isubiri
qa
kushambulia
kwasa
liko
mwanahabari
benchi
mwendazake
watakapo
majini
##wekeza
vigezo
kukagua
##boli
lililokuwa
##gunduliwa
kukosekana
wasafiri
kenneth
machungu
##kumbatia
##jiliwa
##yasema
##pona
ilipata
##bibu
sugar
vitengo
abdul
gatundu
##rto
##jisa
##hampton
uchao
urafiki
tasnia
##tsa
wataji
##jamii
##mit
##dole
jadi
wakitaka
kujiendeleza
##mondi
##mark
mseto
mpinzani
sco
##cp
##yahudi
walipoteza
walikamatwa
kujiondoa
nyuzi
mkononi
sh200
minane
kusikizwa
mgombeaji
mwathiriwa
tr
makon
##kota
##mbura
itawa
##shauriana
##msingi
##dc
kugundua
nalo
nataka
unapaswa
zinapo
ukarabati
imf
kimatibabu
wor
##yoo
kal
aliteuliwa
##pori
##geyo
##shea
majuma
mtaala
wapigakura
litakalo
amisom
kimi
walidai
taj
##ner
##kwamisha
boma
kukari
watapata
aliwaambia
kuchaguliwa
spe
##umia
##kuli
##hariri
##dhia
mifuko
rangers
kashfa
##vel
##soaji
kuwasiliana
waigizaji
##enti
##safirishwa
##funa
walicho
amezungumza
pokot
mwanya
##bini
kibi
##pole
you
ubabe
mapafu
dennis
mandela
men
mshi
omondi
maono
walitumia
kukabiliwa
dhamira
atwo
samburu
##mehe
##tic
##sus
##net
colo
ukusanyaji
elgeyo
##lingi
kubuniwa
tokyo
atwoli
mc
kuandikisha
amepata
itasaidia
mtume
kuruka
hazita
vibarua
##rence
bundesliga
uanga
malazi
##fahamisha
wamefariki
##kilishwa
murko
##sambaza
alfajiri
##lali
##gui
ilitangaza
##reji
amefanya
youth
kuchelewa
##ws
kuchi
mito
ilitoa
jsc
##sibu
##siria
##enyeji
waliohudhuria
joy
gereza
mwilu
##fs
zako
##wekea
##pokezwa
##eleweka
inakadiriwa
##bwaga
anatu
##mlaumu
##kubalika
vugu
petroli
##dd
##jadiliwa
##fakari
taha
moshi
kutunga
##fanikisha
kisasi
sh20
##rks
##pepeta
murkomen
use
##mulika
power
ikiendelea
pierre
yatakuwa
cy
malezi
##tamani
##ras
##jumuika
uf
vy
##ps
kuandaliwa
kibwa
##jiweza
saint
kuagiza
ngoma
oksi
##rudia
ulivyo
kupatia
kufichu
kuchelewe
hindi
kugawa
kuingiza
inspe
nguvuni
ualimu
trafford
tusker
uungwaji
##ket
baya
wanadai
##pima
##dufu
kupimwa
col
kusahau
kutenda
kutangazwa
##bea
ofisini
##anganyi
gla
##staafu
watoa
malo
##toweka
kutoroka
##endana
##atuliwa
imeeleza
##lazimu
mtaalam
ningependa
##kusanyika
##tawan
alini
##shir
bomu
kisicho
kirafiki
##ishughulisha
utatu
##weni
zabuni
##timiza
##guo
##guza
##jue
chanya
##hisisha
watanzania
tajriba
ubia
##une
alithibitisha
hauta
jopokazi
southampton
##sma
##jing
kufundisha
##zimia
##hukumiwa
babu
muongo
kibra
vyoo
wangali
kibera
kugombea
##had
##semwa
wanastahili
tuwe
##vugu
shilingi
ukulima
theluthi
wanadamu
inakabiliwa
##mbozi
##soi
kich
pala
media
njeri
##rty
##manu
frank
##gawanya
aweze
iweze
pato
inasemekana
##mboleza
girls
53
alitu
##tembea
salim
huohuo
inayowa
uchafu
##bangi
##fuatayo
sh500
karantini
ati
ako
taita
waliopoteza
pembeni
##kitiko
66
72
##achwa
##lilia
kikwazo
vipa
inasikitisha
boys
tunapaswa
inayoweza
##minika
mkurupuko
nda
##tambulika
zit
maradufu
##mokrasi
nuru
mguu
##siriamali
kuke
mabe
##yaku
hum
uliyo
##luo
meja
weka
##ffrey
bis
##ech
##jan
mahiri
##ril
kienyeji
##laka
kavu
wakiendelea
kujitenga
193
bandia
utha
##tatiza
##pumzi
tegemeo
scho
wezi
kiele
utaifa
zinazoweza
caro
##fereji
##banduliwa
allah
amos
mawi
##toe
virutu
##mboa
##ishiki
injini
isiolo
##atiliaji
kupuuza
mdomo
uthabiti
64
eric
##zuni
kiangazi
##chelewa
##choge
rio
magazeti
state
denmark
irungu
kuwataka
unasema
kutazama
kario
msafara
ney
miundomsingi
##atiti
##lade
##suko
kulipia
##chochezi
upepo
##manuel
bel
kat
yenu
##bikwa
baadae
daima
sharks
hebu
1994
##dhihirika
##anganyifu
ugiriki
kibo
nile
##anifu
kujitegemea
posta
sofa
matawi
kuruhusiwa
kibao
inspekta
agha
bia
lini
##yz
kaburi
##tio
jasho
cor
pep
kimwili
##haraka
luka
kino
##thy
ukoloni
machache
mwekundu
news
ufundi
vitatu
wanamuziki
kuteua
kusuluhisha
kuhatarisha
austria
kariobangi
mae
##sahau
chaguo
walin
andayi
kumudu
##tte
tukiwa
tutakuwa
kufurahia
neymar
##pani
##tahidi
##tozwa
kufikiria
##ratic
kujin
maelewano
presha
mche
##bikia
kilio
##nganisha
ardhini
kufaulu
##uwawa
68
##zatiti
nadhani
##didi
kawi
yanapo
mahala
kuagana
mark
unyanyapaa
namibia
manaibu
oksijeni
kham
##saha
##guna
kuwafu
##gio
ameanza
seti
poland
kutinga
tija
wakurugenzi
wasiozidi
##ratisha
maharagwe
bangui
mediter
haba
alihudumu
unahitaji
wanaowa
tunacho
timo
msako
mbovu
kidemokrasi
brian
kampala
##kha
##gba
juja
##eleweke
##unulia
kondoo
##yunyizia
acade
kwasababu
ire
ogo
maru
##yoyo
tara
utashi
alfred
chebu
vuguvugu
mhusika
kumua
nacho
##ruka
##rudumu
iliyowasilishwa
##kilizwa
mkazo
vilikuwa
##tokanayo
wajir
palace
mawimbi
ve
tabaka
iliyowekwa
baraka
tulipo
wanyamapori
ijapokuwa
edward
##nga
walifariki
##simamisha
kamusi
shukrani
cong
##tal
alishinda
likoni
waliohusika
haiti
starehe
pasipo
martha
bwawa
eme
mapo
##main
mija
anako
shimo
kusajiliwa
kufikishwa
##stin
yaliyopita
chetu
assu
amewaambia
milipuko
##ira
##sk
wawania
##atakiwa
##tele
kusongesha
kanisani
2001
##mpta
tuliyo
jarida
democratic
wawaniaji
##ac
##ben
##unisha
akam
##randi
kujitosa
##liffe
odu
wenu
##keli
huchukua
##silisha
utabiri
tunao
wilson
mshirika
aliandika
##furushwa
tam
zipo
##stle
##monia
milima
aya
##tania
mauti
mumia
injili
hayaku
kadiri
wenzangu
homebo
dji
fm
iwa
tre
##ambukizwa
##tenda
kuongezwa
##himizwa
##far
mwai
sijui
zilipo
kumn
zilizoendelea
alimtaka
kuchapisha
nyaraka
senti
kuangamiza
aghalabu
blo
pris
##pua
##kaidi
laini
##chari
##ishin
akieleza
##angulizi
kuafikia
##zuizini
kushirikisha
haifa
anazo
imetolewa
sols
zinazohitajika
##wajibika
uongozini
##elelezo
##dhulumiwa
kusherehekea
bang
cro
og
one
kik
##katiza
kinaweza
magunia
wasomaji
##zuiliwe
shindano
academy
chebukati
or
##ny
##pta
kuharibika
##jaer
aliendelea
alimwa
##tekwa
##chai
anakabiliwa
merc
korir
tunavyo
kutambuliwa
kusitishwa
usingi
##ridge
wyc
63
tunda
##baya
##kur
tom
wazito
net
##sheheni
kipchoge
congress
cat
##mkabili
##ui
##tunza
wafadhili
kulenga
kushambuliwa
##kufu
party
ann
shef
msisi
##sheli
##laumiwa
udhaifu
nanga
om
##shinikiza
akitumia
ulioko
hauna
ngano
aliahidi
masaa
kugharamia
hongo
kong
kelele
ukra
##tuni
waza
kumaanisha
##rice
##jifunza
##raba
analenga
uliotolewa
chupa
kubadilika
norway
minusma
##liniki
kufichua
mijadala
stu
nam
##islam
##sitishwa
##furika
kufuta
ukiendelea
pilipili
##simamishwa
kukoma
warsha
assumpta
##ifanya
##hilo
hayana
##yeyu
##moa
rasi
para
dogo
tulio
ubinadamu
##ghton
##changanuzi
uamini
kirusi
##futwa
##chiliwe
inaeleza
anadokeza
inat
berlin
emmanuel
queens
world
kibwana
utakapo
walitoa
##chagiza
##zer
imeweka
mwendesha
kujikwamua
wakfu
kubadilishana
utovu
jedwalini
zealand
mitindo
mishipa
67
mvamizi
sg
uwa
kuhitimu
mikoa
kamari
kusawazisha
kutenga
bank
mbao
dubai
##thu
##maza
kiun
##lets
##kosea
inaongoza
akisa
kipengele
mlinzi
masikitiko
ukraine
uaminifu
jeni
omari
##gne
##lio
jac
jor
##lindwa
sheffield
62
ci
##kjaer
huanza
hupatikana
anafafanua
kuhusishwa
unawa
sogora
angali
##tumie
arusha
##katwa
##gali
aliuawa
vipo
##rez
##andama
uliokithiri
machifu
uvumi
##hangaika
sindano
mhadhiri
emba
oli
tv
##ogo
##shamiri
##idiwa
matajiri
nation
kutawazwa
mfungaji
##twi
##yani
huzuni
##tekele
wanaki
##shid
feli
ufuatiliaji
kuharakisha
##zingatie
homeboyz
solskjaer
ishi
tb
tata
van
wambua
##hirisha
waliofariki
bor
yanayoweza
kusukuma
djibo
69
hun
thu
##bin
waanga
huchangia
kumpiga
kutengwa
masogora
simulizi
##mun
##bri
aliingia
wamelazimika
##konywa
chuoni
jong
uw
kuangu
##chelewe
viko
chap
imeongeza
eno
ant
kushughuli
hauwezi
germain
##td
##sen
##enzo
kikatili
##tibu
##mbwi
##fanuzi
##mbukia
kona
anatumia
nyuki
##andikia
mabwawa
elia
kliniki
mle
##sson
kudorora
michango
wanatoka
far
kutwa
black
taharuki
sofapaka
wycliffe
oga
##miko
##rial
kombora
kuuzwa
msongo
mbadi
misu
kusimamisha
shabaha
kushangaza
##shirikishi
kdf
naamini
nadra
mam
##dau
kuwakilisha
homoni
##chunguzi
kuvuta
murathe
##wood
muthama
owino
school
##kewa
huja
##fau
##fadhali
##chungaji
##dou
anaji
wakiji
##castle
majukwaa
##mbao
ameiambia
##chezewa
##dilifu
road
##iba
##dishia
wapa
##raza
##kosuko
vinywaji
##shindana
embakasi
ex
##mwezesha
##dro
##yanga
##kumwa
##dada
high
##choka
paka
wigo
utawa
kuno
kuajiriwa
inayoongozwa
newcastle
wauzaji
njiani
beni
zinavyo
kulipi
wanaohusika
susan
msajili
kandanda
moni
##mina
kuwaweka
wanunuzi
##ters
uvumbuzi
walioambukizwa
##ulo
##zilishi
##juri
anatoa
inatokana
##ces
##kilizi
##stawi
kutupa
tetesi
61
##msa
##din
##mal
kie
kiran
ladha
##rufi
##gei
##choro
##pesa
kusakata
jibu
mlinda
ouko
malori
mchele
##pokeza
##dor
uhali
ramadhani
starlets
hamasa
tharaka
uvi
kuwafanya
walilazimika
##chiwa
##dera
kujikimu
tunajua
alipokea
zeid
##kusanywa
grou
##ambatana
wawa
anaanza
anahitaji
massoi
kuachana
##dane
##ridhishwa
malalamiko
uswidi
##ufaisha
kennedy
sports
panda
mapumzi
kimaa
kikos
hap
mer
hatma
neema
kilichokuwa
makocha
bernard
hong
th
##hma
##ste
##lem
##rem
uliwa
hakik
itaanza
kutangamana
ukambani
250
polepole
85
ast
genge
uwakilishi
##mtaka
kusho
kuwapiga
waliamua
##ongoji
jaco
imepiga
msasa
goma
mrithi
##gano
##baha
walitaka
tafsiri
##pachika
##shuku
tunaomba
beijing
kurudisha
##kabidhiwa
olunga
77
mhudumu
tathimini
wal
##gelea
anaelezea
augu
aden
maigizo
mkimbizi
andrew
kikosini
ani
##vua
kuy
ziwe
##wang
fahari
kutati
##unganishwa
##car
dimbani
kuziba
brighton
falsafa
kushoto
bina
##itisha
##sana
kiro
##dad
kuwaua
mipya
said
haliku
kumtaka
maeneobunge
chege
hayaja
ushairi
vincent
mashimo
##ktroniki
group
blu
##umiza
kudhihirisha
halai
amepongeza
##fik
anaongeza
utumishi
salah
udanganyifu
kuidhinishwa
ghu
##msaidia
##cro
##meta
##vutiwa
waliowa
utaendelea
mfugaji
beat
mtakatifu
kamishina
##kusudia
##shughulikiwa
mumias
71
fun
fata
utaka
##iga
alionya
vikubwa
imefanya
dou
##funika
##tai
kuapishwa
jean
hakukuwa
kutibiwa
1998
geoffrey
diamond
tedros
wine
amekaribisha
walioji
kunufaika
mabaki
nguru
##ratika
kilichoko
kidiplomasia
##lka
kizuizini
sawia
##wanga
feri
nyakundi
ufafanuzi
kufaidi
nasaha
wanjiku
usemi
kichwani
halaiki
ath
##bana
##chesa
wanan
pogba
shwari
kevin
mwanzilishi
mifupa
vinginevyo
sh30
mtetezi
##ishikilia
ireland
sgr
ltd
##diplomasia
##cheo
rai
kukabidhi
doha
hakikisho
mafua
##meko
##tie
##samu
alimu
##zoa
riba
bustani
were
stan
milli
oduor
jacob
73
74
uene
##atanisha
##sikiliza
##kezo
##chichi
pamba
halija
ind
msururu
kuvamia
##peperusha
##dhulumu
lissu
ivo
omo
prin
##ppe
walo
mile
inatu
sham
kuahidi
##ith
mvulana
victoria
usingizi
gon
khan
##agizwa
##ed
##anduku
kieleweke
##sabiwa
alipatikana
boru
kumfanya
mabalozi
manane
##ktadha
niliyo
ndovu
kutilia
120
kuwajibika
uropa
colombia
mercy
oly
##ek
malu
##yong
hiti
vigogo
sarah
anadai
yaliyotolewa
kiutu
neva
mashujaa
mnyama
uovu
##malaki
washikadau
djibouti
ec
udi
ver
kuhamisha
##sikika
aliweka
aliibuka
##angaziwa
mwendwa
wanatu
togo
kutamatika
##dhan
vitunguu
##hutubu
nms
##tunga
##yne
yat
mazito
##lemewa
unafaa
unahitajika
##milishwa
arteta
joyce
ogoti
acha
evan
zinge
##ble
kuripotiwa
##tumikia
chafuzi
ilianzishwa
##pino
##badilishwa
vyeo
aliagiza
itatoa
kuzoa
##faidika
fern
##tendeka
tunatarajia
##jengea
##tangamana
##keni
kuelekeza
##dam
##hehe
tumaini
haij
##usurika
1992
aliyokuwa
darasani
dk
ifa
oi
##tland
##nasa
kimo
##yago
law
bashir
walifika
sifuna
zinaa
unataka
jicho
kuashiria
mengineyo
isla
kuvaa
mchanganuzi
isaac
wafalme
kiunjuri
ict
nzito
sang
##doni
utasaidia
kutawala
gita
utumiaji
##kimbi
kiju
kigezo
vib
iliyoandaliwa
kujivunia
##gawanyika
##bre
kuhimiza
##kar
kuwalipa
##eleze
mipi
mirengo
##zetu
kuipa
magereza
kujisafi
haifai
twa
tan
##isti
##ishinda
rashid
inapatikana
kujiepusha
mahsusi
yupo
wasomali
kiteknolojia
scotland
##onzi
wanat
kufikiwa
chumbani
upeo
upanga
gil
##jitosa
fomu
mkojo
wafula
##gharimia
wamarekani
centre
treni
jordan
pua
##zen
wapele
##inji
##dies
harufu
hima
vichwa
juisi
##dhaiko
##solewa
##onesia
ujumu
anayehusika
mabinti
figo
1997
kupokezwa
##kima
kiwe
kielelezo
imesababisha
##dema
mwengine
copa
kiranja
##sini
waendelee
##mulia
##jaza
##chapa
##choki
como
produ
njenga
##hala
haj
##wahimiza
kinyama
global
ishirini
oke
##yei
alikanusha
kuwazuia
##sheleza
mor
unene
umati
##stine
kushinikiza
iaea
bili
wafanye
##rida
##tibiwa
##faisha
walionekana
##shiwa
bibi
zitatu
unafanyika
maski
vimekuwa
asidi
mteule
trafiki
abdulla
edwin
virutubisho
kinoti
citi
emir
myan
ph
kurekodi
marudi
kaga
wanawe
sevi
inaa
##isima
christo
##julisha
sufu
karen
kuthibitishwa
ndung
##zingiti
ivoire
marudiano
##uguza
kuhisi
##toza
champi
amefariki
wameamua
##cheze
##ungani
inayohusika
##ondolea
##athibi
mkaguzi
##lls
jackson
echesa
ikia
ky
ori
##ipa
kuanguka
mahe
kibu
tumboni
imefikia
kusisi
ruman
zimeanza
##vunji
indonesia
myanmar
##dunga
wazungu
##lipia
kuzinduliwa
kikiwa
##eledi
sidi
zidane
wakiishi
kunusuru
reu
notisi
palestina
aliwahimiza
kabambe
gun
##iomba
##rer
mona
mola
uchambuzi
cuba
##sikitishwa
kuaminika
kamera
islamic
76
ataji
nishani
##rishi
kuandamana
##babishi
kasisi
kuwakamata
wanajamii
##liambia
##chel
kutishia
ramadhan
han
hange
sun
waweza
kumbe
nio
vitanda
wanajivunia
zilizoathirika
kitakuwa
kutimuliwa
##tanguliza
hayati
84
uendeshaji
##tto
##halo
##keze
viini
tasa
ramani
rally
kulima
somali
kuambulia
mh
mgeni
##zinga
##ota
aliwasilisha
##shasa
bib
makaburi
hajawahi
kimekuwa
nyeupe
watendaji
kusudi
##grafia
##peperushwa
##ar
##goni
##23
hamna
wanajiandaa
kupikia
kukimbilia
##vunjika
##ller
utakaofanyika
##herine
uchimbaji
banglade
borussia
ly
##liboli
##tahadharisha
##zidisha
alichukua
##kose
##uai
sikuwa
##demo
waliopata
waliouawa
meza
kupika
nilianza
ulazima
mikali
kuwasilishwa
##bishia
##ywe
##jaji
sir
nyenzo
kimarekani
ulevi
nyeti
kifaransa
##masisho
can
##ppo
kuliwa
alifafanua
amekutana
##chocheo
imebainika
kupelekea
##sou
ruhu
##ongezewa
kibego
kukumbuka
uhalisia
cris
ilani
ong
ufaa
##ah
##gat
##unzaji
##mbai
alichaguliwa
vija
migawanyiko
barack
##erry
kuitisha
marefu
msambao
lucy
ukombozi
magenge
mtambo
##guay
apate
1980
esther
##hehebu
sungu
uchochezi
##oza
##fer
kasoro
##chezwa
dai
bot
luteni
kinshasa
##llary
wamalwa
rumande
wha
##ibwa
kushauriana
##siriwa
##weri
kulisha
ujasusi
umakini
##yonge
##saidie
leeds
##jar
##chani
ametuma
tuju
##ingizio
lilisema
kiapo
##vement
nou
##dhaniwa
hayata
##dhalilisha
emirates
fund
ifuatayo
ulanguzi
##ensi
hadhara
hutolewa
bais
muham
justin
##des
mezani
yalivyo
zilizosalia
utumizi
watford
1999
kuibua
takataka
gredi
jan
kro
pri
pata
penzi
sc
washambuliaji
##mudu
kuwapeleka
kuimba
shairi
kutekwa
isimu
aliaga
ouma
christ
ngilu
kupendekeza
biblia
swe
##rya
##tishe
kurejeshwa
yawe
##encia
kihara
kuwarejesha
##geuzwa
imeonyesha
watawa
191
kunyesha
mwishowe
burn
##ssir
mashiko
ingekuwa
christi
baiskeli
eco
##randa
##hiki
##kozi
zinahitaji
##milivu
kujitetea
kumrithi
zilizowekwa
mkongwe
leban
majumba
##punguzwa
wasiojiweza
faragha
zuri
muh
mahasimu
tunaamini
linaendelea
red
##wezeshaji
##menti
junior
nyerere
wagombeaji
78
95
vol
##jeo
##sita
##sau
bale
muktadha
##bira
##chukuwa
wanate
kumsajili
ukarimu
yamesababisha
kilometa
ukwepaji
majambazi
evans
ifad
khali
##ist
##zalishwa
kizuri
kay
alifika
##tube
vio
ambamo
mukuru
##chilie
##pavu
simi
##isihi
matungu
kunasa
watafanya
yaliyotokea
kujengwa
##dharau
mburu
catherine
ruhusa
bridge
cc
cer
##lestina
##teke
##angamiza
imepungua
ingali
barafu
umesababisha
kutesa
ughai
##fanywe
kusikitishwa
##jarric
ughaibuni
00
mla
oscar
##vina
wambui
wayahudi
hafi
vipu
amezungumzia
muth
##ingali
##hamishiwa
mwandani
##rejee
##ration
##lands
ameahidi
ujio
##bahatika
beatrice
pinga
hillary
alipewa
nithi
##katika
imepata
ataendelea
weusi
ulaji
utunzi
kuolewa
dujarric
##hututi
valencia
er
jon
wati
wachi
kuongea
##rifiwa
##kezi
##atajwa
##sela
inajumuisha
auba
walioathiriwa
##cas
lililoko
sh15
masafa
wameambukizwa
etihad
mauritania
timothy
felix
mapumziko
bangladesh
##dhuru
##jwang
kuzingatiwa
masu
mahututi
kijani
##zuilia
kunyanyua
yanayohusu
yoweri
aliyoi
mashirikisho
##andoa
youtube
nguruwe
lebanon
futi
##gle
wapewe
kij
kikazi
kikwe
##mbwe
wanami
tumea
movement
hatamu
##pandwa
##vamiwa
air
giza
haziwezi
##kteta
##pokelewa
monica
clu
manda
uru
##krat
yatokanayo
##haka
mapi
##ishaji
inasaidia
kuhusisha
zim
hawajui
umefika
##yumba
hakuta
lusaka
##bandu
##geukia
kunogesha
kulipiza
aubame
os
kipo
alianzisha
kuwatia
##busu
anapata
##vuru
##angili
kupunguzwa
bendi
wakawa
upimaji
plo
kufungia
##enna
alice
##fuati
##nie
wameathirika
utaa
ndiko
kusafirishwa
##ongwa
ukomo
amenu
kufafanua
alasiri
99
##mpata
anasisitiza
##dhibi
maadui
hawafai
##ondoke
kutele
##swana
##stal
noti
##ordin
##ssion
##batilisha
##fautisha
mkia
##lingana
kwako
##diria
kuwaondoa
bachele
ilionyesha
waliingia
##ingoni
wamekimbia
##chuuzi
waliopo
uno
yalipo
leba
cal
kuondokana
tamthi
vibanda
abdullahi
aubameyang
82
ataa
op
najua
karani
##tembe
mwaliko
iliyofanyika
kujizuia
kinywa
flora
##tta
##tti
wachanganuzi
alilazimika
##gie
##del
utafanyika
wataweza
town
matusi
yaliyoko
yaliyofanyika
arap
finyu
mshikilizi
zana
##jishughulisha
kuhojiwa
alipigwa
zinafaa
iliyochapishwa
bobi
yalianza
192
kuamuliwa
##wezekani
##bet
##cal
mawakala
##refusha
kipchumba
kubadilishwa
vidonda
voliboli
asha
dna
nhi
alielezea
nick
##fute
talaka
anaishi
##chembe
##nec
subira
yanayohusiana
upana
wakosoaji
raslimali
ustadi
##kisiwa
kushughulikiwa
bachelet
aw
##tisho
##pingwa
##tii
huathiri
husababishwa
tuu
akitaja
##ishika
yaliyomo
ukaa
##wasilishe
sh11
citizen
kagame
athi
bongo
shari
##imba
##raz
walishtakiwa
tuweze
##choma
wamefanya
msituni
yaliyoathirika
refa
young
die
kukubaliana
mashitaka
usukani
mkwaju
##agiza
##rity
##atimiza
##faru
##elewana
inaaminika
mkusanyiko
##sudi
ligue
met
##som
tunaona
kinye
cairo
ziarani
wasiokuwa
taslimu
pingamizi
cel
ugo
##ndwa
##wafanya
kulalamika
yapo
naku
kizi
aliona
##futilia
wanafa
miungano
##iface
##jeli
unyama
##haribia
dosari
ngun
kuporomoka
##rgen
chembechembe
itaka
olo
##kisema
##wabu
##atishia
##tambulisha
kalamu
##tiri
hufanyika
aliu
alipiga
##piku
##unifu
lion
##chea
wakizungumza
wanja
umwa
##beri
yaliyopatikana
##engenezwa
masilahi
kigali
##furahisha
shoo
sevilla
christop
sungura
nhif
kk
vis
##aga
wamo
##gos
anashauri
kuhutu
cotu
joa
utunzaji
uraibu
abyei
1960
kuchangisha
cb
katu
##ela
kuzama
##tikisa
wanalenga
mount
##ingie
wanandoa
supa
##wasihi
botswana
88
der
kikuyu
##tofu
##komboa
mivu
walion
##lor
##jumbura
akilimali
anfield
pori
wales
kurahisisha
mtangazaji
april
kusisimua
club
kru
##patwa
##naswa
##zig
huta
alipendekeza
chadema
##gea
miraa
##biana
imeendelea
kufurushwa
mikahawa
##guero
##imarishwa
knh
bissau
ipi
jkia
lan
udhamini
kulazimishwa
kugharimia
##rago
walieleza
##ship
anaonekana
waliofanya
kuigiza
repub
nyamira
sh12
maelekezo
sh300
boniface
blue
milele
mzito
ob
kurejelewa
##katia
##toro
##hukumu
ilitolewa
kujina
##sonji
kinachoendelea
##cio
found
##romoko
mugabe
aguero
dun
fungu
##hata
##die
muri
##zembe
papo
##fungiwa
akaambia
wanatoa
kujitahidi
sodo
jos
bujumbura
##fikie
ghadhabu
kuungwa
mashua
burnley
mheshimiwa
punda
uratibu
yusu
##banga
##tunu
waho
waendeshaji
aliy
kos
kumzuia
kutenge
##biliano
##wasiliana
##ulika
matiti
moyoni
wajane
kupandishwa
wanakijiji
boni
##hena
##jihusisha
kalo
##mbisha
sar
inapendekeza
liwe
##jum
##manio
hawataki
tunafanya
kuteng
alipoteza
wakufunzi
maambukizo
noordin
haukuwa
wasiojulikana
kukopa
##sses
kubainisha
harry
abdallah
hafifu
uislamu
##zano
kue
##atano
##inia
karua
##sawa
wanau
##rusa
mwaura
mugo
nyinyi
kupan
haijulikani
##stars
ukufunzi
ninapo
hatuku
yakiendelea
kielektroniki
86
uwezeshaji
usonji
wu
##kk
wambu
kuisha
kuhimili
##hujumu
##tupwa
##ongezi
barasa
kunyakua
##ander
##gawanywa
anatarajia
bokova
madola
qu
##mwili
nassir
##basamu
##tara
kabi
##saini
alimw
kuwahamasisha
sossion
sharon
makabiliano
kuamuru
kutajwa
##mpenda
hatutaki
kujadiliana
##pishaji
leip
mchumba
kumwondoa
kimaadili
kya
pungu
##ple
nafikiri
##nar
##hus
walikutana
wamepewa
##chett
dago
kujionea
insha
kuitwa
jere
mkaa
kibin
dhambi
##kubaliki
uadilifu
##matisha
leipzig
aga
ghe
##lr
##wende
kubomo
##atangaza
##bala
##mbweni
alirejea
##wizi
kuiga
kuficha
nembo
##mann
choo
1995
1000
##gray
yange
oparesheni
kalenda
ten
wamen
wachunguzi
##inwa
##mesha
kuwaruhusu
mitu
##shini
##shikwa
inam
potofu
itafanya
##andua
mvurya
mbioni
##tayarisha
equato
wapelelezi
mivutano
mr
##ike
##vis
##waza
##bul
walibora
ameandamana
##heri
##angamano
nyan
##cheka
wakijaribu
tigray
alba
zinazotumika
##stone
mkahawa
dig
##wekewa
##dge
wait
##ineo
kiir
##rama
##jawa
ilifanya
zichukuliwe
halina
fahamu
wanaom
kumwezesha
mwanariadha
##atosha
kinaya
limeanza
cheke
hispania
nyong
##odc
##barak
sergio
sensa
wachambuzi
tripoli
mipira
ngunjiri
foundation
79
gr
gho
grandi
##pr
##pendwa
##kagua
##kiwe
##zamwa
kizuizi
##pokonya
kuwaambia
ulionyesha
akauliza
waliokimbia
anton
pochett
unodc
kabe
kukanda
watalazimika
shehena
kufutilia
hewani
yaliyowekwa
##undaji
##engee
chile
hatimiliki
##stern
kuwaacha
mshirikishi
kubaki
aliweza
alienda
##mbue
sul
tunafaa
kuambatana
rodri
##mpongeza
vitani
##saidiwa
hapana
adui
aston
ovyo
##lm
##cs
lako
alijaribu
##chir
##cheru
shah
kutumikia
tulivyo
utepe
kuzidisha
##cil
130
##waacha
kuzisaidia
83
cry
cdf
umili
##oga
##liana
kuketi
mwajiri
anakiri
kujitafutia
uns
kumpata
hawapati
alipoulizwa
1993
program
##orodhesha
kondomu
##latini
lawrence
hy
spi
kidole
alipinga
aliondoka
##komaa
vitakavyo
##elewi
inashikilia
akiendelea
unatoa
##somwa
tohara
mkate
hayawezi
vimeripotiwa
uasi
kibicho
wambugu
pochettino
aku
lote
##kishu
alinu
##buru
migne
anashikilia
anadaiwa
##dhami
pas
unayo
##mber
shutuma
shupavu
wanaokimbia
kumkamata
jim
kutathimini
kuachwa
kutuliza
##rishe
vimelea
mutya
kumbuka
mjane
kiroho
weng
kuon
yaliwa
##samehe
##ror
mochari
ulifanyika
changu
##ungane
unaofaa
##tatumia
##mpeleka
kusikilizwa
kurasa
mbogo
zikiendelea
fore
kisiri
##sakatwa
##tawaliwa
##mbolezaji
##pokezi
atomi
mkwamo
87
900
clin
ig
##tata
kujumuishwa
yaweza
##jipata
alizungumza
aliongezea
waliweza
imechukua
wakipata
kumpigia
gabri
zinazotolewa
##amuliwa
wetangu
kudhibitiwa
##boreshwa
1991
michel
ajax
mdadisi
kanali
doug
muthoni
wmo
##danganya
kuathirika
##kama
##kamavu
napoli
##raga
huhitaji
kuitumia
msambweni
gichu
##tumai
mzaha
free
##ruhusiwe
uangalizi
wetangula
dis
kpa
##tra
##pwe
##onde
zahma
##sakata
alikana
bayo
vienna
america
hatarishi
waliofika
sub
umeonyesha
##minifu
zimepigwa
haitakuwa
##luhya
wenzetu
kuvunjika
msomi
chekechea
mutyambai
penye
##lc
##bat
##thamini
kuonyeshwa
kuingizwa
navi
wamesha
kumtimua
makau
rey
bett
nobel
murunga
1970
densi
dhima
kijumla
lionel
81
aisha
sk
##for
##lina
##andani
pasta
shingo
ulioandaliwa
domini
maligha
kinzani
goti
##gram
wanatarajia
kuchoma
uporaji
cristi
##jumlisha
##tun
##tsi
##haha
kilatini
##faika
wanahofia
##budu
tuwa
akipokea
akasisitiza
umefanyika
gambia
##ondolewe
haitoshi
unaohitajika
utangamano
wangui
wasaidizi
##furahishwa
##kusudiwa
kaneiya
##mitindo
christian
ncp
waume
kuharibiwa
##tar
##pore
wanahisi
##mizaji
bio
waliokufa
kumteua
toleo
kufutwa
utetezi
goo
kulaani
tetemeko
netanya
ccm
malighafi
abo
nco
upa
kuhamishwa
##kaya
hupunguza
##fukuza
ilitumia
wamesisitiza
##jukuu
bosi
##kongwe
kuahirishwa
zinazohusiana
zimefungwa
yanayotokana
kinyua
ful
matamanio
##sherehekea
nyoka
tutaendelea
##kataza
ikisa
gabriel
lsk
##ikumba
washauri
kuchanga
##zimwa
kutowa
seba
wakitoa
mabara
##zungumzaji
kinuth
ulaghai
kukiri
maumbile
ufumbuzi
mikondo
mikusanyiko
vipaumbele
simiyu
netanyahu
kinuthia
phi
ubomo
##sikiti
##jaliwa
walipatikana
inahitajika
kupenda
halita
kulindwa
##enezwa
per
wanaounga
ninaamini
##athan
##amrisha
zinatarajiwa
usomali
madhumuni
kustawisha
eliasson
uvimbe
gunnar
ncov
##as
wab
##anyika
##zamisha
hui
##mos
kuwaleta
mwang
samia
zilisema
mahaba
alipofika
bega
##likan
visima
kingamwili
crystal
clinton
##dso
##ction
wachuuzi
##jabu
vikiwa
wanakuwa
wanasheria
mifereji
##pitwa
ameitaka
jurgen
##andalia
akatanguliza
wanaokabiliwa
waombolezaji
kilipo
kukarabati
aliyewahi
makusudi
msikiti
kukusan
heliko
uhalali
ukawa
chepuo
vilivyojihami
##epuka
1996
risala
khaminwa
kikwete
wanamichezo
uvunji
##ther
##ping
##fc
##kuti
##tazamiwa
##lemea
alifungia
kuwashawishi
##chie
##pai
watumizi
##zeli
##ney
ing
##fanyiwe
nyali
utesaji
gold
wanatakiwa
##yakuzi
digrii
douglas
98
knec
oka
##bino
##tishwe
kuzunguka
kuridhia
##real
kuhujumu
akionekana
linapo
wakis
level
kinyan
##zidiwa
##tawanywa
##mford
##zwi
##sburg
##likana
kuathiriwa
##ritu
zamu
vivyo
ilin
amefichua
inastahili
par
##demia
##fundishwa
walioshiriki
kituyi
ukabila
##gundu
aliou
north
zuma
misukosuko
kinyesi
unsmil
ncha
ukili
##tinga
walalamishi
##ence
##zimisha
##too
##tegemewa
ameli
##ingiwa
imesha
kunyanya
gal
kitale
limewa
hekima
yaliyofanywa
##fikiano
lililopita
mwimbaji
kukomaa
ploti
89
cur
kristo
ushu
##mri
wanapanga
ameamua
anaongoza
##mbufu
akipata
mathi
insta
##angwe
kunyimwa
jeshini
unaosababishwa
kuosha
pembezoni
nancy
stadium
kuchanganya
vijavyo
mzaliwa
nt
uche
vene
##jwe
alikosa
##fukuzwa
ametu
tai
##roo
maas
yanavyo
shahidi
mane
##bebwa
##changanya
mitazamo
##lins
linata
kubainika
##yoyomea
upekee
##zon
##enyo
hupenda
##fumwa
walikosa
anafichua
##andamwa
imepokea
##eneca
pepe
undani
itabidi
limeripoti
bet
dodo
robin
western
##twaliwa
180
tunatoa
kusambazwa
kusambaratisha
##hangaishwa
##retti
sportpesa
cristiano
mhariri
ronald
uharamia
##swahili
washa
kuhofia
nashukuru
kaa
##tema
wanaon
muli
wanaopata
##ktaba
nema
##nukuu
kukosoa
##changanyi
##changanywa
##berg
##ries
##rodheshwa
alichoki
olympi
uvunjifu
kinyanjui
92
##winda
##sl
##timuliwa
walivamia
jason
waliokamatwa
unywaji
kuaga
##nganishwa
vitambulisho
ukataji
dimba
kuoa
mahanga
kitita
hawajawahi
##zuiwa
kusikiza
##dhaminiwa
servi
ujira
krosi
wengineo
nta
##rch
##meli
##dal
wanaonekana
wanakutana
##sumbua
##dhari
kupum
wakimbia
waliochaguliwa
yanapaswa
watakutana
kunyunyizia
tunafahamu
kutafakari
atawa
##yamazisha
good
##cic
nyeusi
uhandisi
##rubaru
maporomoko
helikopta
ituri
rua
singa
weledi
##il
##qua
washindani
##baisha
##kutwa
sacco
dau
##puuzwa
kukaidi
aliyefariki
kitambulisho
hepati
asso
##wajibishwa
##sababishia
kuchimba
astraz
stanley
ncpb
google
kt
mhubiri
spoti
uzuri
##cd
##inyo
hayu
##kevu
##tuk
##tesa
##rum
walishindwa
tuji
##pakana
ulipatikana
maafikiano
##ders
mwen
##panua
anatoka
yanajiri
leona
kuteka
hayakuwa
wakoloni
utekaji
vyuma
kusimamishwa
##mbuiza
uzamili
##bitat
allstars
finland
mabeki
christopher
fulham
97
psc
kushindana
mac
##huda
##fufua
iliendelea
walijeruhiwa
##rei
pazuri
##mbusho
zikisa
##pandishwa
kisingizio
kimathi
waziwazi
univer
mbappe
dira
##komeshwa
kuchomwa
karoti
alexander
adi
by
##pho
kuchunguzwa
##maanishi
##unya
lampa
alishindwa
vicha
##futiliwa
wanajua
##butu
ilionekana
##pal
anajua
##atuma
akii
kujikita
mathe
kumtia
tumeona
nilivyo
kisauni
voaswahili
langoni
##stanbul
##hoofisha
kuhesabu
yusuf
astrazeneca
jkk
ox
##kuzia
mikuu
ilielezwa
##reen
wametangaza
unazidi
akijibu
##mbie
##silimu
mel
zilivyo
kusali
keter
##ondoe
anayeweza
ninawa
kuzika
waweru
##sikizwa
##lenjin
waandalizi
lampard
abe
fd
ter
upesi
##dine
##ambiwa
##tathmini
##gene
##cra
##lis
barubaru
sai
kutotoka
amekiri
muuzaji
ray
waliojeruhiwa
huuzwa
kujipa
koech
ingwe
hakikisha
##puzi
sudi
shauri
cape
mapishi
marc
kimazingira
kulegeza
##yenyekevu
kharto
kitaalamu
##shughulika
uchoraji
equity
malumbano
methali
wahome
91
azuiliwe
ulia
##yata
kujumuika
##atima
##diki
hio
michoro
amethibitisha
seven
##dumiwa
unakuwa
iliyom
kimanzi
umetoa
lou
ngara
##yonya
nukta
mdahalo
simbas
croatia
sebasti
associ
ofa
##disho
##oka
wademo
alishiriki
##rudishwa
walipiga
##hesabiwa
tafadhali
inaongezeka
##andae
wameendelea
kupigiwa
kukatwa
kemia
atapata
##joto
matapeli
kutii
aliwaomba
hadhira
maembe
amenukuliwa
umilisi
##gbo
##omboleza
kumbi
##inya
##enha
##lafu
habitat
##sity
huna
nimonia
##ser
tasilimu
##dumishwa
wameeleza
imeonya
aliyeji
inayojulikana
##ones
##funguka
watunga
ufukara
kukodisha
fransis
yanatarajiwa
wapendwa
ferdin
wapalestina
khartoum
##ethiopia
##ista
hague
aliitaka
viunzi
walipokea
akivalia
zinawa
zilizochukuliwa
linahitaji
##thibiti
##taarabu
atafanya
kutupwa
uagizaji
##yonga
kujadiliwa
munene
salva
spesheli
studio
instagram
uendele
##lmali
##mza
##adhimisha
##lican
ladies
ladso
kuwafikisha
watuhumiwa
chote
waliona
190
##somo
haito
hakutaka
gurudumu
sh14
##chanjwa
kisiwani
wavuti
nduguye
ogalo
mhandisi
spa
sanifu
##tamalaki
##kers
##fali
alihudhuria
##mize
ilibidi
walitoka
##reth
ameyasema
pambano
wameanzisha
kukadiria
kuamkia
marsa
aliwashauri
tundu
##tokanazo
uvutaji
ukristo
emery
ugomvi
singapore
ladsous
uchezaji
uundaji
##gy
##kauka
yatani
navyo
hafai
##more
alijibu
ulipaji
##kwaju
inatumia
##bobea
chansela
##hadaa
uruguay
tamthilia
ferdinand
aro
mchungaji
kuongezea
mafi
##mamu
##yororo
##mbaza
huonekana
anaona
imesalia
zitokanazo
akitolea
joel
gaza
##atofautiana
limetangaza
##stro
kange
##mbukizi
akiwasilisha
vumbi
eliud
augustine
fdlr
marsabit
gba
mdhamini
tishu
waendesha
##mezea
##laa
##kera
##mus
wanazidi
##gika
amedai
mugu
anakuwa
pabaya
kumshawishi
sulei
mkapa
uhasibu
kiumbe
unaofanyika
mataya
kupotosha
wapwani
huadhimishwa
agnes
rasilmali
dagoretti
96
##ogopa
kukinga
kilonzo
##faki
bai
vibali
wanapokuwa
rapha
##dozi
anai
##hogo
kujiweka
pea
inatia
bomba
yanaonyesha
keki
wakisubiri
##mwakilisha
anayesimamia
dizeli
kisima
##lyn
njogopa
kikristo
ufaao
mmo
nge
urembo
kugu
##makini
##bas
hasimu
alikubali
nico
kuwatambua
tay
anaunga
##vumilia
wameelezea
imeji
imeanzisha
akijaribu
##mbezi
huuza
meya
potovu
wanaoweza
##vaana
188
copenha
pingu
kuchelewesha
muhammad
sweden
##dhamiria
raphael
sua
yanga
##mzito
##olewa
##fishwa
kad
kasu
alifikishwa
##anika
wanasubiri
##miwe
##mikishwa
zilianza
kumpeleka
aliyepata
gabon
msitari
dei
ukali
tembo
utangazaji
mboya
nducha
uvumilivu
sinto
dhiki
marudio
hitilafu
istanbul
kish
wenzi
##dr
##yota
hill
##fuga
walipewa
ameu
##chomwa
imeripoti
ziweze
faith
koin
##angusha
mahabusu
itachukua
tunaendelea
kufutiliwa
rober
kilichotokea
mafundisho
kuvumilia
kulau
mjamzito
angependa
milki
sanjari
##llywood
##rekodiwa
##funikwa
jonathan
##banduka
albamu
copenhagen
350
cli
don
linge
mlezi
olewa
ur
##tz
##sang
kulazimisha
kabarak
huongeza
iliongezeka
##giro
porto
sukuma
##wiana
##itishwa
kimasomo
kulazwa
upanuzi
oso
ren
sent
##uor
##zeni
waluhya
malia
##maria
##sali
hutokana
aliiambia
##tete
waliendelea
ameweka
ameomba
unaonekana
##zuela
##ghubikwa
yameanza
##andikishwa
stamford
kuchapa
aachiliwe
var
##okolewa
##tendea
##ruhusiwi
##wski
mahangaiko
kbc
m23
##eda
kugonga
nawe
kih
##lemaza
alizuru
vie
##gikuyu
ameshtakiwa
anastahili
imechangia
tunam
makambi
kuadhibiwa
##ondosha
kuteke
alipom
vyetu
189
vikapu
kirahisi
##wishaji
tuktuk
upangaji
sufuria
jun
tro
wadhamini
kugeuza
##ins
##zard
kijerumani
##onjo
hamasisho
##jah
alisomea
nimea
vilabu
ilifahamishwa
inajulikana
inapanga
##vuma
pali
wamekamatwa
imebaini
waliomba
zinapatikana
wanaopinga
makada
inayotumiwa
kutamba
kutambulika
waarabu
##rekebishwa
mpana
mugambi
kucheleweshwa
fransisko
fan
lyon
mm
mpe
uu
utanda
##mane
hawan
kuwasaka
kuwahakikishia
bakari
##ruto
sab
walitu
mute
tulia
anahisi
wakikosa
iliyozinduliwa
tunazo
##eleni
rome
##badilishana
##mwona
mateka
lenyewe
itifaki
mwangaza
##didimia
jonglei
##breye
azi
ate
ege
iria
##dini
##pra
walanguzi
naweza
##unja
##well
##tula
badi
##tes
ameliambia
mukh
##ingiliwa
wanategemea
yanafaa
umetolewa
yaliyopo
mtama
##cie
##niambia
shoka
kufundishia
cbk
sintofahamu
lunga
mshtu
obiri
xi
##stus
##con
yai
hupokea
laur
##chr
##ilipino
vifar
limuru
ulim
ulibaini
##funze
mwongo
kob
rutuba
inayopatikana
zimesalia
chukua
##sisiti
##pangaji
zoo
##zamaji
tanganyika
champion
mshtuko
vifaranga
dy
tanu
##mpu
##gilia
kuili
kubu
##gaa
alimwambia
charity
ilitokea
amekumbusha
mbeleni
akaanza
faili
##nest
wanaoshiriki
unatokana
##sol
tunashukuru
kebs
mabavu
ulioanza
inayofaa
haiwezekani
cheche
chemeli
unaofanywa
kutumbukia
mapatano
##jadiliana
##rgei
kubakwa
gith
irina
wafanyibiashara
##isoma
kujiamini
prisci
comoros
dodoma
wakimbiaji
matayarisho
ambu
imo
maktaba
##yoko
kiche
##daka
mwamko
##repub
unsom
boin
hawako
##wezeshwa
##oney
nilipata
benin
wakome
woga
madhehebu
kuchapishwa
##ishukuru
fredrick
##luoch
lukaku
##breyesus
##uma
##rono
##ere
##lic
kulazimika
naji
##haria
kigoma
##saliti
alifahamishwa
amezi
##rop
mole
nyika
uling
wameweza
wamekubaliana
kupangwa
akihutubu
walioshuhudia
iliyowa
coun
inatumika
kutayarisha
chera
sitaki
mwenzako
samson
##sikiza
kupepeta
njuguna
koome
kutatiza
monaco
utaalamu
boinnet
ay
pra
staa
wel
##eti
##hazi
##bakwa
##babishwa
##kizwa
##kizwe
##ative
##toliki
hila
##mbati
migiro
walichukua
##resa
##firia
imethibitisha
##konga
inayotokana
majitaka
##onekane
vitongoji
ninacho
wairimu
kuhala
wilayani
grazi
dadaab
hellen
kuwanyima
##kandamiza
abdalla
prince
kibindoni
alinukuliwa
koinange
ayu
fili
igad
lra
##alika
kulea
##tizo
##kemea
kuwahamisha
sel
inabidi
pahala
wameshindwa
bill
kujilinda
wanaona
hakija
kumwo
hero
ubinafsi
jumuia
##jitayarisha
steve
sony
adrian
haijawahi
kupuuzwa
##tumike
brom
ufilipino
collins
sentensi
graziano
ufanyike
##longo
##mfa
##ison
##kira
##por
##furusha
chachu
##elezewa
amezitaka
akaamua
zinakabiliwa
limeongeza
mwanangu
utani
hazikuwa
kumekuwepo
kivutio
mfaransa
##minia
sh40
funzo
suleiman
utandawazi
chemelil
priscilla
hunga
kanga
odera
##zz
waraka
wakongwe
kukwama
hujulikana
wanakosa
tupu
paa
ukoo
hospital
miswada
wahadhiri
##amka
aliachiliwa
##rodhesha
kumwambia
##phat
glad
wazalendo
cerf
kukusanyika
07
94
mhanga
tua
wajito
maban
##riti
##mbat
chako
##ishwi
inajiri
inashirikiana
2050
##dum
wamepokea
kujiongezea
##wich
##shutumiwa
kunoa
kemsa
ruth
inayohitajika
mwanza
##cafa
##andiko
kupalilia
mwetu
kinachohitajika
##kataliwa
##kunywa
ibara
mpendwa
cecafa
##sikitika
06
fat
uhitaji
##idha
##mzo
##fy
##kamua
##laghai
hazard
hujumuisha
wanaraga
walii
##idie
##dugu
##chukia
##wandi
wanaohudumu
nilipokuwa
yamesemwa
upatanishi
ongeza
##scow
mpunga
uanahabari
rodrigue
sevens
kobler
id
kp
pan
zenu
wavamizi
wachumba
huleta
hulka
##mbley
alidokeza
wanaunga
mithi
walini
walifunga
##ishana
rasimu
moscow
wamerejea
wakitafuta
utambulisho
bour
yanawa
makataa
zinazotumiwa
malisho
##walazimu
kuzikwa
##komezwa
likiwemo
kuwaajiri
kikomo
mwangangi
ruaraka
agikuyu
mgon
##mpo
##nayo
##sel
iliji
ilibainika
ameshiriki
ameonyesha
##ifaa
mura
inachukua
analo
wamejeruhiwa
unai
##pet
jikoni
mwanadada
tunalenga
kufuga
##onekano
akishirikiana
union
nderitu
vinne
kushona
njoki
wangari
sentimita
gitau
whatsa
ghebreyesus
university
afike
nkur
ulo
##mania
##gn
##sifia
alichangia
##sey
balala
wanai
ilichukua
kutoku
sikio
##fic
##katibu
lit
##otekelezwa
##wando
utaanza
socie
hoi
kuachia
tikiti
zilizoathiriwa
zinazotokana
roy
changamwe
kurusha
mutunga
##takikana
voi
pembejeo
1963
makanisani
kujisajili
msisitizo
venezuela
kupumzika
whatsapp
04
ianze
peo
##adhimishwa
##hra
##nyenye
##oyo
##vani
kuyat
##inde
##fafan
##teseka
saikolojia
##hera
paulo
bid
##wezalo
kujizolea
kusaga
yanahitaji
itafanyika
uliowa
inayotumika
luis
upendeleo
kuogelea
nyongo
160
nusura
mwita
steven
mtego
majanichai
kisomali
01
fis
fla
alipuuzilia
aliyasema
##shangazwa
##rofa
unye
kumchagua
watapewa
##biliwa
kuahirisha
##rane
teksi
pichani
masomoni
mbugua
mguso
spishi
kielimu
reuters
maliasili
ahu
mang
ty
##mweka
##gate
##oma
##vy
wabunifu
kigiriki
hutengenezwa
alili
kuwatumia
wanalazimika
amerejea
ulifanywa
##pany
kujiimarisha
kofia
cog
jiwe
hodari
tor
lilitokea
jep
##malizia
benson
mtafiti
thai
harris
waswahili
##munisti
kufaidika
bunifu
uzima
##mena
##usha
##ot
##yd
wazuri
kushirikishwa
##kidhi
##jiza
##leh
##muua
##kolewa
wanajaribu
kutozwa
##chiri
anasimulia
maragua
iliyoanzishwa
shea
makahaba
hakuweza
ukimbizi
kinywaji
##walaumu
kws
wakala
##rton
kipenga
kulemewa
liber
ustawishaji
hamsini
##uwai
uzalendo
##ishindwa
fernande
gbagbo
gunia
ipu
qur
##ikabili
##mya
##hen
##wazo
water
waingereza
kuisa
yapata
##hir
kii
kichocheo
##dilia
hud
##gamano
alipongeza
##tevu
virago
wanashiriki
ilisababisha
mui
##doa
##mbukeni
##witi
mwanajeshi
umebaini
herufi
lewando
mawaidha
ujasiriamali
##menyana
app
##tengenezea
michakato
##bakar
usumbufu
kupeperusha
wahuni
mabweni
##isimamia
antony
munga
ntsa
zing
##zza
##ombwa
kulalamikia
##nam
##zitumia
##choni
##mouth
kuwaokoa
milo
walipigwa
walikataa
tui
##row
##zeki
##dea
##funzwa
unacho
kuuzia
taabu
inayolenga
kutawan
jesus
##wahifadhi
reg
wembley
##ibuliwa
tajika
kuchora
inatarajia
mabwanyenye
ngiri
vyandarua
maaskofu
makadara
ganda
mne
mahari
majo
##hita
aliandamana
miller
ameweza
tamu
##niki
japani
chang
wamepiga
wameripotiwa
wakijivunia
##lum
ania
anna
watawala
mmojawapo
mandhari
upper
mbara
wakaa
##sishaji
##changiaji
fiche
mwepesi
hisani
##punguzia
tutafanya
aliyotoa
linatarajiwa
adf
mvuto
1989
half
oginga
wachira
kuhutubia
lewandowski
isti
kate
mme
##ks
##visi
kushi
##gubikwa
kutofautiana
anafahamu
##lus
##angua
wanaotoa
keita
majimaji
##ghushi
alipozuru
##jaaliwa
machar
ustaarabu
walaghai
vinavyohitajika
kupeana
khalwa
##yongwa
kukandamiza
02
cleo
len
nm
ster
uanze
napenda
##kizo
karu
##tikia
aliunga
vichache
vidole
ilishinda
lipo
bofya
kutatuliwa
shabiki
##jomba
kitunguu
kimau
kupachika
##llen
ubao
ujanja
kiharusi
millioni
khalwale
oyu
##jenti
kurithi
kufeli
yaja
##leb
##kei
##wevu
kuwahimiza
##chafua
##rote
wakilenga
wanyonge
unusu
##angani
##gongwa
inayomkabili
tembe
mwiti
aliokuwa
##riithi
vipodozi
gonjwa
wuhan
##wandikia
panya
kitanda
##ketwa
hutofautiana
viet
midogo
muriithi
##suna
##suta
anapenda
lione
afro
wamekufa
imetu
##chez
##pandisha
falme
kumtu
kabras
sharia
inayotolewa
alipozungumza
unity
roh
unaotarajiwa
##ongai
mapambo
kifamilia
##merman
kibuga
mtumiaji
pum
##mzi
kuonya
##jibishwa
##jazwa
##fuka
##futia
wanaa
miongozo
ilieleza
##gil
amefafanua
ametolea
musi
##chipuka
ulianzishwa
wameonyesha
wamewasili
wamekimbilia
mwenzi
yanalenga
mashaka
##bor
##yuki
nilim
tecra
mtangulizi
zenyewe
1986
##kandarasi
kabumbu
bruyne
makongamano
##sahaulika
lionesses
aru
rongai
##mvu
##mpe
natoa
##tokomeza
alionyesha
viunga
saumu
inajivunia
##idiana
##iner
##angamia
hataki
waliohojiwa
kosi
mahakimu
kufuatana
akinyi
##hususi
##aminiwa
watengenezaji
##less
##ssels
1978
ngong
erick
ip
opi
##af
kuia
kuju
kuheshimiwa
##kal
##gawi
bal
##fuliwa
ilipoteza
ilidaiwa
walikufa
amewasilisha
jukwa
wamewahi
wamekutana
##vir
##vier
akihudumu
wanaotoka
kumtafuta
mwanadiplomasia
aliyewa
liliwa
mtukufu
kibanda
calif
##stahiki
vinaendelea
##mpatia
kitenzi
mtunzi
##ghts
carlo
wasafirishaji
magugu
communi
knbs
##tenganisha
christine
ich
impa
jen
wer
##iva
##pisho
kure
kukatiza
##kai
##tabiri
##laam
##muuliza
vitokana
sec
##jea
wanaoingia
wanaomuunga
kuumia
kuuliza
toyota
inayoshiriki
alli
kufukuzwa
limeonya
upishi
##mlazimu
mbaroni
##thia
##koaji
kidete
washia
pasifiki
conte
kupendeza
mayatima
rodriguez
adha
amua
ela
put
##ombea
##anufaika
##ribu
##yole
##koma
chapa
walikubaliana
##ree
##ishinikiza
##paganda
rash
inaanza
##suka
akielezea
coo
hato
##gongana
##vax
kitambaa
##bebe
kutegemewa
wepesi
lililotolewa
kinachoweza
abra
kivuko
waimbaji
magurudumu
martine
bintiye
kikoloni
kustahimili
##kimbizwa
vitokanavyo
08
achieng
iendelee
nj
src
uzi
##gathi
##ririko
kivi
##yao
##kesha
niku
walipa
walishiriki
walijitokeza
sime
anamiliki
##dhimu
##ings
lilo
bwire
imekuja
akaelezea
anate
wanaorejea
kaboni
kusaidiwa
shangazi
ikitoa
kuitaka
vileo
##ornia
lesi
sh18
kumuondoa
##monyoko
uliyopita
zimmerman
unoci
ukilinganisha
bidco
dho
pongezi
tisho
##ou
##fin
##fana
yafaa
nakumbuka
kizingiti
##humu
hufanywa
##pora
kuwachukulia
##tel
walikimbia
##lop
ametumia
##bii
wakipiga
unafanya
akiishi
iliyoandikwa
boga
kumshambulia
ikifuatiwa
kuigwa
kutun
tille
zinazopatikana
caraba
walezi
##fsiriwa
assa
kuzamisha
caroline
thuluthi
hakutakuwa
kulaumiwa
thailand
mnepo
carabao
ava
afanye
mani
nis
ondi
##ns
nato
magi
kimu
##legeza
##mogi
wanapitia
##rushi
walijaribu
##isimu
imesaidia
unajua
msiba
wakin
##yatua
unaolenga
propaganda
wakunga
##rdy
naomi
##linganisha
##wajibisha
adam
##kisu
##yarishaji
brussels
##athibitisha
ubomoaji
kishindo
cherargei
dj
land
njano
oh
zer
##ei
##jina
##fr
yatima
mahususi
##rab
##mbara
alikabiliwa
##kosolewa
##mily
mikwaju
sadaka
pauli
kuhukumiwa
halikuwa
porini
peru
ridhaa
aliyea
makuzi
rubani
##patikane
tulizo
##vunjwa
hatujui
love
ukandamizaji
##changamkia
mabomba
mdau
uchovu
central
##jisajili
kimiani
kukaribisha
##twikwa
robinson
tillerson
amu
cote
ian
##ografia
wafungaji
kujeruhi
##anisho
##kiliwa
##jizatiti
alihusika
kuwaongoza
iliamuru
walipinga
tuliwa
tuchel
inasalia
imepanda
imeelezwa
dayo
mwanasa
##kilizaji
reja
lebo
team
unaoweza
upungu
fika
kilichopo
kuzitumia
##laiza
sanchez
pasipoti
mitungi
msamiati
kupanuka
suarez
bbc
katana
ukia
##bandua
##n1
waharibifu
##yoya
##lelewa
kashiwa
takatifu
tumia
raisi
wametaka
eng
enter
akatoa
##tial
kutende
shar
kutarajia
alipoanza
##patikani
waache
alimtaja
tutawa
kuzuiwa
kukamata
ninataka
##ingiliano
parachichi
##twika
utepetevu
junet
pumzi
05
nlc
panga
sw
ugawa
##phe
waislam
kuonesha
##kuku
##lalama
wanakumbwa
ilitokana
amepokea
##chikwa
##otea
akiendesha
##endawili
iliyofuata
pete
inategemea
kumen
kumhusu
riya
yalifanyika
almasi
atam
unaotokana
kutupilia
lililopo
kipruto
sh400
njiru
##anuia
1945
kupandisha
msisimko
ghuba
fatalaiza
omollo
fanya
gath
jr
##mkaji
##ahirishwa
##ombe
##lipi
##lishe
##tasari
alishangaa
kuwaona
kuwalisha
viungani
chacha
##sukumwa
jara
wameweka
unaanza
akiongoza
anuwai
mashakani
kilitokea
mabaharia
##onekani
bea
anayem
mitaro
geor
##sambaratika
miliki
etich
mpenziwe
mtiririko
wahandisi
abubakar
qaeda
tarafa
ngarambe
fistula
california
itakavyo
winga
##cer
kudhulumiwa
nazi
alishikilia
vifu
##elezi
ilifanyika
ameteuliwa
sere
anahimiza
kuuwa
uliowekwa
linawa
mfukoni
##patiwe
##sisiwa
##rejeshe
kingo
##amriwa
linatokana
##tany
norwich
##telekeza
uwongo
mfereji
##tungwa
kufunza
kuendeshwa
kubatilisha
kurefusha
kiri
kakuma
##goo
##zozana
ameendelea
##hesabu
inaelekea
imesisitiza
imeshuhudia
zitakapo
##peana
utapata
utayari
bob
kumng
wataanza
kutanda
kukuba
alipokutana
ukakamavu
walevi
anayefanya
wakam
##pakaa
140
kumeza
angaa
eac
1988
##kinzana
janet
karakana
antibio
machoni
mabango
fbi
mpiga
##iz
##nya
wamu
walengwa
kugawanya
kubanduliwa
##mah
lau
##ilika
##sele
kuwatu
kuwasajili
wanadaiwa
##buka
mipakani
ilitu
##chae
##ingya
##zech
japokuwa
wamezindua
maajenti
iliyofanywa
koko
anuai
wanaotafuta
boli
hop
##urce
kutasaidia
akishiriki
yanayosababishwa
kijacho
misikiti
zinata
kuepukana
shabab
kushtu
wanatafuta
inatakiwa
##phas
sijawahi
walioteuliwa
borno
somaliland
##dgers
##gundulika
roberto
hawange
istilahi
93
mrembo
slo
##ram
alipelekwa
alilalamika
##koro
walifanikiwa
anapanga
##dusa
##zuku
unategemea
##ibukia
mabati
kutikisa
aliwaonya
vinavyoendelea
murungi
##ratishwa
nitakuwa
sammy
mikel
muuguzi
breki
bourne
kositany
h1
mvita
mjomba
##mfu
##ula
kwayo
hulazimika
alielezwa
alikamilisha
kuwakinga
kuwaunganisha
mul
tufanye
sioni
sidhani
limbukeni
akiomba
iliyoundwa
yalitokea
kukauka
kujinu
mweusi
kipsang
kuoza
vinavyoweza
stella
##yanyasa
company
##hoofika
##ingilie
himaya
okello
##souda
##tunukiwa
09
ado
aanze
cs
cle
dume
##sm
##olojia
wafisadi
kuhitaji
kiliwa
##lete
hushiriki
hufariki
alizindua
aligundua
##mith
walikanusha
amesha
muswa
changanya
##chuna
zifuata
unajumuisha
akaji
wanaoi
solo
gachagua
##mwacha
ukiwemo
nyaya
nyaga
bensouda
dif
##stitu
##itwao
vidonge
muthe
alexand
kuimarishwa
ghushi
zitatumika
wanjala
punguza
ntv
mmomonyoko
yajayo
fit
jang
omba
tel
##dishe
##eman
kuishia
##hih
##tamba
##kitini
haaland
##sim
kayole
##kelewa
kuwapepeta
ilipokea
morans
maasai
imetenga
kupatwa
mkato
bush
kuogopa
godf
syl
uokozi
waangalifu
daily
sharif
putin
ash
mshanga
rb
vat
mapokezi
##engua
##nah
kigogo
##dith
laana
##chin
##chini
alitia
##anasi
##chim
inakadiria
mogha
wamechukua
akitangaza
##pert
iliyoanza
kofi
koeman
bou
##gondogo
wakishirikiana
ndegwa
ndogondogo
kupaa
ninayo
kuvuru
zitasaidia
sh25
linda
mdororo
kuwajibikia
championship
fernandes
vietnam
dayosisi
ugawaji
bournemouth
euni
org
tsh
##itu
##vye
wajerumani
kiislam
wanapatiwa
##miminika
##bur
iliamua
##enyeza
tabasamu
ram
inazo
zipi
wakielekea
mwinyi
waliou
##hamishia
##tishaji
deve
rodgers
majonzi
##kwota
anatakiwa
florence
##kosesha
diego
leonard
kuhalalisha
zifuatazo
eunice
czech
erik
itaji
ojwang
sis
upu
ufuasi
uimarisha
##dwe
##rent
##ghani
##wawezesha
yataka
make
kito
kiwan
bader
basto
wanashirikiana
imeamua
iliyotokea
kujipanga
##shusha
kilimani
lilim
allan
jericho
akisi
leso
caleb
aman
kimawazo
##julishwa
hazij
mbowe
kusambaratika
madaraja
mont
kujisalimisha
##kubalia
##shtuka
kuzidiwa
omtata
##yeyuka
chapisho
##changanyikiwa
kimaumbile
h1n1
bastola
kla
uthibi
waende
##tos
##ture
wanapokea
wanafahamu
kutoza
amekataa
waliozungumza
metali
soy
socc
hawajali
kunyonyesha
lilianza
zinazohusika
limesababisha
tumepata
tumeshuhudia
kutulia
##llam
mafundi
##rikishi
mvinyo
kivutha
itatajwa
mbichi
brown
kumwona
##prise
hayuko
wajitokeze
rashford
kumenyana
soccer
kini
##meni
##tin
##sso
kupaka
narc
maanga
##ziba
huishia
hupewa
lali
##yes
ramos
lipi
mwingereza
##wanyima
##miliana
kunya
kutemwa
nguli
ukahaba
matope
isikizwe
dij
kurudia
kuvamiwa
eugene
kuhifadhiwa
hisabati
jaramogi
jangwani
uimarishaji
if
olie
##lenge
##dishu
kushamiri
##nal
##zai
##meka
##onne
hajui
##mud
##tero
ameandika
##charaza
tut
##zembea
hatakuwa
waliosalia
kulinganisha
port
math
wanaokuja
##biliana
mtumishi
atakutana
kituoni
lecom
matabaka
vinavyosababisha
ufujaji
##pendeza
akilini
ungali
wajasiriamali
anawashauri
##fikishwe
wademokrat
shearer
washiali
zerrou
lecomte
aende
ice
kfs
macr
##kedi
huhusishwa
##koech
mwaniki
ilizo
amepewa
##shona
sea
nyengine
wamekwama
kujificha
##jiamini
kumfungulia
hawajulikani
wasiwe
limetolewa
uhama
tech
fiji
##cily
wasiopungua
##julikanayo
malay
##nufaika
angekuwa
kifalme
iliopita
florida
pub
mahema
laurent
sterling
moghadishu
oliech
03
apo
apewe
tenda
wajukuu
wapangaji
##limwa
##bagua
##rachichi
zahan
##saza
##sadi
##gari
chapati
walishinda
kutofautisha
ameshikilia
wametu
wanaowasili
wanaoshukiwa
unyakuzi
unyenyekevu
sudani
mwanao
##val
jerusa
zimetolewa
tumeanza
atalanta
##hururu
kutusaidia
##boreshaji
gitonga
tangia
##tatizika
##dhirifu
kupepetana
cop2
umewadia
winnie
hungary
opiyo
muswada
asan
bata
edu
fel
jingi
ml
mcho
zine
yak
makatibu
##kipa
##undia
##tok
aliya
alipachika
wanapewa
michu
ilipatikana
##pikwa
kutofanya
amependekeza
amevalia
inaongeza
inaashiria
##inema
pacha
##mbuko
haliwezi
akani
institu
wanaoendelea
wanaozaliwa
sola
times
inayomilikiwa
limepitisha
nilio
##karibishwa
kinyago
cavani
ninaweza
ubadhirifu
watekelezaji
mauwaji
nyepesi
kupora
1961
alay
3000
mshangao
macron
gsu
##sp
##gani
natembe
max
##kuzi
kihi
kioko
hakina
kadhia
kuwafaa
kuwaeleza
kuwaelimisha
wanavi
##miti
mihula
tum
inasababisha
wamelazwa
kupenya
##angilia
yanafanyika
waomba
hawapaswi
kel
gamba
uliowasilishwa
ruzuku
nyachae
##anea
visababishi
aliwaweka
kumuona
kususia
##sser
uswis
anatambua
msemo
##cial
faraja
abraham
malaysia
zahanati
natembeya
cen
fundi
rh
uchu
uboreshaji
##ii
##afikiwa
##em
##cti
##cation
kuongezewa
kuyoyomea
##baro
##rahisisha
zabibu
kuwashirikisha
wanapenda
wanadiplomasia
walilo
walikamilisha
amerejelea
amelazwa
##hepa
inapasa
imezindua
kuhubiri
kuppet
waliopewa
waliojitokeza
iliyochezewa
pepo
mwanamitindo
makumi
kuafikiana
limezindua
##gware
niliamua
lililofanyika
kipengee
child
hawajapata
##matwe
nanyuki
utatuzi
waangalizi
##kongamana
cn
jung
ryan
rono
##lsafa
##king
##cu
kujulikana
##haja
hutu
huzuia
hujitokeza
wanaongoza
kutosheleza
amegusia
anasa
nyani
wamekosa
maadamu
1950
kutengenezwa
albert
nyahururu
anayeishi
kitanzi
ufuo
kulainisha
sancho
mshairi
mfadhaiko
waliachiliwa
##yunyu
serbia
vikiwemo
##kusudi
uhindi
bruno
develop
zerrougui
alo
mdg
visu
wachina
yaku
inasisitiza
zito
wakicheza
akapata
shirikishi
##hoa
jiko
linafaa
hea
ukizingatia
hukosa
gumu
mchambuzi
ugali
angela
mvuke
##vinjari
akawaambia
##injitisi
duncan
adimu
apu
fli
gatanga
kerry
tungo
wto
##yn
wajue
kuongozwa
##ans
##mam
##mela
##laza
##sifiwa
kamo
##mulikwa
aliuliza
##porti
##kosekana
##dolea
ulisababisha
wakihofia
akaandika
mastaa
wanaoendesha
kunyo
zimeonyesha
tumewa
anayetaka
mikate
##manja
linatoa
kuwaadhibu
mediteranea
muhtasari
ghorofa
godfrey
450
act
io
iamuru
lindi
mpa
ofisa
ry
ukwa
##was
waya
warembo
##liban
kusha
kuhitimisha
yapi
##atina
##riri
bamba
vimbunga
walikabiliwa
##chambua
wakipinga
waliokwama
kujihami
insu
sum
aliyesema
inayotoa
##rcia
amason
usanii
kamilifu
linataka
kasai
mdomoni
icrc
meninjitisi
kutwaliwa
kukabidhiwa
tumeamua
republican
grand
kunyanyaswa
association
##mfadhaiko
cleophas
cp
grie
ocho
##zunisha
##sindi
##gm
waanze
mabi
kichina
##onyo
##goria
kuwavutia
vitano
ilini
waliandamana
akielekea
akilenga
yanazidi
aliyezaliwa
gareth
linapaswa
zinazoshiriki
zimeathirika
heka
##isekedi
unaowa
dawamfadhaiko
kitongoji
kimakusudi
jamvi
kushusha
chie
kurudishwa
##chanja
mboko
aliacha
brazi
yanatokana
1969
kumwacha
ufunguo
jacqu
##selelea
uthibitisho
development
geni
ose
##azimia
##gg
kufanana
##anzu
nako
nahisi
##bavu
##zipata
##mei
##sidi
kadu
##sawazisha
human
hutoka
lap
alip
alikufa
##ruti
##chimba
anaomba
watumie
wakilalamikia
usaliti
maskwota
kombo
kukamilishwa
shetani
kinda
mapana
mapro
atate
jinamizi
diana
mwekezaji
low
vilivyoko
##ishuhudia
kidonda
madawati
hawatakuwa
##itikia
mutai
kuwajibishwa
kioo
zinazowakabili
kuwafurusha
fataki
kosgei
ucheshi
people
amb
adhimu
llo
mraba
vla
##cker
##fili
wazalishaji
wazuiliwe
warepub
kuingiliwa
natumai
mamba
##sii
##tiu
alipenda
alifanikiwa
##goro
##futi
##mike
mionzi
sahau
iliibuka
walimw
walihudhuria
amekamatwa
muho
inafuatia
akifafanua
dafu
akaenda
suna
kutana
tour
makumbusho
albino
uchapishaji
##onyeshe
##mwachilie
##patie
nyambura
##dhania
tex
kujishughulisha
##inuka
kitisho
tulivu
kuvumisha
##ishughulikia
foleni
stre
vinyago
kumwaga
##leigh
msomaji
gladys
ohchr
tshisekedi
uhamasishaji
ker
oluoch
##ibia
##mzuia
##zmann
##bilioni
kukwa
magha
##kupa
##potosha
##tegeme
mipangilio
ametembelea
mug
##dona
anakumbuka
bil
##fungwe
wang
korona
koloni
zilionyesha
wanaopatikana
suba
kunufaisha
itahakikisha
gar
yameongezeka
##ulize
mapengo
mapungufu
##cky
wakali
kitandani
linaloweza
gera
kibaguzi
hamisi
michelle
upofu
kuchuana
##teremka
##yonyeshaji
machungwa
annan
ictr
taylor
dhoruba
zinedine
fatuma
oku
ogu
##zania
##zishia
##nasi
##leza
kape
alituma
alitembelea
kuwashauri
kuwafunza
mwafrika
imejitolea
come
inia
kumruhusu
##shirikiane
watakosa
kwanini
##ers
umeendelea
keino
yaliyofikiwa
dori
tekno
kujenge
digi
##twalia
ghala
walipofika
ufufu
##fuatavyo
kivuli
zinatumika
madukani
##unziza
agenda
akiahidi
##chelewesha
sebastien
egerton
cr
mfanyi
oc
ton
##dre
##afu
##cko
##dama
havina
##let
##sainiwa
alishuhudia
##pamba
inahusisha
##zeima
##zette
imepoteza
##chemi
##chero
day
akademia
wandayi
##luki
farah
mason
unyonyeshaji
kunahitaji
kuachiwa
zinazochukuliwa
kuteseka
lucas
dokta
##alth
dutu
##sambaratisha
walimtaka
westlands
sind
siagi
saudia
##bomolewa
##faruku
jukwaani
institute
griezmann
ei
my
nisi
patu
uitwao
##matwa
##dishwe
##pendi
wasu
wani
kuelewana
naona
malai
##melea
##yafanya
##tius
##muomba
##mulizi
laca
niwe
##gura
mizinga
tar
mumbi
##fananisha
inashangaza
molo
##mbuka
kupin
ziwani
walioshtakiwa
anat
anya
wanaodaiwa
kumweka
source
watazamaji
kete
alzeima
uchawi
niliona
leon
##zuiaji
##ated
proje
martial
bentiu
ukur
mashoga
isiwe
##banwa
kimabavu
kidero
##jitambulisha
marie
issa
hotelini
uimbaji
spina
uanachama
elijah
##elekezewa
sakaja
kiwewe
sarri
paspoti
cliff
molekuli
ayub
nkurunziza
martinez
antibiotiki
jerusalem
fisi
hundi
usho
##dt
##uc
##tena
washi
wallah
kukodi
##anwa
##lers
lahaja
##tuko
##gor
##guswa
ilii
waliwasili
##reja
semi
##pakia
mode
pasaka
jazz
##jemi
unaona
akaa
##yiri
##shindia
kusaini
kusababishwa
zilizoandaliwa
haimaanishi
doa
##poteze
kusita
mistari
wakora
ngamia
kuvuja
tutaweza
##nufaisha
str
ombeta
##utinho
##fundishaji
kubakia
hayato
sh60
kandoni
cyp
mchezoni
prisons
##fuatiliwa
kabichi
mathira
pauline
afadhali
fren
mung
mck
nsl
squa
ul
ube
vati
##im
##ushwa
##zy
##hini
##kho
wahubiri
kuchukulia
kukomeshwa
##timia
hil
aliwasili
##sei
balaa
vibo
vizingiti
##mifu
##geshwa
ilipokuwa
##hewa
tal
##susia
wamejitokeza
iliyopewa
hakita
kuumwa
kukanusha
hawaj
kunu
itaweza
tunapata
kuabudu
uliosajiliwa
kuteswa
##ingeweza
army
yamefanyika
wakaanza
wakalenjin
kutiliwa
zitaendelea
##phy
yataendelea
masikio
##shawishika
##luhishi
##shtushwa
tanzu
oxford
elachi
aza
ashe
lane
mtwa
oge
tsuna
uzuiaji
##lma
##ore
wakisha
kuhi
naam
##zikia
kir
alitarajiwa
##bie
anapania
##atumai
paci
pahali
imepewa
wanyo
kilabu
kujijenga
hollywood
inayoonyesha
##cock
unido
atlan
mtawala
kwenu
##kweli
kupaza
mikasa
wahasiriwa
useneta
johnstone
##ishutumu
##inoa
stri
sh35
mutho
1982
1985
1979
1975
##indaji
##kins
kiharu
##jisikia
eastleigh
##athibitishwa
wanafamilia
community
alayhi
patupu
tsunami
bk
cdc
ozil
smith
tisini
ufundishaji
##rishia
##nunua
##pti
walu
wazungumzaji
kiza
kagu
kage
alisimulia
wanachunguza
mihogo
waliwahi
bweni
wameshinda
willy
maskani
kordo
pevu
wanaou
mwangu
akiwataka
mapanga
kitendawili
##rdc
kukimu
vilivyowekwa
vimepungua
ufupi
##ssie
adama
mathalan
kukubalika
1976
vale
usugu
spla
kujinasia
zikisalia
kangemi
kukubaliwa
dijk
jungle
sindwele
lacazette
ae
adu
adh
blan
mende
punt
sri
##ibisha
##uku
kudu
yatoa
masika
kivya
##side
huchukuliwa
kuwap
kuwajumuisha
wanaendesha
walionyesha
walilalamika
##rekea
##chabanga
##katiwa
imei
kupingwa
wakilazimika
##viti
iliyowakutanisha
##hozi
wanaoshikilia
kumweleza
shingoni
##wiji
##boa
ulioanzishwa
manis
inayohusu
##hakiki
zilizotumika
##iseme
chuka
aliposema
ukitaka
nec
bul
marco
ufasaha
ajiuzulu
mazoe
alivyokuwa
anatazamiwa
wangapi
mlolongo
stephane
uangalifu
colville
kubomoa
ulingoni
lesiit
clau
jp
nino
tatanishi
upote
ufungaji
##deni
##work
##twe
##ski
kuganda
kuendelezwa
kuvua
kufunika
maandiko
##kung
##jipanga
##kesa
alitawazwa
kuwasafirisha
kuwanasa
mioyo
ilipiga
kutokwa
ameenda
amefunga
ameshinda
amekanusha
inahusu
##katizwa
##miah
##angaze
##chomba
##mburi
wameathiriwa
imeonekana
imeshindwa
wakiendesha
unapata
wanaougua
lilian
inayoitwa
zinazohusu
deb
yanayofanywa
yanayohitajika
yamesema
unaojali
ukome
kaswende
##lazim
linaloendelea
##ilable
mariga
kuyafikia
##fichuka
linturi
dadake
mustak
kujiajiri
waandamizi
corne
produsa
##vurugwa
mungai
available
enterprise
kordofan
aendelee
clo
droo
eden
mmali
omu
ode
osoro
##ix
##rst
##cca
##kang
##meh
##daa
##sion
##muona
hupitia
alihamia
##wea
viwa
##fuatana
##gele
safa
tupate
inafanyika
mou
ulimi
wano
pomp
##angukia
matini
covax
wanaodai
##eran
umechangia
idai
gard
##yuka
kufuatwa
mtumwa
mtuhumiwa
atawania
alipoingia
diplomasia
##zeeka
##mishiwa
miguso
yasiyokuwa
uoga
jeneza
fort
##mail
iaaf
mauricio
##tekeleze
current
kasumba
omtatah
maangamizi
manispaa
pompeo
currently
avi
aongeza
bun
dur
mshu
odi
tia
##bao
kizima
##atiliwa
##dadisi
lacro
##goi
micro
sadio
##piti
mulu
##biko
##shtua
##sumbuliwa
anafahamika
anaugua
##chora
imeibuka
mwonekano
kujifanya
kujiuliza
jogoo
kuam
2023
zinazofanywa
##wekaji
akishikilia
ukaribu
kiut
bus
pipe
ajiunge
170
shabaya
##unusi
gramu
madume
kibet
ukingoni
kennes
mauritius
muriuki
aboud
##kisubiri
kihika
##manjaro
puntland
leno
mri
obu
okumu
sani
##lato
##ola
##60
##andu
##attara
##kejeli
huzalisha
huwekwa
##gae
##koroni
##kokota
balo
##tezwa
vifungu
ameshindwa
tazama
muka
##vuja
jawabu
chunusi
wamejitolea
imependekeza
imeshuka
akaonya
kulipuka
iliyotengenezwa
kujiingiza
post
coutinho
ikiongozwa
##nold
kiuta
##karibiana
buka
mapendeleo
matofali
lililotokea
kupakia
firm
linalowa
kinachoongozwa
vimesema
watatumia
maribe
adabu
1983
mshambulizi
1964
kumwachilia
vazi
kuvunwa
korokoroni
##tawanya
kujinyanyua
kutengewa
mithili
sunda
##dho
##ux
##bishwe
##glo
waru
nay
##laamu
##lagat
zaka
hiyari
huishi
##movic
vik
wanapinga
mir
sitini
inahifadhi
inaelezwa
anae
litakapo
unam
akipinga
fardc
##holm
kupimana
miale
kabogo
umesaidia
makutano
inayofanya
##zungumziwa
matumbo
##walazimisha
kutumwa
kilichofanyika
##crat
##vunwa
vimeripoti
##ussa
ujangili
##itwacho
ikishirikiana
usiojulikana
##fishaji
kikombe
kustawi
##zingirwa
kugawana
##yakulia
##tekelezwe
##cheleweshwa
uenezaji
equatorial
goodison
kanada
pun
pangani
sch
uungaji
##dungwa
waje
kiburi
kiitwacho
##tov
kawan
katili
huonyesha
bab
miri
samba
ilitoka
walihusika
##loba
muja
justus
##angaa
ulisema
wamefanikiwa
##chuana
unaathiri
wivu
waliotaka
zinazidi
faki
faafu
kusin
ande
wanaoegemea
hol
kilimanjaro
shaa
linalenga
albi
limekutana
vitambaa
mtafaruku
ameni
kuzimwa
nyoyo
steiner
wasagaji
haijakuwa
1987
watakavyo
##zingatiwe
stock
iii
mlevi
oloo
ahueni
kelvin
maghala
mazoezini
kiutendaji
750
fly
ijulikanayo
ppe
pumu
ufanywe
uzembe
##tatua
##kishe
yamea
##yoki
kicd
##leg
##sikilizwa
##mbili
alipe
alihimiza
##zorota
chaji
##rubati
##elekeo
kutoshindwa
amehitimisha
##hema
taliban
##chuma
kupongeza
wakilalamika
waliowahi
kujipata
kobia
zilitolewa
colle
##eney
kunawiri
rights
ikiongezeka
kuiwezesha
rug
##haminiwa
sanamu
inayotarajiwa
##ondoano
##ongwe
jeff
kibina
ukamilifu
nepal
butter
waachiliwe
##delea
kuchambua
##kumbukwe
110
malakal
##lyne
anatamani
aaron
ouattara
ahmad
amemteua
show
kucheka
reysol
##reithi
rejareja
firmino
kawangware
dengi
ifanye
ichukue
##mshwa
wasaka
kuridhika
kumbukizi
nas
kizungu
##atio
kuwakabili
vir
##fuate
##reti
juan
##rotich
anau
##isahau
wamepangiwa
##juma
##ongezwe
##milishe
metro
##wiki
umesha
tokea
##thibati
kutafsiri
alipowa
kisababishi
##yamaza
kuota
alimpa
vilivyokuwa
ujinga
alhamis
mkekani
maiyo
##sset
kipusa
kunipa
uokoaji
otiende
##tengea
##wajibikia
wakiaga
tangawizi
swalla
##yeyusha
unyevu
pipeline
cra
gan
gran
ithibati
oran
uze
ushirik
##ten
wahitaji
wachungaji
##inta
hufa
##poromoka
##pari
jakaya
wamejadili
imetaja
wakikimbia
akitoka
akiandamana
wanaohudhuria
##endela
itapata
sharubati
limefanya
usitishaji
##uziwa
onga
sh13
aliwafungulia
mwenzao
maofisa
andrea
anataja
nations
abdullah
ibrahimovic
lisbon
pinzani
kuangusha
vipusa
lanka
##phosa
georgia
spinachi
ushoga
atatu
brandi
cia
dhara
drama
gro
nc
sla
##bishe
##yen
##kamilishwa
##tamatisha
##tipwa
huzi
lazio
alimaliza
alidaiwa
kuwafundisha
vifaru
mianya
ililenga
muiga
imeathiri
##cheke
akaendelea
waliozaliwa
##milike
iliyochukuliwa
boa
kumfikia
kumtaja
sol
##pukia
itam
tunashuhudia
inayosababisha
inayosimamia
wakishiriki
haijali
zimesababisha
kinatarajiwa
anayewa
##enger
chimbuko
hatukuwa
los
vimeongezeka
kulemaza
mwiba
georg
##yanyaso
havija
##ridhiwa
sarakasi
kifuani
owuor
maharamia
kuvunjwa
udaktari
classi
tarakilishi
patashika
kutengana
dominic
##zekiel
strikers
scha
sinema
##mino
wahakikishe
waluo
waethiopia
kubanduka
##naji
##atibiwa
##meji
##mbas
kahiga
huria
kuwajeruhi
##uador
walirejea
##remko
amehudumu
limau
##endelezo
wamethibitisha
akichezea
waliokosa
##hofiwa
hakiku
kuitikia
tunaelewa
##yumbisha
manyanyaso
kitambo
mswa
rebe
church
atalazimika
anayechunguza
uteng
utumbo
aliwapa
kilichosababisha
chiloba
mtungi
uswizi
walaji
mlio
##pwatipwa
mteremko
1967
##subiriwa
##isukuma
irene
##dhuriwa
walioajiriwa
aliiomba
mhasibu
kuangaziwa
mkiani
nawaomba
delta
uwindaji
##remshwa
ecuador
mwitikio
wanyoike
bat
wrc
##udhi
##arifu
##tr
##10
##wadogo
kur
##zaba
kajwang
##timu
husema
##wei
nim
kuwakumbuka
virg
mite
ilianzisha
walisisitiza
waliibuka
waliondoka
walifuzu
amewasili
amesihi
##fichwa
wametumia
wamepatiwa
akitokea
akithibitisha
zinafanya
unis
kumwi
kumshukuru
itakumbukwa
tobiko
hema
##chunguze
niliwa
kikali
magendo
misongamano
125
choko
##llon
ngao
ngala
kibaya
kupokonywa
kuunganishwa
maparachichi
manuel
rununu
mzalendo
uhamishoni
##koteni
uzamifu
sakafu
makongeni
##chezeshwa
celtic
kq
mano
mchwa
uweza
uzee
##io
##asi
##40
wag
wafike
kuh
kuhangaishwa
mababu
##yal
huendelea
##mbatiwa
nik
niwa
##tebo
ameya
amefungia
mugi
sek
##paza
inachangia
anajaribu
##ingham
watutsi
wamedai
##cher
wakionekana
unaji
kujipima
anyang
##shinde
kumpatia
hukumbwa
kukaguliwa
watahitajika
tunaishi
rupert
zilizotengewa
kinaendelea
##mwachilia
alipokezwa
yanayoathiri
unaojulikana
##vest
##mwomba
##fede
##wandama
##lazimishiwa
amnest
##andaaji
tulipata
kushushwa
##piliwa
ngc
##tokanao
kusukumwa
vyuoni
##fichuzi
hawakuweza
##mkosoa
utofauti
wadogowadogo
wanatazamiwa
migomo
kushikamana
mganga
allaah
iliambiwa
gilbert
jeremiah
olympique
marcus
##makinika
##giliaji
ukwasi
malaika
albion
amnesty
achukue
cd
itoe
jku
mchi
ncic
sand
##ambukiza
##ving
##walo
yamo
##gamba
alilaumu
##weo
kuwashambulia
kuwaelekeza
vigo
ilipendekeza
waliweka
tuendelee
inaleta
##angamizwa
wameonya
wamelaani
imeweza
rika
riek
##soc
tol
lilivyo
arnold
yanayotolewa
matiba
majangili
amen
aliwaongoza
gea
vinavyotokana
##heshimika
kakake
##inikizwa
##celotti
zinatoa
1981
confede
migodi
pence
atuka
tungependa
binamu
ueneaji
joash
nyanjani
ichung
kujinufaisha
asante
ifaa
ikumbukwe
june
twe
tanz
uone
##itumia
##nde
##gli
##psi
##wae
kukwamisha
yafuatayo
##aty
##baji
##tah
##yozi
##yem
alisaidia
##pol
kuwajali
bas
wanashikiliwa
chamani
ilihali
iliripotiwa
walipelekwa
##redi
anaripoti
206
##ungua
wameshtakiwa
##jutia
waliolazimika
waliopona
waliotawanywa
utawezesha
yalisababisha
inayotumia
kiama
zinazofaa
zinazofanana
zinazowahifadhi
kutafiti
vitamu
akin
yanayom
leg
unaostahili
airwa
mahrez
##ilaumu
##rahman
stra
##kunji
msukosuko
alijitetea
santos
1972
mitaala
dcj
katazo
##dukuzi
mamluki
mukhisa
airways
bena
eva
ezekiel
imen
kinge
mshiriki
mhimili
nano
philo
##wen
##ambulia
##bbe
##70
kuhoji
kugeuka
##istiza
##hiyo
kifun
##tome
hit
##moud
alihoji
alitetea
alizikwa
bakuli
wanarejea
walifikishwa
##pige
amekubali
sim
moussa
##endeleze
jamai
wameongeza
wameitaka
imefika
imepangwa
mwende
ancelotti
indu
under
kuufanya
sup
kunyongwa
umekuja
aliyeuawa
toba
##ngan
2025
zinazokabili
akisubiri
yamewa
change
dhabiti
utangulizi
kassim
waaminifu
nimewa
kuokolewa
alimteua
vilivyoripotiwa
##laiti
##fichuliwa
5000
1977
brien
alikokuwa
floyd
ipoa
wanaotegemea
ecosoc
sultani
serekali
##vyeti
brazili
kapedo
jkuat
ade
kons
ocp
schu
##dunisha
##ure
##bya
##blo
mauli
##kiukwa
##dah
huandaliwa
alishirikiana
##pokonywa
##korir
##komoa
sabini
iliongeza
ilimaliza
tuhakikishe
##shtumu
radi
##domo
inadai
##suru
mora
##inguni
##dhawa
##ingizia
wameonekana
##ishwaji
wanufaika
zinajumuisha
iliyosababisha
iliyopitishwa
iliyotumwa
shield
kujitayarisha
zilitumika
inno
bol
mnao
ikifanya
umem
kuiweka
kutatanisha
inayofahamika
linafanya
haipaswi
##onyeshi
neu
##fungamano
gicheru
mlipa
kumulika
kandara
franco
##unduzi
kijiko
##kando
kitega
vipawa
ujumuishaji
sidibe
umakinifu
ecowas
waithera
hepatitis
assad
iceland
uzeeni
muigai
cru
qui
ufichuzi
##lf
##wenda
##ffi
##ating
##atangazwa
mahi
makipa
##mama
kimili
##sie
##toko
hupoteza
huongezeka
aliniambia
kuwatimua
##gezwa
amechukua
amepoteza
inaweka
inaitwa
anaku
anapokuwa
anapendekeza
wamevalia
imeripotiwa
wakiandamana
wakikuyu
akan
##mbiu
waliotoa
waliokuwepo
inatumiwa
hakimiliki
kumtetea
kunao
hukua
ikilenga
matuta
kinasema
yaliyosababisha
ataweza
atakosa
yanayokumba
ukocha
##fungamana
gumzo
kiplagat
mtanzania
gedi
trust
alijiuzulu
bandarini
makoloni
njogu
ramaphosa
##tendewa
janeiro
yakawa
kufana
alinunua
kiowevu
waliotekwa
waboni
upunguzaji
texas
dp
ipate
kho
oguna
##dinda
kukwamua
##zie
kigu
##kerwa
alisajiliwa
##seli
kuwasha
kuwatafuta
kuwalazimisha
##tech
wanaeleza
mwaminifu
sadc
##giri
walienda
waligundua
tarifa
anajulikana
##nit
##vuli
jamal
wakiu
wakipokea
mashe
anwani
pemba
wanaomba
mnara
umefanya
aliyeongoza
mkanda
atasalia
upate
##funguliwe
hapakuwa
##mwendea
##laziz
wakasema
sh150
kilichom
kukita
##fikiaji
johanne
hazito
##epushe
maridhawa
##batilishwa
aliowa
1974
sh600
iliagiza
muumini
##tengana
twaha
##randaranda
kabete
services
louis
arobaini
viboko
mustakbali
baloch
konstebo
manga
oca
##ujiza
##ajiri
kuv
kugusa
nab
kiwa
##hudumiwa
kah
kaha
##kel
aliki
alitiwa
aliondolewa
##guliwe
kuwapata
ambae
walikiri
##rera
##chimbwa
inaathiri
pakiti
##juta
imewekwa
##virus
##panuka
##pesha
iliyosalia
unat
kusaidiana
mnada
kunahitajika
watahitaji
ikijumuisha
mwanam
umeongezeka
aliyefunga
lilifanyika
##atozwa
zinazokumba
kutapika
limeathiri
atakumbukwa
alipopata
alipohojiwa
##malize
##yanzi
unaoongozwa
cabo
marra
kijadi
wakamba
ujambazi
dukani
uae
angalia
wafuate
kuthibiti
wanayopitia
kijiyai
kukaribia
atieno
##didimiza
lydia
umwagiliaji
kaloleni
ktda
sociedad
ngirita
utengano
nanok
adhu
acc
bondo
ellen
jens
wafahamu
##limo
mabu
##iss
##isuka
##onywa
##lehe
##tokeza
##moyo
bama
mwako
saburi
##pachikwa
inaji
lille
wamei
wameomba
##chefu
mbinguni
wakiomba
farm
iliyoongozwa
utapeli
yanasema
yanaonekana
yalim
ikimaanisha
ikiwezekana
hawato
lilio
uliopangwa
alva
njiapanda
##rango
##uliwe
dirisha
dick
aliwajibishwa
gika
kimeanza
karatina
kumiminika
samadi
kusakatwa
kubaguliwa
mwambao
atoe
kufungiwa
bangura
stori
philippe
##jisalimisha
emerick
khalifa
lowcock
sunday
kimilili
ack
alaani
buti
fron
gen
urekebisha
##tma
kujaa
##kalia
kichuna
huingia
labo
##gas
kuwahusisha
ilikataa
waliripotiwa
ameongoza
##dhalili
liitwa
likisema
wamesalia
wamefichua
wamekusanyika
imepita
imezinduliwa
wakipoteza
wanaotarajiwa
unyunyizia
kumtembelea
##tajirisha
aliyeko
uliotangulia
##zungumzwa
kutabiri
haipo
vitakuwa
105
diploma
linaloongozwa
kukicha
##athini
##kumbuke
abdel
watanufaika
zinat
ilipoanza
ameagiza
rafikiye
##bodaboda
kukataliwa
sh800
elementi
1948
hatutakubali
wakisafiri
##kizofr
rohingya
werner
lapsset
lacroix
urekebishaji
unyunyiziaji
##kizofrenia
phu
skizofrenia
ufikiaji
##ajiriwa
##ken
kuhangaika
yalo
nasema
##kuki
##tamatika
kicc
##rage
hutengeneza
aliishi
kuwahoji
kuwauzia
vipe
wanahitajika
wanakimbia
##gesho
iliingia
ilichukuliwa
##reta
amehimiza
##pasi
sicily
inaruhusu
##sumu
afraha
##atulia
##choshwa
ulitokea
wamethibitishwa
imeleta
##mboi
##ishie
##zushi
##ongera
anto
bomas
soda
kununuliwa
##sombwa
shauku
kitalii
karim
##chunguzwe
yaliyowa
yaliyojihami
##noa
ugunduzi
cher
##cado
##than
anayehudumu
matao
wakubali
waalimu
fikira
hauto
aliyoya
general
mnunuzi
kuwaachia
##jikatia
##kasirishwa
atomu
chepkoech
mlambo
center
vladi
pacific
classic
adan
nuno
pho
utokanao
##nyima
##tate
kuin
kushikiliwa
kughushi
##bach
##tapakaa
kiunga
##day
##lek
##mbaka
##fadhia
##mbishwa
viua
wanashindwa
chambas
mik
mipa
mizunguko
kutojali
muwa
##shifiwa
inakuja
inaonesha
lija
##endelewa
jasiri
wakitoka
akihimiza
farasi
kujitawala
costa
kuuwawa
kunde
##vakia
##eller
timamu
tiaty
fede
hakujua
health
##urity
usiwe
##walipa
kikawa
maganda
majuto
mabonde
aliwahakikishia
vilivyopo
zitaanza
kipawa
kumuenzi
kandokando
##hitimishwa
nitaendelea
abid
lonyanga
alizokuwa
valent
##tumiwe
karamu
##telekezwa
nicolas
nmg
adhuhuri
liitwalo
are
##bl
##rata
##vs
##vine
##fta
haz
lami
alizi
alisafiri
##tume
bahra
##fukuzia
iliwasilishwa
##loli
mureithi
##sul
imetajwa
zik
koti
poly
yanapatikana
##wie
watapokea
umepungua
toro
ruwaza
inayom
zilizofanyika
kitabibu
kutere
besi
##cago
122
chicago
kuchapwa
kaulimbiu
thel
##rahia
##changanyika
##gemezi
ndindi
villar
edwards
kontena
kubana
kumnyima
athleti
gonza
ujumuishwaji
reuben
kuteleza
kuonana
betty
ocpd
ocampo
aondoke
awasilishe
atatumia
bene
dhihi
oda
okon
rungu
tony
uendelee
zifaa
##wis
##yl
##lema
alizidi
alivunja
##kok
kuwait
vichocheo
mizani
##uasua
waliu
##lodi
ameshuhudia
##chap
tupo
tutaji
##fifia
##angalie
ulitolewa
unahusisha
##vie
usahihi
utamu
kujikuta
wanaofunga
wanaosaka
bos
kumdunga
makachero
uliosababishwa
linakabiliwa
zinazolenga
yanayopatikana
lupita
lugari
nilicho
royal
atatoa
pir
186
ngapi
gogo
maureen
ulezi
ajenti
matembezi
makori
denis
kuwaachilia
amemtaka
chenyewe
uroda
khalid
jimmy
palipo
dharau
virginia
mitego
jamaica
ami
apa
djin
gri
itokanayo
nk
press
sma
standa
##mong
##hr
##pato
##ctor
##lipuka
kugharimu
yaweze
##har
##ental
##toke
kabaka
huwenda
##chunga
alitoroka
##kopa
kuwainua
sarufi
ilichangia
waliunga
walitangaza
kutopata
amechezea
amejiunga
mulee
inaamini
anachukua
big
unasababisha
akipiga
akirejelea
daru
waliofurushwa
zinaonekana
zinaonesha
zinaashiria
kisanduku
bonasi
kumshtaki
##endeshea
##somu
kuamka
inayohitaji
inayoshuhudiwa
kufurika
##ury
zinazotumia
##dumaa
kuteremshwa
yaliyoathiriwa
##mwani
ukiangalia
miss
kimaeneo
ghafi
kushukuru
kukithiri
loke
tunatumia
##yonza
atakavyo
alijipata
mohamud
mashuleni
kifafa
inavyohitajika
wameahidi
maboga
kuchoka
##bomoa
salat
vipato
kuvimba
unatakiwa
anatumai
wakisisitiza
romelu
##gawiwa
jenni
hekalu
ufufuo
safarini
lonyangapuo
bahrain
villarreal
atakayo
mma
mine
mca
swan
thia
ujana
##zishwa
##bra
##rl
##troni
waro
wasemaji
wahutu
kugunduliwa
kudidimia
yalia
naa
##isra
##unishwa
##meer
##mumba
##moi
alijua
alisoma
kuwaingiza
kuwajengea
##mila
##miminia
mie
waliwasilisha
ameonekana
##pashwa
wamepanga
imebadilika
imeimarika
zizi
wakikabiliwa
kujifua
indi
wanaokumbwa
##some
kualika
kuadhibu
lilitolewa
kufanyakazi
mkabala
ataongoza
usiri
ugenya
kiutawala
malimbi
##ulizia
upweke
hayaj
fuo
anayechezea
##pokeaji
weupe
##fikirie
##tizama
mtahiniwa
##manzi
mchache
kimesema
elung
umahiri
##katazwa
##nuiwa
##kunja
##enguria
wasamaria
nyie
kapenguria
alikosoa
unfcc
makamanda
kuchipuka
binadam
kijis
kizimbani
alichokiita
mafichoni
muteti
flick
orange
djinnit
idd
ndon
##umba
##uze
##ngu
##ky
##pat
wafikishwe
kuhangaisha
##kaliwa
##ant
yatakapo
##kuwemo
##lal
hudumu
huhusisha
##mokuwa
alitoka
alikuja
##kov
chall
walianzisha
walisajili
walishuka
waliuwawa
amepania
amezuru
tutakapo
semina
sitisho
##vumisha
wamefika
kuhudhuriwa
unaweka
zinalenga
shime
koplo
##anzishe
yanakuwa
hukuza
umeleta
tunajaribu
zilizofanywa
zilizowasilishwa
kutamatisha
limem
limeelezea
##bei
##mwaga
ataanza
nilifanya
niligundua
kinata
##inukia
dio
johan
##fariji
tutapata
mwiki
mwizi
sh21
##mwich
angeles
##hakikishiwa
waliyokuwa
walivyokuwa
ukin
bromwich
intanet
##pokewa
initi
kuchukuwa
njugu
##pumzika
waliotekeleza
carolina
kuwafukuza
##ishindia
waithaka
mathew
liberation
solomon
viwavi
##dhalilishwa
thelathini
ane
emily
fato
mfadhili
##gina
##gharamia
wajua
warejee
madha
##kir
##dar
##tofauti
hula
aliwania
kuwaomba
kuwalea
##tega
viwe
##ruji
##rushia
sagana
ilishindwa
kutom
mucheru
##endy
##pay
judith
##zema
imefungwa
aukot
iliyopelekea
anani
##tiago
kumfanyia
##wika
watashiriki
ikionyesha
kunge
itahitaji
gala
kuabiri
lilipitisha
odunga
zimesema
leila
yamebadilika
##ulie
anayefaa
ilivyotarajiwa
aliyopewa
stro
##sambaratishwa
##vunjaji
itakayowakutanisha
yanatoa
vijiti
1984
majarida
##unue
fergu
kudungwa
wamejihami
wahenga
sh80
imeahidi
##kandamizwa
##mausha
kuhesabiwa
yamkini
walter
econo
wanateseka
kubomolewa
sukumawiki
mgongoni
kutawanywa
gathoni
vladimir
zifaazo
lokesheni
beng
ifuatavyo
kheri
oe
odo
ukisha
wazingatie
mashiriki
kicho
kizaa
##dioni
##lequ
##sambu
kuwapokea
kuwarudisha
mwasisi
walikana
walipe
walimaliza
##reb
muchiri
rab
##vuliwa
wameungana
##silishwa
utaweza
unatumia
sou
wataruhusiwa
nyuso
umeathiri
itali
tunashirikiana
kuthamini
uliotiwa
rupia
hakuja
zimeendelea
##haramisha
luiz
lumumba
##stahimili
mamboleo
kutuzwa
##badilishe
pic
##lanyi
barre
elgon
tunatumai
ilivyopangwa
kumefanyika
litaendelea
yatafanyika
##fichulia
vibao
kupooza
ilipofika
masihara
santiago
mnono
brige
kisera
##jikakamua
panapo
utipwatipwa
elektroni
cyrus
shamra
champions
alimwuliza
service
uendelezaji
kuilinda
filippo
mbarak
##rotesha
antoine
abidjan
erdo
ito
non
pyong
uwekaji
wenger
##lke
##uthi
##tre
##ting
##kweza
##cke
##ints
##kifanya
kizito
alirudi
alichezea
alijeruhiwa
##pota
kuwafuta
kuwapokeza
##furt
waliungana
walitoroka
##anom
tash
##shelezi
##sudia
anahudumu
##isadi
lil
pazia
imefanikiwa
mbote
mwendeshaji
wipo
akitu
dakar
masinde
memo
kujika
pota
unmeer
yanahitajika
rigathi
##gong
watam
kunyamazisha
umefikia
joan
jomvu
keating
gas
police
##beu
tumefanya
alipoa
alipojiunga
ukipenda
cas
huwapa
ukomavu
dieng
lililofanywa
lope
##manyi
kuoga
maumbo
walipokezwa
kidedea
watat
yasio
##yonyi
##tance
vision
madirisha
makovu
##pepetana
mnya
wameachwa
waliambulia
harlequ
uchomaji
mabwana
##elekezi
hitajika
inayowakabili
enock
comoro
atomiki
golden
kuteketeza
fatma
philomena
indust
standard
kijisanduku
ferguson
pyongyang
g20
sande
uch
##phi
##lizwa
kuhakikishia
##bay
##ball
kigan
##merika
##safisha
##gai
kuwalenga
kuwafungulia
bagh
vidi
iliku
ilitarajiwa
iliundwa
tuungane
anapokea
afp
jamani
ulipelekwa
imetaka
imezidi
kuhudumiwa
akiu
akifungua
akizindua
waliopatikana
zinakuwa
kulikuwepo
masanduku
iliyotangazwa
kujifunga
zilifungwa
unatekelezwa
kumlipa
kusafiria
holela
umeandaliwa
toa
gavi
kufikiri
regi
chumi
yanayofaa
ukata
nyamu
upat
cari
vilipo
utathmini
lililosababisha
kutimia
sh16
mario
mutula
milio
itatolewa
monuc
alivyofanya
1968
ahly
waliahidi
viashiria
likawa
kabuchai
hazitachukuliwa
wazawa
vikombe
##kimbiza
kylian
mkaazi
##fafanuliwa
impala
njonjo
mugirango
tolgos
bamako
challenge
kizaazaa
huni
ibuka
jones
mpesa
oji
sat
uvunjaji
##ibiwa
##dhoofisha
##ugh
##tle
wario
kuenzi
kuelezwa
nasser
mawin
##kii
##yolojia
zaina
##chane
iliweza
ilifikia
walisalia
##chapwa
momanyi
##zeka
wametakiwa
wamepania
imeshinda
halifai
wandera
##mbiki
##mbiko
kamket
kujikatia
boy
kimka
tunai
aliyechaguliwa
tope
gambari
uliosababisha
inayofuata
zilizotajwa
jesse
rea
tumepokea
lukuki
##muacha
ubaya
kuorodheshwa
god
abel
uadui
likiendelea
muslim
mbuvi
kiraitu
##rejele
brazza
uhakiki
##anzilishi
inatambua
ukingo
##andora
pumwani
edin
bernabeu
##ingiliana
madoa
mamangu
##hitajia
mutheu
publishe
insulini
adhanom
ushirikina
schalke
lijalo
ashi
area
achim
dandora
kromo
mzinga
ojaa
sili
##mata
##yia
##yataka
##patana
##fti
##ftari
wasema
wambora
kirui
hainge
kag
kadhi
laden
##mbane
alimlaumu
##tumii
##anaa
kuwaita
wanaendeleza
miwani
kutoro
amepigwa
rahe
rayon
inacho
nyanda
padre
wameingia
imeelezea
imekamilika
##pangia
waliosajiliwa
waliothibitishwa
kobe
kilianza
##cea
makavazi
lilisababisha
uliopitishwa
titus
inayostahili
wasifu
zinazotoa
kinapo
##onewa
limetokea
tek
##tatuliwa
##fanikiwe
guy
kiptoo
hajapata
bartome
##phia
kumuuliza
asipo
aliyopata
kulaumu
kuyafanya
##ngoti
ibn
##bitisho
kuzamia
kufurahisha
itatumia
machine
frankfurt
udikteta
ongwae
watimkaji
kyagu
##mzile
##shonaji
phumzile
jennifer
ndondi
initiative
erdogan
publishers
kromosomu
ojaamong
bartomeu
ihakikishe
##ggi
wauaji
kugoma
kurekebishwa
##ance
##anunua
nap
mazi
mayo
##nazo
##zalia
zahitajika
huya
hump
##gado
##chon
alikariri
alijitosa
##tuhumiwa
##seret
bamburi
vidu
vivi
wanaanza
wanachukua
##mimini
miga
ilifanikiwa
ilihudhuriwa
amejitokeza
sema
##dom
ulihudhuriwa
wamewasilisha
imepunguza
##engwe
zitaka
akafunga
##luji
kujitambulisha
cohen
unmil
boston
kumjeruhi
kumharibia
shina
kunapo
inayojumuisha
inayosimamiwa
linajiri
wasikilizaji
rosa
##rejeshea
##kwea
ingawaje
wodi
haufai
##hamala
135
watunzi
kukomboa
josephat
vijidudu
watakaokuwa
njagi
##reketwa
zesco
ameapa
nikawa
vardy
##luhishwa
pufya
kuchuma
njuga
southgate
estro
itumbi
makinda
##dhibitisha
##chirchir
kicheko
county
lesotho
warepublikan
elungata
brazzaville
akubali
atua
dhehebu
kr
kmp
tangi
##os
##fly
##wake
watoe
kuboreshwa
nata
mahubiri
mafungamano
kido
kago
##titi
alita
aliamini
##wers
##kou
kuwaunga
kuwatetea
##ishauri
wanaelewa
saga
iliungwa
walijadili
amepinga
##chagu
##dotov
inapata
inajiandaa
anaya
##atumaini
##zesha
nyando
jaa
jay
wametia
wamepinga
maajabu
##juza
wakikutana
akaongezea
wande
kumshinda
yanaongezeka
kukan
ikim
ikitumia
kunyunyi
aliyetambuliwa
taabani
##zungukwa
uliozinduliwa
fedotov
linazidi
kitalu
zinazochangia
kutakuwepo
yanayohitaji
yanayosababisha
yamepungua
vinapo
tulianza
noor
fimbo
sh17
##anuai
alimsihi
kuvutiwa
nyembamba
fora
##ttle
aliajiriwa
mafupi
itat
kujadilia
walimkamata
uozo
akisoma
sh700
abuja
walijipata
kamukunji
zamalek
yanayowakabili
mapigo
##torokea
ushuhuda
##sisitizia
mathenge
ryder
darubini
bwan
donda
mcheza
nrm
oya
uzo
##nunuliwa
wazoefu
waondoke
kugo
kube
##ingu
maone
##enyenye
##mael
##rikisha
##tain
##tazamwa
kiru
kilia
##diko
huli
hujuma
alihitimu
##gumza
kuwachagua
kuwashtaki
wanahusika
wanaonya
saruji
ilizindua
muna
##suba
moeti
lions
##vutwa
chungwa
imefanyika
imejaa
unaon
unaleta
inatokea
boris
kumsaka
##anzua
ikielekea
itasikizwa
##chukulie
kuachilia
zilizotengwa
linavyo
linajumuisha
##fanyie
limelaani
hakutoa
##ituni
alipowasili
beth
akiwahutubia
yerusa
ninavyo
sh19
wosia
##mbelewa
kimemia
watangazaji
aliyofanya
##nuia
minyoo
kibayolojia
mapapai
##dhihirishwa
espino
1966
atakayekuwa
ivan
##hiari
kudhoofika
kuchezewa
njue
block
origi
kiharamu
osman
kutelekezwa
engine
csw
college
benard
johannesburg
vidimbwi
kyagulanyi
ahakikishe
ahata
fda
langa
mweka
mfungwa
nyote
sane
utoto
##iyo
##tandika
##ponda
wachangiaji
kuandikwa
kuegemea
##any
hall
zacha
##ketoni
hip
alitambua
##guri
kuwatakia
kuwatoza
kuwapunguzia
##ishawishi
wanama
chapuo
sad
kutoweza
ameambia
muru
tuanze
inafahamika
anaendesha
##vula
wamepona
unazo
halijoto
usaid
maseno
iliyotumika
inc
inf
inani
unyo
kumtoa
kukaza
kuifanyia
##soft
tunasema
kutengene
lilitoa
uliokuwepo
zinazoikabili
limekaribisha
kukumbana
zimewa
yaliyoendelea
arena
arthu
##walinda
kusikika
butu
buhari
anayedaiwa
marcelo
vilio
pigano
utupaji
misc
kimaru
lililom
kinachowa
misafara
mlimani
endelea
nitafanya
migomba
nanyi
wameni
##shindwe
scott
##benki
derby
tenisi
##likanao
hepatitisi
harrison
wakaazi
swing
kutandaza
durban
dhihirisho
unfccc
akome
cbc
cct
hende
kataka
mzungu
ss
uchanganuzi
waelewe
kufadhiliwa
yaanza
##najisi
##rac
##siti
##tib
##kezana
alifaulu
##wel
baro
##teswa
##shahada
wanazi
chati
mitaji
midomo
mwasho
saints
##para
##isikia
ulitokana
wamesajiliwa
imeomba
imepigwa
akifunga
akigusia
##pange
iliyopigwa
koi
matone
kumpokeza
ikitaka
kundu
kuiunga
kuikuza
itaongezeka
##vai
aliyesajiliwa
gad
kufidia
kukusudia
zimesha
mfuasi
yaliyotangazwa
rehema
tumeweza
alipotangaza
beyon
teke
##yanyu
kindiki
##rative
anayemwakilisha
wekesa
ukumbini
isipo
##lant
kipke
nimepata
hazifai
kuchafua
tutahakikisha
uara
foro
minyororo
awards
zinatumiwa
kuzuilika
##khungu
##gemeana
kapteni
inatazamiwa
pensheni
chepng
alimwamuru
##tunzwa
mpeketoni
slovakia
kinidhamu
aduda
microsoft
shaaban
innocent
espinosa
arthur
henderson
fri
gatu
gord
np
sci
##tman
##vonne
##16
waruhusiwe
kuelekezwa
yawa
yatatu
##kemia
hiro
##cheni
alizungumzia
kuwazia
vipele
##fuja
wanasisitiza
salo
sahani
ilibuniwa
walitia
walitaja
##retari
kutokomezwa
ameunga
ameripoti
muchomba
inaongozwa
##isal
pac
ulionekana
unakabiliwa
wanatekeleza
zinaeleza
iliyotangulia
kujipigia
anda
ankara
kuutumia
kusamehe
rita
hold
umepata
italy
aliyeibuka
aliyeteuliwa
kuambiwa
##barikiwa
inayohusisha
zilizokumbwa
wasije
##kilize
kananu
kutegwa
yaliyowasilishwa
uhamasisho
resis
atawasilisha
ujulikanao
ukaidi
fueli
##shindikana
vilipuzi
wakatoliki
sawasawa
##punguze
##shikamana
##wasilishaji
amewaeleza
masimulizi
kuwekewa
##matt
production
##yataja
zingatio
squad
vatican
talent
babangu
mujarabu
ngcuka
kahawia
alvaro
ojienda
kimkakati
gordon
azima
bwe
dili
flem
fgm
mjerumani
mshindani
okta
uya
vema
ww
##tri
##peo
##qa
wasia
wamaa
wall
waanzilishi
##life
kuyumba
kuwinda
yaa
mahu
##iafa
##kuna
##tale
##raibu
##lemu
##sagwa
kuwaza
samani
walishambulia
amesifu
tari
##chafu
##shoni
##ishtaki
##isaidie
lik
nchin
wakii
akipongeza
##zusha
##mbesha
waliokumbwa
##siliana
inatolewa
inatekelezwa
wanaojivunia
wanaosafiri
unatu
ikizidi
umeanzishwa
itajwe
##valiwa
aliyekamatwa
majibi
febu
marejeo
##mwamini
atai
yanayolenga
ukim
chebet
unaoshuhudiwa
kinango
castro
##star
tofautitofauti
##pigwe
anayeongoza
utegemezi
kutimizwa
waajiriwa
kuomboleza
vimesababisha
walipokutana
theluji
aliyowasilisha
likizoni
kinyumbani
##heshimiwe
kulaza
kukosolewa
230
##kosana
miguuni
vuta
##under
watakaopatikana
great
anavyofafanua
ususi
kuangamia
owen
ameipongeza
##thubutu
kizibo
gichuhi
najib
##tinental
jacques
kujengea
benghazi
baghdad
oktay
alu
bh
ez
fon
glu
itan
lor
osha
##hisa
##krati
##oana
##cano
way
kudaiwa
yas
##baguliwa
##atimizwa
##lac
##sit
zaweza
lav
alifungua
##temwa
wanalo
wanaripotiwa
wanaitaka
wanabenki
samoa
savula
ilizinduliwa
muwe
muiru
##birika
inaunga
paja
uliendelea
uliwapa
maalim
wakifariki
wakitekeleza
##jera
unajisi
witu
wanda
waliojihami
zinachukuliwa
kulifanya
##enezi
wanaofariki
wanaopenda
##shushwa
kilisema
ikitarajiwa
##zungusha
mabaa
kuapa
manango
zinazosababisha
jema
##harakisha
yaliyom
demu
rock
chelu
akiwamo
kutumikishwa
marsei
matifa
kasri
gui
kimapato
tulicho
##vers
1500
aliwafungia
wood
usm
kuzifanya
watata
angel
kusomwa
eag
##zuie
usomaji
kapseret
kihisia
amoth
kupandwa
kisovyeti
wanaotekeleza
kumuaga
##chezesha
betri
education
uarabuni
manangoi
ase
ep
mf
nw
nkana
oma
ogi
##dney
##bania
##ep
##gis
wahu
##liwi
yazo
##isto
##rior
##kuri
##tafsiriwa
##kem
##muliwe
##yemelea
alikimbizwa
kuwaenzi
kuwarai
kuwateua
wanamaji
wanakufa
waliambia
##piri
ameanzisha
american
amempongeza
tuchukue
##fidia
anaitwa
lim
liwezekana
jamu
wametoka
kupendwa
##funge
unaongozwa
endo
shuka
shuti
utaona
kujikuza
ungu
kumkabidhi
sur
watalaamu
tunaangazia
kemri
manunuzi
zilizotokea
kufukuzia
zinazoonyesha
zinazoendeshwa
##ondoshwa
haikubaliki
arts
chur
alipofikishwa
##amue
luo
lewis
kiumri
yametokea
##foka
hayafai
##mple
ukosoaji
anayejivunia
utenga
wakapata
##shoggi
##zingo
ninajua
aliwasihi
##manini
silas
nimem
wilfred
sh28
sh24
##waalika
isiyofaa
1962
kijiografia
walizokuwa
helb
faraghani
tusipo
##shindania
carlos
techno
heart
strath
stroberi
regional
cctv
katakata
wamaasai
majibizano
marseille
liwezekanalo
bisha
eb
rfc
twali
yong
##iwezesha
##sano
wacho
waisra
##atatuliwa
##kunda
##onja
##jikuta
##toshwa
zaraa
kaisa
laza
##tumbukiza
##goya
##polo
kuwahusu
kuwatenga
kuwatunza
basha
mwavuli
ilipanda
waliruhusiwa
##logy
##anolewa
amepuuzilia
mule
mukwe
mueller
tuy
inashiriki
inaangazia
inawapa
uliotekelezwa
imetokana
imeibua
akiugua
cour
soya
##boi
hawafahamu
umezindua
italeta
itasalia
mabaraza
zinazofanya
limeanzisha
##str
rosema
roketi
yametoa
unaotolewa
bukhungu
yoh
##tizamo
benzema
lililopitishwa
ninam
mwea
kilichowa
hauj
watani
##boreka
minist
ismail
angeli
kusombwa
maguire
##rahie
imeni
selina
ningetaka
comme
##thern
vipengee
wakimtaka
langat
ulipoanza
##isomea
tunawaomba
kufundishwa
##zuilika
kukeketwa
virutubishi
shahbal
difenda
montreal
mdgs
valerie
stockholm
upatanisho
strathmore
agu
akisha
bati
brug
erc
epra
funga
khadi
omw
xa
##dangan
##zan
##vate
##ponea
##cons
##jengo
watakayo
watakazo
kudharau
##haana
##kusaidia
kifungua
kiandu
hulipa
laer
##garia
##cheng
##gulu
wanaselelea
ilibaini
walikuja
walitawazwa
moyes
wamesajili
wameratibiwa
wamezoea
imechukuliwa
kupulizwa
unasalia
unapendekeza
akianza
waliohitimu
iliyoshuhudia
hakiwezi
mwanae
mwanakandarasi
makurutu
##kono
uliotokea
##yumbishwa
zilizokusanywa
wasipo
##oneka
##dway
luanda
rob
romania
##mbulishwa
yameripotiwa
##rajie
utatoa
did
lililowa
machapisho
187
kuorodhesha
ijumat
132
themanini
##shurutisha
thibitisho
steji
uvumba
##sakatia
##wott
visiwani
isiyokuwa
zisizojiweza
wameapa
##ssane
ameaga
##mkabidhi
nuhu
alassane
khatib
##hail
kudhoofisha
mabwenyenye
wastaafu
icu
wakisaka
aliloli
##tenganishwa
kiboko
oliver
olivier
aliyoitoa
##kishuhudiwa
ktn
oyugi
kitoweo
atlantiki
anderson
rosemary
kiandutu
akini
ima
iji
ks
lia
lord
mcc
rongo
tkuu
##oro
##oul
kushauri
kuhamishiwa
##eny
##bah
##kusen
##taje
kieni
kieneo
hav
##tokee
##hua
##cht
alihukumiwa
kuwatafutia
vifungo
ilipigwa
##reira
taf
muingereza
muislamu
##pakiwa
##suku
anasemekana
life
##riam
jared
##bwagwa
imetuma
wakipewa
wakijeruhiwa
unasaidia
akiunga
wanani
kamwo
shika
kujitia
kor
inde
wanaoendeleza
kumkabili
kimwa
nyufa
uliom
zilizopatikana
kufutia
##zungumze
zinazohitaji
wakish
##rance
jino
njeru
nilizo
chem
teresa
##mpelekea
bute
anayejulikana
##fikiriwa
mamaye
lililoandaliwa
##jumuishwe
ujamaa
kipye
tutam
ngina
kukohoa
##gramu
stesheni
kupokezana
vinywa
##dhihirishia
kapsa
mpatanishi
sh70
viumbehai
wanachofanya
henrie
langata
delgado
kukumbusha
akijitetea
wanaojihusisha
hitimisho
mapitio
equatoria
olympic
uendelevu
muguka
eriksen
walimwengu
kiutamaduni
supkem
yerusalemu
churchi
ayi
arua
iso
lg
mchoro
ot
plat
sms
sporti
tezi
##dina
##uia
##honga
##nyi
##nyesha
##tendwa
##swi
wachukue
kuk
nac
mafa
maho
##bainishwa
##kulia
kithi
kihali
##atimia
##jibika
haw
##sitiri
##tofautisha
hills
hubadilika
lala
##yer
alionyeshwa
##futiwa
wanaingia
wanamiliki
ilipungua
ameshukuru
mumo
sei
moko
japhe
imeingia
imezua
wakiongea
unachangia
akitafuta
waliokutana
kulishwa
kulimwa
iliyotiwa
##hoi
invest
wanaomiliki
wanaogopa
unya
yanaathiri
tunasubiri
jowie
aliyejiunga
alger
##engai
zimeongezeka
yaliyoanza
##cos
coronavirus
usipo
lever
##rejeshwe
tere
unaojumuisha
##waniwa
bulu
anayewakilisha
isil
##llas
kiprop
elvis
##onolewa
mkombozi
france
orofa
amewaomba
##welekeza
ikoje
yanata
##imarishe
ikin
ikis
mingineyo
haviku
kikohozi
khashoggi
mhalifu
kuhepa
korosho
kibichi
mediterrane
mapokeo
alimuua
taiwan
githinji
maprodusa
kagera
bulgaria
debeni
raheem
muiruri
eagles
twalib
band
gates
long
mvir
nza
nur
oki
tsa
tunga
uandikisha
##rh
##ring
##tone
##seni
##pongezwa
##penyeza
kukatika
##enki
##maku
##bab
##tam
##zifanya
kigen
##jifungua
##yar
huondoa
alitua
alitwaa
bada
##tei
wanakamata
wanakandarasi
##mikisha
##bury
mida
ilikosa
ilipewa
ilisemekana
walikusanyika
ameuawa
tutaka
inazingatia
inakumbwa
##fica
anazidi
wakienda
mwin
unapatikana
akihudhuria
##ishirikisha
akai
##peshaji
waliowasili
iliyobuniwa
##kwambia
kumshauri
hor
kuamsha
inayofanywa
inayohusiana
hait
yaliyojiri
yanayohusika
bela
vinapaswa
matamko
matabibu
##shewa
malenge
karisa
fox
##waajiri
zinatakiwa
itakayofanyika
josephine
kuhamahama
vijiko
abiy
##kistani
ameajiriwa
kichaa
anayochezea
mganda
kihalifu
yanayowakumba
##yoosha
menengai
mameneja
railwa
verde
gilgil
vipute
kuegesha
mitumba
spice
byrs
kusalimiana
nimeamua
kamotho
kivyake
sanders
laerke
leverkusen
arudi
ero
gate
isha
katanga
two
uingi
ushonaji
zingali
##khe
##sing
##peni
##24
##fisi
##lipua
kumbo
##kaguliwa
##rith
alilazwa
alisifu
##kodisha
basuba
wanaenda
wanasalia
mwambi
samo
ilidai
ilipelekea
walibaini
walifungua
amefanikiwa
muhanga
##biria
sero
justi
anahoji
moraa
jahazi
wameishi
imebeba
mbwe
unaotekelezwa
akaomba
zilipatikana
kilim
ikitokea
umelaani
itawezesha
itazidi
itapunguza
kejeli
gaku
lilitangaza
inayosababishwa
fedhe
kitabia
kufuja
limesisitiza
##taaja
alipotoa
betis
viliripotiwa
##rsen
##tanabaisha
kijasusi
ninao
kipenyo
kuoka
##peleke
karanga
##epuke
uajiri
kumesababisha
yatasaidia
kuporwa
aliapa
amewapongeza
hawakupata
internet
walimweleza
inavyostahili
1971
numonia
northern
4000
##haiga
salman
##lensi
democrat
##piganiaji
german
wingu
mcheshi
olive
elias
exp
pandashuka
hangeweza
##dhalilishaji
peace
kategoria
simeone
feltman
##rcial
octoba
##lazimishia
rebecca
kifundo
resistance
commercial
mediterranean
uandikishaji
650
dena
mjukuu
##ez
##gili
##pro
##15
##xe
##xy
##waliwa
##atinga
##enne
##isenge
kiyahudi
##dafi
##ongi
##lad
##yake
##tol
huendesha
lady
##poa
##zoeleka
kuwatoa
kuwafanyia
kuwadhulumu
vitoa
##fuu
wanahoji
wanafuatilia
##gere
miujiza
ilithibitisha
waliishi
walizungumza
waliongoza
walitekwa
##roidi
anauza
pampu
ulichangia
chenga
wameshiriki
wametuma
wamepitia
kupangua
##mbodia
fauka
utam
kujiandikisha
zilim
anywa
pola
pedro
inan
kumtumia
kumzuilia
hope
mwanafa
kungo
tunakutana
sheila
kutanzua
wazidi
manyoya
inayoendeshwa
inayounganisha
kutaga
limepokea
akish
tumeweka
arati
arror
yanayofanyika
yanayotarajiwa
##ateur
bura
butwaa
##rcla
amin
kitenge
##vern
kipkorir
loe
185
mahmoud
##sterdam
179
kulemea
thiong
mwelekezi
zinatokana
##gawanyo
andati
sanduku
wangependa
nikaamua
juakali
kikomunisti
emma
icp
bruce
maegesho
kuyatumia
fununu
isimujamii
nakumatt
republikan
tanui
mwanasayansi
sharp
bilbao
mawingu
tuyisenge
brugge
mviringo
fedheha
ao
adokeza
cba
gna
ganze
kyi
lanze
mfungo
ola
umo
utakavyo
udhalilishaji
##ding
##uchumi
##zisaidia
##tishiwa
##35
##likia
nabu
##iser
##basi
kiing
kidu
kiisimu
##sare
##sazwa
alikashifu
nit
##gut
##gusana
barcla
vivuti
##furi
wanalalamika
saleh
ilitumika
kutozingatia
amefika
##heim
tambara
muvi
inai
inajaribu
anaonya
anahofia
##unguri
##takata
ulilenga
##mbuk
imeandaliwa
imekumbwa
wakihitaji
unaeleza
unafiki
akionyesha
davis
##peanwa
maspika
ziligonga
kumhoji
##bok
##borg
1930
ikitiliwa
mwanama
rudi
kufifia
rec
ngumi
atachukua
unaoendeshwa
##ghadha
dhabi
106
wakiwamo
##rtha
stahiki
stashahada
kuogo
gizani
mlingoti
kuletwa
makokha
##eleweki
washirikiane
wangetaka
upole
360
cecil
kupeperushwa
##bell
tunatakiwa
ndama
##malundi
bolivia
muhoroni
##kanganya
sekretari
bwanyenye
##haanahu
mokowe
lanzer
vivutio
jer
mendy
osaka
out
spl
uume
##ito
##mishe
warudi
wahitimu
##kashifiwa
##antu
nama
##atwe
kiv
##atibu
haq
kaza
##kezea
##keketwa
alitamani
##kovu
kuwashughulikia
kuwatibu
viza
wanapoteza
wanabodaboda
mig
amepiga
amepanga
##hemea
muhi
seme
serge
anaelewa
wamepelekwa
wamelalamikia
imeratibiwa
kuponya
wakijiandaa
##wanja
akicheza
##zuki
wanyonyi
##pers
iliyopangwa
kujitwalia
##kwaru
wanaowakilisha
kuuliwa
##anzishwe
shang
##pindua
hoima
watachukuliwa
mahamat
ikifika
umezinduliwa
garsen
##husiani
alipoongoza
yanayotoa
ujue
unaotakiwa
mataa
##sher
amsterdam
tulifanya
fizikia
watch
williams
mwiko
foot
##pendezwa
kusumbuliwa
nduati
milimita
ustadh
nitawa
bondeni
mnanga
zitakazoandaliwa
wanataa
##rioli
kuwaalika
nzibe
ilioko
ukisema
watakabiliwa
watakamatwa
kudunisha
wanachotaka
kufyatua
kuzisa
sakafuni
zitatolewa
kukemea
ayacko
paraguay
shamda
morris
mandago
open
##husishe
bayoanuai
##yonyaji
wenzie
chiefs
upotevu
mashirikiano
didmus
av
ayo
dri
eth
fisadi
kath
kono
mpwa
mzungumzaji
ven
##kenya
##pendelewa
##cun
##fyatua
##wai
wawaji
##lish
kuchanganyikiwa
nava
##meza
##rahis
##muko
##ilini
alitokea
alifahamu
##tulia
nikam
##goli
##kodolea
kuwaka
kuwashukuru
wanalindwa
chaki
saana
iliripoti
walitakiwa
walivunja
walitarajiwa
ametia
amezindua
##endan
tukufu
seoul
siga
inadhihirisha
anaelekea
anazuiliwa
##ineja
##angaliwa
mbungo
mbunifu
unastahili
shuku
kulipua
kisanaa
kunajisi
yalitolewa
kukashifu
ikiongeza
kuibwa
##soko
inayoadhimishwa
zilizochapishwa
linakadiria
kiaka
zinazoishi
zinazouzwa
kutamani
mtupu
wenyeviti
limetaka
##taabika
zimefanya
yanayotokea
cherono
capi
##vey
anayeondoka
benfica
gusii
tulim
nomino
kupamba
nimeona
##mwita
240
vuzo
iweje
watakaoshiriki
##ricia
wanamtaka
1965
havita
wanasaikolojia
premi
##shughulikie
##tafutwa
helen
##zingatii
equateur
suruali
danny
zitatumiwa
##dhibiwe
josphat
##fcb
mwenzangu
##mikishwaji
tuliamua
kutendewa
kuvurugwa
children
street
mmarekani
butembo
uingizaji
##mmar
##wadia
walala
male
##ribi
kiatu
hasha
##yale
kau
kazungu
##timi
hupanda
hulipwa
alikimbia
nifanye
kuwadhibiti
kuwafaidi
##tein
wanazu
wanasoma
wanaugua
mix
ilimu
iliandaliwa
##uambia
amekufa
tae
muhuri
inaku
inaripotiwa
anazungumzia
anaiambia
moreno
liweze
pamela
wameu
wamepigwa
wamelalamika
imetanda
imelaani
kupongezwa
unaye
unachoki
##wanufaisha
kamande
coca
cous
wanaofika
kumfurusha
kuupa
hawaendi
umetajwa
umekamilika
itaathiri
tunaunga
inayoongoza
zilizowa
linamaanisha
kutabasamu
kinapaswa
zimeathiriwa
mfumaji
yaliyoandaliwa
yaliyosababishwa
kibantu
beta
fuko
ukoma
108
utumikishwaji
mwembamba
hajakuwa
zikionyesha
gemu
dufu
sh250
##ream
islam
msumari
kufahamishwa
zinatumia
mutinda
magoti
anatazamia
atakayepatikana
anavyoeleza
maurice
amollo
1957
brendan
muumba
wanakotoka
hununua
ufaafu
##teketeza
mrundi
##thibitika
rennes
##ritimba
kutendeka
cyprus
mtwapa
butterfly
haijalishi
economic
feburuari
kamworor
amini
dra
epi
edo
ifanyiwe
lena
mpo
nus
pp
seleka
##tc
##pv
wae
kufaa
kulengwa
kueleweka
kugongana
maili
##iacha
##rico
##uny
kifani
kireno
##ondia
##laha
##sifika
kalu
huliwa
huamua
hupendelea
lagos
alivutiwa
##sesha
##gum
base
bafu
mill
mielekeo
saw
iliweka
walipendekeza
walibanduliwa
ameibuka
ametiwa
amekamilisha
##rose
anasubiri
paro
##andaji
wamekataa
wamekamilisha
imerejea
imepangiwa
billi
kupisha
wakieleza
akikutana
akionya
daada
ende
akajiunga
akamatwe
fadhila
iliyokuwepo
##ness
kujikomboa
ziliendelea
wanaopokea
wanaopanga
wanaosimamia
kumzika
kukawa
umepangwa
keru
lilitokana
wasike
uchache
kinawa
kinadada
wakisi
zimepata
##isemi
alipohutubia
rou
yamefungwa
yameibuka
casa
neti
##mpende
five
kiprotich
mtoni
184
kuzipa
kuvumiliana
madarasani
homabay
##kwony
akilihutubia
matete
##vyaji
tukifanya
kuchonga
abdulaziz
inataja
haviwezi
alexis
agano
kudondosha
aliiba
warrior
##wajibike
##kanyaga
jackline
unatazamiwa
clark
tungetaka
anakotoka
trekta
kuyata
calci
phil
sabina
council
kutuny
##lipiwa
punje
unisdr
tweet
straika
zainab
jamuhuri
kimwarer
henrietta
justice
polack
barclays
daadab
ajue
cele
imwachilie
katia
singe
uz
##mc
##uo
##br
##pend
##qo
wabu
##lity
kugeuzwa
##karabati
yakini
##ateng
kidha
kavin
las
##chen
##moishi
alikata
alifanyiwa
kuwafungia
wanadhani
wanajitahidi
miungu
mwatate
ilikubali
ilimpa
##kuwanga
walimokuwa
amehudhuria
musu
##chacha
tuweke
siro
inachukuliwa
##dhiwa
lima
limo
##isiti
wamepatikana
wameshuhudia
imewasilisha
##jee
mwo
mwingiliano
halij
akajibu
waliojitolea
zinachangia
iliyohudhuriwa
utaleta
hatunge
wanaolenga
kunamaanisha
##wit
ikitumika
ikifuatwa
##somesha
tunafurahia
##ungia
msikitini
tim
kutafutia
kinavyo
zimea
zimechangia
zimechukuliwa
akinu
ukiritimba
nilitaka
kijasho
mtagu
misrata
kimakosa
kilichosalia
giko
barra
zitachukuliwa
abdou
walipoanza
watatoa
watangulizi
uavyaji
sh22
sh26
mikoko
sh32
yanatumika
##yanyaswa
petersburg
wangekuwa
mpishi
akimtaka
usuluhishi
amejipata
nyororo
akiachiliwa
kihalali
kukariri
khamis
##geleaji
august
umwagaji
kujinasua
igathe
githunguri
idris
##yunyuzia
kuhifadhia
blanketi
athletic
malimbikizi
chelugui
kaisari
khadija
mnangagwa
calcium
acho
afichua
ewe
gwiji
kh
mkwe
ningali
oman
pl
sing
uchumba
uwasilishaji
##mruhusu
##ulia
##sley
##pf
##cto
waganda
##likuwa
##kauti
naf
##atani
mame
##isse
##riza
##him
##zame
##unzo
kilu
##lez
zaha
kahata
hushindwa
huathiriwa
hubeba
##gawia
alisson
##tumbukia
kuwazidi
kuwaepusha
kuwahangaisha
##inaf
wanaweka
wanapigiwa
miriam
walikubali
walielezea
##losi
##pit
##herekea
##pakwa
ravine
inaelezea
inauzwa
mkumbo
anahusika
##chorwa
nyati
wamefunga
wamebeba
wamekanusha
kenol
##fung
unapokuwa
unahodha
unafuatia
enya
iliyopatikana
utayarishaji
mepesi
kujitajirisha
insp
wanaohusishwa
kumlazimisha
ikitumiwa
umekuwepo
kuipata
##ungan
timbuk
linaonekana
kutafuna
kutoamini
chui
desa
ukianza
bewa
##wasilishwe
teh
101
##ukato
tuliona
waasisi
kinachoitwa
##kamati
hazitoshi
duhail
210
aliambulia
290
kuharisha
wameachiliwa
graham
usiokuwa
hawataweza
tetekuwanga
##badilishaji
forces
##kasirika
##kasirisha
kuangaliwa
##angazie
wachapishaji
imemnukuu
ufin
kukerwa
kuwafuga
oil
quin
washairi
magic
##hihisha
mukami
virgil
metropoli
waganga
premier
timbuktu
ct
cj
iyo
ige
jlac
kys
mls
ombo
smo
ukisa
##zburg
##visha
##cus
##fl
waishi
kuheshi
yah
nabar
##inini
maangi
##mary
##rif
hufika
alielekea
aliitwa
alijitokeza
##tura
##tuhumu
kuwatuma
kuwapima
##futaji
wanapania
wanafuata
##ruta
mich
sambo
ilitaka
amemu
muethiopia
tumu
ravina
inaendeshwa
anahusishwa
motoni
##vute
java
wameli
wameuwawa
wamehimizwa
imewapa
imejikita
imeorodheshwa
kupatanisha
wakiingia
wakiendeleza
waliorejea
zinasaidia
iliyosababishwa
iliyosomwa
anza
wanaokadiriwa
kumpoteza
yanasababisha
rica
yaliendelea
##bour
watashirikiana
watapatiwa
umemalizika
tunaku
aliyeomba
aliyeshtakiwa
aliyeaga
top
ulioongozwa
uliowakutanisha
manukato
inayoshughulikia
feisal
kitawa
haiko
hakupata
redioni
tumepoteza
atahakikisha
unaotumika
##inuko
109
magarini
wakaamua
divai
fikiria
stahili
asli
usanifu
barca
mchapa
##changi
abbas
115
yataanza
kinyuklia
kidunia
##kwondo
##yonuai
uvunaji
hotel
##shawishiwa
patel
kisura
amemshukuru
##tumiki
wanachoki
uchokozi
itatumika
qaida
volcano
kutenganisha
wamenufaika
##serv
kumwokoa
karume
mwenzio
alexandre
laboso
kapsabet
churchill
nacada
splm
shamdasani
kiakademia
kysd
cre
gwari
isu
mrama
ninyi
pfi
usan
##nan
waungane
##kumbatiwa
kiang
kimea
##yasi
##yaona
##mbavu
kaluma
lapor
##moti
alitakiwa
alikuwepo
aliungana
kuwahifadhi
vicho
##fuku
wanaelekea
ilikamilisha
amekosa
amepatikana
amechangia
amehutubia
amekariri
amesikitishwa
##ifahamu
##ends
##shiriwa
see
inao
likisa
wametambua
wamekaa
wametengwa
imepatikana
kupendelea
wakirejea
unaongezeka
halima
akafafanua
auto
wane
##pei
walioingia
##wezavyo
kujipiga
kujizatiti
wanaosema
wanaofaa
wanaozuru
soma
kimata
ikijumlisha
itaongeza
odongo
zimesaidia
zimewekwa
mfupa
refar
ukimbi
ukimya
##wapokea
niliye
chemi
yameathiri
##fanikishwa
##ategemewa
kutumbuiza
##pigani
noc
kipenzi
##vunje
vilivyomo
kimewa
vinavyotumika
mkesha
##inishaji
steroidi
angeweza
cardi
bonchari
kushtaki
anatafuta
patricia
ameacha
##mkashifu
inatajwa
irak
duara
walijibwaga
kutawaliwa
campbell
kibofu
kumuacha
inaadhimisha
##sawazishia
ushujaa
##sisitizwa
ambulensi
ochoi
ogutu
mfanyikazi
accra
estrojeni
kukanyaga
kutengenezea
capitol
cousin
tehran
nabarro
gwaride
ashauri
ashiki
ev
lat
mhispania
ora
oburu
udukuzi
##hy
##tru
##kenda
##ekeleza
##xon
watoaji
wawasilishe
##listi
nah
maenezi
##bayo
##onia
##lar
##yara
##town
##salimu
##moza
alifu
alipaswa
aliripoti
alishauri
alishambuliwa
back
bayonuai
wanapendekeza
ilifika
ililazimika
walihitaji
waliamini
walidhani
walishirikiana
##enyekiti
##pitiki
##endani
raja
rashia
rachel
anali
##dhima
padri
jama
wamezi
wamejaliwa
##juzi
##jukumu
imewahi
wakiunga
wakiimba
##luliza
fau
kusuasua
zilitumiwa
miami
matundu
cole
pema
wanaojaribu
kuutokomeza
yaliongezeka
hot
watashuka
umeingia
kuiongoza
kuibiwa
italazimika
aliyefanya
toyoyo
##cep
makarani
##atory
timbe
feeney
wakwe
wakishikilia
yaliyoibuliwa
tumekubaliana
ukitumia
ugunja
nilijua
##mbuliwe
yamepatikana
capita
bango
##rations
fuvu
##leaf
anayestahili
pijini
##sherati
dikteta
ghaza
nimefanya
govern
145
##steroni
wasiojua
litafanyika
isis
kusuka
##kadir
##yongo
itata
imran
mbizi
njiti
penis
koroga
##konyaji
##tics
alitupilia
trela
##taiza
morata
##teketea
heroini
makerere
cnn
comey
sanitaiza
gandhi
mchicha
front
##rejelee
tambarare
gikomba
barrack
pfizer
arisha
mono
nss
swahili
##osha
wachana
kukis
kuandamwa
kumalizia
kudhalilishwa
##kaushwa
nafanya
nathan
maende
madala
##nak
##bashiri
##kufanya
##kitishwa
##kirui
##onwa
##jitenga
kala
##sawiri
huandaa
humpa
##moshi
alie
aliishia
aliingilia
alisimama
alichapisha
nipo
kuwapokonya
##shakur
wanasaidia
wanashauriwa
cham
mihe
iliongoza
walipanga
walizuru
##pie
kutohudhuria
##shani
##par
##rove
inau
inakiuka
inakisiwa
moise
pakistani
ulipata
wamekubali
wamekumbwa
wamejiunga
wamefuzu
kenha
kengele
kupulizia
wakitarajia
unahusu
unaendeshwa
##ishirik
akashindwa
waliotawazwa
##kwamilia
##angushwa
matangi
unatishia
kumkosoa
kumlaghai
kuumizwa
##pul
##potiwa
kunaswa
watavaana
itaandaliwa
itawasaidia
inayozidi
inayokuja
inayoangazia
alan
alleg
zinazoongoza
limepiga
kandie
hakum
ukifika
rooney
##mbuliwi
vinazidi
yoko
utungaji
ukumbusho
noah
maanake
sh120
vituko
##historia
uswahili
kuzitaka
nimewahi
gikunda
##komeshwe
eldama
##dishiwa
wanapofanya
stefano
mapadri
yasiyofaa
mutha
hass
hasla
##dengua
1973
wapatanishi
gram
mabovu
michezoni
nzioka
waliokolewa
##tumikishwa
amewahimiza
kudhuru
mhasiriwa
##thera
panama
kuharamisha
kumwomba
kuwanunulia
elektroniki
nasibu
swazuri
teddy
brewe
##ahidiwa
mcca
vera
omanga
kutatizika
udiwani
wawezalo
volk
alionao
kuhutubu
okapi
mwenzetu
##badilishanaji
mabichi
gerard
##chekesho
gikaria
smart
fatou
kutorokea
unguja
buluu
mbwembwe
express
taekwondo
refarenda
deng
ldc
mkimbia
purity
##ile
##mson
##rra
##nd
##eki
##emba
##war
wapita
wapatiwe
##liba
yalaani
natarajia
##yaa
hufuata
##tuliza
##kom
##koli
kuwaongezea
kuwakumbusha
kuwawajibisha
bak
vichekesho
chambo
ilitumiwa
walionya
walicheza
walitiwa
amewajibishwa
##palilia
inaonya
inajitahidi
jasare
wametekwa
imepanga
imekataa
unamaanisha
akiingia
zinadai
zinafanyika
kulikoni
shir
peupe
wanaopitia
boer
kumchezea
shanga
##endeka
ikidai
mwanamalundi
umeshuhudia
kuita
job
aliyeambukizwa
taarab
kep
kuagizwa
uliofuata
##yula
titi
manyatta
kiashiria
limeeleza
limefanyika
limekuja
kanyi
kukuzwa
mkangan
zimepiga
chupi
alipoji
usiu
nilihisi
##swamad
yameendelea
unaohusu
##mlazimisha
vinafaa
huwafanya
mbavu
prog
matamu
utando
##jaribiwa
##festo
ukuruba
amana
lililofungwa
121
kinachotakiwa
gikuyu
tunu
aber
forum
##nuru
babaye
##kweni
kuepukika
hawajapokea
monte
moncheng
##ried
nafurahia
zebaki
kurudiana
wapendana
usogora
abdushakur
upokonyaji
iliotolewa
kipigo
sh75
wolfs
njuki
1951
uwaziri
millicent
sirleaf
kinywani
sebastian
uuguzi
kiwandani
french
enterprises
cd4
kigumo
salome
mukwege
##taajabisha
##ladbach
ukimbizini
nssf
mkimbiaji
wapendanao
awiti
done
kfcb
pati
pres
sele
ubo
ubadilishanaji
yvonne
##mtia
##db
##nge
##tino
##tathimini
##pingi
wago
wapenda
kuchanjwa
kuyeyusha
kuendeshea
yakisa
##inka
maxi
##babe
##taliki
kipe
kabar
##sak
##saki
##mue
aling
aliandikisha
alikwenda
aliwalaumu
nitro
wanali
wanasemekana
wanaaminika
wanazuiliwa
mira
mizuri
ilipelekwa
##revu
kutoridhishwa
amelazimika
amewasihi
##chaka
sebu
anauguza
wamefikia
wamechoka
wakitarajiwa
unaashiria
akiuza
akijivunia
dad
##pangua
wanangu
##pewi
usaha
mero
matunzo
inte
wanaostahili
wanaokiuka
wanaolengwa
wanaoambukizwa
kumfuta
shangwe
shanzu
yanakabiliwa
yalionyesha
umewahi
itaalika
aliyehudumu
taadhima
gao
asilimi
wakishindwa
##bes
kukupa
haile
harare
tumem
dembele
alipoona
yanayoshuhudiwa
##dhana
##malizwa
unaohusiana
kinu
kusimulia
butere
##andikiwa
mtalaam
ninaomba
fib
##likane
stahamala
asinge
alimpiga
alimpigia
111
wasioweza
mkoba
kupokonya
kufungasha
##rudiwa
yanatokea
sydney
##rgat
##singizia
##pepetwa
kongowea
mchuuzi
wanavyoweza
etienne
harun
wanazopata
##xie
zikawa
imeajiri
alinyakua
##suasua
##rmingham
swaleh
##pondwa
watajiunga
namshukuru
mlemavu
highway
merkel
##kishuhudia
forest
subhaanahu
##batt
society
manifesto
ondieki
##jinasia
riyad
teknohama
rugby
gonzalez
bosnia
tashwishi
humph
kunyunyiza
waisraeli
teresia
mwambire
kitengela
allegri
jasarevic
aitwa
arejee
aingie
bl
emu
nka
sanga
sunder
uyo
ubadilishaji
uenyekiti
##itoa
##egeshwa
##cle
##cul
wasili
wagiriki
kuyeyuka
yaelezwa
maat
##baba
##kimya
kifanyike
hamil
##yapata
##huzunisha
kalenjin
##mbidi
##yeka
##chishwa
alicheza
alifuzu
alitambuliwa
nitaji
kuwaletea
kuwapiku
kuwanufaisha
kuwatawanya
baga
vizi
vito
##shabi
##rut
##miki
mills
ilitangazwa
walikuwepo
walifaulu
walisafiri
walitarajia
walikimbilia
walibya
##low
amedokeza
tamba
julie
rachi
inamilikiwa
anazungumza
anapinga
##ingatinga
##vumbua
uliongezeka
wamevamia
imekamilisha
birmingham
zimo
zikia
unazingatia
##pea
waliobaki
waliouwawa
iliyofanya
iliyotumiwa
utafanywa
##hoko
kola
zilifanya
kishu
mathu
matanga
boya
kumfukuza
solai
kimungu
kusalimisha
yanajumuisha
kukausha
mahame
ikieleza
hawaruhusiwi
umeonekana
kuihusu
##somewa
shadra
uliodumu
inayoonekana
majiko
##ghubika
kufurusha
zinazotegemea
kutakiwa
karibi
kutegemeana
vitamin
akishinda
yanayostahili
##cou
upandaji
cambodia
huwasaidia
##mpia
uwaniaji
kusiwe
miso
##change
##mbuliaji
##wasifu
kumeripotiwa
likitamalaki
misikitini
award
kikemia
##waagiza
kusomewa
isiyojulikana
##ikosoa
bonn
##misri
arafa
##vos
kubaha
##likipa
waliagizwa
##matishwa
alizoa
amemweleza
uhc
anaowa
roselyn
tuwei
alimwachilia
mercado
sufuri
mahecic
##tunuku
##basket
aliungama
kirimi
mchoraji
cpj
kerr
manowari
2063
francois
marrake
dickson
maziko
barobaro
fleming
shanghai
penisilini
monchengladbach
hamilton
aje
afafanua
bran
eid
flyn
gur
imenti
mchumi
nenda
ris
rho
swazi
tanda
##tina
##esta
##gs
##gho
##ponyesha
kubali
kushikwa
name
mace
malenga
##tabirika
##kivu
kihe
kimuziki
##onso
hadaa
kambo
huhitajika
hupungua
niweze
##fugwa
##inah
ilitwaa
##gize
kutoji
kutotumia
amechaguliwa
tukita
tushirikiane
tukumbuke
##shiana
inaendeleza
inakaribia
anashiriki
anawahimiza
##dhili
##takasa
wameona
imetumia
wakitembea
akienda
akikosa
akadai
wanyakuzi
waliotengwa
iliyojaa
colu
inatekeleza
kabati
kuudhibiti
yanafanya
hodi
hovyo
wataingia
watapatikana
ikianza
kununulia
kuipinga
kufuatiliwa
##kilinganishwa
jembe
limeendelea
luxe
##potezwa
##yange
unaosababisha
care
##badilike
kujisuka
anayekabiliwa
anayefahamika
atata
pique
utenzi
major
wakakosa
##isherehekea
kupasuka
kinachohusika
##mando
choi
walakini
uber
##ishuhudiwa
aliyopitia
ufukweni
zinginezo
mwitu
mino
thir
mkosoaji
zinategemea
zinatoka
amewaonya
270
##ssions
##elimishwa
##rieda
wasallam
mnyororo
zitakazofanyika
alichokuwa
##garaga
saluni
##saidiana
maurizio
##thaya
1959
herve
##ponyoka
abdulswamad
vyungu
##teleza
pakavu
kyalo
galata
ntaganda
##tabiriwa
kimutai
sylvia
project
modern
lanet
maulidi
pirlo
nwrl
kavindu
igembe
kabarnet
flynn
swaziland
amano
azer
itumike
kani
mzingo
tna
uelekezi
##dric
##ngi
##oli
kudhani
kugawanywa
kuchanganywa
kuchanja
kurgat
yaya
##isya
kig
kifi
##mezewa
##dimba
##onono
lampe
##jadilia
##fadha
##moglo
aliendeleza
alikumbana
alianguka
alicheka
##weto
##tupilia
##gou
kuwafunga
##fuchefu
wanalipwa
chawa
chakita
##bua
mirefu
ilifunga
ilifungwa
waliongeza
##lock
ameamuru
tarik
##biwe
##chain
rapa
inaenda
inazuia
##duwaza
wametaja
wamegundua
wamevuka
##otesha
imezi
billy
kuhuzunisha
mwondoano
akifichua
waliohama
shuhuda
kulisaidia
matatani
pelosi
kumtegemea
kumkumbuka
sofia
supu
hukutana
watashindwa
mahasidi
sheeran
uliohudhuriwa
zilizostawi
zimejaa
zimeshindwa
mfumuko
reso
jinping
alipochukua
aliporejea
nilikutana
##aneli
##hurumia
teuzi
yamekuja
kiny
kinataka
kinyozi
##fungue
##badilishwe
bula
kikatoliki
magongo
kwpl
mweupe
kinachotumika
##changie
kucharaza
food
murwa
mikokoteni
itc
kuhamasishwa
##rgan
##donia
zero
impe
wasome
ould
kuchota
warsa
##thee
silver
##diso
chepkwony
zuberi
kushawishiwa
corpo
marubani
network
##fikishia
haijatoa
bilionea
erling
kuonja
sky
kadenge
osotsi
afrobasket
kiviwanda
mwanasaikolojia
kupindua
tanzbatt
kuteremka
mbotela
##chafulia
sigalla
sunderland
shadrack
gang
iongeze
jani
mmu
mish
singi
ufun
uonge
ushirikishwa
usheli
work
##ainisha
##zisihi
##ska
##80
wafiwa
wazembe
kuzoea
nasaba
##haulika
makos
##nakiliwa
##isy
##kumbi
kimb
haoni
kasha
kamiti
##timizwa
##sakatiwa
huwezesha
alihitaji
alihisi
aliliambia
##wezo
##tuzwa
kuwashinda
kuwaendea
kuwafahamisha
wanakula
wanachangia
wanasaka
wanakabiliana
wanahaha
michi
mibaya
sas
walishikilia
walipatiwa
waliitaka
kutolipa
amebeba
amehitimu
amejitolea
##hesa
mufti
##endu
sekai
sessions
##roy
rabai
rarieda
inakwenda
##ungulio
##ongoze
imetokea
imepelekea
kupenyeza
mbw
ziendelee
wakifuatilia
mwenge
akihusishwa
dama
##mbiana
walioanza
walioandamana
waliokimbilia
##ners
meta
kujitengenezea
wanaoathirika
wanaovuka
boss
kumpongeza
soi
##puza
ikiangazia
itahitajika
kubwaga
kelly
##ungwe
##yumbani
##hamisi
alk
jero
##enaswa
zimetoa
yaliyotiwa
beck
beseni
##mpson
mbagathi
104
kupunguziwa
market
##gawana
##sherehe
onye
mawathe
tulipokuwa
##lando
utekelezwa
chibok
kukifanya
kinachoonekana
##usse
##pelekwe
116
theresa
mwihoko
musyoki
awape
mpigo
##tsk
zinatolewa
aliombwa
kuwekea
ufanye
zisizokuwa
francisco
wameacha
kidikteta
wangechi
anayoi
walivyofanya
pupa
kuaminiana
series
zuio
wajenzi
ninata
zinazowakumba
mtajika
wamemtaka
muujiza
antijeni
wanakoishi
cyril
kushughulika
farhan
athman
oilers
inaadhimishwa
visingizio
kupanuliwa
hydro
##form
matheka
kihindi
kichefuchefu
##mbatie
roysambu
ioc
uonevu
gaddafi
bishara
seif
football
azo
blin
ek
fati
olu
uon
ushirikishi
##ratasi
##tangazia
##sla
##cte
waanza
wakari
waishio
kuzin
kudumaa
maini
##baa
##rike
##ribisha
##high
##atiza
##atizika
##dadi
##ondi
##jibikia
hamas
hukabiliwa
alikumbusha
aliumia
##pot
##porwa
##kolojia
##tez
wanapiga
wanajumuisha
save
iliwahi
ilizidi
kutojua
amezaliwa
ameondoka
muia
turufu
sifuri
anashukuru
anafurahia
##dhika
live
##zetini
##andaliwe
imeandaa
imekubali
biwott
##mboga
##vizia
akakataa
##hofu
wanaojitolea
wanaoshikiliwa
kimtandao
wataamua
nyusi
hawakuru
kunyonya
umei
umeenea
umeimarishwa
kuipatia
games
kuainisha
lilifanya
linafanyika
algi
kufiki
zinazom
zinazopaswa
kutamka
kinahitaji
##onee
niliji
nililazimika
roger
teule
buda
##andilodi
web
102
hapaswi
aila
mamalia
kwingi
kuondosha
aliwaeleza
staili
##indikaji
wokovu
mahote
karate
theat
##inolojia
##amrishwa
kutakasa
zinatu
adungo
mvuvi
nafurahi
wameafikiana
##kiswa
kumwakilisha
kuchin
##llow
usambaaji
##okoe
kudanganya
##tatizwa
thomson
salzburg
dorcas
uhondo
kihal
icj
superhigh
tunatambua
litakalofanyika
akombe
akothee
uenezi
primary
##teketezwa
masula
##vurugika
joao
aliyen
ghost
##makinikia
##fyatulia
impact
##sadikiwa
##ctions
vipepeo
uzoaji
kubebea
blockchain
kipyegon
belarus
kazakh
maathai
uongezaji
makossa
utekelezwaji
superhighway
amp
ging
krioli
mch
mgawanyo
oyoo
pate
sate
uele
##lengi
##mma
##manisha
##dundo
##bisi
##penya
##12
wava
##mambo
##bariki
kiita
##razil
##hurst
zarika
hivo
huathirika
hushirikiana
alitekwa
##tusi
niji
##komea
kuwaonyesha
kuwataja
kuwalipia
kuwahadaa
bakita
wanaya
wanapote
wanazingatia
wanalipa
##rusu
##rukia
iliomba
iliandaa
ilishuhudia
walipaswa
walinaswa
walitinga
##log
ameingia
muha
##endra
##rot
simamizi
anasimamia
wameripoti
wameandamana
wameshauriwa
wametawanywa
imetoka
wakereketwa
mwendelezo
akirejea
akitetea
akitembea
audi
waliotajwa
maskauti
iliyoathirika
iliyoshuhudiwa
utafutaji
kujitambua
ziliwa
zilifanyika
kisonono
wanaopaswa
wanaoaminika
bombo
kumhusisha
kumpinga
kimunya
suti
kusawa
yalionekana
hawaji
itashirikiana
itawapa
jozi
zilizotumiwa
alpha
albania
marefa
##onari
jessie
##beti
kanini
##kelezi
hakupinga
hekta
yaliyokumbwa
uhaini
dean
alipofanya
alipohudhuria
alipogundua
ukiongozwa
##mbukizana
##cah
camb
kutupiliwa
weru
kupunguka
pick
##gawati
magwanda
##kweta
mabondia
ajito
linalofanya
linalojulikana
gome
gian
giro
alimsifu
kimem
137
##onyaji
kumuokoa
litafanya
angahewa
##ords
kuyapa
##ssium
##pasua
hawakutaka
aliotoa
muammar
utokome
hakuwahi
alain
waliachwa
mpenyo
akimtaja
yatakayofanyika
wamejipata
kuangamizwa
tajiriba
##belle
1958
mariam
herman
wajinga
brand
hamaki
##limishaji
glasi
kujinyakulia
ernest
airtel
derrick
vichakani
zingatia
##visiwa
clement
kmpdu
##chagulia
forodha
railways
mkanganyiko
uyoga
azerbai
lampedusa
ushirikishwaji
kihalangwa
fro
funi
gange
hisi
ifanyike
izingatie
mzio
mzizi
mtizamo
obi
ova
omamo
plu
von
##luni
##afikia
##asisiwa
##yatumia
##pk
##cin
wajadili
waraibu
kugeukia
kuzembea
kulazimishiwa
kumakinika
kumbaka
nau
nae
##bakisha
kidal
##dika
##racy
hidro
##fasi
##mbania
alifaa
aliripotiwa
alikumbuka
alitoweka
niu
##semi
kuwatisha
vivu
wanas
wanaonolewa
##ruku
ilifaa
iliona
ilihusisha
ilikua
iliwasilisha
ilipitishwa
walishangaa
amepona
sielewi
##doksi
inakabiliana
anapigiwa
modi
##ines
light
pal
huona
wamesaka
imeenea
imegeuka
kupang
zipata
wakita
akipewa
akitibiwa
davos
wanjo
waliopokea
kamwana
iliyopendekezwa
utahakikisha
shikanda
kushuru
##kwaza
info
wanaotiwa
unatumika
kabo
soweto
jiografia
watai
watapoteza
##endee
ikiji
hawapo
kundini
umetokana
toron
uliokamilika
mananasi
manyumbani
inayodaiwa
zilizotengenezwa
2024
kutamausha
kinafanyika
wakishu
haitaki
kutete
zimepatikana
zimeshuhudia
atahitaji
atashirikiana
atazikwa
yanayotumia
doro
doreen
##dhinisha
tea
yametokana
unaotozwa
bukini
ukora
ukomunisti
atm
ulafi
guyo
tulikutana
ndoo
##atwaa
mtindi
kuokota
hazipo
kuchao
##hamasishwa
abde
118
kumuomba
yumo
uache
##amsha
thierry
majaliwa
aliagizwa
##kosgei
cut
syn
##venue
kushangazwa
kushtua
hamza
jaribu
hawataruhusiwa
##ondary
bayer
anavyosema
wamejizolea
utiifu
kuwanusuru
kuchezwa
kufili
kufyonza
hatujawahi
musau
glavu
##yoyoma
jacinta
kutengeza
mitume
##pingana
kurembesha
organi
kuamrisha
ifaayo
hitler
brigedia
maonesho
##yanyulia
##mikishaji
midahalo
donetsk
singida
mahoteli
kazakhstan
giroud
toronto
aelezea
adhia
msh
mdudu
ntu
ore
pango
##dana
##wy
##amba
##zongwa
##bane
##sv
##smi
##ffe
##18
##wati
kudhamini
kuridhishwa
##hasi
##hivyo
##tapeli
##yoro
kida
kitakapo
##lah
##kes
huzingatia
laweza
alihojiwa
alitawala
alitenda
nii
nikita
##kolea
##gubika
kuwaonya
kuwawekea
##tey
##sham
wanajulikana
wanakadiria
##elekwe
mitisha
mwach
walishuhudia
waliteuliwa
walipwe
##rega
rabat
anahitajika
moline
##dume
pakua
chania
wamebuni
wametishia
wametumwa
wamefurushwa
imefunga
imewasilishwa
imebaki
kupatana
##chemka
wakipitia
wima
with
akiweka
daftari
waliojiunga
waliobobea
master
##hou
anatiwa
unrwa
kumkaribisha
kumsifu
kunakili
##wii
rice
yalifanywa
yalifumwa
itakutana
tunahisi
aliyepewa
kega
toure
shati
shaban
kuafikiwa
lilifumwa
inayosema
inayopaswa
zilizomo
linashirikiana
alf
wasicha
uchagu
wakishika
zimeratibiwa
##haramishwa
mwandiko
tumejaribu
ataku
atarejea
atafikishwa
alipoenda
mazinga
ukiona
bemba
nyamwe
##swamy
yamesha
yei
##cao
uponyaji
atpu
matasi
##shetani
mtayarishaji
wakamatwe
kithu
kupasha
linalojumuisha
beira
kinachoshiriki
kinachosababisha
loko
kuziwezesha
willian
ikaongezeka
apple
117
karata
kumechangia
litawa
yakizidi
sh23
babar
ndugai
kuzusha
##welezea
260
yanategemea
hawajakuwa
mafumbo
iweke
wasaliti
##hamishaji
##vuniwa
continental
twiga
##ondaliwa
brokoli
##okota
##mbolezo
diallo
##saray
karakara
kuwanyanyasa
1946
upekuzi
kughani
mbwana
##ketch
alinieleza
kieletroni
werevu
hajj
phy
hansi
athira
aliyeni
kalou
punguzo
fanisi
murage
torres
majoka
vifusi
hopkins
##ggs
##donald
tonono
benedi
madhambi
oyamo
usanjari
madalali
galatasaray
ushelisheli
azerbaijan
adhiambo
mitishamba
ain
atoa
g7
hpv
ikam
nana
oua
onda
ooko
othaya
plan
##mato
##achiliwa
##achia
##ning
##tat
##wazwa
wareno
kuzia
kuzeeka
##kate
yau
##enji
##naki
##kikana
habi
##sadia
hija
hutaka
huhakikisha
huamini
alikua
alielekeza
alikaa
nikaji
##got
kuwapongeza
vielelezo
wanauza
wanakuja
wanahimizwa
mwamuzi
sao
sajini
walichangia
waliwekwa
amelala
tamati
##shangilia
##pambwa
inarejea
inaendesha
inapunguza
kutokari
##idiwe
##isifu
pake
jadon
ulishuhudia
wameenda
##otegemea
imeathirika
imefungua
imekuwepo
imezoa
unakuja
unashauriwa
akizi
wanana
waliopiga
waliovamia
utabibu
##house
matte
matthe
##tiaji
injera
kumzima
kumlinda
kumtenga
soli
ndimi
yalijiri
kukasi
umefanywa
##sota
shere
aliyedai
kutishwa
##ungwana
shada
makamo
makaratasi
lilionekana
lilianzishwa
kiai
limetokana
kukun
kukut
yaliyosalia
refu
atashinda
unita
##ulisha
kujisimamia
##inuliwa
vilianza
utumikishaji
uterasi
##vertz
malta
mwerevu
126
kukiukwa
kinachojulikana
mashindan
183
burma
gigiri
apr
tunat
mauji
walipom
walipowasili
watate
uajemi
malaba
mjasiriamali
220
kupokelewa
maombolezo
cuf
##quo
muthu
mkristo
njagua
##simuliwa
wanayopata
waliambukizwa
alizozi
inatafuta
grego
##vanus
village
equi
unavyoweza
1956
wakisalia
wakisafiria
ninatoa
mccar
merce
cancun
mapipa
tamthili
walionufaika
sultan
muliro
vichapo
raymond
##hirishwe
reggae
mbaraki
secondary
##rabatiwa
season
michuki
##filisika
##tegemee
ubepari
##mehin
##mbikizia
tekinolojia
hiroshima
sportiff
japheth
mixed
nusra
parokia
kuheshimiana
yokohama
aitwaye
nyamweya
ambani
amiri
donge
kyo
krem
manii
mchunguzi
ocs
pcea
##lde
##ainishwa
##achilia
##rke
##non
##gye
##py
##wao
wasamba
kukana
kugawanyika
##kabwa
yasema
nahitaji
maongezi
##madu
##hid
kwahiyo
kiungani
##laki
##laye
##tokwa
##hudu
kapu
##sar
##safishwa
huweka
hupotea
hugharimu
##chunge
alilalamikia
alipuuza
aliuwawa
alikaidi
alitunga
alitikisa
##koti
kuwaandaa
kuwaangamiza
kuwaibia
baruti
wanapasa
##ruk
##gevu
mizo
iliandikisha
waliong
waliunda
waliandaa
walitwaa
walifungiwa
kutolipwa
kutowajibika
ameishi
amehukumiwa
taulo
muku
turk
##rofi
anaenda
anachezea
liku
##chole
pare
passa
ulifanya
wamewekwa
imetangazwa
imebainisha
kupandi
##jembe
wij
akilia
akichukua
akikabiliwa
akijua
akiondoka
akataka
akalalamika
wangwe
zinastahili
fasher
iliyopigiwa
##nel
kopo
zilizon
##kwani
##dilisha
##angoni
kumlaumu
##siamu
yalizuka
##box
watalaam
ikifikia
ikidaiwa
hawafanyi
umechukua
umeibuka
aliyehusika
shake
makasisi
kuasi
kuadhimishwa
##atoweka
uliochapishwa
uliopendekezwa
zilizom
zilizoidhinishwa
kufua
zinazostahili
##ndarasi
kutegua
zimetengwa
mbilinyi
yaliyoshuhudiwa
rehani
atashiriki
ataingia
ukifanya
ukienda
yametolewa
unaoanza
unaohusisha
##kabiliane
103
march
ushambuliaji
utukufu
##pakata
##undika
##ments
usindikaji
wataadhibiwa
silabi
kuziweka
barns
kuchacha
##wasikia
watatakiwa
mjakazi
februa
stewa
majasusi
zinataka
linatumika
atakacho
patrio
waliaga
waliwataka
mikebe
wanazohitaji
brook
##hudhurie
warundi
mhamiaji
kuchemsha
##stonia
anachotaka
biskuti
walinunua
inatishia
##stein
wananufaika
mipigo
vipuri
kijene
walionusurika
freeman
ikisalia
ubomozi
kumbikumbi
##strom
regina
##naldum
digitali
diop
potassium
samboja
breweries
wolfsburg
humphrey
thirdway
corporation
molineux
passaris
barnsley
api
bron
cran
dja
dongo
ema
ikweta
mrc
mdemo
oce
pr
##ik
##wal
wakini
waqo
##light
kulewa
kugongwa
yazindua
maya
##zari
##zamishwa
kirwa
##raf
hayat
##keta
alipanga
alistaafu
##tukia
##tushwa
nipate
##koo
kuwaathiri
kuwachunguza
kuwapigia
kuwajulisha
kuwazuilia
bako
##fumo
wanakubaliana
wanakadiriwa
iliko
iliwekwa
waling
walilalamikia
##rema
amesafiri
tuone
##ishano
julia
##roga
inazi
inapitia
##iness
wametiwa
imefichua
imeundwa
imefichuka
##chumbia
mbelgiji
mbrazil
##mbolewa
unaenda
unajulikana
akidhibiti
##kiah
##mbio
iliyofungwa
anan
matshi
wanaoibukia
unatia
boe
subu
yanam
wataku
watahakikisha
watasalia
hawaa
kunisaidia
umetangaza
tunaji
jota
gama
shayiri
linaathiri
alph
##stru
kanya
mkabaji
yaliyopendekezwa
lubanga
yamefanya
##walisha
anayepaswa
##menia
mtrh
##pungukiwa
##mbwaga
zitapata
apelekwe
112
litasaidia
foden
ijapo
garimoshi
##dharauliwa
wakilinganishwa
tabitha
kusimamiwa
##yonye
##waachilia
makalio
maimamu
syste
##khtar
nduguze
makofi
zitakazotumika
wanatambua
kubagua
wangeweza
trade
kuchunga
alikosomea
kairu
##tawaza
huambukizwa
mustakha
wakiachwa
akiamini
wanajihusisha
anachoki
zimamoto
belgut
tuliozungumza
kutatizwa
utakaso
athens
walowezi
olympia
hajatangaza
kuburudisha
muigizaji
musila
kokoto
kunyoa
gerald
flying
confederations
mipapai
okong
industrial
www
loew
maendelo
mccain
##culate
algiers
utokomezaji
wanjohi
kieletroniki
ethe
epuka
kv
ld
mvi
mise
nono
ochi
pendo
ron
sti
seng
uhusika
uchangiaji
uhamishaji
xhaka
##ipata
##mm
##uts
##zation
##bt
##wasco
wayne
waingie
kushauriwa
kudhalilisha
kubatilishwa
##kabu
##rip
##kitisha
##yoa
kitoto
##dil
hupeperushwa
alibahatika
##tum
##tumbuiza
##zomea
kuwateka
kuwanoa
bapa
vitega
wanafariki
wanalalamikia
wanakumbana
##rudishia
mimina
sapoti
sars
sallam
ilitia
walili
kutoshiriki
kutotoa
amehusika
ametoka
muya
##shio
inafuata
inachunguza
inahatarisha
anakumbukwa
litatu
##zeshwa
##vumiliana
ulizinduliwa
##mburg
imeimarisha
zitumike
wakizi
wakipigania
unaelekea
dadi
akamwambia
waliotia
waliodai
walioshindwa
waliotoka
waliofuzu
utapitishwa
kujiinua
kolo
zilipata
ano
anategemea
polo
compa
colly
kumpokonya
yalipatikana
yalitokana
mashataka
hawali
hawajaa
kunywe
umeweka
umebainisha
itapokea
itaamua
tunaiomba
shee
shemeji
kuthaminiwa
##cet
##ella
liliripoti
##atoroka
inayotokea
##kulal
linawezekana
albu
kutalii
limejaa
alipokamatwa
yanayochangia
##sisimua
beas
lehemu
leroy
yamejaa
yego
bulls
107
##tabasamu
gue
##rthe
kiprono
124
kinachom
mtongwe
##manne
kuziuza
nimefurahi
walau
golikipa
barna
mchafu
haupo
ubishi
ikabidi
maulana
114
177
ufurahie
carbon
itakayoandaliwa
adc
mbeya
yanatishia
##ingoja
kujazwa
##ufaike
utakaoanza
aali
kubashiri
nikifanya
melissa
morogoro
anawataka
kuchuuza
wakiachiliwa
penta
dansi
##tereka
vipofu
##halalisha
monicah
hayupo
yangali
dyna
##dumishe
##fyatuliwa
wasudan
hilde
kizalendo
claude
georgina
edinson
warriors
rachier
tononoka
mashindanoni
collymore
850
afa
achani
hongera
mz
mangu
mundo
nyari
qua
utiaji
vinge
##danganyifu
##uiwa
##sy
##ghe
##pine
##pendana
##cka
##19
ward
wamat
wamisri
kuhitajika
kuingiwa
kubebwa
kuhamishia
kuinuka
##kapu
##atha
main
##masia
##ririka
kieran
##lakiwa
##razwa
##hura
hucheza
huvutia
##gala
##mou
alisalia
alihutubia
alisimamia
alitekeleza
aliulizwa
##tuti
nitaka
kuwauwa
wanapatikana
wanashauri
wanahudhuria
wanafurahia
wanashuku
chaka
ilikutana
waliye
walijiunga
##logia
amezuiliwa
mutuma
turin
##robaini
inawakilisha
##fir
##dhifu
moh
##dhafi
watulivu
ulipitishwa
ulimfanya
ulizuka
wamependekeza
imechangiwa
unafanywa
unaitwa
##wangu
akimaanisha
family
kova
cola
conak
wanaota
wanaohama
kuuzima
ndimu
kusainiwa
umeni
kilivyo
kukalia
watafuta
watapiga
watazidi
ikipata
hawaamini
kuichezea
tunahimiza
aliyetoa
##baridi
zilizosababisha
linam
zinazotakiwa
zinazojulikana
kinazidi
limechangia
##dumaza
haihitaji
msaliti
mkakamavu
zimesitishwa
##gwana
##chungulia
##mwamuru
tumegundua
dey
##joa
##joo
alipokamilisha
yamechangia
yameathirika
##yanunua
unaoathiri
buyu
marwa
pilau
yoga
dawati
guru
##verde
##ongaji
asd
##punguziwa
wataala
gio
vimeanza
tutaanza
147
wenzako
178
makubalino
ufuoni
kuyauza
sh36
kitiyo
kitivo
yanatu
kujamii
muasisi
##dhehe
inavyoonekana
esl
##unukiwa
alizotoa
wanavyofanya
iringa
senati
cec
kuaminiwa
##tafuna
demokrat
imeagiza
kimyakimya
brenda
wanaotembea
peponi
kujinunulia
setien
alimwagiza
walker
vioo
kipofu
awuor
nyandu
subra
##tetee
hudson
kutawanya
nikuvute
aliyeagana
alexandria
##chinja
kiwanja
hawajalipwa
lenol
bukavu
swansea
waroma
vivian
yohane
ikisisitiza
tsavo
samoei
ethano
mrundiko
matetemeko
uswahilini
kimbilio
funika
kutokaribiana
conakry
asisitiza
aci
emb
gy
linu
mbari
mpole
ono
oketch
pand
sisemi
uende
uvun
##mz
##ukuu
##gro
##genzi
##yuni
wachukuliwe
##likumba
yazidi
nak
maro
##ency
##meo
##mey
##lay
##rawe
havertz
kapa
##sasa
huua
##mor
alihakikisha
alipanda
alitangazwa
alitilia
alishutumu
##tures
##guano
balaka
bawabu
midd
mijengo
sapit
ilifanywa
ilitengenezwa
ilishuka
ilimfanya
##pimana
muller
##chagizwa
##chafuliwa
##shele
julian
sig
inawezesha
anaingia
anasomea
nyang
wamebaini
wamezungumzia
wamebaki
##julia
imekanusha
kenga
zitaa
wakianza
wakitokea
wakitegemea
##vil
akifuatwa
akimlaumu
auma
##ongelea
zinapata
zinapasa
##lulu
med
kujivinjari
wanaouza
unw
kumtambua
##siah
sumaku
shan
yalizidi
ikionekana
ikiongoza
ikitaja
ikiendeshwa
hawaelewi
kunyima
umekithiri
itapatikana
tunapanga
kutungwa
##bilia
ulioendeshwa
msimbo
##hakika
zilizopitishwa
fear
festus
msf
##wezekano
kutazamwa
##kelea
hakuku
mfumko
alipojaribu
alipoamua
yanayopaswa
bekele
nyabo
##karipia
unaozingatia
bande
##atemala
vinapatikana
##zaniwa
fuku
kurasi
##fikiwe
kitinda
nollywood
##fahamike
linalohitaji
129
##menyu
kuzikimbia
kurushwa
gicha
alimkabidhi
##chanya
kuvumbua
haziko
133
131
nganga
vinavyopatikana
sh27
misituni
wanapopata
##lingham
bahar
vinatarajiwa
leah
zisizofaa
aache
kupuuzi
brigi
traore
nikaanza
wangamati
wanayokumbana
ilopita
valverde
wahindi
wakiahidi
1953
1954
brent
alinusurika
unatambua
estate
##teremsha
kampaundi
kujiamulia
democracy
##pumzike
blood
kongwe
mapumzikoni
princes
skrini
biolojia
kuchangamkia
maficho
osoti
prague
##duguri
kpc
flames
kokote
okuto
ppes
napsa
engineer
##mplex
kianglikana
##roveya
kupangisha
zipatazo
kamwanah
uchaguzini
tamthiliya
wijnaldum
arifa
dro
ioni
jwan
mzo
obie
plas
wino
zani
##wu
##tch
##vania
##waona
##waruhusu
waandaaji
kuchochewa
kuishinda
kuanika
natamani
##rich
##tak
kil
kizingi
haruhusiwi
##sio
##tosheleza
hulenga
aliandaa
alishukuru
##tuka
nitakapo
nixon
##gozi
kuwasihi
kuwachochea
kuwabandua
kuwalazimishia
wanahangaika
miito
mwasi
ilitanda
iliwapa
walihisi
walichaguliwa
walimlaumu
ameandaa
tafuta
tarus
muti
muguna
tuseme
tutumie
##pad
mkuki
anazi
anafuatilia
liwalo
parc
ulitoa
imejiri
imeamuru
imethibitishwa
imesitisha
##chuka
ziweke
##mbour
##liwaza
wakionyesha
wakijua
akilalamika
##panuliwa
##pedia
waliowasilisha
waliotangamana
sikuweza
megawati
kujiokoa
mialiko
##anguliwa
kisma
mathia
inatoka
wanaozi
hakikuwa
kumtangaza
kumpenda
kumshinikiza
sokwe
ndii
mnapo
mwanaye
kuiondoa
kuitekeleza
itarejea
itachangia
tunali
tunashangaa
kemboi
gaye
nafahamu
kitaendelea
kiarie
kiambaa
##uroni
wakina
##athira
zimechukua
yaliyozuka
read
tumepiga
atahitajika
ataondoka
atafute
kitutu
yanayotumika
yanayomkabili
##col
luke
ross
chema
##kaririwa
kinya
##care
cag
##foma
##wanie
anayeshtakiwa
aic
utatekelezwa
majeneza
kupashwa
kupakua
##rtho
##fahamiana
aliwapongeza
linalopaswa
kilichoanza
kukimbi
kukitumia
##punguka
kurushiana
kuoana
165
168
134
119
gem
vinavyosababishwa
vinavyohusiana
##tokaa
january
##angika
##zinduka
mbui
wavumbuzi
waweke
mumeo
maiduguri
hawajaweza
##rushaji
##rekebishe
kifasihi
westlife
roboti
haikuweza
nuklia
wajiunge
wajiepushe
##maraswamy
320
vikiripotiwa
huawei
buruburu
##wns
imewafanya
iliahidi
blad
yanayowahusu
special
hautakuwa
##ishikiliwa
utakapokamilika
raiders
baidoa
trophy
princess
mgongano
kumtusi
coomaraswamy
##rushiana
klabuni
cop21
ezra
ufinyanzi
alkhamisi
matthew
matshidiso
boeing
beasley
osotimehin
##mbourg
estonia
fra
kyang
linga
mchang
msho
nwan
ones
owalo
ponda
ran
toni
usia
uzushi
zis
##ild
##afikiana
##batiwa
##oya
##14
waamuzi
kufungulia
yatt
##atta
##ather
##bacar
##zawadi
haf
kahi
karaha
##sal
huvi
hudai
huchezea
##jasumu
##chwe
##chelea
##moko
alipitia
##tusaidia
nice
##goa
kuwatembelea
kuwashinikiza
bari
bambari
##tee
wanahudumu
wanakwenda
##gers
sahili
ilisaidia
iligundua
ilishuhudiwa
##pikia
kutoingia
amefaulu
taathira
muge
##char
##shikana
##pak
july
rada
inafikia
inampa
anasalia
anashirikiana
molu
motokaa
likia
pasca
uligundua
wamepongeza
imeli
imekua
imegundua
imepeleka
mwislamu
dazeni
akapoteza
wangi
waliolazwa
usagaji
iliyoendeshwa
wanaojiunga
ung
boulie
##tajika
sospe
suu
watajadili
1920
umesalia
umethibitisha
umeibua
kuitoa
##vard
tunau
tunaelekea
tunakabiliwa
tunastahili
jokofu
aliyei
keiyo
kuambukizana
zilizosababishwa
linakuwa
linaonyesha
zinazomilikiwa
##jiliwe
jeffrey
##keleze
hakufika
mkarimu
zimetumika
zimeharibiwa
yaliyotokana
rex
ataunga
atapatikana
atamuunga
alipokataa
nyaka
rojo
tewa
unaopatikana
unaoitwa
kusiko
fumbo
kujisaidia
marg
##sheki
kwengine
utumaji
wakae
ndere
ndevu
guatemala
##hisio
##zinza
figue
kushukiwa
linalofanyika
lome
##cius
vilivyotokea
kimeongezeka
zitafunguliwa
gema
kipaza
kipalestina
175
moiben
theo
darzeni
##jitafutia
##llers
##sambazia
280
##ffer
itategemea
samwel
tukipata
alivyosema
kisukuku
wapishi
usiozidi
austin
atakayem
hawatakubali
ouru
inapotokea
vikiendelea
agg
papai
kupepetwa
parklands
uchochole
kufunzwa
falcons
kimatifa
makonde
hazitakuwa
kuangua
misururu
##cillin
##windaji
dylan
selhurst
mithika
confederation
gaspo
mahujaji
utengamano
malengelenge
wanataaluma
wanazuoni
kishujaa
cambridge
cranes
mathias
boulierac
sospeter
awasili
amali
avo
aruhusiwe
aluoch
bisho
ceni
era
funza
ichukuliwe
iingilie
mnuru
nz
peni
senda
smes
wis
zlat
##dent
##dhoofika
##alikwa
##hn
##ece
##sf
##vent
wape
wacheza
##liano
kuri
kuhariri
kuenezwa
kuisoma
##rique
##kila
##zike
kiuno
##medi
##jiwa
##ramba
##timka
hupiga
huunda
humfanya
##fasiriwa
alitajwa
alikubaliana
alikutwa
##wesha
##tural
##kor
##zozania
basari
babat
##tegwa
##tembelewa
vij
vich
virus
##fumbia
wanafunga
wanaungana
##bugia
##elekee
say
ilishiriki
walizaliwa
##remala
amepanda
tabu
muo
muradi
##pasuka
siko
inapungua
anarejea
anaongezea
anashauriwa
wamekiri
wameruhusiwa
wakizingatia
akizuru
halipaswi
akatangaza
autho
fasili
iliyomfanya
iliyoachwa
utachangia
melinda
kujiwasilisha
zilisababisha
angu
pembamba
ino
inatosha
wanaokosa
wanaowania
kumcha
kumchukua
kumlea
kumfuata
kumtuma
kumfikisha
mnadani
mahama
hawahitaji
kunyamaza
kuiva
kuidhibiti
tunalazimika
jolie
aliyetu
aliyetaka
inayotekelezwa
zinazosababishwa
kinafaa
karibia
jem
resea
aristo
alipohudumu
yanayotekelezwa
##dwar
nilidhani
##dhishwa
unaotumia
mbau
kusihi
anayemiliki
wembe
matambiko
linalosababisha
hatufai
nimeanza
hautoshi
hazipatikani
ijuma
164
yakijiri
kulaghai
kukosana
kandamizi
##lindo
mutura
##limishe
shakava
carl
sh350
##rudiana
andrej
##elimika
mutwii
kusakatia
vocha
mbogamboga
##volu
inavyoweza
inavyoendelea
unapokaribia
wajiandae
nikim
alichosema
kukataza
watakaote
akiso
mitsu
herv
blak
delhi
walikotoka
action
kisomo
##teremshwa
mjengo
kimila
atimuliwe
kujinyima
jacque
alimuuliza
kurekodiwa
sidib
mlaji
wanaonyonyesha
saito
iliyowashuhudia
nyagah
kuvurugika
lloris
muthomi
gardens
chokoleti
thiago
ukinzani
npsc
tungali
sekretarieti
wawajibishwe
##unyinyi
kolabo
##moglobini
kizingitini
yattani
atumie
cana
cul
eve
imam
kma
kreti
mene
mpenda
pur
rna
rena
song
swit
uje
urani
##lation
##uke
##uko
##zonga
##zunishwa
##bk
##rdi
##pm
##poni
##jishindia
waiya
wawindaji
kuchana
kudhihirika
yafanyike
##hati
##hazina
maw
mase
maingiliano
##kuwe
kigo
kioni
##meke
##media
##lavia
hajaa
##yapa
##sive
##tosa
##muda
hujaribu
hutafuta
##moka
alizua
alikiuka
alipwe
aliamrisha
nike
##guzwa
virefu
wanachukuliwa
##midi
sally
sagan
ilipaswa
ilibadilika
walituma
walidaiwa
walikamata
walitofautiana
kutochukua
ameki
amekana
amefungwa
ameotea
tupa
tutatumia
##shinikizwa
##fande
##ishini
sep
siwa
sima
sikiliza
##fiana
mkur
##sukari
##nipa
liwa
nysa
wamezuiliwa
imetakiwa
imeitaka
imekwama
biel
zikisema
wakiongoza
wakiandaa
##funwa
unachukua
unajiri
unakaribia
halito
waliotuma
zinazingatiwa
utafanya
komo
wanaojulikana
wanaokufa
kumchunguza
kumdhulumu
kuumiza
kuuguza
yanaanza
yanasaidia
yanahusu
kunakuwa
umepita
kuibia
kuifunga
kuijenga
itawasilishwa
aliyetokea
kutishiwa
gai
shabana
uliotangazwa
inayoungwa
wasikubali
zinazozozana
kutamalaki
jeli
jebel
zimeonekana
zimetajwa
heung
refer
arvs
dee
atazuru
becker
down
roba
yameonyesha
yamejiri
unaoonyesha
##stahi
atat
pibor
##lande
waamini
128
lower
chooni
nimeweza
nimegundua
alimshukuru
alimtembelea
kuvuma
##endekezwa
zitaweza
ikaongeza
vimethibitishwa
##phone
geta
kipau
##julikanalo
uambuki
asiwe
agost
ufukwe
muranga
ismael
josep
step
##changanye
zinatofautiana
braut
yanat
hawajapoteza
itatekelezwa
ear
sankok
kimojawapo
wameajiriwa
##ruguru
aladwa
##kutanishwa
ningekuwa
eddie
turathi
wamunyinyi
allardy
elect
##karabatiwa
ameiomba
1952
kanem
hern
kuchanganua
##elekeze
queen
vyangu
kuangushwa
##fautishwa
sidikou
kabiria
jeremy
mitupu
kangema
baiana
ambulan
kuyatekeleza
music
allianz
simeon
kushtukiza
osewe
ambrose
washikilizi
ubeti
muluka
mashemeji
seroton
mwanafalsafa
yahya
capital
aberda
luxembourg
satelaiti
mwachonda
february
mustakhabali
wamatangi
gicharu
kyangwali
waiyaki
allardyce
alai
achie
dina
edua
goni
ikwa
mchungu
nduma
nanasi
ozoni
osama
tis
uhariri
yury
##umbwa
##wing
##adamu
##yle
##cens
##wazuia
wavi
kudidimiza
yaendelea
##enguliwa
##babishia
##hiriwa
##taifa
##tafiti
##kike
##diani
##onje
##jificha
kada
hupandwa
laura
alipoti
alirejelea
alisikitika
kuwacha
kuwachukua
kuwatesa
baby
wanadhibiti
##miati
ilivuna
ilizoa
walitembelea
walipitisha
walilazimishwa
walihamia
##rela
##pid
kutolea
kutovumiliana
taya
tabora
inafanywa
inapokuwa
inakua
inafuatilia
anay
anajiandaa
mosul
##angasi
lithu
lijulikanalo
##isionari
##chok
jamie
wameandaa
maada
##juana
##jutii
zichukue
wakihudumu
wakiripotiwa
wakikumbwa
wakivuka
##vidogo
akakosa
akahoji
akaribisha
waliopinga
usasa
##000
fasheni
fahad
farida
kulitokea
iliyotokana
sikujua
mesha
ziliwekwa
count
wanaoshtakiwa
wanaoamini
wanaosakata
unyonyaji
kuutekeleza
kusahaulika
mnavyo
hawapendi
aliyejitolea
##unguni
tokeo
toby
gait
shakhtar
makavu
##thie
zinazohusishwa
##andro
kutemana
mkao
zimeweka
yaliyotajwa
akisu
dedan
atapewa
yanayofanya
kibwezi
card
##atembea
##enoga
##vet
##andike
atangaze
mashina
kassa
127
kukithi
kinachofanyika
kinachotumiwa
mtan
lodwar
giggs
alimshinda
wilder
johns
##epushia
asimilia
kulelewa
kishetani
amewapa
yanataka
alijifunza
mtemi
##rinda
haijabainika
inavyotakiwa
mnene
aleppo
jenereta
usiofaa
vala
waliapa
mchuzi
kuzozana
broad
huacha
##rouk
saracens
emme
1940
1947
bindamu
icg
hujipata
atuliwa
vidogovidogo
stoke
##elekezwe
greenwood
nyuzijoto
anatuhumiwa
carol
kibor
vancou
thro
million
veroni
ikiadhimisha
ikiadhimishwa
ataamua
##goslavia
philli
kugura
vieira
kutunzwa
garden
aviv
##pitiliza
johanna
anemia
shamrasham
mwekahazina
beyond
nabulindo
records
kuogofya
semedo
uzbe
cardiff
theatre
lenolkulal
reading
mchangani
aggrey
mnururisho
sendai
babatunde
lithuania
vancouver
shamrashamra
akutana
dsm
emili
fida
hon
isema
iwaa
ifahamike
lisa
mjin
misheni
mrepub
ndia
osi
osa
ous
pg
pnu
trini
ual
vishawishi
##zane
##eka
##gation
##fwa
kudhulumu
##katisha
yafanywe
naka
mawanda
kiku
##mers
##dian
##dium
##onana
hajali
haley
hamira
##sic
huharibu
hutekeleza
lai
##mbeleza
alijitolea
alitofautiana
##tudo
##potoka
kuwauza
kuwakaribisha
kuwalazimu
kuwatumikia
kuwahukumu
vido
wanaonyesha
wanazungumza
wanalengwa
chau
charo
mikosi
sababisha
saman
sapra
ilionya
waliendeleza
##rest
kutokota
ameona
amezingatia
amewekeza
murithi
##bil
serem
siki
inajenga
anapasa
anaaminika
mokua
moyale
##choko
nyundo
pai
pame
papua
jako
jagina
uliandaliwa
ulianzia
wamechangia
wamefungwa
imetengewa
##chumia
##chelle
mbingu
zifunguliwe
##dee
wakikamatwa
##vijasumu
akida
akihoji
waliobadili
waliomaliza
maswa
iliyohusisha
shimoni
meusi
metho
kupikwa
zilitumia
anyanga
peris
wanaohisi
wanaomezea
kumkosea
kumtema
kiminini
kimfumo
hoho
kukatisha
kunatarajiwa
itai
itayo
itasababisha
tunalo
tunahofia
tunawahimiza
aliyetimuliwa
leos
wazimu
ulioshuhudiwa
uliomalizika
manongi
##bela
##bera
kanye
kanyiri
kukumba
yaliyopitishwa
yaliyotekelezwa
##mwagika
##itha
nyarugu
changarawe
kutupatia
vinasema
kukabilina
mbai
webu
pius
onyon
onkwani
##muaji
##undikwa
##llahu
linalohusu
amazon
chou
##komeshe
alimshauri
mchawi
##cipa
willock
kimepungua
elfs
146
ileile
waita
matundadamu
##waahidi
wavutaji
kufahamisha
itakayokuwa
baruapepe
nitapata
inavyotakikana
##undwe
mnyenyekevu
natija
londiani
##tanguliwa
aweke
##kutane
akawataka
brother
imewataka
helko
##angany
6000
naivas
uanasheria
ungekuwa
##ponunua
abdulrahman
makonda
veter
tree
farma
lyn
##husishi
betking
associated
urban
kihingo
riyadh
zitakapofunguliwa
mugenda
waluke
kumwita
vigori
##bbean
rabsha
kidosho
unyafuzi
abdoulaye
mutharika
kufilisika
kujamiiana
zlatan
authority
research
emmerson
nyarugusu
onyonka
elfsborg
ake
ahimiza
awo
aondolewe
epua
icha
igha
idp
itekelezwe
janja
lenzi
ogola
pf
pdp
rwa
sundo
sino
ufi
uzio
uandaaji
##ibishwa
##uta
##widi
##zma
##bis
##bba
##rina
##opo
##ponya
##fk
waheshimiwa
kuandikia
kurandaranda
##kawia
napata
nabii
##ining
mapu
maonyo
##ballo
##unzwa
kiangwe
##mel
##jivuniwa
haa
hart
hariri
##yas
##mbazwa
kavana
hushuhudiwa
huchaguliwa
hukaa
huvuna
alisikia
##koi
vila
wanaku
wanaye
wanacheza
wanalinda
chager
mio
ilileta
##giki
waliondolewa
walizidiwa
##piwa
kutofika
ameru
amefungua
##paliwa
raul
simanzi
ulipungua
chonjo
wamekuja
imekosa
imesababishwa
zimen
wakija
wakijadili
wakipanga
unasisitiza
akiendeleza
akipendekeza
akitarajiwa
akikiri
dagaa
enyo
akarejea
wanatiwa
##peliwa
walioi
waliotumia
walioamua
waliotangulia
zinam
zinachukua
fall
utaimarisha
utakatifu
##yip
zilionekana
zilitokea
poda
posho
inchi
infla
unyunyi
bosco
boateng
kumfaa
kumlenga
kumkata
kumsukuma
kuulizwa
hukumbana
hou
hoff
watafute
umetu
umetaka
umetokea
uliohusisha
ruben
sanasana
inayotu
inayochangia
inayozingatia
kufuli
kufuma
zinazoonekana
zinazohusisha
zinazodaiwa
kinalenga
##andisha
limepata
limeshuhudia
haifanyi
hakueleza
hakuhudhuria
zimefanikiwa
zimekubaliana
zimekwama
yaliyoripotiwa
##mwagiza
akishindwa
art
ukitarajiwa
##wapokeza
##wapoteza
nilienda
##potezea
teso
unaofadhiliwa
##sanyo
dhamiri
bulle
anayependa
kikapu
##fikika
matikiti
wakandarasi
##banzi
tuligundua
lililotekelezwa
ndolo
157
ninahisi
ninawahimiza
hatuko
kuzipata
##lland
nimejifunza
madrasa
gitu
gitaa
alimjibu
zitawa
ijumanne
ikaanza
zikitumiwa
##jitambua
##bikie
##mont
kuyaweka
ilipopata
uelimishaji
yanatekelezwa
alijiondoa
##eline
haijawa
bondi
tukiendelea
##laaniwa
unapoanza
anayosema
##rios
wanayotaka
iliombwa
##tumikie
kujiburudisha
mgando
##itich
##lines
mtimkaji
wakiamua
kuwajibisha
penseli
kuchezeshwa
petrol
atomic
cheptu
zulia
udharura
umewaleta
hazikufua
wamewataka
cyn
utatumiwa
tunaowa
cross
akisaidiwa
ujumuishi
kutelekeza
##tiririka
funguo
freedom
##kutikana
leonardo
kadinali
view
tropiki
kushikana
sumra
ifaavyo
schutter
toroitich
besigye
itolewe
caribbean
##miminiwa
influ
jersey
##trude
mazingara
kremlin
wasambazaji
pentagon
uvundo
##menyuko
kupuuzilia
margret
figueres
ighalo
sundowns
akumu
amuzi
aamuru
bundi
chemu
dele
elisha
f1
hyun
iga
ipara
jw
jena
kb
khu
kno
krimu
meng
mundu
mzoefu
mpokeaji
nand
obe
ogania
py
pit
silika
ufanyiwe
##ice
##mzinga
##ufanya
##gongo
##ples
wache
waendelea
##limbikizia
kuifa
kudokeza
kuendana
kuishinikiza
nar
mafo
##mesheni
##ragua
##tou
kaiya
##timize
huto
hutia
lajadili
##yevu
alifungwa
alihamishwa
alitimuliwa
##kotoka
##sehir
##zozaniwa
kuwazima
kuwafadhili
kuwakuza
kuwapelekea
kuwaandama
wanajiunga
chafya
##mido
mibabe
ilihitaji
ilituma
ilichangiwa
walifurika
##lot
amevaa
tafakari
tujue
inabadilika
##suluhisha
mopti
ulikamilika
wameta
wameibuka
##jumiwa
imetia
bibilia
zifanyike
wakila
wakitu
wakiona
wakifika
wakijitokeza
wakimlaumu
mwituni
unakwenda
akiya
akilalamikia
akarudi
waliofanikiwa
zinao
zinasababisha
usamaria
kulinganishwa
iliyopata
iliyojengwa
kujifanyia
kujibwaga
ziliambia
pog
##angulia
mattis
wanaopania
wanaokwenda
##angiliwa
kumwelekeza
social
yalifungwa
kilifanyika
kilianzishwa
##bori
ikitoka
ikitafuta
mwanadimba
umeongeza
umeimarika
kuipiga
kuipeleka
kuibadilisha
itaimarika
##sos
tunafurahi
aliyeshirikiana
aliyejeruhiwa
aliyekufa
game
mabamba
uliopatikana
ulioshuhudia
mango
inayotoka
zilizobaki
linapendekeza
zinazodhibiti
zinazokabiliwa
zinazotengenezwa
mtulivu
kinafanya
kinajivunia
hakuwezi
yaliyojitokeza
yaliyotengwa
yaliyostawi
tumeanzisha
depay
atafika
ukam
best
unaozidi
##risia
fukwe
##ved
anayeaminika
aids
utanzu
matiangi
benz
##mwonyesha
magne
mtambuka
onyan
ndeti
guu
diogo
##jumuishe
152
fidel
hatupaswi
##mans
1800
misako
ngari
alimsaidia
maumau
zikitumika
113
ongeri
##epukika
kumeshuhudiwa
##shurutishwa
##tts
marixie
zosta
kusudio
nduta
nduru
ndubai
##fanyisha
##changamsha
itakayohakikisha
alijizolea
masahi
monro
washtaki
azza
wamealikwa
njoya
europe
kumwachia
kichakani
nikapata
alaba
munyua
waliafikiana
play
dhulma
huambatana
kitakachote
370
kuchuja
mwangalifu
karama
maharage
##kanya
bernardo
pinto
alilokuwa
shukran
naulikha
kubandua
1939
orlando
tomato
kulipiwa
hannah
##tembei
joachim
kukandamizwa
gichuru
hawangeweza
kushabikia
kupinduliwa
cruz
cherangany
##lemazwa
memorial
unaondelea
holdings
lazarus
ksg
konokono
singh
aslimia
chemichemi
ghazal
gomez
ondari
cecilia
unwto
kurasimisha
brentford
webuye
cynthia
kaiyaba
amwa
bunya
eca
edith
fangasi
gb
gia
gili
ipewe
mpiganiaji
nzai
niseme
plus
tone
tindi
trick
uzingatia
uchanga
ukis
zungu
##ust
##wwa
##akisi
##hongwa
##yatu
##pana
wahariri
kuhakiki
kuboreka
##kale
##tambisha
##kiana
##siwa
husa
hull
hutiwa
hutekelezwa
alidhihirisha
alisitisha
alimpongeza
alilelewa
nie
kuwakilishwa
ballon
wanakimbilia
walishambuliwa
##pitiwa
ameketi
tuwezalo
judy
##roid
inafunga
inahusika
##fie
anashindwa
modric
uliye
ulizo
ulisaidia
wamehukumiwa
wameiomba
imebuni
imeidhinisha
kupuliza
##wane
akimu
akichangia
dae
halikubaliki
##mbeba
walioishi
zinauzwa
iliyosajiliwa
meso
meupe
kujihisi
kujiundia
kustaajabisha
korane
ziliz
complex
pet
inato
wanaoongoza
wanaokutana
wanaojua
wanaoeneza
unani
unatokea
kumtakia
kumhujumu
jibini
yanachangia
yanahusiana
yanaashiria
hukuzwa
watashtakiwa
watarejea
watafikishwa
##enders
ikichukua
ikikabiliwa
ikipatiwa
umewezesha
umezidi
kuipigia
itaweka
itagharimu
too
garcia
##ator
tiren
inayofanyika
linafuatia
wakisu
limezua
vitaendelea
atagombea
alipofariki
yanayoambatana
nyag
tekelezi
vinasababisha
kusifu
bull
anayesema
anayetumia
anayeshukiwa
anayejua
magazetini
pipa
utatolewa
##fedhehe
ukunda
wakapoteza
mabenki
ninazo
ninafanya
fil
machimbo
##punguzwe
silabasi
##kamate
vimeendelea
166
tunategemea
##andez
ngatia
walipoingia
kumuoa
likitoa
murgor
musinga
thiba
mkokoteni
miguel
waudo
yanatakiwa
aliofanya
haijajulikana
tasni
minnesota
uogeleaji
kubalehe
consol
sh48
minara
mungiki
wapige
##mathali
waliokomaa
forbes
walioachwa
##okozi
##kusanyia
nilipofika
##matike
pretoria
dias
penns
uzamivu
##yunyiziwa
##pumzisha
kaburini
kuzaliana
frede
elisa
stoo
qadhafi
##tawanyika
iwape
##carp
kijusi
opondo
##husishwe
kabeji
partey
kubugia
jepchirchir
beach
##rejeshewa
strep
business
morara
mahiu
kujikaza
harlequin
migahawa
bhrt
investment
okiya
rouhani
ldcs
kupandikiza
onesmus
referenda
ousmane
ualbino
helkopta
##ballos
consolata
ache
avenue
bc
bidi
cri
frida
ipatikane
ifuti
mni
nsa
oyi
puli
tende
ufanya
uchang
##imbwa
##wishwa
##are
##arifiwa
##bro
##blan
##hingya
##kwi
##gine
##punda
waruguru
##lipe
kul
kufahamika
kuwezeshwa
kukwea
##anti
yama
nadia
nawasihi
##inunua
mafisadi
##ense
##rim
##kumika
##tary
##kiona
##ziwe
##zabwa
##jiondoa
##rari
##toft
kase
kafara
huka
huimarisha
hupelekea
alibuni
aliita
alisemekana
alifuatwa
alishangaza
##weshwa
kuwapo
kuwaondolea
kuwabagua
kuwafikishia
##furu
##shabikia
wanakubali
wanauawa
chakari
##gesa
mwashetani
sakwa
ilikuja
iliondoa
ilifichua
iligunduliwa
##gikaji
walizi
walifuata
walimpa
walitekeleza
walitumwa
amemaliza
ametetea
##bizana
tukia
inapania
inazua
anaruhusiwa
203
moso
##nik
vyako
ulichukua
wameongezeka
wameshikilia
wamegawanyika
maaba
imerekodi
bikira
kuponda
zitakavyo
wakiteseka
unahatarisha
akita
##mbeza
waliokusanyika
maradona
kulifanyika
kulisababisha
massa
utawapa
utagharimu
kujirudia
kusindi
zilieleza
kisia
cov
##enei
##ener
inatofautiana
wanaokula
kumwali
kumrejesha
kumwanga
soksi
sugoi
mnavu
yanao
riruta
yalilenga
kiliripotiwa
nyuro
ikitolewa
mwanabiashara
kunatokana
kuikabili
tunakuwa
josiah
aliyeingia
aliyepoteza
aliyedaiwa
##unganishi
##enziwa
kuazimia
time
zilizofungwa
kufuatiwa
zinazofuata
kutaa
##ondokea
wakishinikiza
limeandaliwa
kante
hakufanya
deporti
yanayoibuka
##danyi
nyala
##dhfa
chelimo
akiwakilisha
unaofahamika
nesi
mbaka
##enoa
##inusuru
anayeitwa
anayehusishwa
matamasha
##mwengu
kijasiri
##biolojia
##vert
ninashukuru
waadhibiwe
nguvukazi
aliwarai
kinachofanya
##pungui
gib
alimpata
##hanie
watekaji
hauko
kuchabanga
geth
yugoslavia
vinavyotumiwa
uainishaji
kumezwa
kwelikweli
operative
kusuluhishwa
##jinyakulia
kiragu
kirasmi
sh39
sh316
##rudika
##batizwa
muthaiga
adams
walimtaja
espiri
##kufaulu
bermuda
mbivu
mohammad
haitaweza
nikipata
kongomano
kuzorotesha
wanavyotaka
handsheki
wanazopitia
##ridhiana
mchangamfu
##mbuizaji
eleph
riverside
hujikuta
mjinga
trent
yanapotokea
##dorf
three
##cardi
productions
phd
kyung
atajiunga
masumbwi
ataachiliwa
wanafalsafa
itakamilika
tayyip
kuteketezwa
ipcc
kuiacha
vifurushi
kushtushwa
oserian
swallallahu
mswaki
neuer
nondies
lopez
mnyakaji
harlequins
kiganjo
zacharia
##ghadhabishwa
kutoaminiana
onyesho
blinken
kusawazishia
hidrojeni
stewart
kijenetiki
nwanze
pascal
aristotle
akisomea
mitsubishi
hernandez
maswahaba
kavanaugh
espirito
afanya
didi
dungu
edi
emi
ethio
eint
eras
j1
kano
kca
mpu
mkeo
mmenyuko
obiti
ombwe
ude
##dler
##kinge
##gge
##ghara
##ptis
##xit
##washa
waran
washindwe
##lius
kudumishwa
kuotea
kuhakikishiwa
kushindania
natumia
mabili
mafungu
majaribu
##rija
##tajwe
##kiki
##kite
##zaha
kitatu
##atii
##lain
##racht
had
hahitaji
##saidii
##mula
hugo
hutozwa
aliunda
aliugua
alifurahia
alitumwa
alizuiliwa
alidinda
##koka
kuwafidia
basak
wanafika
wanakamatwa
wanakaa
mwale
ilisitisha
##ual
##uari
##uard
walioni
walilenga
ameripotiwa
##ifai
muonekano
tuva
jude
rafa
inashuhudia
##suluhishwa
anacheza
anastahiki
##dhihaki
wameunga
wamelala
wamejaribu
wameteuliwa
wamevaa
imefanywa
imeandikisha
##chuonyo
kengen
mbishi
zianze
##mbolezi
wakiweka
wakibeba
unalo
unakuta
akifuatilia
dallas
ente
waliounga
waliochangia
zinahusu
zinakumbwa
maralal
##lumbana
##miliwa
##nett
utahitaji
shiriki
kujijengea
pop
cos
wanaotu
bohari
kumpiku
sophia
mnaweza
ripota
wataungana
watambue
ikikumbwa
ikipanda
ikijiandaa
kunyoosha
umeripotiwa
itaku
itaingia
tunaambiwa
aliyeyoyomea
##konyo
makabi
inayoendesha
inayojitokeza
majiji
zilizoshuhudiwa
kitaanza
wasipate
kutekele
hakusema
hakutaja
zimepokea
hekaya
recep
tumekuja
tumejitolea
atapokea
alipomaliza
alipotembelea
yanayodaiwa
bee
ros
yametu
##tandaza
vinahitajika
protoni
pilka
kisarufi
ukutani
onanga
wakashindwa
wakalazimika
tulipoteza
mall
ninaye
ninapenda
fiti
123
mtg
amab
goal
alimshambulia
haut
tunis
##pelekewa
ngombe
173
asizi
september
minur
mawasilisho
wanapoingia
mkoloni
kusugua
ndui
angelina
kusomesha
kuishiwa
aliapishwa
zinato
vinyozi
wasaidie
mashuhuda
magere
kifaru
ameachiliwa
ameagizwa
kidimbwi
kumwadhibu
nikaona
sh45
waliyopitia
alikozaliwa
iliopo
walioachiliwa
viamb
##funiko
380
ceballos
tukawa
mguuni
wakiamini
amejiuzulu
1955
itatumiwa
watajika
kimitandao
kichini
humsaidia
walindwe
wanaowatetea
tarakimu
usingizini
jackt
utakamilika
fernand
viowevu
umwagikaji
koskei
wanauchumi
jeremic
ingine
hilal
uliowashuhudia
diffa
kunyakuliwa
cyprian
##kholo
muthoka
gedion
mwanamme
polycarp
uliwapaisha
navakholo
walalahoi
billioni
naftali
kubahatisha
tandaza
kithure
misemo
brigid
kismayo
kwengineko
eduardo
uzbekistan
mafowadi
onyancha
tasnifu
deportivo
basaksehir
550
aha
et
ee
fele
gdp
gtma
line
mongo
mpangaji
nene
nzuki
pungufu
sno
sdt
uho
uthi
won
wenda
yano
##iweka
##mn
##mfaa
##mtembelea
##zung
##eke
##vb
##vanda
##vena
##pini
##pong
waata
waunge
wasusi
wabaya
##lize
naelewa
nadhifu
kilwa
##mezwa
##onelea
##jionea
##yala
##tois
kaju
hur
huendeshwa
husafiri
lambo
lalama
alivi
alibainisha
aliamriwa
##tuza
niende
##sem
##zorotesha
kuwasikiliza
bahr
vidhibiti
##fuatwe
wanalia
wanabiashara
wanahatarisha
wanavisiwa
mikun
mihimili
mwajiriwa
sabu
iling
waliiba
walinasa
kutokubali
##chael
tuongeze
##shire
inapendekezwa
inajikita
mkun
##sut
anaki
analalamika
anaitaka
anawakilisha
moa
mog
kamar
kamasi
##vusha
pablo
wamefungua
wamekata
wameimarisha
wamekwisha
wameokolewa
wamechoshwa
imekaribisha
imemfanya
imeteremka
bigambo
zihakikishe
zifungwe
##deen
unafahamu
akila
akipatikana
akiangazia
akijiandaa
akidokeza
akikosoa
akau
akafariki
akaniambia
wanufaike
##pes
waliosema
walioonekana
fabi
iliyoonyesha
kujihadhari
popo
##enee
wanaosubiri
unatumiwa
baragoi
##jiambo
##jiambia
##angle
kumfahamisha
kabwe
nailoni
##wiriwa
watawasilisha
watahudhuria
kunyang
umezua
umemfanya
umekwisha
kuikosoa
itashiriki
itafikia
itaendeshwa
itamenyana
tunazi
aliyestaafu
wanawakilisha
manso
inayotakiwa
inayoelekea
inayopendekezwa
zilizoorodheshwa
kufukuza
kufufuka
zinazoendelezwa
zinazomkabili
matupu
limethibitisha
zimewahi
zimethibitisha
heko
tumesikia
tumechoka
archi
armenia
atashtakiwa
alipokonywa
yanayoi
yanayohudumu
yanayohusishwa
yanayofanana
ukilenga
lus
nyawira
chepte
ledama
##mbuliana
yamesalia
yametajwa
kutuletea
vinahitaji
neuroni
build
marjan
utat
wakuzaji
wakutana
magwiji
mashini
utume
divisheni
kitro
mabishano
masoud
aliwaamuru
kushuku
lowa
loki
choma
##bainike
misamiati
nimesema
walaani
barbara
alimtetea
watekeleze
149
148
144
136
karoney
##kodiwa
asiweze
kuletea
yatapatikana
kusambaratishwa
lind
275
##lestero
mutisya
aliopata
##lies
ikisubiri
lead
##bakie
##shirikia
##mission
kushinikizwa
espe
zitakazosaidia
##kisia
wanataja
mishale
kuwaagiza
githeri
ndungu
fkfpl
mgahawa
mdokezi
wamejificha
##shughulikiwe
##rough
sinai
##polis
wanachohitaji
kufin
hatutakuwa
tanasha
medical
triangle
hatujapata
##geugeu
abdulkadir
useremala
zitat
kinoru
kujinyonga
ogani
kimaasai
##peperushaji
phane
mandazi
oloiti
lancet
kibindamu
nyokabi
kiimla
wakinunua
telkom
ashley
mtwara
ground
board
mswaada
chokoraa
valentine
kiganjani
ogier
courtois
ayimba
##rahisishia
lenaola
matteo
olympiakos
nyanduga
bishop
stephanie
serotonini
meshack
influenza
washtakiwe
kitakachotegemewa
kumwalika
gethenji
eintracht
feleji
adili
aung
dh
eka
iondolewe
ner
schi
twende
uzingati
##iza
##lang
##achiwa
##boni
##hwa
##kinda
##spita
##gt
##pen
##21
##feld
waeleze
kumea
yabisi
nasikia
mahudhuri
##iamini
##enje
##mall
kif
kizungum
kihispania
##dir
##lav
##jiita
hamp
##towa
##sakwa
hijabu
##muli
##muuzia
hupelekwa
alivalia
aliibua
alifutwa
alivamiwa
nica
##atambuliwa
##gombana
kuwalaumu
kuwaumiza
kuwatendea
vii
wanalala
wanaruhusiwa
wanasafiri
wanalazimishwa
wanapendelea
chale
##gement
mwala
saidi
ilizua
walifungwa
walijua
walibeba
waliandikisha
walipuuzilia
##loso
amelalamika
amedhihirisha
amemulika
muba
mulwa
mutembei
##chague
##pasha
sid
inapinga
inabainisha
##sumbwi
anaendeleza
morgan
##inese
##niwa
##angazwe
lie
litaa
afungu
##zela
##riako
##vumbuliwa
##andaka
ulimpa
wamehudhuria
wametajwa
wamekaribisha
wamefaulu
wamesakata
imeathiriwa
imeorodhesha
##chupu
bitok
mbandaka
hatahivyo
##dev
wakihoji
unaonesha
akiuguza
daisy
waliotoroka
zinaongezeka
marashi
mararani
shuruti
usafishaji
kulipo
iliyotoa
iliyochangia
utachukua
shil
kujiwekea
andishi
poro
point
kisanga
matengene
wanaopiga
unyonge
kumzidi
##wire
hodg
waokoaji
kilimambo
watali
watajua
kwanzia
ikipungua
ikielezwa
umeeleza
umejikita
kuirejesha
kuitunza
tunasikia
aliyeonekana
aliyehudhuria
aliyewania
kerio
##zungushwa
wazimbabwe
makasha
##ely
uliozuka
timbo
inayotaka
inayoongezeka
inayofanana
zilizoibuka
zilizopelekea
zilizotangazwa
zilizojengwa
linasalia
polisa
zinazotu
zinazofanyika
zinazoongozwa
##kilizwe
##oneshwa
kangogo
zimepewa
zimeibuka
zimepungua
zimekumbwa
zimegonga
uweke
yaliyoandikwa
##mwalika
wikipedia
desi
ataungana
ukiingia
usije
nilijiunga
levy
##kosaji
yamewekwa
unaotumiwa
##rajiwi
nepad
anayeachwa
atlanta
kupungukiwa
vilitokea
pie
kisabuni
##mwo
##refushwa
wakiwania
155
kupasua
kinachohusishwa
nimepokea
ngare
elbur
hazipitiki
ikabu
walipowa
##simame
asilani
##onogesha
ufufuzi
four
yakifanyika
maridadi
stempu
##kwo
kakaye
##hanahu
kuepukwa
geneina
mbeere
##pass
##pastaa
itenge
itatekeleza
saladi
mkwanja
utoshele
zetech
patho
##idhin
aleks
##hando
kikiendelea
##himilivu
wanazofanya
commando
mitch
mgodi
##shajiisha
bryan
unatarajia
wamemsajili
bremen
##jisababu
mshipa
sentig
##fikishe
ikiaminika
##arbook
hayatakuwa
bosire
alioutoa
kunyanyasa
kusalitiwa
anaungama
##salimia
mmeng
weldon
jepkosgei
majopo
kujuta
ichungwa
coope
itakavyokuwa
##nyakuliwa
boubacar
upumuaji
ifrc
maxwell
##sindikwa
##sindikiza
mfanyibiashara
kaguthi
kuwapatanisha
hollande
valentino
##ylvania
italimana
science
likishirikiana
ministry
chemchemi
kiingilio
edouard
casablan
akinukuu
mtagusano
##therapi
beckham
muthurwa
system
obiero
##zawadiwa
isemayo
samantha
unyunyizaji
poghisio
pennsylvania
uchangishaji
mahudhurio
matengenezo
kilimambogo
elburgon
aqu
amir
bele
banga
dream
eze
embe
evel
flam
fdd
grea
ibuni
k24
mzalishaji
mhula
mtoaji
pne
tendaji
tanzia
udogo
uyahudi
uchelewe
udugu
vani
vena
windo
yida
##mrisha
##hungu
##kishia
wakabili
waratibu
##lik
kugundulika
kutizama
##kaba
yambio
nasu
nawahimiza
maweni
##mao
kwama
kwaya
##yora
kiin
##mee
##laini
##jibisha
##jituma
##raini
##rarua
haribi
zari
kahaba
##keshaji
hust
huzaliwa
huzaa
##face
##mbwende
##chwi
aliuza
alifundisha
##seji
kuwakwamua
kuwalaghai
badiliko
##shalisti
wanaongozwa
wanafukuzia
wanasukari
mitini
samp
salam
ilijaribu
ilijitokeza
walithibitishwa
##rese
##rehani
kutoona
kutoruhusu
amepangiwa
##hea
##heka
tukubali
##chiwe
siha
##dokezea
inapiga
inavunja
inahusishwa
inasubiri
mkunga
analazimika
##isajili
mobutu
liban
pauni
ulicho
ulipokuwa
wamejisajili
maasi
##juu
##jumla
imetumika
imeangazia
##chua
##chukiza
kupendana
hataweza
zifanye
wakiuawa
wakikabiliana
unakadiria
akafa
akalazimika
wanywaji
##ongee
##mbii
waliopitia
waliosoma
zinashikilia
zinafanana
fadhili
kulishughulikia
kulizuka
iliyofuatia
kujifungulia
kupitwa
kou
kooni
perez
##engich
wanaoenda
wanaovuta
undanganyifu
##tajirika
kusagwa
kusahihisha
sheng
yanakwenda
rico
yalibadilika
mahadhi
umepatikana
umegeuka
itakua
tunachukua
jour
shella
aliyeanza
aliyepiga
kepa
gau
shaw
inayoanza
zilizoundwa
wasijue
msta
zinazoibuka
zinazoshuhudiwa
jemi
jessi
limechukua
zimetakiwa
zimeripotiwa
zimeibwa
yaliyojaa
yaliyochapishwa
yaliyoafikiwa
##mwajiri
chupu
dec
atahudumu
yanayoongezeka
yanayojulikana
unic
ukambi
belo
akiwapa
akiwania
##potelea
##changisha
unaokumba
kinatumika
mbae
anayedai
wekundu
utingo
mtaro
ongo
wakaguzi
isio
amena
kimahaba
lililoathirika
151
##engewa
waakilishi
linalotokana
chipsi
walimuua
nimesikia
kuoanisha
gitari
wilf
kimetoa
haupaswi
johnston
##phine
176
##nukuliwa
##angio
wanapofika
isinge
tabichi
##waachia
maombolezi
kufagia
##llei
adr
##wot
##ingojea
mateke
mutiso
magodoro
kuweko
millie
nitam
kushangaa
utozaji
interpol
##wazimu
wameaga
ameambukizwa
confer
kumwajiri
anglo
anglikana
inapoendelea
munyu
anavyosimulia
serena
wanazokumbana
haysom
watakapokuwa
##bomoka
edna
maryland
wahl
knb
nzomo
demokrati
##bonyo
lisilokuwa
##shtakiwe
##stanti
fremu
alfabeti
imemkariri
##stolic
wamemkamata
glovu
brexit
wanaojifanya
anakoishi
zilipokutana
uwakili
yalipoanza
ilinunua
kuguswa
kuisadia
kuresoi
##ouf
waliousajili
wanavikapu
##mitila
ogeto
##isemekana
mshubiri
obure
kibinadam
mkandarasi
odoi
glukosi
##bahce
tafrija
mafao
mwinzi
##timizia
government
miraya
blenda
michigan
mercedes
##pakatalishi
nakshi
fearless
bielsa
mtanange
cheptumo
elisabeth
udereva
kichinichini
fernandinho
esperance
casablanca
aye
adamu
atakao
afanyiwe
fn
guli
icardi
leni
lingali
oth
tango
ukuwa
umbile
wun
##lda
##band
##hs
##kke
##gane
##fina
wakani
wawajibike
##lino
kuina
kukuwa
kubobea
kushindia
kukatizwa
##kabi
##kataji
yaanze
##atini
##unjwa
##unzinza
kibiolojia
##dimika
##jihisi
##ray
##hubutu
kafan
##mur
hus
hutajwa
hugeuka
huanzia
lari
##mbanua
##chy
##mour
aliteta
##tukana
##gosi
##pos
##zona
kuwang
kuwabaka
kuwakutanisha
kuwakomboa
bad
baptis
##shati
##gesi
##bus
##burudisha
mizito
ilicho
ilipitisha
waliripoti
walitambua
walilipwa
walikosoa
walibakwa
##rek
amefuatilia
ameoa
ameuambia
tawasifu
muuaji
mukur
muondoano
##bile
tuya
tukam
tutuko
rao
inali
inako
inafahamu
inaungana
inaeleweka
##sula
##suliwa
##eos
anahudhuria
anaungwa
anakubaliana
living
##ingiria
ulitarajiwa
ulitangazwa
ulibainisha
wameya
imetengenezwa
imekwisha
##chukizwa
zimwi
unaongeza
unahisi
akitia
akiongezea
akasha
akasimulia
waliokamilisha
zinafanywa
zinasalia
masisi
iliyoonekana
iliyosheheni
utawasaidia
mesut
##hood
kujimudu
kope
ineos
wanaocheza
kumhimiza
kumtunza
kabando
kuupitisha
##pumua
suzy
kusafishwa
yanastahili
hukusan
yalipungua
kukamua
watachukua
ikifanyika
hawajari
##patayo
umekaribisha
itafanywa
tunaenda
jorge
##chukui
aliyeshindwa
aliyetua
kutunukiwa
keriako
galana
shahawa
liliwasilishwa
rut
tito
inayoathiri
inayohusishwa
inayoashiria
zilizochangia
linaunga
linasisitiza
alha
##zungumzi
kufikika
zinazopokea
zinazotokea
kinadharia
limeweka
kanze
kukusaidia
zimeripoti
deli
aliporudi
yanayotoka
##amuliwe
ukifanyika
ukavu
bera
begi
niliwahi
nilitamani
lewin
##fokea
vinalenga
vinaongezeka
##ratibisha
nepi
##mps
dhalimu
wesley
aiu
matakatifu
mativo
##fek
ukungu
mtawan
##kwera
##dhurika
divo
lililobuniwa
ninafahamu
waamerika
mwethiopia
1200
chil
##vunyevu
kuzikabili
barr
kimelea
wateule
zitafanyika
zitahitajika
142
##zitolea
aliyonayo
##thibitishia
##thibitishe
likim
likiongozwa
yatasalia
husuda
kidonge
##tty
kukojoa
msuguano
225
amewashukuru
vinane
aliokolewa
isiyoeleweka
watakaohudhuria
haijapata
bondia
sams
##bidhiwe
mnyonge
imma
maboma
wajifunze
makanga
waliyonayo
riara
ukeni
plazma
usuli
shollei
agric
mustafa
iarc
transfoma
uhuni
itakaposikizwa
unavyozidi
hertha
kabul
nyonga
wanajikuta
danstan
kusheherekea
##zuilie
kisogo
sh90
##maushwa
##ddin
franklin
bellingham
kibos
cipk
##dougou
gitahi
muhammadu
christophe
vissel
##tuny
##lism
urp
sabatia
aziz
quran
kujutia
sh180
bobby
##ulay
##letewa
kinigeria
tutatoa
pepopunda
dianah
fortune
mshumaa
bukayo
phos
galaxy
zachary
ijumatano
mcconne
independ
progres
sebuleni
macedonia
benedict
okutoyi
##volution
switzer
getafe
ambulansi
farmajo
uzingatiaji
didier
mabilionea
makabidhiano
cheptegei
kizungumkuti
sentigredi
haribifu
hustler
chupuchupu
ukuwaji
kafando
330
azungumzia
dunga
ekuru
fener
grani
gerra
jn
ling
mena
mrisho
nke
nondo
rfu
tran
thuo
terry
upin
uundwa
yi
##ite
##dwi
##dong
##uwezekano
##wengi
##ahu
##zzo
##tv
##kti
##kyu
##clo
##flika
##xin
waf
waenda
warusi
yayo
yakaribisha
nali
mazembe
##hiana
kiua
##lasi
##jibiwa
##raj
hamad
hamburg
##sium
##mbala
kafe
##saa
husalia
hushughulikia
huvutiwa
huzalishwa
lar
alilenga
alisajili
aliteua
alibadilisha
alitozwa
nic
nipe
##kobe
kuwabwaga
bala
vizuizini
##fuma
##fujwa
wanaangalia
##buyu
mwamu
mwalala
mwathe
iliwasili
iliongozwa
iliamuliwa
waliki
waliathirika
walichukuliwa
walikumbwa
walipanda
walifukuzwa
amesalia
amehusishwa
ametajwa
tamathali
muhitaji
muandishi
turu
inahimiza
inavuta
hiyohiyo
moura
##angala
##chosha
pay
ulini
ulihusisha
ulikumbwa
ulidhihirika
##mbus
chanda
wametofautiana
wameorodheshwa
wamehamia
imependekezwa
imewekeza
imesimamisha
bitu
wakiya
wakichukua
wakizidi
wakielezea
wakitaja
wakipatiwa
mwokozi
unadai
unakwamisha
akitekeleza
davi
##maniwa
##zugumza
akashauri
aura
##mbere
waliofunga
waliopigwa
zinaendeshwa
zinazon
fab
iliyoitwa
iliyoathiriwa
iliyosambazwa
shikuku
##hofisha
kujidunga
komu
##kwaji
[...]
