{
  "version": "1.0",
  "truncation": {
    "direction": "Right",
    "max_length": 128,
    "strategy": "LongestFirst",
    "stride": 0
  },
  "padding": {
    "strategy": {
      "Fixed": 128
    },
    "direction": "Right",
    "pad_to_multiple_of": null,
    "pad_id": 0,
    "pad_type_id": 0,
    "pad_token": "[PAD]"
  },
  "added_tokens": [
    {
      "id": 0,
      "content": "[PAD]",
      "single_word": false,
      "lstrip": false,
      "rstrip": false,
      "normalized": false,
      "special": true
    },
    {
      "id": 1,
      "content": "[UNK]",
      "single_word": false,
      "lstrip": false,
      "rstrip": false,
      "normalized": false,
      "special": true
    },
    {
      "id": 2,
      "content": "[CLS]",
      "single_word": false,
      "lstrip": false,
      "rstrip": false,
      "normalized": false,
      "special": true
    },
    {
      "id": 3,
      "content": "[SEP]",
      "single_word": false,
      "lstrip": false,
      "rstrip": false,
      "normalized": false,
      "special": true
    },
    {
      "id": 4,
      "content": "[MASK]",
      "single_word": false,
      "lstrip": false,
      "rstrip": false,
      "normalized": false,
      "special": true
    }
  ],
  "normalizer": {
    "type": "BertNormalizer",
    "clean_text": true,
    "handle_chinese_chars": true,
    "strip_accents": null,
    "lowercase": false
  },
  "pre_tokenizer": {
    "type": "BertPreTokenizer"
  },
  "post_processor": {
    "type": "TemplateProcessing",
    "single": [
      {
        "SpecialToken": {
          "id": "[CLS]",
          "type_id": 0
        }
      },
      {
        "Sequence": {
          "id": "A",
          "type_id": 0
        }
      },
      {
        "SpecialToken": {
          "id": "[SEP]",
          "type_id": 0
        }
      }
    ],
    "pair": [
      {
        "SpecialToken": {
          "id": "[CLS]",
          "type_id": 0
        }
      },
      {
        "Sequence": {
          "id": "A",
          "type_id": 0
        }
      },
      {
        "SpecialToken": {
          "id": "[SEP]",
          "type_id": 0
        }
      },
      {
        "Sequence": {
          "id": "B",
          "type_id": 1
        }
      },
      {
        "SpecialToken": {
          "id": "[SEP]",
          "type_id": 1
        }
      }
    ],
    "special_tokens": {
      "[CLS]": {
        "id": "[CLS]",
        "ids": [
          2
        ],
        "tokens": [
          "[CLS]"
        ]
      },
      "[SEP]": {
        "id": "[SEP]",
        "ids": [
          3
        ],
        "tokens": [
          "[SEP]"
        ]
      }
    }
  },
  "decoder": {
    "type": "WordPiece",
    "prefix": "##",
    "cleanup": true
  },
  "model": {
    "type": "WordPiece",
    "unk_token": "[UNK]",
    "continuing_subword_prefix": "##",
    "max_input_chars_per_word": 100,
    "vocab": {
      "[PAD]": 0,
      "[UNK]": 1,
      "[CLS]": 2,
      "[SEP]": 3,
      "[MASK]": 4,
      "!": 5,
      "\"": 6,
      "#": 7,
      "$": 8,
      "%": 9,
      "&": 10,
      "'": 11,
      "(": 12,
      ")": 13,
      "*": 14,
      "+": 15,
      ",": 16,
      "-": 17,
      ".": 18,
      "/": 19,
      "0": 20,
      "1": 21,
      "2": 22,
      "3": 23,
      "4": 24,
      "5": 25,
      "6": 26,
      "7": 27,
      "8": 28,
      "9": 29,
      ":": 30,
      ";": 31,
      "<": 32,
      "=": 33,
      ">": 34,
      "?": 35,
      "@": 36,
      "[": 37,
      "\\": 38,
      "]": 39,
      "^": 40,
      "_": 41,
      "`": 42,
      "a": 43,
      "b": 44,
      "c": 45,
      "d": 46,
      "e": 47,
      "f": 48,
      "g": 49,
      "h": 50,
      "i": 51,
      "j": 52,
      "k": 53,
      "l": 54,
      "m": 55,
      "n": 56,
      "o": 57,
      "p": 58,
      "q": 59,
      "r": 60,
      "s": 61,
      "t": 62,
      "u": 63,
      "v": 64,
      "w": 65,
      "x": 66,
      "y": 67,
      "z": 68,
      "{": 69,
      "}": 70,
      "~": 71,
      "¡": 72,
      "¢": 73,
      "£": 74,
      "¤": 75,
      "¥": 76,
      "¦": 77,
      "§": 78,
      "¨": 79,
      "©": 80,
      "ª": 81,
      "«": 82,
      "¬": 83,
      "®": 84,
      "¯": 85,
      "°": 86,
      "±": 87,
      "²": 88,
      "³": 89,
      "´": 90,
      "µ": 91,
      "¶": 92,
      "·": 93,
      "¸": 94,
      "¹": 95,
      "º": 96,
      "»": 97,
      "¼": 98,
      "½": 99,
      "¾": 100,
      "¿": 101,
      "×": 102,
      "ß": 103,
      "æ": 104,
      "ð": 105,
      "÷": 106,
      "ø": 107,
      "þ": 108,
      "đ": 109,
      "ı": 110,
      "ĳ": 111,
      "ł": 112,
      "ŋ": 113,
      "œ": 114,
      "ƙ": 115,
      "ƴ": 116,
      "ɐ": 117,
      "ɑ": 118,
      "ɔ": 119,
      "ɗ": 120,
      "ə": 121,
      "ɛ": 122,
      "ɡ": 123,
      "ɪ": 124,
      "ɲ": 125,
      "ɾ": 126,
      "ʀ": 127,
      "ʁ": 128,
      "ʃ": 129,
      "ʊ": 130,
      "ʒ": 131,
      "ʹ": 132,
      "ʻ": 133,
      "ʼ": 134,
      "ʽ": 135,
      "ʾ": 136,
      "ʿ": 137,
      "ˆ": 138,
      "ˈ": 139,
      "ː": 140,
      "˚": 141,
      "˛": 142,
      "˜": 143,
      "ˤ": 144,
      "΄": 145,
      "α": 146,
      "β": 147,
      "γ": 148,
      "δ": 149,
      "ε": 150,
      "ζ": 151,
      "η": 152,
      "θ": 153,
      "ι": 154,
      "κ": 155,
      "λ": 156,
      "μ": 157,
      "ν": 158,
      "ξ": 159,
      "ο": 160,
      "π": 161,
      "ρ": 162,
      "ς": 163,
      "σ": 164,
      "τ": 165,
      "υ": 166,
      "φ": 167,
      "χ": 168,
      "ψ": 169,
      "ω": 170,
      "а": 171,
      "б": 172,
      "в": 173,
      "г": 174,
      "д": 175,
      "е": 176,
      "ж": 177,
      "з": 178,
      "и": 179,
      "к": 180,
      "л": 181,
      "м": 182,
      "н": 183,
      "о": 184,
      "п": 185,
      "р": 186,
      "с": 187,
      "т": 188,
      "у": 189,
      "ф": 190,
      "х": 191,
      "ц": 192,
      "ч": 193,
      "ш": 194,
      "щ": 195,
      "ъ": 196,
      "ы": 197,
      "ь": 198,
      "э": 199,
      "ю": 200,
      "я": 201,
      "є": 202,
      "ѕ": 203,
      "і": 204,
      "ј": 205,
      "ա": 206,
      "բ": 207,
      "գ": 208,
      "դ": 209,
      "ե": 210,
      "թ": 211,
      "ի": 212,
      "լ": 213,
      "կ": 214,
      "հ": 215,
      "ղ": 216,
      "մ": 217,
      "յ": 218,
      "ն": 219,
      "ո": 220,
      "ս": 221,
      "վ": 222,
      "տ": 223,
      "ր": 224,
      "ւ": 225,
      "א": 226,
      "ב": 227,
      "ג": 228,
      "ד": 229,
      "ה": 230,
      "ו": 231,
      "ז": 232,
      "ח": 233,
      "י": 234,
      "ך": 235,
      "כ": 236,
      "ל": 237,
      "ם": 238,
      "מ": 239,
      "ן": 240,
      "נ": 241,
      "ס": 242,
      "ע": 243,
      "ף": 244,
      "פ": 245,
      "ץ": 246,
      "צ": 247,
      "ק": 248,
      "ר": 249,
      "ש": 250,
      "ת": 251,
      "،": 252,
      "ء": 253,
      "ا": 254,
      "ب": 255,
      "ة": 256,
      "ت": 257,
      "ث": 258,
      "ج": 259,
      "ح": 260,
      "خ": 261,
      "د": 262,
      "ذ": 263,
      "ر": 264,
      "ز": 265,
      "س": 266,
      "ش": 267,
      "ص": 268,
      "ض": 269,
      "ط": 270,
      "ظ": 271,
      "ع": 272,
      "غ": 273,
      "ـ": 274,
      "ف": 275,
      "ق": 276,
      "ك": 277,
      "ل": 278,
      "م": 279,
      "ن": 280,
      "ه": 281,
      "و": 282,
      "ى": 283,
      "ي": 284,
      "١": 285,
      "٢": 286,
      "٣": 287,
      "٤": 288,
      "٥": 289,
      "٧": 290,
      "٩": 291,
      "پ": 292,
      "ک": 293,
      "گ": 294,
      "ی": 295,
      "۩": 296,
      "۰": 297,
      "۹": 298,
      "ܐ": 299,
      "ܕ": 300,
      "ܘ": 301,
      "ܝ": 302,
      "ܠ": 303,
      "ܡ": 304,
      "ܪ": 305,
      "ܬ": 306,
      "क": 307,
      "ग": 308,
      "च": 309,
      "ज": 310,
      "ट": 311,
      "ड": 312,
      "त": 313,
      "द": 314,
      "न": 315,
      "प": 316,
      "ब": 317,
      "म": 318,
      "य": 319,
      "र": 320,
      "ल": 321,
      "व": 322,
      "स": 323,
      "ह": 324,
      "ा": 325,
      "ि": 326,
      "ी": 327,
      "ট": 328,
      "ল": 329,
      "া": 330,
      "ி": 331,
      "ೂ": 332,
      "ೕ": 333,
      "ക": 334,
      "ര": 335,
      "ി": 336,
      "ง": 337,
      "ด": 338,
      "ท": 339,
      "ม": 340,
      "ย": 341,
      "ส": 342,
      "า": 343,
      "๑": 344,
      "ა": 345,
      "ბ": 346,
      "ე": 347,
      "ვ": 348,
      "თ": 349,
      "ი": 350,
      "ლ": 351,
      "ო": 352,
      "რ": 353,
      "ს": 354,
      "უ": 355,
      "ღ": 356,
      "ჰ": 357,
      "ᄀ": 358,
      "ᄂ": 359,
      "ᄃ": 360,
      "ᄅ": 361,
      "ᄆ": 362,
      "ᄇ": 363,
      "ᄉ": 364,
      "ᄋ": 365,
      "ᄌ": 366,
      "ᄎ": 367,
      "ᄏ": 368,
      "ᄐ": 369,
      "ᄑ": 370,
      "ᄒ": 371,
      "ᅡ": 372,
      "ᅢ": 373,
      "ᅣ": 374,
      "ᅥ": 375,
      "ᅦ": 376,
      "ᅧ": 377,
      "ᅩ": 378,
      "ᅪ": 379,
      "ᅬ": 380,
      "ᅭ": 381,
      "ᅮ": 382,
      "ᅯ": 383,
      "ᅲ": 384,
      "ᅳ": 385,
      "ᅵ": 386,
      "ᆨ": 387,
      "ᆫ": 388,
      "ᆮ": 389,
      "ᆯ": 390,
      "ᆷ": 391,
      "ᆸ": 392,
      "ᆼ": 393,
      "ለ": 394,
      "ላ": 395,
      "ል": 396,
      "መ": 397,
      "ማ": 398,
      "ም": 399,
      "ራ": 400,
      "ር": 401,
      "ሰ": 402,
      "ስ": 403,
      "ቆ": 404,
      "ት": 405,
      "ች": 406,
      "ና": 407,
      "ን": 408,
      "አ": 409,
      "ወ": 410,
      "ው": 411,
      "ዎ": 412,
      "የ": 413,
      "ዩ": 414,
      "ያ": 415,
      "ይ": 416,
      "ደ": 417,
      "ግ": 418,
      "፣": 419,
      "‐": 420,
      "‑": 421,
      "–": 422,
      "—": 423,
      "―": 424,
      "‖": 425,
      "‗": 426,
      "‘": 427,
      "’": 428,
      "‚": 429,
      "‛": 430,
      "“": 431,
      "”": 432,
      "„": 433,
      "‟": 434,
      "†": 435,
      "‡": 436,
      "•": 437,
      "․": 438,
      "…": 439,
      "′": 440,
      "″": 441,
      "‹": 442,
      "›": 443,
      "※": 444,
      "‼": 445,
      "‿": 446,
      "⁀": 447,
      "€": 448,
      "₹": 449,
      "⃣": 450,
      "℃": 451,
      "℅": 452,
      "ℓ": 453,
      "№": 454,
      "™": 455,
      "←": 456,
      "↑": 457,
      "→": 458,
      "↓": 459,
      "↗": 460,
      "↘": 461,
      "↠": 462,
      "↡": 463,
      "↳": 464,
      "↵": 465,
      "⇒": 466,
      "−": 467,
      "∙": 468,
      "√": 469,
      "∴": 470,
      "≈": 471,
      "≤": 472,
      "≥": 473,
      "⊱": 474,
      "⋆": 475,
      "⌚": 476,
      "⏩": 477,
      "⏪": 478,
      "⏬": 479,
      "①": 480,
      "②": 481,
      "ⓐ": 482,
      "ⓔ": 483,
      "ⓝ": 484,
      "ⓞ": 485,
      "ⓢ": 486,
      "ⓣ": 487,
      "─": 488,
      "━": 489,
      "│": 490,
      "┏": 491,
      "┓": 492,
      "═": 493,
      "║": 494,
      "╚": 495,
      "╝": 496,
      "╩": 497,
      "╬": 498,
      "╮": 499,
      "▀": 500,
      "▃": 501,
      "▄": 502,
      "█": 503,
      "▌": 504,
      "░": 505,
      "▒": 506,
      "■": 507,
      "□": 508,
      "▪": 509,
      "▬": 510,
      "▭": 511,
      "▲": 512,
      "▶": 513,
      "▷": 514,
      "▸": 515,
      "►": 516,
      "▼": 517,
      "▾": 518,
      "◄": 519,
      "◆": 520,
      "◇": 521,
      "◊": 522,
      "○": 523,
      "●": 524,
      "◕": 525,
      "◘": 526,
      "◦": 527,
      "◯": 528,
      "◻": 529,
      "◾": 530,
      "☀": 531,
      "☄": 532,
      "★": 533,
      "☆": 534,
      "☉": 535,
      "☎": 536,
      "☑": 537,
      "☕": 538,
      "☝": 539,
      "☠": 540,
      "☹": 541,
      "☺": 542,
      "☼": 543,
      "♀": 544,
      "♂": 545,
      "♔": 546,
      "♚": 547,
      "♛": 548,
      "♠": 549,
      "♡": 550,
      "♣": 551,
      "♥": 552,
      "♦": 553,
      "♪": 554,
      "♫": 555,
      "♬": 556,
      "♰": 557,
      "⚠": 558,
      "⚡": 559,
      "⚫": 560,
      "⚰": 561,
      "⚽": 562,
      "⛪": 563,
      "✅": 564,
      "✈": 565,
      "✊": 566,
      "✌": 567,
      "✍": 568,
      "✏": 569,
      "✓": 570,
      "✔": 571,
      "✖": 572,
      "✘": 573,
      "✙": 574,
      "✨": 575,
      "✩": 576,
      "✯": 577,
      "✰": 578,
      "✳": 579,
      "✴": 580,
      "✿": 581,
      "❀": 582,
      "❁": 583,
      "❌": 584,
      "❓": 585,
      "❔": 586,
      "❖": 587,
      "❗": 588,
      "❣": 589,
      "❤": 590,
      "❥": 591,
      "➖": 592,
      "➡": 593,
      "➢": 594,
      "➤": 595,
      "➧": 596,
      "⠀": 597,
      "⤋": 598,
      "⦁": 599,
      "⬇": 600,
      "⭐": 601,
      "、": 602,
      "。": 603,
      "《": 604,
      "》": 605,
      "「": 606,
      "」": 607,
      "【": 608,
      "】": 609,
      "〰": 610,
      "あ": 611,
      "い": 612,
      "か": 613,
      "く": 614,
      "こ": 615,
      "さ": 616,
      "し": 617,
      "す": 618,
      "っ": 619,
      "つ": 620,
      "て": 621,
      "な": 622,
      "に": 623,
      "の": 624,
      "は": 625,
      "ま": 626,
      "も": 627,
      "り": 628,
      "る": 629,
      "れ": 630,
      "ん": 631,
      "ア": 632,
      "カ": 633,
      "キ": 634,
      "ク": 635,
      "コ": 636,
      "サ": 637,
      "シ": 638,
      "ス": 639,
      "タ": 640,
      "ッ": 641,
      "ト": 642,
      "ニ": 643,
      "ハ": 644,
      "ヒ": 645,
      "フ": 646,
      "マ": 647,
      "リ": 648,
      "ロ": 649,
      "ワ": 650,
      "ン": 651,
      "・": 652,
      "ー": 653,
      "ㄩ": 654,
      "ㅎ": 655,
      "㎡": 656,
      "上": 657,
      "中": 658,
      "乐": 659,
      "井": 660,
      "京": 661,
      "人": 662,
      "佐": 663,
      "例": 664,
      "分": 665,
      "千": 666,
      "原": 667,
      "句": 668,
      "合": 669,
      "名": 670,
      "和": 671,
      "営": 672,
      "国": 673,
      "在": 674,
      "大": 675,
      "女": 676,
      "好": 677,
      "子": 678,
      "安": 679,
      "宮": 680,
      "家": 681,
      "山": 682,
      "岡": 683,
      "島": 684,
      "州": 685,
      "市": 686,
      "希": 687,
      "広": 688,
      "庆": 689,
      "府": 690,
      "快": 691,
      "性": 692,
      "恰": 693,
      "愛": 694,
      "我": 695,
      "戸": 696,
      "文": 697,
      "斯": 698,
      "新": 699,
      "日": 700,
      "明": 701,
      "星": 702,
      "是": 703,
      "書": 704,
      "月": 705,
      "有": 706,
      "本": 707,
      "李": 708,
      "松": 709,
      "歌": 710,
      "江": 711,
      "津": 712,
      "游": 713,
      "漫": 714,
      "爱": 715,
      "玛": 716,
      "瓦": 717,
      "生": 718,
      "田": 719,
      "的": 720,
      "皇": 721,
      "県": 722,
      "知": 723,
      "石": 724,
      "社": 725,
      "福": 726,
      "秋": 727,
      "美": 728,
      "者": 729,
      "节": 730,
      "葉": 731,
      "語": 732,
      "语": 733,
      "路": 734,
      "透": 735,
      "道": 736,
      "里": 737,
      "野": 738,
      "金": 739,
      "長": 740,
      "關": 741,
      "际": 742,
      "鸭": 743,
      "ﬀ": 744,
      "ﬁ": 745,
      "﴾": 746,
      "﴿": 747,
      "ﷺ": 748,
      "！": 749,
      "（": 750,
      "）": 751,
      "，": 752,
      "．": 753,
      "：": 754,
      "～": 755,
      "ﾉ": 756,
      "￼": 757,
      "🇦": 758,
      "🇧": 759,
      "🇨": 760,
      "🇩": 761,
      "🇪": 762,
      "🇬": 763,
      "🇭": 764,
      "🇮": 765,
      "🇰": 766,
      "🇱": 767,
      "🇲": 768,
      "🇳": 769,
      "🇴": 770,
      "🇵": 771,
      "🇷": 772,
      "🇸": 773,
      "🇹": 774,
      "🇺": 775,
      "🇿": 776,
      "🌍": 777,
      "🌙": 778,
      "🌟": 779,
      "🌳": 780,
      "🌴": 781,
      "🌶": 782,
      "🌷": 783,
      "🌸": 784,
      "🌹": 785,
      "🌺": 786,
      "🌻": 787,
      "🌽": 788,
      "🌾": 789,
      "🌿": 790,
      "🍁": 791,
      "🍃": 792,
      "🍅": 793,
      "🍇": 794,
      "🍈": 795,
      "🍉": 796,
      "🍎": 797,
      "🍒": 798,
      "🍓": 799,
      "🍟": 800,
      "🍬": 801,
      "🍮": 802,
      "🍰": 803,
      "🍴": 804,
      "🍺": 805,
      "🍾": 806,
      "🎁": 807,
      "🎂": 808,
      "🎄": 809,
      "🎆": 810,
      "🎇": 811,
      "🎈": 812,
      "🎉": 813,
      "🎊": 814,
      "🎡": 815,
      "🎤": 816,
      "🎥": 817,
      "🎧": 818,
      "🎬": 819,
      "🎵": 820,
      "🎶": 821,
      "🎹": 822,
      "🎼": 823,
      "🎾": 824,
      "🏃": 825,
      "🏆": 826,
      "🏠": 827,
      "🏧": 828,
      "🏻": 829,
      "🏼": 830,
      "🏽": 831,
      "🏾": 832,
      "🏿": 833,
      "🐄": 834,
      "🐪": 835,
      "👀": 836,
      "👁": 837,
      "👂": 838,
      "👆": 839,
      "👇": 840,
      "👈": 841,
      "👉": 842,
      "👊": 843,
      "👋": 844,
      "👌": 845,
      "👍": 846,
      "👏": 847,
      "👑": 848,
      "👓": 849,
      "👗": 850,
      "👜": 851,
      "👞": 852,
      "👠": 853,
      "👧": 854,
      "👨": 855,
      "👪": 856,
      "👫": 857,
      "👶": 858,
      "👷": 859,
      "👽": 860,
      "💃": 861,
      "💉": 862,
      "💋": 863,
      "💎": 864,
      "💐": 865,
      "💓": 866,
      "💔": 867,
      "💕": 868,
      "💖": 869,
      "💗": 870,
      "💘": 871,
      "💙": 872,
      "💚": 873,
      "💛": 874,
      "💜": 875,
      "💝": 876,
      "💞": 877,
      "💟": 878,
      "💡": 879,
      "💣": 880,
      "💤": 881,
      "💥": 882,
      "💦": 883,
      "💪": 884,
      "💬": 885,
      "💯": 886,
      "💰": 887,
      "💳": 888,
      "💻": 889,
      "📃": 890,
      "📋": 891,
      "📌": 892,
      "📍": 893,
      "📓": 894,
      "📕": 895,
      "📖": 896,
      "📘": 897,
      "📚": 898,
      "📜": 899,
      "📝": 900,
      "📞": 901,
      "📢": 902,
      "📰": 903,
      "📱": 904,
      "📲": 905,
      "📶": 906,
      "📷": 907,
      "📸": 908,
      "📹": 909,
      "📺": 910,
      "📻": 911,
      "🔁": 912,
      "🔍": 913,
      "🔎": 914,
      "🔑": 915,
      "🔚": 916,
      "🔜": 917,
      "🔞": 918,
      "🔥": 919,
      "🔨": 920,
      "🔫": 921,
      "🔴": 922,
      "🔵": 923,
      "🔸": 924,
      "🔹": 925,
      "🔺": 926,
      "🔻": 927,
      "🕌": 928,
      "🕸": 929,
      "🖕": 930,
      "🖤": 931,
      "😀": 932,
      "😁": 933,
      "😂": 934,
      "😃": 935,
      "😄": 936,
      "😅": 937,
      "😆": 938,
      "😇": 939,
      "😈": 940,
      "😉": 941,
      "😊": 942,
      "😋": 943,
      "😌": 944,
      "😍": 945,
      "😎": 946,
      "😏": 947,
      "😒": 948,
      "😓": 949,
      "😔": 950,
      "😘": 951,
      "😚": 952,
      "😛": 953,
      "😜": 954,
      "😝": 955,
      "😞": 956,
      "😠": 957,
      "😡": 958,
      "😢": 959,
      "😥": 960,
      "😦": 961,
      "😨": 962,
      "😩": 963,
      "😫": 964,
      "😭": 965,
      "😯": 966,
      "😱": 967,
      "😲": 968,
      "😳": 969,
      "😷": 970,
      "😻": 971,
      "🙁": 972,
      "🙂": 973,
      "🙄": 974,
      "🙅": 975,
      "🙆": 976,
      "🙇": 977,
      "🙈": 978,
      "🙉": 979,
      "🙊": 980,
      "🙋": 981,
      "🙌": 982,
      "🙏": 983,
      "🚀": 984,
      "🚨": 985,
      "🚫": 986,
      "🚶": 987,
      "🛌": 988,
      "🤐": 989,
      "🤒": 990,
      "🤔": 991,
      "🤗": 992,
      "🤜": 993,
      "🤝": 994,
      "🤞": 995,
      "🤣": 996,
      "🤯": 997,
      "🤱": 998,
      "🤳": 999,
      "🤸": 1000,
      "🥇": 1001,
      "🦁": 1002,
      "🦋": 1003,
      "🧚": 1004,
      "##e": 1005,
      "##z": 1006,
      "##i": 1007,
      "##d": 1008,
      "##n": 1009,
      "##s": 1010,
      "##t": 1011,
      "##r": 1012,
      "##u": 1013,
      "##c": 1014,
      "##a": 1015,
      "##v": 1016,
      "##y": 1017,
      "##w": 1018,
      "##l": 1019,
      "##h": 1020,
      "##b": 1021,
      "##q": 1022,
      "##o": 1023,
      "##m": 1024,
      "##f": 1025,
      "##k": 1026,
      "##g": 1027,
      "##p": 1028,
      "##j": 1029,
      "##→": 1030,
      "##2": 1031,
      "##5": 1032,
      "##6": 1033,
      "##8": 1034,
      "##1": 1035,
      "##👑": 1036,
      "##7": 1037,
      "##0": 1038,
      "##x": 1039,
      "##9": 1040,
      "##3": 1041,
      "##4": 1042,
      "##و": 1043,
      "##ع": 1044,
      "##🖕": 1045,
      "##μ": 1046,
      "##ο": 1047,
      "##υ": 1048,
      "##σ": 1049,
      "##ι": 1050,
      "##ς": 1051,
      "##ρ": 1052,
      "##θ": 1053,
      "##α": 1054,
      "##ー": 1055,
      "##♥": 1056,
      "##ن": 1057,
      "##ف": 1058,
      "##س": 1059,
      "##ه": 1060,
      "##م": 1061,
      "##🎂": 1062,
      "##ل": 1063,
      "##ر": 1064,
      "##ق": 1065,
      "##€": 1066,
      "##œ": 1067,
      "##с": 1068,
      "##е": 1069,
      "##г": 1070,
      "##д": 1071,
      "##а": 1072,
      "##ł": 1073,
      "##¬": 1074,
      "##ø": 1075,
      "##♫": 1076,
      "##♪": 1077,
      "##є": 1078,
      "##ℓ": 1079,
      "##η": 1080,
      "##❀": 1081,
      "##°": 1082,
      "##✌": 1083,
      "##🔥": 1084,
      "##´": 1085,
      "##￼": 1086,
      "##💣": 1087,
      "##ي": 1088,
      "##ا": 1089,
      "##χ": 1090,
      "##λ": 1091,
      "##˜": 1092,
      "##™": 1093,
      "##ت": 1094,
      "##✔": 1095,
      "##😁": 1096,
      "##😂": 1097,
      "##🏻": 1098,
      "##ʃ": 1099,
      "##ˈ": 1100,
      "##ɪ": 1101,
      "##ɑ": 1102,
      "##ß": 1103,
      "##½": 1104,
      "##н": 1105,
      "##ﬁ": 1106,
      "##★": 1107,
      "##ː": 1108,
      "##у": 1109,
      "##к": 1110,
      "##о": 1111,
      "##в": 1112,
      "##х": 1113,
      "##®": 1114,
      "##ת": 1115,
      "##ן": 1116,
      "##😞": 1117,
      "##м": 1118,
      "##²": 1119,
      "##т": 1120,
      "##р": 1121,
      "##×": 1122,
      "##🏽": 1123,
      "##и": 1124,
      "##♠": 1125,
      "##♣": 1126,
      "##б": 1127,
      "##ь": 1128,
      "##י": 1129,
      "##ק": 1130,
      "##ר": 1131,
      "##א": 1132,
      "##º": 1133,
      "##▶": 1134,
      "##📞": 1135,
      "##τ": 1136,
      "##ش": 1137,
      "##л": 1138,
      "##💚": 1139,
      "##🙉": 1140,
      "##ı": 1141,
      "##👇": 1142,
      "##ב": 1143,
      "##ה": 1144,
      "##ᅩ": 1145,
      "##ᄆ": 1146,
      "##ᄅ": 1147,
      "##ᄋ": 1148,
      "##ᅥ": 1149,
      "##ท": 1150,
      "##ย": 1151,
      "##🏿": 1152,
      "##🙌": 1153,
      "##п": 1154,
      "##ك": 1155,
      "##📓": 1156,
      "##ᅮ": 1157,
      "##ᅧ": 1158,
      "##خ": 1159,
      "##ض": 1160,
      "##👌": 1161,
      "##ʻ": 1162,
      "##ج": 1163,
      "##ز": 1164,
      "##ᆨ": 1165,
      "##ᄇ": 1166,
      "##ᅵ": 1167,
      "##😅": 1168,
      "##פ": 1169,
      "##π": 1170,
      "##ν": 1171,
      "##❤": 1172,
      "##↠": 1173,
      "##✅": 1174,
      "##る": 1175,
      "##ة": 1176,
      "##ל": 1177,
      "##ש": 1178,
      "##נ": 1179,
      "##ی": 1180,
      "##ᄀ": 1181,
      "##ᆫ": 1182,
      "##ᅡ": 1183,
      "##ч": 1184,
      "##ד": 1185,
      "##ו": 1186,
      "##ם": 1187,
      "##ⓐ": 1188,
      "##ⓔ": 1189,
      "##ⓢ": 1190,
      "##ⓣ": 1191,
      "##ᆯ": 1192,
      "##ᅳ": 1193,
      "##▀": 1194,
      "##😠": 1195,
      "##¼": 1196,
      "##ح": 1197,
      "##ب": 1198,
      "##🍴": 1199,
      "##я": 1200,
      "##👉": 1201,
      "##ص": 1202,
      "##🌾": 1203,
      "##γ": 1204,
      "##🏼": 1205,
      "##🏾": 1206,
      "##🙈": 1207,
      "##🍃": 1208,
      "##ᄌ": 1209,
      "##ᆸ": 1210,
      "##د": 1211,
      "##☆": 1212,
      "##ღ": 1213,
      "##🙄": 1214,
      "##😩": 1215,
      "##🤣": 1216,
      "##न": 1217,
      "##ि": 1218,
      "##य": 1219,
      "##ा": 1220,
      "##ε": 1221,
      "##🎊": 1222,
      "##æ": 1223,
      "##թ": 1224,
      "##ա": 1225,
      "##լ": 1226,
      "##📷": 1227,
      "##ɲ": 1228,
      "##🙋": 1229,
      "##ю": 1230,
      "##ɗ": 1231,
      "##📸": 1232,
      "##ע": 1233,
      "##ш": 1234,
      "##ѕ": 1235,
      "##🏃": 1236,
      "##з": 1237,
      "##δ": 1238,
      "##ω": 1239,
      "##व": 1240,
      "##ह": 1241,
      "##ल": 1242,
      "##ी": 1243,
      "##ы": 1244,
      "##☀": 1245,
      "##ግ": 1246,
      "##ር": 1247,
      "##ط": 1248,
      "##¦": 1249,
      "##ث": 1250,
      "##♦": 1251,
      "##👆": 1252,
      "##ᄉ": 1253,
      "##מ": 1254,
      "##♂": 1255,
      "##🌽": 1256,
      "##🐄": 1257,
      "##ψ": 1258,
      "##£": 1259,
      "##💪": 1260,
      "##🎤": 1261,
      "##🎼": 1262,
      "##🎶": 1263,
      "##🎹": 1264,
      "##☝": 1265,
      "##ት": 1266,
      "##ያ": 1267,
      "##ʒ": 1268,
      "##ʁ": 1269,
      "##♡": 1270,
      "##🎆": 1271,
      "##ʹ": 1272,
      "##ज": 1273,
      "##ᆷ": 1274,
      "##ᆼ": 1275,
      "##ッ": 1276,
      "##ク": 1277,
      "##ス": 1278,
      "##し": 1279,
      "##な": 1280,
      "##い": 1281,
      "##▒": 1282,
      "##💞": 1283,
      "##┓": 1284,
      "##ʼ": 1285,
      "##☺": 1286,
      "##φ": 1287,
      "##😘": 1288,
      "##ى": 1289,
      "##ξ": 1290,
      "##😱": 1291,
      "##і": 1292,
      "##🙏": 1293,
      "##😀": 1294,
      "##κ": 1295,
      "##ट": 1296,
      "##э": 1297,
      "##¢": 1298,
      "##💋": 1299,
      "##🔞": 1300,
      "##🎄": 1301,
      "##😃": 1302,
      "##ð": 1303,
      "##כ": 1304,
      "##🎇": 1305,
      "##🎉": 1306,
      "##░": 1307,
      "##✨": 1308,
      "##ን": 1309,
      "##ራ": 1310,
      "##💃": 1311,
      "##ə": 1312,
      "##😉": 1313,
      "##💕": 1314,
      "##♀": 1315,
      "##🌟": 1316,
      "##👏": 1317,
      "##👊": 1318,
      "##↓": 1319,
      "##უ": 1320,
      "##ა": 1321,
      "##ვ": 1322,
      "##ი": 1323,
      "##ლ": 1324,
      "##ג": 1325,
      "##ĳ": 1326,
      "##🌍": 1327,
      "##○": 1328,
      "##😆": 1329,
      "##℅": 1330,
      "##ж": 1331,
      "##ᅲ": 1332,
      "##ᄐ": 1333,
      "##ም": 1334,
      "##β": 1335,
      "##±": 1336,
      "##ⓝ": 1337,
      "##ظ": 1338,
      "##ᅪ": 1339,
      "##ᄒ": 1340,
      "##ማ": 1341,
      "##ц": 1342,
      "##ᄂ": 1343,
      "##ɾ": 1344,
      "##═": 1345,
      "##╝": 1346,
      "##ɛ": 1347,
      "##щ": 1348,
      "##📚": 1349,
      "##🔜": 1350,
      "##ᄑ": 1351,
      "##👂": 1352,
      "##−": 1353,
      "##す": 1354,
      "##～": 1355,
      "##📋": 1356,
      "##ն": 1357,
      "##յ": 1358,
      "##ս": 1359,
      "##տ": 1360,
      "##ん": 1361,
      "##か": 1362,
      "##╚": 1363,
      "##ﬀ": 1364,
      "##ม": 1365,
      "##🔁": 1366,
      "##💘": 1367,
      "##💓": 1368,
      "##💙": 1369,
      "##💛": 1370,
      "##💜": 1371,
      "##💗": 1372,
      "##ᅭ": 1373,
      "##˚": 1374,
      "##▄": 1375,
      "##█": 1376,
      "##צ": 1377,
      "##ᄃ": 1378,
      "##っ": 1379,
      "##リ": 1380,
      "##ј": 1381,
      "##🏆": 1382,
      "##😍": 1383,
      "##ء": 1384,
      "##ब": 1385,
      "##΄": 1386,
      "##ח": 1387,
      "##า": 1388,
      "##😢": 1389,
      "##😔": 1390,
      "##☹": 1391,
      "##🙁": 1392,
      "##÷": 1393,
      "##🤗": 1394,
      "##ъ": 1395,
      "##र": 1396,
      "##म": 1397,
      "##ग": 1398,
      "##प": 1399,
      "##त": 1400,
      "##✈": 1401,
      "##🇿": 1402,
      "##🇬": 1403,
      "##👍": 1404,
      "##ک": 1405,
      "##▲": 1406,
      "##✘": 1407,
      "##🇪": 1408,
      "##🤝": 1409,
      "##も": 1410,
      "##🇸": 1411,
      "##🇺": 1412,
      "##✍": 1413,
      "##🌹": 1414,
      "##া": 1415,
      "##🤐": 1416,
      "##ե": 1417,
      "##բ": 1418,
      "##ի": 1419,
      "##ɐ": 1420,
      "##स": 1421,
      "##😭": 1422,
      "##¨": 1423,
      "##🎈": 1424,
      "##🎁": 1425,
      "##ヒ": 1426,
      "##ハ": 1427,
      "##▪": 1428,
      "##⌚": 1429,
      "##ذ": 1430,
      "##🔑": 1431,
      "##⭐": 1432,
      "##フ": 1433,
      "##タ": 1434,
      "##√": 1435,
      "##መ": 1436,
      "##ና": 1437,
      "##ᅢ": 1438,
      "##💝": 1439,
      "##¤": 1440,
      "##¥": 1441,
      "##ז": 1442,
      "##ᅦ": 1443,
      "##👪": 1444,
      "##ᄎ": 1445,
      "##🇮": 1446,
      "##🇳": 1447,
      "##🇹": 1448,
      "##🌿": 1449,
      "##ո": 1450,
      "##կ": 1451,
      "##մ": 1452,
      "##ր": 1453,
      "##ʿ": 1454,
      "##ड": 1455,
      "##✖": 1456,
      "##◄": 1457,
      "##⃣": 1458,
      "##😜": 1459,
      "##🤔": 1460,
      "##💤": 1461,
      "##シ": 1462,
      "##ア": 1463,
      "##ン": 1464,
      "##👫": 1465,
      "##💖": 1466,
      "##➖": 1467,
      "##ด": 1468,
      "##ง": 1469,
      "##😳": 1470,
      "##ბ": 1471,
      "##ს": 1472,
      "##ʊ": 1473,
      "##©": 1474,
      "##に": 1475,
      "##マ": 1476,
      "##ส": 1477,
      "##🎡": 1478,
      "##च": 1479,
      "##ト": 1480,
      "##🔴": 1481,
      "##🌷": 1482,
      "##🌙": 1483,
      "##🎵": 1484,
      "##🇨": 1485,
      "##🇭": 1486,
      "##ւ": 1487,
      "##ሰ": 1488,
      "##ው": 1489,
      "##ች": 1490,
      "##ܘ": 1491,
      "##ܐ": 1492,
      "##ܝ": 1493,
      "##ܠ": 1494,
      "##ܬ": 1495,
      "##ɔ": 1496,
      "##り": 1497,
      "##く": 1498,
      "##🍾": 1499,
      "##💥": 1500,
      "##😄": 1501,
      "##🌴": 1502,
      "##ይ": 1503,
      "##ф": 1504,
      "##💟": 1505,
      "##🎧": 1506,
      "##✊": 1507,
      "##◯": 1508,
      "##๑": 1509,
      "##۩": 1510,
      "##ል": 1511,
      "##ŋ": 1512,
      "##😊": 1513,
      "##ᆮ": 1514,
      "##╬": 1515,
      "##👽": 1516,
      "##😎": 1517,
      "##💦": 1518,
      "##😋": 1519,
      "##ᅯ": 1520,
      "##ᅣ": 1521,
      "##💯": 1522,
      "##て": 1523,
      "##ﷺ": 1524,
      "##👞": 1525,
      "##😻": 1526,
      "##⚡": 1527,
      "##☉": 1528,
      "##🍺": 1529,
      "##ܡ": 1530,
      "##³": 1531,
      "##📜": 1532,
      "##¹": 1533,
      "##は": 1534,
      "##♚": 1535,
      "##ʾ": 1536,
      "##🍁": 1537,
      "##🇧": 1538,
      "##ζ": 1539,
      "##🇲": 1540,
      "##の": 1541,
      "##😝": 1542,
      "##🇷": 1543,
      "##٤": 1544,
      "##◇": 1545,
      "##□": 1546,
      "##🇰": 1547,
      "##👈": 1548,
      "##😛": 1549,
      "##ᄏ": 1550,
      "##⛪": 1551,
      "##µ": 1552,
      "##●": 1553,
      "##✿": 1554,
      "##غ": 1555,
      "##ـ": 1556,
      "##¯": 1557,
      "##ʀ": 1558,
      "##サ": 1559,
      "##վ": 1560,
      "##դ": 1561,
      "##⬇": 1562,
      "##║": 1563,
      "##✩": 1564,
      "##↗": 1565,
      "##ロ": 1566,
      "##℃": 1567,
      "##💉": 1568,
      "##ᅬ": 1569,
      "##👁": 1570,
      "##🌸": 1571,
      "##ª": 1572,
      "##گ": 1573,
      "##≈": 1574,
      "##🌳": 1575,
      "##🍒": 1576,
      "##🍓": 1577,
      "##ㅎ": 1578,
      "##☕": 1579,
      "##コ": 1580,
      "##🙆": 1581,
      "##✓": 1582,
      "##ስ": 1583,
      "##👓": 1584,
      "##▬": 1585,
      "##⚫": 1586,
      "##│": 1587,
      "##🚶": 1588,
      "##◕": 1589,
      "##🍇": 1590,
      "##💎": 1591,
      "##🖤": 1592,
      "##¸": 1593,
      "##━": 1594,
      "##ೕ": 1595,
      "##ೂ": 1596,
      "##ワ": 1597,
      "##🇱": 1598,
      "##🙊": 1599,
      "##😇": 1600,
      "##द": 1601,
      "##ര": 1602,
      "##🇴": 1603,
      "##क": 1604,
      "##ল": 1605,
      "##⚰": 1606,
      "##😚": 1607,
      "##ላ": 1608,
      "##🔎": 1609,
      "##🔍": 1610,
      "##👀": 1611,
      "##⠀": 1612,
      "##👷": 1613,
      "##🍎": 1614,
      "##🌻": 1615,
      "##🌺": 1616,
      "##🍉": 1617,
      "##⚽": 1618,
      "##🤸": 1619,
      "##ለ": 1620,
      "##❔": 1621,
      "##➡": 1622,
      "##📹": 1623,
      "##─": 1624,
      "##❥": 1625,
      "##⊱": 1626,
      "##╮": 1627,
      "##✰": 1628,
      "##ܪ": 1629,
      "##😲": 1630,
      "##😡": 1631,
      "##キ": 1632,
      "##🕌": 1633,
      "##▌": 1634,
      "##🍅": 1635,
      "##💰": 1636,
      "##🌶": 1637,
      "##🙂": 1638,
      "##┏": 1639,
      "##㎡": 1640,
      "##գ": 1641,
      "##😷": 1642,
      "##đ": 1643,
      "##🇦": 1644,
      "##╩": 1645,
      "##↡": 1646,
      "##❌": 1647,
      "##ס": 1648,
      "##ⓞ": 1649,
      "##☠": 1650,
      "##►": 1651,
      "##🇩": 1652,
      "##📺": 1653,
      "##ニ": 1654,
      "##😫": 1655,
      "##ܕ": 1656,
      "##🚀": 1657,
      "##👜": 1658,
      "##👧": 1659,
      "##👗": 1660,
      "##👠": 1661,
      "##ף": 1662,
      "##🔫": 1663,
      "##さ": 1664,
      "##🤞": 1665,
      "##🚨": 1666,
      "##つ": 1667,
      "##🙇": 1668,
      "##ɡ": 1669,
      "##❣": 1670,
      "##こ": 1671,
      "##😨": 1672,
      "##カ": 1673,
      "##🎬": 1674,
      "##🇵": 1675,
      "##💬": 1676,
      "##😥": 1677,
      "##👋": 1678,
      "##٢": 1679,
      "##ま": 1680,
      "##ჰ": 1681,
      "##🤯": 1682,
      "##ך": 1683,
      "##რ": 1684,
      "##თ": 1685,
      "##▃": 1686,
      "##≤": 1687,
      "##🙅": 1688,
      "##📲": 1689,
      "##🏠": 1690,
      "##❓": 1691,
      "##🥇": 1692,
      "##■": 1693,
      "##☎": 1694,
      "##🍰": 1695,
      "##🔚": 1696,
      "##ˆ": 1697,
      "##🤒": 1698,
      "##ி": 1699,
      "##پ": 1700,
      "##ി": 1701,
      "##ക": 1702,
      "##ደ": 1703,
      "##📰": 1704,
      "##🔨": 1705,
      "##☄": 1706,
      "##ƴ": 1707,
      "##📻": 1708,
      "##😏": 1709,
      "##۹": 1710,
      "##⋆": 1711,
      "##❁": 1712,
      "##◆": 1713,
      "##あ": 1714,
      "##🎾": 1715,
      "##💻": 1716,
      "##▭": 1717,
      "##🤳": 1718,
      "##📖": 1719,
      "##ץ": 1720,
      "##ዎ": 1721,
      "##👨": 1722,
      "##🕸": 1723,
      "##ղ": 1724,
      "##ট": 1725,
      "##←": 1726,
      "##⏬": 1727,
      "##🐪": 1728,
      "##😒": 1729,
      "##🍬": 1730,
      "##ቆ": 1731,
      "##🍟": 1732,
      "##😌": 1733,
      "##🧚": 1734,
      "##🦋": 1735,
      "##🎥": 1736,
      "##ዩ": 1737,
      "##ო": 1738,
      "##ე": 1739,
      "##🚫": 1740,
      "##れ": 1741,
      "##🍮": 1742,
      "##٩": 1743,
      "##↑": 1744,
      "##🦁": 1745,
      "##˛": 1746,
      "##📱": 1747,
      "##ʽ": 1748,
      "##❗": 1749,
      "##💐": 1750,
      "##an": 1751,
      "##wa": 1752,
      "wa": 1753,
      "##li": 1754,
      "ya": 1755,
      "ku": 1756,
      "##ka": 1757,
      "na": 1758,
      "ma": 1759,
      "##ha": 1760,
      "##in": 1761,
      "##ti": 1762,
      "##ri": 1763,
      "##en": 1764,
      "##ta": 1765,
      "##ma": 1766,
      "##ba": 1767,
      "ka": 1768,
      "##ki": 1769,
      "##zi": 1770,
      "##ku": 1771,
      "##hi": 1772,
      "kwa": 1773,
      "##si": 1774,
      "ha": 1775,
      "##ana": 1776,
      "##un": 1777,
      "ki": 1778,
      "##za": 1779,
      "##ra": 1780,
      "##ia": 1781,
      "##yo": 1782,
      "##da": 1783,
      "##la": 1784,
      "##to": 1785,
      "##di": 1786,
      "##on": 1787,
      "##ya": 1788,
      "##ji": 1789,
      "##tu": 1790,
      "##le": 1791,
      "##me": 1792,
      "##is": 1793,
      "##ke": 1794,
      "za": 1795,
      "##mba": 1796,
      "kati": 1797,
      "hi": 1798,
      "##mu": 1799,
      "##mb": 1800,
      "##ye": 1801,
      "##ani": 1802,
      "##ja": 1803,
      "##na": 1804,
      "##ch": 1805,
      "##we": 1806,
      "ni": 1807,
      "##gu": 1808,
      "##sa": 1809,
      "##ini": 1810,
      "la": 1811,
      "katika": 1812,
      "##sha": 1813,
      "##ko": 1814,
      "##ga": 1815,
      "##te": 1816,
      "##hu": 1817,
      "##fa": 1818,
      "##zo": 1819,
      "##go": 1820,
      "ba": 1821,
      "hu": 1822,
      "##mi": 1823,
      "##fu": 1824,
      "##pa": 1825,
      "##po": 1826,
      "ta": 1827,
      "vi": 1828,
      "cha": 1829,
      "sa": 1830,
      "##mo": 1831,
      "kuwa": 1832,
      "ali": 1833,
      "mi": 1834,
      "##bu": 1835,
      "##enye": 1836,
      "##ge": 1837,
      "##he": 1838,
      "##ina": 1839,
      "mw": 1840,
      "##de": 1841,
      "si": 1842,
      "##ru": 1843,
      "##re": 1844,
      "##se": 1845,
      "##fan": 1846,
      "kw": 1847,
      "##shi": 1848,
      "##gi": 1849,
      "wana": 1850,
      "##sh": 1851,
      "##pi": 1852,
      "amba": 1853,
      "##ano": 1854,
      "se": 1855,
      "##kuwa": 1856,
      "##lo": 1857,
      "##ili": 1858,
      "mku": 1859,
      "ra": 1860,
      "kuto": 1861,
      "ili": 1862,
      "##do": 1863,
      "tu": 1864,
      "##ungu": 1865,
      "##rika": 1866,
      "mu": 1867,
      "##cha": 1868,
      "##chi": 1869,
      "##sema": 1870,
      "20": 1871,
      "##ua": 1872,
      "mwa": 1873,
      "aki": 1874,
      "kama": 1875,
      "##fi": 1876,
      "##mbo": 1877,
      "##moja": 1878,
      "##anga": 1879,
      "ju": 1880,
      "mo": 1881,
      "ja": 1882,
      "##ele": 1883,
      "##vyo": 1884,
      "##ania": 1885,
      "##su": 1886,
      "baa": 1887,
      "wali": 1888,
      "ina": 1889,
      "##dha": 1890,
      "##anz": 1891,
      "kwenye": 1892,
      "ame": 1893,
      "##ende": 1894,
      "da": 1895,
      "##fanya": 1896,
      "pa": 1897,
      "##anda": 1898,
      "##eo": 1899,
      "##du": 1900,
      "201": 1901,
      "##ro": 1902,
      "##anzania": 1903,
      "hiyo": 1904,
      "##dhi": 1905,
      "##ze": 1906,
      "##kati": 1907,
      "wi": 1908,
      "##isha": 1909,
      "vya": 1910,
      "##lia": 1911,
      "##ongo": 1912,
      "##bi": 1913,
      "ana": 1914,
      "##uni": 1915,
      "##che": 1916,
      "watu": 1917,
      "##ote": 1918,
      "##ine": 1919,
      "##oni": 1920,
      "##ifa": 1921,
      "mkuu": 1922,
      "##mbe": 1923,
      "##idi": 1924,
      "##ing": 1925,
      "##vu": 1926,
      "una": 1927,
      "##bari": 1928,
      "rais": 1929,
      "##fun": 1930,
      "##je": 1931,
      "##mia": 1932,
      "##ria": 1933,
      "tanzania": 1934,
      "baada": 1935,
      "ny": 1936,
      "mb": 1937,
      "##endele": 1938,
      "mwaka": 1939,
      "##kana": 1940,
      "##cho": 1941,
      "ji": 1942,
      "yake": 1943,
      "##ingi": 1944,
      "##rikali": 1945,
      "habari": 1946,
      "##ho": 1947,
      "##anza": 1948,
      "serikali": 1949,
      "af": 1950,
      "##kiwa": 1951,
      "##enda": 1952,
      "##bali": 1953,
      "li": 1954,
      "##taka": 1955,
      "wakati": 1956,
      "hii": 1957,
      "wazi": 1958,
      "##bwa": 1959,
      "uli": 1960,
      "zaidi": 1961,
      "##riki": 1962,
      "kutoka": 1963,
      "##isa": 1964,
      "uta": 1965,
      "##ju": 1966,
      "nch": 1967,
      "nchi": 1968,
      "nchini": 1969,
      "##weza": 1970,
      "##am": 1971,
      "##kini": 1972,
      "##jini": 1973,
      "##uri": 1974,
      "ye": 1975,
      "wan": 1976,
      "##eni": 1977,
      "ch": 1978,
      "##sili": 1979,
      "kwamba": 1980,
      "wake": 1981,
      "au": 1982,
      "waziri": 1983,
      "##pe": 1984,
      "siku": 1985,
      "ime": 1986,
      "moja": 1987,
      "mko": 1988,
      "zi": 1989,
      "##pata": 1990,
      "wen": 1991,
      "##mani": 1992,
      "##tia": 1993,
      "leo": 1994,
      "##yi": 1995,
      "##lu": 1996,
      "bi": 1997,
      "mwenye": 1998,
      "po": 1999,
      "maa": 2000,
      "##chu": 2001,
      "pamoja": 2002,
      "##enzi": 2003,
      "##vi": 2004,
      "##liwa": 2005,
      "mp": 2006,
      "we": 2007,
      "##mbu": 2008,
      "taa": 2009,
      "huo": 2010,
      "sana": 2011,
      "kazi": 2012,
      "kuhu": 2013,
      "##andi": 2014,
      "##anzi": 2015,
      "mbali": 2016,
      "lakini": 2017,
      "sala": 2018,
      "fa": 2019,
      "hata": 2020,
      "alisema": 2021,
      "##unge": 2022,
      "##sho": 2023,
      "##ongozi": 2024,
      "##zungu": 2025,
      "sasa": 2026,
      "##ung": 2027,
      "##pin": 2028,
      "hivyo": 2029,
      "pia": 2030,
      "##jili": 2031,
      "ndi": 2032,
      "##ona": 2033,
      "dar": 2034,
      "bo": 2035,
      "kila": 2036,
      "mara": 2037,
      "##onge": 2038,
      "##so": 2039,
      "##una": 2040,
      "wame": 2041,
      "##angu": 2042,
      "maka": 2043,
      "##mp": 2044,
      "hilo": 2045,
      "##toke": 2046,
      "pi": 2047,
      "##ango": 2048,
      "hapa": 2049,
      "##kia": 2050,
      "##dani": 2051,
      "kuji": 2052,
      "mtu": 2053,
      "##toa": 2054,
      "##toto": 2055,
      "es": 2056,
      "##shin": 2057,
      "huu": 2058,
      "##zaji": 2059,
      "##zungum": 2060,
      "##taifa": 2061,
      "##ne": 2062,
      "to": 2063,
      "##shwa": 2064,
      "dk": 2065,
      "juu": 2066,
      "mia": 2067,
      "mungu": 2068,
      "she": 2069,
      "##zwa": 2070,
      "##mbi": 2071,
      "ko": 2072,
      "ho": 2073,
      "##anchi": 2074,
      "kuhusu": 2075,
      "salaam": 2076,
      "mwana": 2077,
      "walio": 2078,
      "##ishi": 2079,
      "ti": 2080,
      "me": 2081,
      "##sia": 2082,
      "taifa": 2083,
      "kupi": 2084,
      "##mii": 2085,
      "hali": 2086,
      "waki": 2087,
      "##ingine": 2088,
      "je": 2089,
      "##dia": 2090,
      "##tano": 2091,
      "mhe": 2092,
      "##kio": 2093,
      "saba": 2094,
      "miaka": 2095,
      "kuu": 2096,
      "##taa": 2097,
      "bara": 2098,
      "##dili": 2099,
      "tuna": 2100,
      "##swa": 2101,
      "matu": 2102,
      "ambayo": 2103,
      "##endelea": 2104,
      "##limu": 2105,
      "kufanya": 2106,
      "##rifa": 2107,
      "##laya": 2108,
      "shu": 2109,
      "##bo": 2110,
      "##kwa": 2111,
      "##shiriki": 2112,
      "iliyo": 2113,
      "zina": 2114,
      "##jia": 2115,
      "fe": 2116,
      "wananchi": 2117,
      "shi": 2118,
      "kum": 2119,
      "pe": 2120,
      "kab": 2121,
      "##pita": 2122,
      "##wi": 2123,
      "##fanyi": 2124,
      "mmoja": 2125,
      "##tumia": 2126,
      "mambo": 2127,
      "kuli": 2128,
      "taarifa": 2129,
      "afrika": 2130,
      "en": 2131,
      "##one": 2132,
      "##gine": 2133,
      "ndani": 2134,
      "kui": 2135,
      "an": 2136,
      "##chezo": 2137,
      "hayo": 2138,
      "##fua": 2139,
      "nyu": 2140,
      "##chagu": 2141,
      "ume": 2142,
      "##mbali": 2143,
      "mt": 2144,
      "kwanza": 2145,
      "masha": 2146,
      "##00": 2147,
      "picha": 2148,
      "ambao": 2149,
      "##ten": 2150,
      "##hidi": 2151,
      "chama": 2152,
      "mkoa": 2153,
      "kuna": 2154,
      "jo": 2155,
      "ajili": 2156,
      "ms": 2157,
      "mbalimbali": 2158,
      "##zuri": 2159,
      "##kon": 2160,
      "yao": 2161,
      "##wan": 2162,
      "jijini": 2163,
      "in": 2164,
      "co": 2165,
      "zili": 2166,
      "up": 2167,
      "##ene": 2168,
      "##ang": 2169,
      "##isho": 2170,
      "##kea": 2171,
      "ulio": 2172,
      "##shu": 2173,
      "man": 2174,
      "kili": 2175,
      "haki": 2176,
      "yana": 2177,
      "##miwa": 2178,
      "maji": 2179,
      "##shara": 2180,
      "##tua": 2181,
      "##tanga": 2182,
      "jamii": 2183,
      "usa": 2184,
      "##kili": 2185,
      "##yu": 2186,
      "wao": 2187,
      "do": 2188,
      "##weli": 2189,
      "kubwa": 2190,
      "##kiti": 2191,
      "##cm": 2192,
      "so": 2193,
      "uwe": 2194,
      "##kani": 2195,
      "yako": 2196,
      "nje": 2197,
      "##fanyika": 2198,
      "##ish": 2199,
      "kitu": 2200,
      "##kuu": 2201,
      "##endeleo": 2202,
      "##rehe": 2203,
      "##bar": 2204,
      "sababu": 2205,
      "huyo": 2206,
      "wilaya": 2207,
      "um": 2208,
      "su": 2209,
      "maisha": 2210,
      "wenye": 2211,
      "he": 2212,
      "ccm": 2213,
      "muda": 2214,
      "wote": 2215,
      "mpya": 2216,
      "hawa": 2217,
      "##duma": 2218,
      "ita": 2219,
      "##kua": 2220,
      "##husi": 2221,
      "maendeleo": 2222,
      "fu": 2223,
      "fedha": 2224,
      "##mili": 2225,
      "bu": 2226,
      "baadhi": 2227,
      "##iashara": 2228,
      "wata": 2229,
      "kupata": 2230,
      "yali": 2231,
      "huduma": 2232,
      "2018": 2233,
      "haya": 2234,
      "##gha": 2235,
      "##taji": 2236,
      "magu": 2237,
      "aliye": 2238,
      "##wezi": 2239,
      "kutoa": 2240,
      "watoto": 2241,
      "##sima": 2242,
      "kun": 2243,
      "##be": 2244,
      "viongozi": 2245,
      "hivi": 2246,
      "wanao": 2247,
      "dkt": 2248,
      "##ce": 2249,
      "kamp": 2250,
      "ambaye": 2251,
      "aka": 2252,
      "##zungumza": 2253,
      "amesema": 2254,
      "##sisi": 2255,
      "re": 2256,
      "ke": 2257,
      "kuta": 2258,
      "elimu": 2259,
      "un": 2260,
      "ga": 2261,
      "al": 2262,
      "mada": 2263,
      "maha": 2264,
      "kima": 2265,
      "mfu": 2266,
      "mkutano": 2267,
      "##engo": 2268,
      "akiwa": 2269,
      "##inga": 2270,
      "mka": 2271,
      "kutokana": 2272,
      "##andishi": 2273,
      "##anzibar": 2274,
      "hadi": 2275,
      "##huri": 2276,
      "##twa": 2277,
      "##lisi": 2278,
      "sheria": 2279,
      "zanzibar": 2280,
      "wengi": 2281,
      "##uala": 2282,
      "muung": 2283,
      "uchagu": 2284,
      "kuka": 2285,
      "uchaguzi": 2286,
      "matoke": 2287,
      "##mla": 2288,
      "mawa": 2289,
      "mwenyekiti": 2290,
      "matokeo": 2291,
      "##mizi": 2292,
      "muungano": 2293,
      "sha": 2294,
      "##shauri": 2295,
      "wiza": 2296,
      "chu": 2297,
      "##fiki": 2298,
      "##funzi": 2299,
      "bila": 2300,
      "##lewa": 2301,
      "##st": 2302,
      "nafa": 2303,
      "ambapo": 2304,
      "afya": 2305,
      "##jua": 2306,
      "##fuli": 2307,
      "##ibu": 2308,
      "chini": 2309,
      "hao": 2310,
      "kup": 2311,
      "##weze": 2312,
      "yetu": 2313,
      "hatua": 2314,
      "kupitia": 2315,
      "##wanja": 2316,
      "kari": 2317,
      "wizara": 2318,
      "##himu": 2319,
      "kan": 2320,
      "##hili": 2321,
      "polisi": 2322,
      "umoja": 2323,
      "magufuli": 2324,
      "hizo": 2325,
      "nafasi": 2326,
      "de": 2327,
      "maba": 2328,
      "mas": 2329,
      "##jana": 2330,
      "mjini": 2331,
      "maku": 2332,
      "##dogo": 2333,
      "##lamu": 2334,
      "##uti": 2335,
      "ngu": 2336,
      "##ve": 2337,
      "uku": 2338,
      "##ongeza": 2339,
      "##gwa": 2340,
      "##ena": 2341,
      "maana": 2342,
      "zilizo": 2343,
      "men": 2344,
      "wetu": 2345,
      "##va": 2346,
      "##hemu": 2347,
      "##onye": 2348,
      "##unga": 2349,
      "lina": 2350,
      "##she": 2351,
      "hai": 2352,
      "lu": 2353,
      "##dhaa": 2354,
      "bw": 2355,
      "##ondo": 2356,
      "kuku": 2357,
      "sehemu": 2358,
      "njia": 2359,
      "timu": 2360,
      "hili": 2361,
      "##thi": 2362,
      "mare": 2363,
      "19": 2364,
      "##rug": 2365,
      "##zima": 2366,
      "ru": 2367,
      "##fani": 2368,
      "##fisi": 2369,
      "2017": 2370,
      "dhidi": 2371,
      "juma": 2372,
      "##rugenzi": 2373,
      "kina": 2374,
      "pili": 2375,
      "inayo": 2376,
      "##idia": 2377,
      "jam": 2378,
      "##haki": 2379,
      "zao": 2380,
      "jana": 2381,
      "haku": 2382,
      "##mali": 2383,
      "huku": 2384,
      "hapo": 2385,
      "##kta": 2386,
      "kua": 2387,
      "waka": 2388,
      "jamhuri": 2389,
      "te": 2390,
      "ofisi": 2391,
      "kusa": 2392,
      "eneo": 2393,
      "##lin": 2394,
      "##unia": 2395,
      "##weka": 2396,
      "tume": 2397,
      "##gon": 2398,
      "##jwa": 2399,
      "katibu": 2400,
      "jambo": 2401,
      "wengine": 2402,
      "jin": 2403,
      "##pati": 2404,
      "simu": 2405,
      "##dwa": 2406,
      "##tizo": 2407,
      "##zu": 2408,
      "##radi": 2409,
      "wat": 2410,
      "##enya": 2411,
      "kia": 2412,
      "##ande": 2413,
      "lili": 2414,
      "msa": 2415,
      "ne": 2416,
      "zote": 2417,
      "hicho": 2418,
      "##omba": 2419,
      "##uli": 2420,
      "##ane": 2421,
      "##yote": 2422,
      "mkoani": 2423,
      "##rasa": 2424,
      "##jumbe": 2425,
      "awa": 2426,
      "kabla": 2427,
      "##ter": 2428,
      "maga": 2429,
      "shule": 2430,
      "##san": 2431,
      "##hitaji": 2432,
      "##wala": 2433,
      "yo": 2434,
      "matukio": 2435,
      "bora": 2436,
      "kweli": 2437,
      "##lama": 2438,
      "ndio": 2439,
      "pro": 2440,
      "##futa": 2441,
      "##kari": 2442,
      "biashara": 2443,
      "sh": 2444,
      "##man": 2445,
      "be": 2446,
      "usi": 2447,
      "##fungu": 2448,
      "ata": 2449,
      "##pindi": 2450,
      "bunge": 2451,
      "##jibu": 2452,
      "vijana": 2453,
      "asili": 2454,
      "##kisha": 2455,
      "##jen": 2456,
      "##duzi": 2457,
      "ida": 2458,
      "##pu": 2459,
      "dunia": 2460,
      "mata": 2461,
      "ikiwa": 2462,
      "##ris": 2463,
      "##co": 2464,
      "marekani": 2465,
      "ro": 2466,
      "mkurugenzi": 2467,
      "##shimiwa": 2468,
      "##wili": 2469,
      "##hari": 2470,
      "joh": 2471,
      "dha": 2472,
      "bina": 2473,
      "alikuwa": 2474,
      "zake": 2475,
      "##kama": 2476,
      "yote": 2477,
      "akizungumza": 2478,
      "##teke": 2479,
      "vita": 2480,
      "10": 2481,
      "##faa": 2482,
      "##bia": 2483,
      "mchezo": 2484,
      "kampuni": 2485,
      "##zeti": 2486,
      "##rati": 2487,
      "##eneo": 2488,
      "wanafunzi": 2489,
      "john": 2490,
      "kimataifa": 2491,
      "nyingine": 2492,
      "kutumia": 2493,
      "naibu": 2494,
      "muhimu": 2495,
      "duni": 2496,
      "mama": 2497,
      "msi": 2498,
      "mataifa": 2499,
      "maeneo": 2500,
      "##eno": 2501,
      "##risha": 2502,
      "kenya": 2503,
      "alipo": 2504,
      "##mwa": 2505,
      "##hani": 2506,
      "##ghu": 2507,
      "uki": 2508,
      "##kwe": 2509,
      "wiki": 2510,
      "nini": 2511,
      "iki": 2512,
      "##tana": 2513,
      "uj": 2514,
      "mili": 2515,
      "wasi": 2516,
      "##andao": 2517,
      "mkon": 2518,
      "mheshimiwa": 2519,
      "##ran": 2520,
      "zinazo": 2521,
      "##ida": 2522,
      "mimi": 2523,
      "##tekele": 2524,
      "duniani": 2525,
      "##damu": 2526,
      "yaliyo": 2527,
      "miko": 2528,
      "##ghuli": 2529,
      "kus": 2530,
      "jeshi": 2531,
      "##buni": 2532,
      "mbili": 2533,
      "fi": 2534,
      "##uzi": 2535,
      "wako": 2536,
      "##chumi": 2537,
      "##mika": 2538,
      "kamati": 2539,
      "mwisho": 2540,
      "michezo": 2541,
      "nili": 2542,
      "##paka": 2543,
      "##ezi": 2544,
      "##wanda": 2545,
      "mafun": 2546,
      "ufa": 2547,
      "##swahili": 2548,
      "##wani": 2549,
      "uwanja": 2550,
      "##mbea": 2551,
      "mtoto": 2552,
      "##zin": 2553,
      "ri": 2554,
      "##fsi": 2555,
      "ben": 2556,
      "##mini": 2557,
      "mkubwa": 2558,
      "ar": 2559,
      "##bisha": 2560,
      "##endaji": 2561,
      "mba": 2562,
      "wanawa": 2563,
      "basi": 2564,
      "##vuti": 2565,
      "vyo": 2566,
      "##sta": 2567,
      "##mua": 2568,
      "##th": 2569,
      "##lma": 2570,
      "mta": 2571,
      "kiswahili": 2572,
      "le": 2573,
      "##fauti": 2574,
      "nyingi": 2575,
      "##fo": 2576,
      "##el": 2577,
      "kipindi": 2578,
      "200": 2579,
      "mwezi": 2580,
      "msingi": 2581,
      "##inge": 2582,
      "##huru": 2583,
      "ndo": 2584,
      "##rd": 2585,
      "##penda": 2586,
      "wewe": 2587,
      "kwani": 2588,
      "ujenzi": 2589,
      "##muzi": 2590,
      "bado": 2591,
      "##ingia": 2592,
      "##ume": 2593,
      "##yari": 2594,
      "vile": 2595,
      "baraza": 2596,
      "map": 2597,
      "tena": 2598,
      "##siasa": 2599,
      "kura": 2600,
      "chuo": 2601,
      "##fisa": 2602,
      "##amini": 2603,
      "##hara": 2604,
      "##mbia": 2605,
      "##dai": 2606,
      "kabisa": 2607,
      "##ywa": 2608,
      "##endo": 2609,
      "##gonjwa": 2610,
      "taasisi": 2611,
      "##ry": 2612,
      "##biti": 2613,
      "maele": 2614,
      "nam": 2615,
      "tarehe": 2616,
      "##mishi": 2617,
      "yenye": 2618,
      "##rua": 2619,
      "yangu": 2620,
      "nguvu": 2621,
      "##patikana": 2622,
      "tatu": 2623,
      "jinsi": 2624,
      "hasa": 2625,
      "hakuna": 2626,
      "mbunge": 2627,
      "shirika": 2628,
      "##ishwa": 2629,
      "kuanzi": 2630,
      "wafanya": 2631,
      "##mbele": 2632,
      "##rt": 2633,
      "kika": 2634,
      "##soma": 2635,
      "ai": 2636,
      "mwan": 2637,
      "nyumba": 2638,
      "lime": 2639,
      "uk": 2640,
      "zia": 2641,
      "matumizi": 2642,
      "wanawake": 2643,
      "mad": 2644,
      "mashariki": 2645,
      "wale": 2646,
      "uhuru": 2647,
      "##chukua": 2648,
      "##fadhi": 2649,
      "kin": 2650,
      "watanzania": 2651,
      "vyombo": 2652,
      "mbele": 2653,
      "##ca": 2654,
      "nne": 2655,
      "kwenda": 2656,
      "mpango": 2657,
      "##fikia": 2658,
      "ras": 2659,
      "halma": 2660,
      "##maa": 2661,
      "##ratibu": 2662,
      "yeye": 2663,
      "##lozi": 2664,
      "##pika": 2665,
      "mali": 2666,
      "uwezo": 2667,
      "nde": 2668,
      "##zazi": 2669,
      "halmashauri": 2670,
      "ligi": 2671,
      "yu": 2672,
      "nime": 2673,
      "##ong": 2674,
      "##mad": 2675,
      "maalu": 2676,
      "##tolewa": 2677,
      "##onyesha": 2678,
      "##doma": 2679,
      "ndu": 2680,
      "##zingi": 2681,
      "##fika": 2682,
      "blo": 2683,
      "dodoma": 2684,
      "aina": 2685,
      "umma": 2686,
      "##dala": 2687,
      "lo": 2688,
      "ambazo": 2689,
      "upande": 2690,
      "kutu": 2691,
      "##bili": 2692,
      "utu": 2693,
      "##zee": 2694,
      "kiasi": 2695,
      "##zingira": 2696,
      "##tokea": 2697,
      "jina": 2698,
      "tayari": 2699,
      "##zia": 2700,
      "##jeru": 2701,
      "unaweza": 2702,
      "as": 2703,
      "000": 2704,
      "##shaji": 2705,
      "uka": 2706,
      "##rani": 2707,
      "##chezaji": 2708,
      "tofauti": 2709,
      "rasmi": 2710,
      "##raka": 2711,
      "sera": 2712,
      "mafunzo": 2713,
      "saa": 2714,
      "makamu": 2715,
      "kusini": 2716,
      "yanayo": 2717,
      "usalama": 2718,
      "waandishi": 2719,
      "hizi": 2720,
      "##tangaza": 2721,
      "##shoto": 2722,
      "##bunge": 2723,
      "mch": 2724,
      "##zani": 2725,
      "##shindi": 2726,
      "namna": 2727,
      "mazingira": 2728,
      "##mbani": 2729,
      "mfumo": 2730,
      "milioni": 2731,
      "##reza": 2732,
      "spika": 2733,
      "##saidia": 2734,
      "mpaka": 2735,
      "2016": 2736,
      "kida": 2737,
      "12": 2738,
      "zime": 2739,
      "kushoto": 2740,
      "katiba": 2741,
      "##eleza": 2742,
      "sisi": 2743,
      "maj": 2744,
      "hos": 2745,
      "wakiwa": 2746,
      "kuja": 2747,
      "nya": 2748,
      "##onekana": 2749,
      "##ada": 2750,
      "##kula": 2751,
      "kule": 2752,
      "masuala": 2753,
      "vitu": 2754,
      "##mbuli": 2755,
      "kikwe": 2756,
      "##rudi": 2757,
      "kikwete": 2758,
      "##lla": 2759,
      "kulia": 2760,
      "uha": 2761,
      "mapa": 2762,
      "karibu": 2763,
      "##takiwa": 2764,
      "mradi": 2765,
      "kusi": 2766,
      "kituo": 2767,
      "ua": 2768,
      "##hakikisha": 2769,
      "gani": 2770,
      "kushiriki": 2771,
      "##misha": 2772,
      "no": 2773,
      "huko": 2774,
      "##bara": 2775,
      "##dema": 2776,
      "suala": 2777,
      "##kazi": 2778,
      "ndiyo": 2779,
      "di": 2780,
      "mgo": 2781,
      "##yan": 2782,
      "mawasili": 2783,
      "chadema": 2784,
      "yesu": 2785,
      "##kiliza": 2786,
      "hospita": 2787,
      "mji": 2788,
      "maelezo": 2789,
      "##no": 2790,
      "mahakama": 2791,
      "ndege": 2792,
      "##pote": 2793,
      "##tara": 2794,
      "mawasiliano": 2795,
      "amani": 2796,
      "##ck": 2797,
      "kiongozi": 2798,
      "kita": 2799,
      "ca": 2800,
      "baba": 2801,
      "kas": 2802,
      "##fe": 2803,
      "##fuata": 2804,
      "15": 2805,
      "tangu": 2806,
      "tatizo": 2807,
      "am": 2808,
      "##anii": 2809,
      "waku": 2810,
      "maja": 2811,
      "mapin": 2812,
      "##ond": 2813,
      "kidato": 2814,
      "##pokea": 2815,
      "go": 2816,
      "mna": 2817,
      "##geni": 2818,
      "lazima": 2819,
      "mechi": 2820,
      "ndugu": 2821,
      "jimbo": 2822,
      "simba": 2823,
      "##piga": 2824,
      "kawa": 2825,
      "kam": 2826,
      "mamla": 2827,
      "ziara": 2828,
      "mwanam": 2829,
      "mapinduzi": 2830,
      "##moto": 2831,
      "##risto": 2832,
      "##jenga": 2833,
      "yame": 2834,
      "##rufu": 2835,
      "nina": 2836,
      "kiu": 2837,
      "ura": 2838,
      "##zama": 2839,
      "mamlaka": 2840,
      "##wemo": 2841,
      "com": 2842,
      "##mw": 2843,
      "##ni": 2844,
      "asilimia": 2845,
      "ze": 2846,
      "##badili": 2847,
      "##milia": 2848,
      "sekta": 2849,
      "bwana": 2850,
      "##deo": 2851,
      "sio": 2852,
      "##tendo": 2853,
      "uliopita": 2854,
      "##mbelea": 2855,
      "##diliko": 2856,
      "##labu": 2857,
      "mtandao": 2858,
      "##wango": 2859,
      "anaye": 2860,
      "##chungu": 2861,
      "##angi": 2862,
      "sia": 2863,
      "video": 2864,
      "mbe": 2865,
      "magazeti": 2866,
      "##hisi": 2867,
      "shughuli": 2868,
      "ap": 2869,
      "pombe": 2870,
      "benki": 2871,
      "vizuri": 2872,
      "11": 2873,
      "mis": 2874,
      "kisiasa": 2875,
      "##refu": 2876,
      "mabadiliko": 2877,
      "##poti": 2878,
      "mwanamke": 2879,
      "##rs": 2880,
      "##jiji": 2881,
      "fo": 2882,
      "wala": 2883,
      "kuhakikisha": 2884,
      "##husiano": 2885,
      "aru": 2886,
      "##fano": 2887,
      "lengo": 2888,
      "##kosa": 2889,
      "##dau": 2890,
      "kute": 2891,
      "blog": 2892,
      "##shindwa": 2893,
      "kilimo": 2894,
      "##cheza": 2895,
      "##lea": 2896,
      "##chuku": 2897,
      "kija": 2898,
      "##taba": 2899,
      "mengi": 2900,
      "unao": 2901,
      "ge": 2902,
      "tovuti": 2903,
      "##chang": 2904,
      "mke": 2905,
      "kwake": 2906,
      "ilikuwa": 2907,
      "##pewa": 2908,
      "##elekea": 2909,
      "siasa": 2910,
      "kawaida": 2911,
      "waa": 2912,
      "uongozi": 2913,
      "mwili": 2914,
      "ushiriki": 2915,
      "mkono": 2916,
      "##uaji": 2917,
      "hospitali": 2918,
      "tuli": 2919,
      "##rsa": 2920,
      "18": 2921,
      "kusema": 2922,
      "##kumbu": 2923,
      "maoni": 2924,
      "idadi": 2925,
      "##hamu": 2926,
      "wo": 2927,
      "##kee": 2928,
      "dawa": 2929,
      "##inu": 2930,
      "klabu": 2931,
      "##kuru": 2932,
      "##saba": 2933,
      "che": 2934,
      "mujibu": 2935,
      "on": 2936,
      "##lani": 2937,
      "sta": 2938,
      "karibuni": 2939,
      "##chama": 2940,
      "##gana": 2941,
      "kanisa": 2942,
      "##goro": 2943,
      "##kw": 2944,
      "nyumbani": 2945,
      "mh": 2946,
      "kuanza": 2947,
      "lugha": 2948,
      "aja": 2949,
      "changa": 2950,
      "##toria": 2951,
      "uchumi": 2952,
      "nye": 2953,
      "kuendelea": 2954,
      "##lii": 2955,
      "14": 2956,
      "fursa": 2957,
      "##sheria": 2958,
      "##mea": 2959,
      "##ongoza": 2960,
      "ambalo": 2961,
      "balozi": 2962,
      "##ll": 2963,
      "aji": 2964,
      "matanga": 2965,
      "##funga": 2966,
      "##unda": 2967,
      "##lala": 2968,
      "kuongeza": 2969,
      "##dio": 2970,
      "##ndi": 2971,
      "kilicho": 2972,
      "matangazo": 2973,
      "##zini": 2974,
      "ujumbe": 2975,
      "sita": 2976,
      "tukio": 2977,
      "mengine": 2978,
      "##rea": 2979,
      "is": 2980,
      "##dhali": 2981,
      "2015": 2982,
      "##fiti": 2983,
      "changamoto": 2984,
      "kata": 2985,
      "mtaa": 2986,
      "wabunge": 2987,
      "wangu": 2988,
      "##teng": 2989,
      "##jiri": 2990,
      "##ss": 2991,
      "his": 2992,
      "mao": 2993,
      "yoyote": 2994,
      "kundi": 2995,
      "##ingereza": 2996,
      "##wepo": 2997,
      "##biki": 2998,
      "pale": 2999,
      "familia": 3000,
      "kuona": 3001,
      "##mbua": 3002,
      "wadau": 3003,
      "##zea": 3004,
      "zetu": 3005,
      "mfano": 3006,
      "arusha": 3007,
      "vyama": 3008,
      "##kutana": 3009,
      "tabia": 3010,
      "##kubali": 3011,
      "maso": 3012,
      "##angalia": 3013,
      "##fundi": 3014,
      "##dua": 3015,
      "##indi": 3016,
      "##us": 3017,
      "##ziki": 3018,
      "##pinzani": 3019,
      "naye": 3020,
      "##and": 3021,
      "mikoa": 3022,
      "makubwa": 3023,
      "##bidhi": 3024,
      "##jiwa": 3025,
      "wafanyakazi": 3026,
      "##mano": 3027,
      "kuanzia": 3028,
      "kuzi": 3029,
      "##husu": 3030,
      "kikuu": 3031,
      "##anisha": 3032,
      "##fungua": 3033,
      "ukurasa": 3034,
      "hiki": 3035,
      "umri": 3036,
      "25": 3037,
      "yanga": 3038,
      "##bore": 3039,
      "huyu": 3040,
      "##enge": 3041,
      "##islamu": 3042,
      "msaada": 3043,
      "ukweli": 3044,
      "dw": 3045,
      "##konda": 3046,
      "nzuri": 3047,
      "mwingine": 3048,
      "umeme": 3049,
      "kisa": 3050,
      "ardhi": 3051,
      "the": 3052,
      "##med": 3053,
      "mti": 3054,
      "fara": 3055,
      "##gra": 3056,
      "maalum": 3057,
      "##kra": 3058,
      "mifu": 3059,
      "lililo": 3060,
      "vina": 3061,
      "##zinga": 3062,
      "sawa": 3063,
      "iku": 3064,
      "kijamii": 3065,
      "16": 3066,
      "ushirikiano": 3067,
      "barabara": 3068,
      "moyo": 3069,
      "mwalimu": 3070,
      "##guzi": 3071,
      "##enu": 3072,
      "##lay": 3073,
      "tanga": 3074,
      "mwanza": 3075,
      "##kumu": 3076,
      "ndoa": 3077,
      "binafsi": 3078,
      "tano": 3079,
      "##jerumani": 3080,
      "##tion": 3081,
      "cho": 3082,
      "##tengene": 3083,
      "##tatu": 3084,
      "##ty": 3085,
      "ab": 3086,
      "kulin": 3087,
      "kupa": 3088,
      "kikao": 3089,
      "maneno": 3090,
      "nao": 3091,
      "13": 3092,
      "ulaya": 3093,
      "##toka": 3094,
      "##ongoni": 3095,
      "##zali": 3096,
      "aidha": 3097,
      "barua": 3098,
      "##lingi": 3099,
      "##shinda": 3100,
      "ut": 3101,
      "##mui": 3102,
      "kuliko": 3103,
      "lake": 3104,
      "mazungum": 3105,
      "miongoni": 3106,
      "hati": 3107,
      "uju": 3108,
      "##kuja": 3109,
      "##bc": 3110,
      "##shirika": 3111,
      "mip": 3112,
      "mazungumzo": 3113,
      "##dano": 3114,
      "kuondo": 3115,
      "##nzi": 3116,
      "imani": 3117,
      "##ingwa": 3118,
      "namba": 3119,
      "awali": 3120,
      "chakula": 3121,
      "shilingi": 3122,
      "##lima": 3123,
      "kile": 3124,
      "chan": 3125,
      "bali": 3126,
      "50": 3127,
      "kufua": 3128,
      "kuweka": 3129,
      "##rahi": 3130,
      "huru": 3131,
      "swa": 3132,
      "tuta": 3133,
      "wate": 3134,
      "uko": 3135,
      "binadamu": 3136,
      "##fari": 3137,
      "ile": 3138,
      "tha": 3139,
      "##men": 3140,
      "idara": 3141,
      "##ongea": 3142,
      "kiwango": 3143,
      "walikuwa": 3144,
      "usiku": 3145,
      "kauli": 3146,
      "tak": 3147,
      "bodi": 3148,
      "##paswa": 3149,
      "##biashara": 3150,
      "##changia": 3151,
      "kampeni": 3152,
      "##lojia": 3153,
      "##weke": 3154,
      "##ph": 3155,
      "mbeya": 3156,
      "##tilia": 3157,
      "kiku": 3158,
      "dini": 3159,
      "kujenga": 3160,
      "17": 3161,
      "ikulu": 3162,
      "bei": 3163,
      "##maduni": 3164,
      "30": 3165,
      "##andika": 3166,
      "ajira": 3167,
      "ngo": 3168,
      "##mbana": 3169,
      "##rusi": 3170,
      "watumishi": 3171,
      "##fanywa": 3172,
      "muziki": 3173,
      "uja": 3174,
      "zamani": 3175,
      "##andaa": 3176,
      "##biri": 3177,
      "##ungo": 3178,
      "maswa": 3179,
      "jan": 3180,
      "##sti": 3181,
      "kombe": 3182,
      "mbaya": 3183,
      "ila": 3184,
      "nga": 3185,
      "new": 3186,
      "mrefu": 3187,
      "mafani": 3188,
      "##wana": 3189,
      "moha": 3190,
      "viwanda": 3191,
      "utalii": 3192,
      "soka": 3193,
      "##miza": 3194,
      "##hudi": 3195,
      "nia": 3196,
      "aliwa": 3197,
      "##chana": 3198,
      "##lai": 3199,
      "mafanikio": 3200,
      "mipango": 3201,
      "kuwasili": 3202,
      "##ita": 3203,
      "huwa": 3204,
      "utawala": 3205,
      "matatizo": 3206,
      "##firi": 3207,
      "##reje": 3208,
      "kesi": 3209,
      "wachezaji": 3210,
      "kiko": 3211,
      "mwandishi": 3212,
      "isi": 3213,
      "##taafu": 3214,
      "kuti": 3215,
      "mauaji": 3216,
      "##ts": 3217,
      "##wezesha": 3218,
      "##vun": 3219,
      "##maliza": 3220,
      "##jeshi": 3221,
      "mene": 3222,
      "mit": 3223,
      "bidhaa": 3224,
      "kuki": 3225,
      "ulinzi": 3226,
      "##mwen": 3227,
      "##hama": 3228,
      "mwenyewe": 3229,
      "kinacho": 3230,
      "bongo": 3231,
      "nasi": 3232,
      "wakuu": 3233,
      "raia": 3234,
      "aliyekuwa": 3235,
      "##il": 3236,
      "kitaifa": 3237,
      "madini": 3238,
      "##tiba": 3239,
      "##ribi": 3240,
      "maju": 3241,
      "##id": 3242,
      "vifaa": 3243,
      "humo": 3244,
      "##dhu": 3245,
      "wanachama": 3246,
      "mab": 3247,
      "##angan": 3248,
      "miradi": 3249,
      "##miaji": 3250,
      "ule": 3251,
      "##kilishi": 3252,
      "maanda": 3253,
      "neno": 3254,
      "mpi": 3255,
      "##wasili": 3256,
      "##rti": 3257,
      "##fanikiwa": 3258,
      "vye": 3259,
      "mkataba": 3260,
      "mtendaji": 3261,
      "ukumbi": 3262,
      "wawili": 3263,
      "anasema": 3264,
      "was": 3265,
      "faragha": 3266,
      "kufikia": 3267,
      "uba": 3268,
      "##zaliwa": 3269,
      "##ted": 3270,
      "kujua": 3271,
      "##pya": 3272,
      "kijiji": 3273,
      "##oko": 3274,
      "##unguza": 3275,
      "msimu": 3276,
      "historia": 3277,
      "ama": 3278,
      "##muiya": 3279,
      "of": 3280,
      "pesa": 3281,
      "upinzani": 3282,
      "mapenzi": 3283,
      "utafiti": 3284,
      "uni": 3285,
      "##gh": 3286,
      "badala": 3287,
      "kadhaa": 3288,
      "##shukuru": 3289,
      "uchungu": 3290,
      "ghara": 3291,
      "##jo": 3292,
      "mau": 3293,
      "gharama": 3294,
      "ulimwen": 3295,
      "tafa": 3296,
      "nyuma": 3297,
      "##katifu": 3298,
      "##tekeleza": 3299,
      "##zuia": 3300,
      "jumuiya": 3301,
      "uzin": 3302,
      "##elewa": 3303,
      "mwanzo": 3304,
      "##lme": 3305,
      "bili": 3306,
      "##tiza": 3307,
      "ilivyo": 3308,
      "at": 3309,
      "moto": 3310,
      "ok": 3311,
      "kuya": 3312,
      "kuingia": 3313,
      "##tokana": 3314,
      "##ton": 3315,
      "##ok": 3316,
      "pekee": 3317,
      "##tarajiwa": 3318,
      "##gua": 3319,
      "awamu": 3320,
      "maarufu": 3321,
      "chake": 3322,
      "kai": 3323,
      "##dhibiti": 3324,
      "china": 3325,
      "##kika": 3326,
      "safari": 3327,
      "kufa": 3328,
      "##lizi": 3329,
      "##rere": 3330,
      "darasa": 3331,
      "##kazini": 3332,
      "utamaduni": 3333,
      "tam": 3334,
      "kanda": 3335,
      "uingereza": 3336,
      "##simamia": 3337,
      "mafuta": 3338,
      "##ribu": 3339,
      "kaskazini": 3340,
      "##boresha": 3341,
      "##yama": 3342,
      "gari": 3343,
      "##hihi": 3344,
      "mal": 3345,
      "##bora": 3346,
      "##juli": 3347,
      "zo": 3348,
      "uzinduzi": 3349,
      "##ld": 3350,
      "##undo": 3351,
      "wazee": 3352,
      "##gawa": 3353,
      "filamu": 3354,
      "ug": 3355,
      "nyerere": 3356,
      "##pokuwa": 3357,
      "haraka": 3358,
      "haja": 3359,
      "idhaa": 3360,
      "wapi": 3361,
      "shiriki": 3362,
      "##raha": 3363,
      "ushindi": 3364,
      "mashin": 3365,
      "kisheria": 3366,
      "vyu": 3367,
      "ambacho": 3368,
      "jumla": 3369,
      "##zungumzia": 3370,
      "vili": 3371,
      "dr": 3372,
      "##tea": 3373,
      "##zingatia": 3374,
      "kisha": 3375,
      "kut": 3376,
      "majina": 3377,
      "viwanja": 3378,
      "##miliki": 3379,
      "##rodha": 3380,
      "hoja": 3381,
      "urais": 3382,
      "makala": 3383,
      "##fya": 3384,
      "wajumbe": 3385,
      "##kwenda": 3386,
      "shin": 3387,
      "##sika": 3388,
      "amewa": 3389,
      "##fla": 3390,
      "mwe": 3391,
      "##kno": 3392,
      "##amua": 3393,
      "hatu": 3394,
      "dia": 3395,
      "2012": 3396,
      "##hada": 3397,
      "nu": 3398,
      "gazeti": 3399,
      "miezi": 3400,
      "kumi": 3401,
      "bilioni": 3402,
      "ajali": 3403,
      "mbo": 3404,
      "##hana": 3405,
      "dola": 3406,
      "kidogo": 3407,
      "##sisitiza": 3408,
      "2013": 3409,
      "mcha": 3410,
      "kim": 3411,
      "kodi": 3412,
      "uamuzi": 3413,
      "kufu": 3414,
      "mwenyezi": 3415,
      "##mokra": 3416,
      "##poteza": 3417,
      "##ktari": 3418,
      "##dumu": 3419,
      "kime": 3420,
      "asi": 3421,
      "##shika": 3422,
      "21": 3423,
      "##toba": 3424,
      "##jeti": 3425,
      "jiji": 3426,
      "mashindano": 3427,
      "##kabili": 3428,
      "kuchukua": 3429,
      "utekele": 3430,
      "##endeke": 3431,
      "##layani": 3432,
      "wilayani": 3433,
      "maswali": 3434,
      "##len": 3435,
      "cu": 3436,
      "##tege": 3437,
      "meneja": 3438,
      "##mond": 3439,
      "uhusiano": 3440,
      "##rehemu": 3441,
      "walimu": 3442,
      "nyo": 3443,
      "iliyopita": 3444,
      "mwen": 3445,
      "##son": 3446,
      "zilizopo": 3447,
      "bajeti": 3448,
      "tafadhali": 3449,
      "##blia": 3450,
      "##tisha": 3451,
      "kumbu": 3452,
      "mapato": 3453,
      "##thibiti": 3454,
      "23": 3455,
      "kumu": 3456,
      "utekelezaji": 3457,
      "kanuni": 3458,
      "kipa": 3459,
      "##itwa": 3460,
      "sep": 3461,
      "mape": 3462,
      "janua": 3463,
      "ub": 3464,
      "##pate": 3465,
      "mwi": 3466,
      "##book": 3467,
      "##wapo": 3468,
      "uma": 3469,
      "##tembelea": 3470,
      "##kaya": 3471,
      "##ur": 3472,
      "sauti": 3473,
      "kifo": 3474,
      "ujerumani": 3475,
      "uchunguzi": 3476,
      "linalo": 3477,
      "magari": 3478,
      "bbc": 3479,
      "wateja": 3480,
      "##misho": 3481,
      "hara": 3482,
      "##ungan": 3483,
      "has": 3484,
      "##ongeze": 3485,
      "tekno": 3486,
      "kristo": 3487,
      "##yansi": 3488,
      "mpira": 3489,
      "kuboresha": 3490,
      "oktoba": 3491,
      "kucheza": 3492,
      "##zito": 3493,
      "##dhara": 3494,
      "itakuwa": 3495,
      "ir": 3496,
      "orodha": 3497,
      "##fungwa": 3498,
      "hifadhi": 3499,
      "##funza": 3500,
      "##ssa": 3501,
      "face": 3502,
      "hau": 3503,
      "mgombea": 3504,
      "wanaume": 3505,
      "##onesha": 3506,
      "katikati": 3507,
      "nani": 3508,
      "marehemu": 3509,
      "##marisha": 3510,
      "anga": 3511,
      "biblia": 3512,
      "##kata": 3513,
      "##mana": 3514,
      "##hifadhi": 3515,
      "##zindua": 3516,
      "##yika": 3517,
      "hatari": 3518,
      "##undi": 3519,
      "nove": 3520,
      "mdogo": 3521,
      "kusikiliza": 3522,
      "mn": 3523,
      "##mokrasia": 3524,
      "24": 3525,
      "aliyo": 3526,
      "##zidi": 3527,
      "tuzo": 3528,
      "facebook": 3529,
      "##kabidhi": 3530,
      "wak": 3531,
      "##shia": 3532,
      "##husika": 3533,
      "##fariki": 3534,
      "fulani": 3535,
      "##pili": 3536,
      "ugonjwa": 3537,
      "thamani": 3538,
      "##ino": 3539,
      "##ly": 3540,
      "ripoti": 3541,
      "##lle": 3542,
      "sekonda": 3543,
      "22": 3544,
      "##takayo": 3545,
      "msanii": 3546,
      "##chwa": 3547,
      "akim": 3548,
      "kula": 3549,
      "mat": 3550,
      "##tokeza": 3551,
      "mika": 3552,
      "sekondari": 3553,
      "mapema": 3554,
      "wenyewe": 3555,
      "soko": 3556,
      "septe": 3557,
      "mzee": 3558,
      "sherehe": 3559,
      "kitabu": 3560,
      "wazazi": 3561,
      "sahihi": 3562,
      "jakaya": 3563,
      "kiuchumi": 3564,
      "akitoa": 3565,
      "##endesha": 3566,
      "wakazi": 3567,
      "moro": 3568,
      "##onga": 3569,
      "tuko": 3570,
      "maafisa": 3571,
      "wataa": 3572,
      "##paa": 3573,
      "##dhani": 3574,
      "##ise": 3575,
      "##takao": 3576,
      "##mbano": 3577,
      "umu": 3578,
      "ago": 3579,
      "wimbo": 3580,
      "kuweza": 3581,
      "##simamizi": 3582,
      "##inali": 3583,
      "ikiwemo": 3584,
      "ufu": 3585,
      "##jui": 3586,
      "kasi": 3587,
      "teknolojia": 3588,
      "kupiga": 3589,
      "utaratibu": 3590,
      "mstaafu": 3591,
      "##pinga": 3592,
      "##unua": 3593,
      "kikubwa": 3594,
      "##um": 3595,
      "##tta": 3596,
      "jose": 3597,
      "toka": 3598,
      "##giza": 3599,
      "progra": 3600,
      "##gia": 3601,
      "##wahi": 3602,
      "sanaa": 3603,
      "##baini": 3604,
      "kushirikiana": 3605,
      "##inti": 3606,
      "maombi": 3607,
      "kupunguza": 3608,
      "mawazo": 3609,
      "home": 3610,
      "kikosi": 3611,
      "sifa": 3612,
      "##uka": 3613,
      "hassan": 3614,
      "mitandao": 3615,
      "kubadili": 3616,
      "mikopo": 3617,
      "wasio": 3618,
      "yale": 3619,
      "##ungeni": 3620,
      "kujiunga": 3621,
      "umuhimu": 3622,
      "##tuba": 3623,
      "##shuhu": 3624,
      "apri": 3625,
      "soma": 3626,
      "##tumika": 3627,
      "##sali": 3628,
      "roho": 3629,
      "masi": 3630,
      "2014": 3631,
      "##daiwa": 3632,
      "bungeni": 3633,
      "ndiye": 3634,
      "ulimwengu": 3635,
      "##tani": 3636,
      "miku": 3637,
      "masharti": 3638,
      "##land": 3639,
      "nita": 3640,
      "##sababisha": 3641,
      "upendo": 3642,
      "mtihani": 3643,
      "##shambu": 3644,
      "asu": 3645,
      "inaweza": 3646,
      "kupambana": 3647,
      "##jaa": 3648,
      "feb": 3649,
      "##shima": 3650,
      "masomo": 3651,
      "yeyote": 3652,
      "##lote": 3653,
      "kiba": 3654,
      "uweke": 3655,
      "shirikisho": 3656,
      "##waji": 3657,
      "kaimu": 3658,
      "novemba": 3659,
      "mchezaji": 3660,
      "ambavyo": 3661,
      "miti": 3662,
      "diamond": 3663,
      "yata": 3664,
      "##ver": 3665,
      "askari": 3666,
      "##mbuzi": 3667,
      "majaliwa": 3668,
      "##shughuli": 3669,
      "kuishi": 3670,
      "##zamo": 3671,
      "vituo": 3672,
      "wasanii": 3673,
      "makuu": 3674,
      "wapo": 3675,
      "##chap": 3676,
      "makundi": 3677,
      "##ff": 3678,
      "michu": 3679,
      "zita": 3680,
      "##eleka": 3681,
      "vitendo": 3682,
      "100": 3683,
      "uhaki": 3684,
      "heshima": 3685,
      "tazama": 3686,
      "07": 3687,
      "licha": 3688,
      "manis": 3689,
      "##zao": 3690,
      "##uliza": 3691,
      "rahisi": 3692,
      "uganda": 3693,
      "##ad": 3694,
      "dakika": 3695,
      "##kuta": 3696,
      "damu": 3697,
      "afisa": 3698,
      "nisha": 3699,
      "##zika": 3700,
      "##ziri": 3701,
      "##buhi": 3702,
      "uwekezaji": 3703,
      "manispaa": 3704,
      "##fisadi": 3705,
      "usha": 3706,
      "tawala": 3707,
      "baadaye": 3708,
      "jinsia": 3709,
      "mfuko": 3710,
      "asubuhi": 3711,
      "ngazi": 3712,
      "zoezi": 3713,
      "kutafuta": 3714,
      "mzuri": 3715,
      "siyo": 3716,
      "juhudi": 3717,
      "kusaidia": 3718,
      "##mbaji": 3719,
      "yaani": 3720,
      "##ster": 3721,
      "pau": 3722,
      "ujumla": 3723,
      "imekuwa": 3724,
      "jumapili": 3725,
      "juni": 3726,
      "hotuba": 3727,
      "iringa": 3728,
      "##sikia": 3729,
      "kufuatia": 3730,
      "us": 3731,
      "swali": 3732,
      "chanzo": 3733,
      "yule": 3734,
      "hafla": 3735,
      "nishati": 3736,
      "##patia": 3737,
      "kuhusi": 3738,
      "##tumi": 3739,
      "fainali": 3740,
      "kuangalia": 3741,
      "vyuo": 3742,
      "kusoma": 3743,
      "kuleta": 3744,
      "septemba": 3745,
      "##uliwa": 3746,
      "##eli": 3747,
      "banda": 3748,
      "baha": 3749,
      "julai": 3750,
      "kutekeleza": 3751,
      "faida": 3752,
      "kocha": 3753,
      "mohamed": 3754,
      "sulu": 3755,
      "mar": 3756,
      "mei": 3757,
      "##endeleza": 3758,
      "##kan": 3759,
      "profe": 3760,
      "##tari": 3761,
      "##ongozo": 3762,
      "uweze": 3763,
      "wamekuwa": 3764,
      "##ransa": 3765,
      "akili": 3766,
      "##gombea": 3767,
      "rafiki": 3768,
      "anaweza": 3769,
      "lolote": 3770,
      "##jijini": 3771,
      "mita": 3772,
      "ange": 3773,
      "alama": 3774,
      "machi": 3775,
      "furaha": 3776,
      "ushauri": 3777,
      "##zoe": 3778,
      "##kano": 3779,
      "##fanuzi": 3780,
      "mahali": 3781,
      "##kato": 3782,
      "makao": 3783,
      "malengo": 3784,
      "mume": 3785,
      "ndogo": 3786,
      "##lam": 3787,
      "##misi": 3788,
      "madai": 3789,
      "rai": 3790,
      "##unti": 3791,
      "kuelekea": 3792,
      "##julikana": 3793,
      "##maini": 3794,
      "ufafanuzi": 3795,
      "mitaa": 3796,
      "##wekwa": 3797,
      "februa": 3798,
      "and": 3799,
      "nyi": 3800,
      "kukabili": 3801,
      "##shanga": 3802,
      "##dhimisho": 3803,
      "lita": 3804,
      "##tengeneza": 3805,
      "mv": 3806,
      "mwanafunzi": 3807,
      "##ema": 3808,
      "##simamo": 3809,
      "##wezekana": 3810,
      "ute": 3811,
      "##onyeza": 3812,
      "##ham": 3813,
      "chi": 3814,
      "kisasa": 3815,
      "kutaka": 3816,
      "ci": 3817,
      "rushwa": 3818,
      "mawaziri": 3819,
      "magha": 3820,
      "agosti": 3821,
      "##uawa": 3822,
      "hakika": 3823,
      "##gumu": 3824,
      "mazi": 3825,
      "kutosha": 3826,
      "programu": 3827,
      "##chaguliwa": 3828,
      "uvu": 3829,
      "##ridhi": 3830,
      "maalumu": 3831,
      "maadhimisho": 3832,
      "januari": 3833,
      "##ongezeka": 3834,
      "##pwa": 3835,
      "profesa": 3836,
      "kesho": 3837,
      "##fahamu": 3838,
      "##tan": 3839,
      "##les": 3840,
      "kambi": 3841,
      "nayo": 3842,
      "##baki": 3843,
      "ataka": 3844,
      "wakulima": 3845,
      "bure": 3846,
      "28": 3847,
      "##elezea": 3848,
      "kuwepo": 3849,
      "##husisha": 3850,
      "zisi": 3851,
      "##furahi": 3852,
      "pepe": 3853,
      "kali": 3854,
      "2011": 3855,
      "news": 3856,
      "mahitaji": 3857,
      "##liaji": 3858,
      "kuo": 3859,
      "##iro": 3860,
      "makini": 3861,
      "##dhuria": 3862,
      "##es": 3863,
      "dara": 3864,
      "mkononi": 3865,
      "naomba": 3866,
      "mash": 3867,
      "salama": 3868,
      "26": 3869,
      "199": 3870,
      "##tegemea": 3871,
      "##chache": 3872,
      "zenye": 3873,
      "##zake": 3874,
      "##guu": 3875,
      "##leta": 3876,
      "wap": 3877,
      "sayansi": 3878,
      "##fuatilia": 3879,
      "gha": 3880,
      "##pia": 3881,
      "wau": 3882,
      "siri": 3883,
      "mchakato": 3884,
      "ika": 3885,
      "mashabiki": 3886,
      "##chukuliwa": 3887,
      "halisi": 3888,
      "##rib": 3889,
      "kwao": 3890,
      "miundo": 3891,
      "macho": 3892,
      "##ungua": 3893,
      "kufanyika": 3894,
      "sy": 3895,
      "mbi": 3896,
      "##line": 3897,
      "##jeruhi": 3898,
      "##fany": 3899,
      "kib": 3900,
      "##port": 3901,
      "##lahi": 3902,
      "40": 3903,
      "##yanga": 3904,
      "isra": 3905,
      "kuimarisha": 3906,
      "mahusiano": 3907,
      "kuzuia": 3908,
      "##tibabu": 3909,
      "##rini": 3910,
      "##hoji": 3911,
      "##milika": 3912,
      "ingawa": 3913,
      "maamuzi": 3914,
      "##sheni": 3915,
      "##sco": 3916,
      "kushindwa": 3917,
      "mage": 3918,
      "##mbwa": 3919,
      "jamaa": 3920,
      "##lifu": 3921,
      "kilo": 3922,
      "kinyu": 3923,
      "##sim": 3924,
      "morogoro": 3925,
      "bofya": 3926,
      "hewa": 3927,
      "kuzingatia": 3928,
      "kuhusiana": 3929,
      "masa": 3930,
      "magharibi": 3931,
      "mako": 3932,
      "singi": 3933,
      "hala": 3934,
      "michuano": 3935,
      "husika": 3936,
      "vilivyo": 3937,
      "##sanya": 3938,
      "27": 3939,
      "##mosi": 3940,
      "##zalishaji": 3941,
      "matibabu": 3942,
      "ham": 3943,
      "##ud": 3944,
      "makosa": 3945,
      "kike": 3946,
      "joseph": 3947,
      "singida": 3948,
      "utendaji": 3949,
      "mli": 3950,
      "hatima": 3951,
      "majibu": 3952,
      "##hiti": 3953,
      "uliofanyika": 3954,
      "##yon": 3955,
      "majukumu": 3956,
      "##inyi": 3957,
      "maadili": 3958,
      "msimamo": 3959,
      "mtakatifu": 3960,
      "kuvu": 3961,
      "##pp": 3962,
      "taratibu": 3963,
      "##kufu": 3964,
      "sila": 3965,
      "risa": 3966,
      "##chagua": 3967,
      "makazi": 3968,
      "iju": 3969,
      "ste": 3970,
      "tiba": 3971,
      "united": 3972,
      "mte": 3973,
      "mja": 3974,
      "ufaransa": 3975,
      "ukim": 3976,
      "##taja": 3977,
      "hote": 3978,
      "mabao": 3979,
      "vo": 3980,
      "aza": 3981,
      "tru": 3982,
      "jumamosi": 3983,
      "##leni": 3984,
      "kukabiliana": 3985,
      "bonyeza": 3986,
      "hawana": 3987,
      "mapambano": 3988,
      "sura": 3989,
      "mgeni": 3990,
      "##vya": 3991,
      "ende": 3992,
      "##lim": 3993,
      "zisizo": 3994,
      "iwe": 3995,
      "##wadi": 3996,
      "jioni": 3997,
      "mkazi": 3998,
      "lis": 3999,
      "ak": 4000,
      "yenu": 4001,
      "##manja": 4002,
      "baina": 4003,
      "vingine": 4004,
      "st": 4005,
      "kinyume": 4006,
      "tamko": 4007,
      "##ruhusu": 4008,
      "wil": 4009,
      "mashirika": 4010,
      "kwe": 4011,
      "misa": 4012,
      "##inda": 4013,
      "uhakika": 4014,
      "kassim": 4015,
      "shein": 4016,
      "##ongozwa": 4017,
      "kupokea": 4018,
      "mbinu": 4019,
      "kulingana": 4020,
      "iba": 4021,
      "demokrasia": 4022,
      "wema": 4023,
      "mazuri": 4024,
      "kilimanja": 4025,
      "##er": 4026,
      "ima": 4027,
      "##inisha": 4028,
      "usajili": 4029,
      "takrib": 4030,
      "bahati": 4031,
      "miwili": 4032,
      "##fanye": 4033,
      "##panga": 4034,
      "##idizi": 4035,
      "cuf": 4036,
      "ipo": 4037,
      "pen": 4038,
      "##liki": 4039,
      "kumbukumbu": 4040,
      "madaktari": 4041,
      "wajibu": 4042,
      "mri": 4043,
      "##andisi": 4044,
      "pwani": 4045,
      "bar": 4046,
      "##kofu": 4047,
      "shinyanga": 4048,
      "kilimanjaro": 4049,
      "kusimamia": 4050,
      "##humiwa": 4051,
      "##hiri": 4052,
      "##bika": 4053,
      "##jitokeza": 4054,
      "mifugo": 4055,
      "##hadi": 4056,
      "##chote": 4057,
      "##epu": 4058,
      "app": 4059,
      "##keti": 4060,
      "wito": 4061,
      "29": 4062,
      "##undu": 4063,
      "fre": 4064,
      "prof": 4065,
      "mtazamo": 4066,
      "##gizo": 4067,
      "##wimu": 4068,
      "ziki": 4069,
      "##goma": 4070,
      "alivyo": 4071,
      "##ruki": 4072,
      "nzima": 4073,
      "kuko": 4074,
      "kutokea": 4075,
      "kwako": 4076,
      "##lazi": 4077,
      "##unganisho": 4078,
      "##fanyia": 4079,
      "##biwa": 4080,
      "buru": 4081,
      "mchango": 4082,
      "kutangaza": 4083,
      "ijumaa": 4084,
      "##chani": 4085,
      "jaji": 4086,
      "kamanda": 4087,
      "##rejea": 4088,
      "vika": 4089,
      "ibada": 4090,
      "kurudi": 4091,
      "makubali": 4092,
      "kumaliza": 4093,
      "mshindi": 4094,
      "##sikiliza": 4095,
      "##shuhudia": 4096,
      "liki": 4097,
      "##end": 4098,
      "##jengwa": 4099,
      "zawadi": 4100,
      "magonjwa": 4101,
      "hazi": 4102,
      "ucha": 4103,
      "jumatatu": 4104,
      "wageni": 4105,
      "silaha": 4106,
      "azam": 4107,
      "##kuwepo": 4108,
      "kume": 4109,
      "usafi": 4110,
      "makubaliano": 4111,
      "##lezi": 4112,
      "waliokuwa": 4113,
      "##lenga": 4114,
      "jengo": 4115,
      "suluhu": 4116,
      "##mbili": 4117,
      "malia": 4118,
      "kujifunza": 4119,
      "takwimu": 4120,
      "fc": 4121,
      "risasi": 4122,
      "nyimbo": 4123,
      "##mina": 4124,
      "mpenzi": 4125,
      "##mail": 4126,
      "chochote": 4127,
      "vyote": 4128,
      "##fuu": 4129,
      "vyema": 4130,
      "pichani": 4131,
      "aprili": 4132,
      "rwanda": 4133,
      "##beba": 4134,
      "wow": 4135,
      "maslahi": 4136,
      "ufundi": 4137,
      "mazo": 4138,
      "##ct": 4139,
      "kiislamu": 4140,
      "vitabu": 4141,
      "vu": 4142,
      "redio": 4143,
      "nusu": 4144,
      "##falme": 4145,
      "afri": 4146,
      "##wanga": 4147,
      "##angwa": 4148,
      "##rk": 4149,
      "maliasili": 4150,
      "burudani": 4151,
      "##tambua": 4152,
      "##eleke": 4153,
      "mikutano": 4154,
      "juli": 4155,
      "ag": 4156,
      "barani": 4157,
      "malipo": 4158,
      "##kaa": 4159,
      "amekuwa": 4160,
      "##simama": 4161,
      "##habari": 4162,
      "kufunga": 4163,
      "fran": 4164,
      "city": 4165,
      "##andaliwa": 4166,
      "wanaweza": 4167,
      "##indo": 4168,
      "kijana": 4169,
      "kamili": 4170,
      "##sea": 4171,
      "alipokuwa": 4172,
      "kulevya": 4173,
      "korea": 4174,
      "mawili": 4175,
      "dhambi": 4176,
      "kamish": 4177,
      "##toaji": 4178,
      "##tengo": 4179,
      "shaka": 4180,
      "mk": 4181,
      "##subiri": 4182,
      "##laa": 4183,
      "##geria": 4184,
      "uzalishaji": 4185,
      "##ima": 4186,
      "tra": 4187,
      "##anya": 4188,
      "##okoa": 4189,
      "##tiwa": 4190,
      "##tuma": 4191,
      "mazoezi": 4192,
      "##tangazwa": 4193,
      "februari": 4194,
      "##tarajia": 4195,
      "##gera": 4196,
      "ufisadi": 4197,
      "##tt": 4198,
      "kit": 4199,
      "tff": 4200,
      "##rg": 4201,
      "wowote": 4202,
      "wafanyabiashara": 4203,
      "bao": 4204,
      "##mavu": 4205,
      "usimamizi": 4206,
      "miguu": 4207,
      "yasi": 4208,
      "mitatu": 4209,
      "vinavyo": 4210,
      "iko": 4211,
      "##ishoni": 4212,
      "kosa": 4213,
      "lenye": 4214,
      "daraja": 4215,
      "##mbamba": 4216,
      "kufiki": 4217,
      "tama": 4218,
      "walipo": 4219,
      "utumishi": 4220,
      "urusi": 4221,
      "mikon": 4222,
      "##miana": 4223,
      "jiti": 4224,
      "wataalamu": 4225,
      "nane": 4226,
      "##thiri": 4227,
      "##gaji": 4228,
      "ukiwa": 4229,
      "##ondoa": 4230,
      "##mbinu": 4231,
      "du": 4232,
      "##ripoti": 4233,
      "ubora": 4234,
      "wanyama": 4235,
      "kujadili": 4236,
      "wawa": 4237,
      "kuomba": 4238,
      "vipindi": 4239,
      "letu": 4240,
      "kagera": 4241,
      "vipi": 4242,
      "jitihada": 4243,
      "ulikuwa": 4244,
      "iran": 4245,
      "utoaji": 4246,
      "kisi": 4247,
      "##somaji": 4248,
      "##hariri": 4249,
      "mfanya": 4250,
      "kununua": 4251,
      "nika": 4252,
      "miundombinu": 4253,
      "##karibisha": 4254,
      "##kodi": 4255,
      "maandalizi": 4256,
      "##rio": 4257,
      "##fsiri": 4258,
      "trump": 4259,
      "madara": 4260,
      "##ent": 4261,
      "mwishoni": 4262,
      "31": 4263,
      "alha": 4264,
      "##fanyiwa": 4265,
      "sama": 4266,
      "mwanaume": 4267,
      "adha": 4268,
      "kwetu": 4269,
      "##kie": 4270,
      "madawa": 4271,
      "vijijini": 4272,
      "maandamano": 4273,
      "iliyopo": 4274,
      "##simu": 4275,
      "##thibitisha": 4276,
      "rangi": 4277,
      "mah": 4278,
      "wagonjwa": 4279,
      "mahaka": 4280,
      "kusaba": 4281,
      "##jadili": 4282,
      "alim": 4283,
      "##toliki": 4284,
      "kuonyesha": 4285,
      "##if": 4286,
      "kulipa": 4287,
      "samia": 4288,
      "##tafuta": 4289,
      "kuanzisha": 4290,
      "hana": 4291,
      "##pongeza": 4292,
      "##manne": 4293,
      "ng": 4294,
      "huenda": 4295,
      "migo": 4296,
      "mkakati": 4297,
      "##the": 4298,
      "ziwa": 4299,
      "jumanne": 4300,
      "iwapo": 4301,
      "dese": 4302,
      "2010": 4303,
      "washiriki": 4304,
      "##my": 4305,
      "upo": 4306,
      "jumatano": 4307,
      "##malizika": 4308,
      "abdu": 4309,
      "watendaji": 4310,
      "tv": 4311,
      "ukimwi": 4312,
      "##fanua": 4313,
      "##andikwa": 4314,
      "mchana": 4315,
      "yaki": 4316,
      "juzi": 4317,
      "mahakamani": 4318,
      "kushinda": 4319,
      "ndipo": 4320,
      "##mbulizi": 4321,
      "itakayo": 4322,
      "watatu": 4323,
      "##can": 4324,
      "kulinda": 4325,
      "upa": 4326,
      "desemba": 4327,
      "##tto": 4328,
      "##ms": 4329,
      "nairo": 4330,
      "##takapo": 4331,
      "radio": 4332,
      "mabingwa": 4333,
      "##ongamano": 4334,
      "nairobi": 4335,
      "##liza": 4336,
      "paul": 4337,
      "jukwa": 4338,
      "##uza": 4339,
      "msu": 4340,
      "##milisha": 4341,
      "##vunja": 4342,
      "usafiri": 4343,
      "mfupi": 4344,
      "nec": 4345,
      "##gan": 4346,
      "viti": 4347,
      "kuzungumza": 4348,
      "pla": 4349,
      "##bila": 4350,
      "##mon": 4351,
      "ilani": 4352,
      "sambamba": 4353,
      "jk": 4354,
      "kiti": 4355,
      "##gwe": 4356,
      "##tajwa": 4357,
      "##his": 4358,
      "kukutana": 4359,
      "kadi": 4360,
      "##ika": 4361,
      "zangu": 4362,
      "hofu": 4363,
      "uwa": 4364,
      "ser": 4365,
      "kusababisha": 4366,
      "mwakilishi": 4367,
      "##lalami": 4368,
      "el": 4369,
      "kitendo": 4370,
      "kuingi": 4371,
      "mtume": 4372,
      "##mbizi": 4373,
      "##kadi": 4374,
      "##dan": 4375,
      "injili": 4376,
      "mjumbe": 4377,
      "kuni": 4378,
      "ambako": 4379,
      "rasili": 4380,
      "ahadi": 4381,
      "zako": 4382,
      "kuwasiliana": 4383,
      "##pigwa": 4384,
      "gu": 4385,
      "kuondoa": 4386,
      "kitengo": 4387,
      "##fundisha": 4388,
      "##jaribu": 4389,
      "kuendeleza": 4390,
      "mrisho": 4391,
      "vime": 4392,
      "##mbulisho": 4393,
      "kiwanda": 4394,
      "wasichana": 4395,
      "##ahidi": 4396,
      "##kun": 4397,
      "nafuu": 4398,
      "kudumu": 4399,
      "##kufa": 4400,
      "tuki": 4401,
      "waweze": 4402,
      "dada": 4403,
      "mazao": 4404,
      "char": 4405,
      "##onal": 4406,
      "sara": 4407,
      "syria": 4408,
      "awe": 4409,
      "##hau": 4410,
      "rasilimali": 4411,
      "mvua": 4412,
      "kukosa": 4413,
      "##semaji": 4414,
      "tas": 4415,
      "##wasi": 4416,
      "##diwani": 4417,
      "mhandisi": 4418,
      "sho": 4419,
      "kutengeneza": 4420,
      "waha": 4421,
      "visi": 4422,
      "gi": 4423,
      "tamasha": 4424,
      "##dhamini": 4425,
      "va": 4426,
      "##fuasi": 4427,
      "##com": 4428,
      "##shughulikia": 4429,
      "husu": 4430,
      "##llah": 4431,
      "##vo": 4432,
      "kuchangia": 4433,
      "kiume": 4434,
      "ametoa": 4435,
      "julius": 4436,
      "matumaini": 4437,
      "mgogoro": 4438,
      "hatimaye": 4439,
      "min": 4440,
      "pre": 4441,
      "##ght": 4442,
      "con": 4443,
      "##baya": 4444,
      "##unu": 4445,
      "ishara": 4446,
      "makonda": 4447,
      "##kiza": 4448,
      "##huma": 4449,
      "ban": 4450,
      "00": 4451,
      "masoko": 4452,
      "##ungufu": 4453,
      "##bati": 4454,
      "hoteli": 4455,
      "tuma": 4456,
      "##kh": 4457,
      "amri": 4458,
      "kara": 4459,
      "##fia": 4460,
      "utakuwa": 4461,
      "wakimbizi": 4462,
      "kukuza": 4463,
      "tuhuma": 4464,
      "##anganyika": 4465,
      "##shiki": 4466,
      "##hakiki": 4467,
      "##lili": 4468,
      "air": 4469,
      "kote": 4470,
      "##dui": 4471,
      "adhabu": 4472,
      "kukaa": 4473,
      "##hutu": 4474,
      "jukumu": 4475,
      "##wishi": 4476,
      "pole": 4477,
      "lowa": 4478,
      "kufika": 4479,
      "##rn": 4480,
      "##sabu": 4481,
      "##barani": 4482,
      "##rali": 4483,
      "nawa": 4484,
      "ah": 4485,
      "##enal": 4486,
      "##lezo": 4487,
      "##ci": 4488,
      "##mpuni": 4489,
      "##zal": 4490,
      "##wo": 4491,
      "##wara": 4492,
      "##hamasi": 4493,
      "unajua": 4494,
      "chache": 4495,
      "ajabu": 4496,
      "inter": 4497,
      "##lan": 4498,
      "waislamu": 4499,
      "barabarani": 4500,
      "##wn": 4501,
      "kuacha": 4502,
      "geo": 4503,
      "##undwa": 4504,
      "ars": 4505,
      "kudhibiti": 4506,
      "##rid": 4507,
      "mnamo": 4508,
      "ud": 4509,
      "nigeria": 4510,
      "jene": 4511,
      "##ment": 4512,
      "ufungu": 4513,
      "usta": 4514,
      "safi": 4515,
      "isiyo": 4516,
      "##endekezo": 4517,
      "hukumu": 4518,
      "kuandika": 4519,
      "nyota": 4520,
      "##kala": 4521,
      "##zalendo": 4522,
      "makampuni": 4523,
      "mua": 4524,
      "mate": 4525,
      "##piki": 4526,
      "wingi": 4527,
      "##ambia": 4528,
      "ushahidi": 4529,
      "manche": 4530,
      "kukubali": 4531,
      "ad": 4532,
      "##mes": 4533,
      "abi": 4534,
      "##ondoni": 4535,
      "##vie": 4536,
      "kiungo": 4537,
      "##ondoka": 4538,
      "madhara": 4539,
      "##zalisha": 4540,
      "##al": 4541,
      "mitano": 4542,
      "bahari": 4543,
      "bandari": 4544,
      "haina": 4545,
      "mtwara": 4546,
      "akasema": 4547,
      "kozi": 4548,
      "akisali": 4549,
      "manchester": 4550,
      "mala": 4551,
      "madarakani": 4552,
      "##tolea": 4553,
      "kutambua": 4554,
      "upatikana": 4555,
      "kufuata": 4556,
      "seif": 4557,
      "kigoma": 4558,
      "marafiki": 4559,
      "kinondoni": 4560,
      "##jio": 4561,
      "askofu": 4562,
      "##luma": 4563,
      "eng": 4564,
      "##jumu": 4565,
      "##tumwa": 4566,
      "kuondoka": 4567,
      "##hat": 4568,
      "msemaji": 4569,
      "pande": 4570,
      "you": 4571,
      "gesi": 4572,
      "##tter": 4573,
      "kisu": 4574,
      "semina": 4575,
      "ada": 4576,
      "jukwaa": 4577,
      "ubunge": 4578,
      "misri": 4579,
      "##hudhuria": 4580,
      "ukaguzi": 4581,
      "upatikanaji": 4582,
      "rufaa": 4583,
      "##lie": 4584,
      "wafuasi": 4585,
      "mingi": 4586,
      "madaraka": 4587,
      "##shambuliaji": 4588,
      "twi": 4589,
      "haija": 4590,
      "##kamatwa": 4591,
      "mtanzania": 4592,
      "kamishna": 4593,
      "vifo": 4594,
      "dalili": 4595,
      "kira": 4596,
      "wakala": 4597,
      "mwanadamu": 4598,
      "ii": 4599,
      "lab": 4600,
      "tele": 4601,
      "##fafanua": 4602,
      "##gun": 4603,
      "##lele": 4604,
      "##ishe": 4605,
      "tiketi": 4606,
      "majengo": 4607,
      "##ungaji": 4608,
      "tabora": 4609,
      "wenzake": 4610,
      "hisia": 4611,
      "##lio": 4612,
      "01": 4613,
      "yasiyo": 4614,
      "mto": 4615,
      "unge": 4616,
      "akiongea": 4617,
      "fomu": 4618,
      "kuwapa": 4619,
      "oba": 4620,
      "##zoefu": 4621,
      "kutembelea": 4622,
      "##bishwa": 4623,
      "kongamano": 4624,
      "waja": 4625,
      "iliyofanyika": 4626,
      "online": 4627,
      "##sante": 4628,
      "##tel": 4629,
      "njema": 4630,
      "ngon": 4631,
      "israel": 4632,
      "##mishwa": 4633,
      "vijiji": 4634,
      "id": 4635,
      "moshi": 4636,
      "##jani": 4637,
      "tanganyika": 4638,
      "##endelee": 4639,
      "jirani": 4640,
      "##ven": 4641,
      "manu": 4642,
      "##elezwa": 4643,
      "viwango": 4644,
      "##ungana": 4645,
      "kupatikana": 4646,
      "##rge": 4647,
      "mapi": 4648,
      "##ono": 4649,
      "lowassa": 4650,
      "kupanda": 4651,
      "aliongeza": 4652,
      "kip": 4653,
      "##shuka": 4654,
      "msaidizi": 4655,
      "shida": 4656,
      "##buri": 4657,
      "##wekezaji": 4658,
      "mwananchi": 4659,
      "mago": 4660,
      "uwezekano": 4661,
      "kupewa": 4662,
      "kid": 4663,
      "mfalme": 4664,
      "##per": 4665,
      "binti": 4666,
      "##zigo": 4667,
      "wanahabari": 4668,
      "iti": 4669,
      "##isini": 4670,
      "wasa": 4671,
      "alhamisi": 4672,
      "kenyatta": 4673,
      "wawakilishi": 4674,
      "willia": 4675,
      "##jenge": 4676,
      "uvuvi": 4677,
      "inavyo": 4678,
      "mimba": 4679,
      "ratiba": 4680,
      "stars": 4681,
      "athari": 4682,
      "dhamana": 4683,
      "##andaoni": 4684,
      "##choki": 4685,
      "labda": 4686,
      "##wania": 4687,
      "akisalimiana": 4688,
      "amem": 4689,
      "uteuzi": 4690,
      "kig": 4691,
      "zile": 4692,
      "kuha": 4693,
      "##sudi": 4694,
      "##ps": 4695,
      "##20": 4696,
      "misaada": 4697,
      "watakao": 4698,
      "##hitajika": 4699,
      "wanasema": 4700,
      "ufani": 4701,
      "atakuwa": 4702,
      "onge": 4703,
      "##unuzi": 4704,
      "vingi": 4705,
      "mwak": 4706,
      "##hitimu": 4707,
      "##anja": 4708,
      "kuzaliwa": 4709,
      "akaunti": 4710,
      "tangazo": 4711,
      "kiga": 4712,
      "##heshi": 4713,
      "alb": 4714,
      "katoliki": 4715,
      "mbu": 4716,
      "har": 4717,
      "##dhamu": 4718,
      "bur": 4719,
      "##sefu": 4720,
      "charles": 4721,
      "##tambuli": 4722,
      "nd": 4723,
      "unapo": 4724,
      "nyama": 4725,
      "##leo": 4726,
      "kide": 4727,
      "insta": 4728,
      "abdul": 4729,
      "##ws": 4730,
      "ufunguzi": 4731,
      "misingi": 4732,
      "##tumiwa": 4733,
      "##onya": 4734,
      "##han": 4735,
      "##cia": 4736,
      "ujao": 4737,
      "##siria": 4738,
      "##kumbuka": 4739,
      "##rabu": 4740,
      "##unza": 4741,
      "harakati": 4742,
      "zu": 4743,
      "##bisho": 4744,
      "moham": 4745,
      "uzoefu": 4746,
      "kizazi": 4747,
      "mkewe": 4748,
      "yanaweza": 4749,
      "pu": 4750,
      "kucho": 4751,
      "mitihani": 4752,
      "lako": 4753,
      "##kwisha": 4754,
      "mbio": 4755,
      "ndoto": 4756,
      "##gundua": 4757,
      "dirisha": 4758,
      "waliyo": 4759,
      "kucha": 4760,
      "alitoa": 4761,
      "kuandaa": 4762,
      "kupoteza": 4763,
      "voda": 4764,
      "wanasiasa": 4765,
      "##ufa": 4766,
      "mzima": 4767,
      "akawa": 4768,
      "##frika": 4769,
      "mil": 4770,
      "##unganisha": 4771,
      "wadogo": 4772,
      "kuepu": 4773,
      "wagombea": 4774,
      "##fanikisha": 4775,
      "uturuki": 4776,
      "sc": 4777,
      "wanapo": 4778,
      "upya": 4779,
      "mikakati": 4780,
      "##anzishwa": 4781,
      "tz": 4782,
      "##hamasisha": 4783,
      "kupinga": 4784,
      "obama": 4785,
      "##siriamali": 4786,
      "wasiwasi": 4787,
      "zingine": 4788,
      "ufanisi": 4789,
      "mga": 4790,
      "mno": 4791,
      "upate": 4792,
      "william": 4793,
      "##patiwa": 4794,
      "mafundi": 4795,
      "arsenal": 4796,
      "##dri": 4797,
      "matakwa": 4798,
      "ndivyo": 4799,
      "mjadala": 4800,
      "500": 4801,
      "sudan": 4802,
      "uongo": 4803,
      "akutana": 4804,
      "eu": 4805,
      "##yiko": 4806,
      "##tro": 4807,
      "mag": 4808,
      "##milifu": 4809,
      "tigo": 4810,
      "##leke": 4811,
      "abiria": 4812,
      "ngumu": 4813,
      "kutumika": 4814,
      "niaba": 4815,
      "watumiaji": 4816,
      "##lizo": 4817,
      "ustawi": 4818,
      "kufungua": 4819,
      "##lini": 4820,
      "mg": 4821,
      "said": 4822,
      "##seni": 4823,
      "yeho": 4824,
      "niki": 4825,
      "muhi": 4826,
      "##kabiliwa": 4827,
      "##sani": 4828,
      "tisa": 4829,
      "kulikuwa": 4830,
      "##jea": 4831,
      "##fikiri": 4832,
      "madiwani": 4833,
      "##elekwa": 4834,
      "##faha": 4835,
      "##taki": 4836,
      "##poke": 4837,
      "##cc": 4838,
      "##lau": 4839,
      "msiba": 4840,
      "raila": 4841,
      "viku": 4842,
      "##bii": 4843,
      "##kezo": 4844,
      "##siliana": 4845,
      "kimoja": 4846,
      "ufalme": 4847,
      "pemba": 4848,
      "ib": 4849,
      "kigwanga": 4850,
      "196": 4851,
      "##peleka": 4852,
      "##ol": 4853,
      "mtanga": 4854,
      "akisema": 4855,
      "##saini": 4856,
      "##rura": 4857,
      "utakao": 4858,
      "##rembo": 4859,
      "chumba": 4860,
      "##ifu": 4861,
      "##reva": 4862,
      "vibaya": 4863,
      "##umba": 4864,
      "##pan": 4865,
      "##mber": 4866,
      "napenda": 4867,
      "35": 4868,
      "vodacom": 4869,
      "yupo": 4870,
      "ija": 4871,
      "##hutubia": 4872,
      "mashu": 4873,
      "alio": 4874,
      "60": 4875,
      "wafu": 4876,
      "kijeshi": 4877,
      "##cis": 4878,
      "imesema": 4879,
      "##tishwa": 4880,
      "mana": 4881,
      "yuko": 4882,
      "od": 4883,
      "wapiga": 4884,
      "mshambuliaji": 4885,
      "##endwa": 4886,
      "hawaku": 4887,
      "nami": 4888,
      "##stani": 4889,
      "kutatua": 4890,
      "##ribio": 4891,
      "ungu": 4892,
      "yehova": 4893,
      "wavuti": 4894,
      "wachache": 4895,
      "##muziki": 4896,
      "##bert": 4897,
      "milele": 4898,
      "kuuza": 4899,
      "mohammed": 4900,
      "bibi": 4901,
      "unguja": 4902,
      "uhalifu": 4903,
      "##wekeza": 4904,
      "miji": 4905,
      "kar": 4906,
      "tamaa": 4907,
      "em": 4908,
      "kichwa": 4909,
      "mbowe": 4910,
      "##stahili": 4911,
      "jua": 4912,
      "vikao": 4913,
      "mak": 4914,
      "kwan": 4915,
      "##yembe": 4916,
      "kuongoza": 4917,
      "what": 4918,
      "##kataa": 4919,
      "##py": 4920,
      "##sse": 4921,
      "india": 4922,
      "ea": 4923,
      "##letea": 4924,
      "##kizi": 4925,
      "##chunguza": 4926,
      "leseni": 4927,
      "jipya": 4928,
      "##thirika": 4929,
      "ngono": 4930,
      "sina": 4931,
      "misi": 4932,
      "kuendesha": 4933,
      "pasi": 4934,
      "##udi": 4935,
      "matendo": 4936,
      "##jin": 4937,
      "03": 4938,
      "##kilisha": 4939,
      "albino": 4940,
      "live": 4941,
      "glo": 4942,
      "plat": 4943,
      "##acha": 4944,
      "##chia": 4945,
      "##lipa": 4946,
      "mwakyembe": 4947,
      "mikataba": 4948,
      "wenu": 4949,
      "hawaja": 4950,
      "kigeni": 4951,
      "burundi": 4952,
      "ziada": 4953,
      "##kubaliana": 4954,
      "ale": 4955,
      "##lah": 4956,
      "wapenzi": 4957,
      "msha": 4958,
      "zima": 4959,
      "vyakula": 4960,
      "kwangu": 4961,
      "##kiri": 4962,
      "mtangazaji": 4963,
      "##rugu": 4964,
      "kibina": 4965,
      "hat": 4966,
      "manufaa": 4967,
      "majeshi": 4968,
      "##pedia": 4969,
      "vip": 4970,
      "francis": 4971,
      "##ls": 4972,
      "##matwa": 4973,
      "##bidi": 4974,
      "via": 4975,
      "##ibuka": 4976,
      "##livu": 4977,
      "mapya": 4978,
      "ope": 4979,
      "##bwe": 4980,
      "lin": 4981,
      "##kuaji": 4982,
      "kuamini": 4983,
      "##dumia": 4984,
      "##shana": 4985,
      "viungo": 4986,
      "usio": 4987,
      "ofisini": 4988,
      "##mboni": 4989,
      "##kwazo": 4990,
      "langu": 4991,
      "kuwasaidia": 4992,
      "for": 4993,
      "##tekelezwa": 4994,
      "wakubwa": 4995,
      "mapendekezo": 4996,
      "##engele": 4997,
      "##pendeke": 4998,
      "##ger": 4999,
      "waumini": 5000,
      "##uzu": 5001,
      "kutimiza": 5002,
      "akina": 5003,
      "mbegu": 5004,
      "vy": 5005,
      "ukubwa": 5006,
      "wikipedia": 5007,
      "##leza": 5008,
      "marufu": 5009,
      "##siri": 5010,
      "muongozo": 5011,
      "ulemavu": 5012,
      "##vaa": 5013,
      "miliki": 5014,
      "maarifa": 5015,
      "atakaye": 5016,
      "##bunifu": 5017,
      "wasiliana": 5018,
      "##hanga": 5019,
      "nguo": 5020,
      "##fungo": 5021,
      "matunda": 5022,
      "##gano": 5023,
      "meli": 5024,
      "tane": 5025,
      "baraka": 5026,
      "jenerali": 5027,
      "##zana": 5028,
      "kipe": 5029,
      "kilichopo": 5030,
      "chombo": 5031,
      "kwanini": 5032,
      "##mpa": 5033,
      "jibu": 5034,
      "lindi": 5035,
      "mabo": 5036,
      "viko": 5037,
      "naku": 5038,
      "madrid": 5039,
      "wanajeshi": 5040,
      "mipaka": 5041,
      "##rou": 5042,
      "vipa": 5043,
      "marufuku": 5044,
      "ushirika": 5045,
      "uliopo": 5046,
      "##pesi": 5047,
      "nilikuwa": 5048,
      "##min": 5049,
      "##katili": 5050,
      "tanesco": 5051,
      "mashambulizi": 5052,
      "rejea": 5053,
      "macha": 5054,
      "bingwa": 5055,
      "maelekezo": 5056,
      "##agiza": 5057,
      "kuba": 5058,
      "198": 5059,
      "##unde": 5060,
      "uzazi": 5061,
      "kibiashara": 5062,
      "ombe": 5063,
      "inge": 5064,
      "bra": 5065,
      "blogu": 5066,
      "halali": 5067,
      "##endeshaji": 5068,
      "##une": 5069,
      "300": 5070,
      "mabaya": 5071,
      "##zeko": 5072,
      "##saka": 5073,
      "maandishi": 5074,
      "##anze": 5075,
      "197": 5076,
      "kigwangalla": 5077,
      "komp": 5078,
      "##seme": 5079,
      "##tenga": 5080,
      "ml": 5081,
      "wasomaji": 5082,
      "kuibu": 5083,
      "##onald": 5084,
      "george": 5085,
      "sen": 5086,
      "sare": 5087,
      "##king": 5088,
      "hakimu": 5089,
      "kijerumani": 5090,
      "endele": 5091,
      "walivyo": 5092,
      "##stina": 5093,
      "##tangazaji": 5094,
      "geita": 5095,
      "lilikuwa": 5096,
      "##dhimisha": 5097,
      "kamu": 5098,
      "##tha": 5099,
      "##thmini": 5100,
      "##mar": 5101,
      "##usi": 5102,
      "majira": 5103,
      "uhai": 5104,
      "mikono": 5105,
      "##lisha": 5106,
      "##chezwa": 5107,
      "32": 5108,
      "magumu": 5109,
      "ongezeko": 5110,
      "kumwa": 5111,
      "##lulizo": 5112,
      "peke": 5113,
      "wavu": 5114,
      "ujuzi": 5115,
      "hawezi": 5116,
      "##gezo": 5117,
      "dharura": 5118,
      "twitter": 5119,
      "##aa": 5120,
      "goo": 5121,
      "migogoro": 5122,
      "##wt": 5123,
      "vikuu": 5124,
      "ukosefu": 5125,
      "##ssi": 5126,
      "mtandaoni": 5127,
      "mkali": 5128,
      "sijui": 5129,
      "##uzulu": 5130,
      "##nia": 5131,
      "kuhifadhi": 5132,
      "africa": 5133,
      "##isemi": 5134,
      "majimbo": 5135,
      "tunaweza": 5136,
      "##rey": 5137,
      "##dh": 5138,
      "##zina": 5139,
      "azi": 5140,
      "makofi": 5141,
      "wai": 5142,
      "movie": 5143,
      "##ber": 5144,
      "mha": 5145,
      "vurugu": 5146,
      "ruvu": 5147,
      "mazishi": 5148,
      "kufanikiwa": 5149,
      "wakurugenzi": 5150,
      "##dhari": 5151,
      "##resheni": 5152,
      "ijayo": 5153,
      "##ruhusi": 5154,
      "##kaji": 5155,
      "muhimbili": 5156,
      "##tumikia": 5157,
      "##ban": 5158,
      "mzazi": 5159,
      "##gram": 5160,
      "##some": 5161,
      "ukawa": 5162,
      "kutolewa": 5163,
      "##zaa": 5164,
      "nk": 5165,
      "taha": 5166,
      "nyakati": 5167,
      "wapinzani": 5168,
      "kaka": 5169,
      "angalia": 5170,
      "##vana": 5171,
      "##pangwa": 5172,
      "##yuta": 5173,
      "##gue": 5174,
      "##cco": 5175,
      "rekodi": 5176,
      "##uts": 5177,
      "ngoma": 5178,
      "copy": 5179,
      "##husiana": 5180,
      "sakata": 5181,
      "06": 5182,
      "amewataka": 5183,
      "kudai": 5184,
      "##tini": 5185,
      "inawezekana": 5186,
      "pata": 5187,
      "##andikie": 5188,
      "zitto": 5189,
      "magereza": 5190,
      "shabiki": 5191,
      "ara": 5192,
      "2009": 5193,
      "##shiria": 5194,
      "kipato": 5195,
      "ilipo": 5196,
      "pointi": 5197,
      "mfululizo": 5198,
      "##mio": 5199,
      "##right": 5200,
      "kikundi": 5201,
      "##uel": 5202,
      "##kebisho": 5203,
      "##shangaza": 5204,
      "agizo": 5205,
      "2007": 5206,
      "kuamua": 5207,
      "neema": 5208,
      "##swada": 5209,
      "kukamilisha": 5210,
      "pengine": 5211,
      "kha": 5212,
      "malalami": 5213,
      "maria": 5214,
      "kale": 5215,
      "takribani": 5216,
      "kik": 5217,
      "hasi": 5218,
      "ubalozi": 5219,
      "mahoji": 5220,
      "ukuaji": 5221,
      "mashine": 5222,
      "malalamiko": 5223,
      "##jeruhiwa": 5224,
      "kompyuta": 5225,
      "##tazama": 5226,
      "##inguni": 5227,
      "daima": 5228,
      "tija": 5229,
      "mwanasheria": 5230,
      "wakim": 5231,
      "mashtaka": 5232,
      "kiingereza": 5233,
      "serikalini": 5234,
      "mahojiano": 5235,
      "uchuku": 5236,
      "kero": 5237,
      "endelevu": 5238,
      "marekebisho": 5239,
      "##jita": 5240,
      "##anzisha": 5241,
      "##57": 5242,
      "kipekee": 5243,
      "##dy": 5244,
      "##takazo": 5245,
      "##panda": 5246,
      "nadhani": 5247,
      "nape": 5248,
      "##pelekea": 5249,
      "utulivu": 5250,
      "##shindani": 5251,
      "msichana": 5252,
      "##ishia": 5253,
      "tuka": 5254,
      "vyao": 5255,
      "##loni": 5256,
      "hazina": 5257,
      "kutazama": 5258,
      "##onyesho": 5259,
      "iliyotolewa": 5260,
      "wawekezaji": 5261,
      "##utsche": 5262,
      "##mivu": 5263,
      "lao": 5264,
      "##mbiwa": 5265,
      "##linda": 5266,
      "##lazimika": 5267,
      "45": 5268,
      "shamba": 5269,
      "papa": 5270,
      "kurasa": 5271,
      "mbinguni": 5272,
      "enzi": 5273,
      "2019": 5274,
      "anapo": 5275,
      "kaunti": 5276,
      "##zindu": 5277,
      "wanavyo": 5278,
      "mvu": 5279,
      "##umbele": 5280,
      "asa": 5281,
      "maonyesho": 5282,
      "misha": 5283,
      "##suaji": 5284,
      "watakuwa": 5285,
      "ukanda": 5286,
      "mkapa": 5287,
      "kutokuwa": 5288,
      "##manuel": 5289,
      "##ww": 5290,
      "kuonekana": 5291,
      "uga": 5292,
      "it": 5293,
      "koro": 5294,
      "##rishaji": 5295,
      "chel": 5296,
      "##kamilika": 5297,
      "tamisemi": 5298,
      "##twaa": 5299,
      "tete": 5300,
      "tuandikie": 5301,
      "##ulu": 5302,
      "masiki": 5303,
      "imara": 5304,
      "kifungu": 5305,
      "copyright": 5306,
      "piki": 5307,
      "bima": 5308,
      "##heshimu": 5309,
      "upasuaji": 5310,
      "kukagua": 5311,
      "##mira": 5312,
      "kusamba": 5313,
      "chelsea": 5314,
      "kuzalisha": 5315,
      "peter": 5316,
      "##rejesha": 5317,
      "##ble": 5318,
      "##funguliwa": 5319,
      "inasema": 5320,
      "##mbuliwa": 5321,
      "uchukuzi": 5322,
      "maofisa": 5323,
      "england": 5324,
      "tawi": 5325,
      "ramad": 5326,
      "masikioni": 5327,
      "##mera": 5328,
      "##saji": 5329,
      "##mas": 5330,
      "mafundisho": 5331,
      "th": 5332,
      "fm": 5333,
      "sto": 5334,
      "reli": 5335,
      "##wasilishwa": 5336,
      "swala": 5337,
      "maone": 5338,
      "##isheni": 5339,
      "##reke": 5340,
      "wanayo": 5341,
      "uwepo": 5342,
      "ninge": 5343,
      "deutsche": 5344,
      "vyan": 5345,
      "##onea": 5346,
      "##twe": 5347,
      "whatsa": 5348,
      "##oo": 5349,
      "welle": 5350,
      "ex": 5351,
      "vyanzo": 5352,
      "kump": 5353,
      "wizi": 5354,
      "kitaa": 5355,
      "##teua": 5356,
      "uchi": 5357,
      "##faka": 5358,
      "mwanga": 5359,
      "amei": 5360,
      "njo": 5361,
      "##ikh": 5362,
      "swahili": 5363,
      "bon": 5364,
      "sija": 5365,
      "ngozi": 5366,
      "whatsapp": 5367,
      "33": 5368,
      "maziwa": 5369,
      "##zunguka": 5370,
      "##rwa": 5371,
      "maonesho": 5372,
      "daktari": 5373,
      "##potea": 5374,
      "##wajibiki": 5375,
      "upungufu": 5376,
      "data": 5377,
      "unataka": 5378,
      "90": 5379,
      "wapya": 5380,
      "hisa": 5381,
      "yalikuwa": 5382,
      "lile": 5383,
      "37": 5384,
      "huwezi": 5385,
      "dhati": 5386,
      "samaki": 5387,
      "kufuatilia": 5388,
      "sikiliza": 5389,
      "uhamiaji": 5390,
      "##andiko": 5391,
      "kukata": 5392,
      "##gizaji": 5393,
      "##dward": 5394,
      "##bile": 5395,
      "##giwa": 5396,
      "kipya": 5397,
      "##thio": 5398,
      "pikipiki": 5399,
      "mifumo": 5400,
      "war": 5401,
      "kuwasilisha": 5402,
      "kupita": 5403,
      "##pania": 5404,
      "mema": 5405,
      "kuunda": 5406,
      "nakili": 5407,
      "kuwania": 5408,
      "abda": 5409,
      "halafu": 5410,
      "haiwajibiki": 5411,
      "##maji": 5412,
      "uendeshaji": 5413,
      "aibu": 5414,
      "miss": 5415,
      "itikadi": 5416,
      "kilele": 5417,
      "##shirikisha": 5418,
      "kise": 5419,
      "##yanya": 5420,
      "##ungwa": 5421,
      "kiunganisho": 5422,
      "##kizo": 5423,
      "viunganisho": 5424,
      "##tional": 5425,
      "simi": 5426,
      "kukabidhi": 5427,
      "hap": 5428,
      "vitafungua": 5429,
      "kufanikisha": 5430,
      "wawe": 5431,
      "san": 5432,
      "##roho": 5433,
      "kukusanya": 5434,
      "edward": 5435,
      "kuch": 5436,
      "june": 5437,
      "##vile": 5438,
      "##chukulia": 5439,
      "enda": 5440,
      "##sara": 5441,
      "email": 5442,
      "wakristo": 5443,
      "##kamata": 5444,
      "god": 5445,
      "real": 5446,
      "hakuwa": 5447,
      "king": 5448,
      "mzungu": 5449,
      "##pisha": 5450,
      "harusi": 5451,
      "kubadilisha": 5452,
      "##shirikiana": 5453,
      "##rithi": 5454,
      "waanda": 5455,
      "takriban": 5456,
      "uso": 5457,
      "majadili": 5458,
      "kt": 5459,
      "hadithi": 5460,
      "tendo": 5461,
      "##samba": 5462,
      "kumalizika": 5463,
      "##iti": 5464,
      "##wawa": 5465,
      "majadiliano": 5466,
      "##geza": 5467,
      "dhana": 5468,
      "##thiopia": 5469,
      "wanataka": 5470,
      "##iko": 5471,
      "donald": 5472,
      "70": 5473,
      "##cto": 5474,
      "petro": 5475,
      "##rin": 5476,
      "kupigwa": 5477,
      "##singi": 5478,
      "maumivu": 5479,
      "qu": 5480,
      "##yana": 5481,
      "aa": 5482,
      "##load": 5483,
      "##inua": 5484,
      "inawa": 5485,
      "kujali": 5486,
      "nan": 5487,
      "kivu": 5488,
      "htt": 5489,
      "saratani": 5490,
      "kushika": 5491,
      "unavyo": 5492,
      "wanafanya": 5493,
      "allah": 5494,
      "kipi": 5495,
      "mojawapo": 5496,
      "haramu": 5497,
      "kuongezeka": 5498,
      "jela": 5499,
      "pindi": 5500,
      "shuk": 5501,
      "##haribu": 5502,
      "kutuma": 5503,
      "congo": 5504,
      "##num": 5505,
      "asiye": 5506,
      "##habu": 5507,
      "saini": 5508,
      "mwema": 5509,
      "kurejea": 5510,
      "madu": 5511,
      "uzito": 5512,
      "mhariri": 5513,
      "mafu": 5514,
      "hesabu": 5515,
      "##ingiza": 5516,
      "kuchagua": 5517,
      "baadae": 5518,
      "kulala": 5519,
      "simiyu": 5520,
      "ig": 5521,
      "iliyokuwa": 5522,
      "##haribi": 5523,
      "ilitumwa": 5524,
      "##dhalika": 5525,
      "ubungo": 5526,
      "##endeshwa": 5527,
      "##puko": 5528,
      "vikundi": 5529,
      "mishahara": 5530,
      "tafsiri": 5531,
      "mfanyabiashara": 5532,
      "zipo": 5533,
      "##zinduliwa": 5534,
      "##sahau": 5535,
      "mwongozo": 5536,
      "alieleza": 5537,
      "operesheni": 5538,
      "kamwe": 5539,
      "ethiopia": 5540,
      "##jiunga": 5541,
      "pembe": 5542,
      "wanne": 5543,
      "anayo": 5544,
      "urefu": 5545,
      "endapo": 5546,
      "kuongea": 5547,
      "waasi": 5548,
      "##hiki": 5549,
      "kifu": 5550,
      "80": 5551,
      "mkopo": 5552,
      "##mwambia": 5553,
      "mlima": 5554,
      "##pitia": 5555,
      "kueleza": 5556,
      "ubingwa": 5557,
      "www": 5558,
      "##mbozi": 5559,
      "mchungaji": 5560,
      "kujibu": 5561,
      "naamini": 5562,
      "wakili": 5563,
      "mwingi": 5564,
      "kingine": 5565,
      "##fikiwa": 5566,
      "##lika": 5567,
      "zitakazo": 5568,
      "im": 5569,
      "emmanuel": 5570,
      "lissu": 5571,
      "kabila": 5572,
      "kuwekeza": 5573,
      "kuru": 5574,
      "brea": 5575,
      "kidini": 5576,
      "##tuko": 5577,
      "##ng": 5578,
      "misitu": 5579,
      "ubunifu": 5580,
      "##tezi": 5581,
      "36": 5582,
      "2008": 5583,
      "##fedha": 5584,
      "platnum": 5585,
      "wange": 5586,
      "##ando": 5587,
      "##lana": 5588,
      "tusi": 5589,
      "sport": 5590,
      "may": 5591,
      "nafsi": 5592,
      "ummy": 5593,
      "##mbazi": 5594,
      "kusikia": 5595,
      "kush": 5596,
      "##tumie": 5597,
      "haita": 5598,
      "free": 5599,
      "##gar": 5600,
      "ofisa": 5601,
      "ilala": 5602,
      "##kuzi": 5603,
      "##tende": 5604,
      "salamu": 5605,
      "umwa": 5606,
      "eti": 5607,
      "##maanisha": 5608,
      "fikra": 5609,
      "##lwa": 5610,
      "##und": 5611,
      "mael": 5612,
      "mabasi": 5613,
      "mratibu": 5614,
      "##tus": 5615,
      "slaa": 5616,
      "##yahudi": 5617,
      "alex": 5618,
      "vin": 5619,
      "##pungua": 5620,
      "##isaidia": 5621,
      "kifedha": 5622,
      "kuelewa": 5623,
      "busara": 5624,
      "sheikh": 5625,
      "wenyeji": 5626,
      "vilevile": 5627,
      "kukamilika": 5628,
      "link": 5629,
      "mwenge": 5630,
      "sikukuu": 5631,
      "udhibiti": 5632,
      "hamad": 5633,
      "mstari": 5634,
      "dhahabu": 5635,
      "kiroho": 5636,
      "shukrani": 5637,
      "##cel": 5638,
      "hadhara": 5639,
      "alii": 5640,
      "##fikisha": 5641,
      "japo": 5642,
      "heri": 5643,
      "kamera": 5644,
      "lea": 5645,
      "maelfu": 5646,
      "##ence": 5647,
      "##enga": 5648,
      "wash": 5649,
      "telev": 5650,
      "##mbulio": 5651,
      "mpe": 5652,
      "platnumz": 5653,
      "wanam": 5654,
      "clo": 5655,
      "anataka": 5656,
      "##guni": 5657,
      "kuunga": 5658,
      "ukatili": 5659,
      "wanaoishi": 5660,
      "##tangu": 5661,
      "##toe": 5662,
      "nasa": 5663,
      "##tego": 5664,
      "ang": 5665,
      "kumpa": 5666,
      "##lipwa": 5667,
      "buko": 5668,
      "ira": 5669,
      "vyake": 5670,
      "##50": 5671,
      "##qu": 5672,
      "##gust": 5673,
      "##jue": 5674,
      "##bel": 5675,
      "micha": 5676,
      "##ron": 5677,
      "vikosi": 5678,
      "##wji": 5679,
      "isipokuwa": 5680,
      "inaendelea": 5681,
      "##mbabwe": 5682,
      "endelea": 5683,
      "##pasa": 5684,
      "##somi": 5685,
      "meya": 5686,
      "airtel": 5687,
      "##ripotiwa": 5688,
      "02": 5689,
      "kikazi": 5690,
      "huruma": 5691,
      "##tri": 5692,
      "utajiri": 5693,
      "##dilifu": 5694,
      "##hirisha": 5695,
      "ally": 5696,
      "##saidi": 5697,
      "gavana": 5698,
      "##cy": 5699,
      "##haribifu": 5700,
      "sam": 5701,
      "##zil": 5702,
      "instagram": 5703,
      "##endana": 5704,
      "##fuatayo": 5705,
      "##vazi": 5706,
      "kitanzania": 5707,
      "wahusika": 5708,
      "asante": 5709,
      "vema": 5710,
      "mawe": 5711,
      "##endi": 5712,
      "##yesha": 5713,
      "##anguka": 5714,
      "davi": 5715,
      "ber": 5716,
      "##lly": 5717,
      "##teni": 5718,
      "##ule": 5719,
      "mashahidi": 5720,
      "akizungumzia": 5721,
      "kifa": 5722,
      "uislamu": 5723,
      "kidemokrasia": 5724,
      "elfu": 5725,
      "shahada": 5726,
      "nae": 5727,
      "kuam": 5728,
      "##shikilia": 5729,
      "##maha": 5730,
      "mpa": 5731,
      "##onda": 5732,
      "04": 5733,
      "ve": 5734,
      "vikwazo": 5735,
      "uzima": 5736,
      "##elekeza": 5737,
      "tsh": 5738,
      "maandiko": 5739,
      "hadhi": 5740,
      "nakala": 5741,
      "##koni": 5742,
      "##jabu": 5743,
      "raha": 5744,
      "kifungo": 5745,
      "mifuko": 5746,
      "05": 5747,
      "sepe": 5748,
      "2005": 5749,
      "wakiwemo": 5750,
      "##ufaika": 5751,
      "lib": 5752,
      "##furahia": 5753,
      "##aminifu": 5754,
      "mteja": 5755,
      "fupi": 5756,
      "joto": 5757,
      "odinga": 5758,
      "##kita": 5759,
      "ktk": 5760,
      "##zwe": 5761,
      "tuweze": 5762,
      "kusu": 5763,
      "fahamu": 5764,
      "##tetea": 5765,
      "##pindu": 5766,
      "##wajibika": 5767,
      "somalia": 5768,
      "##uzwa": 5769,
      "kufungwa": 5770,
      "##ondon": 5771,
      "sepetu": 5772,
      "teme": 5773,
      "##kima": 5774,
      "az": 5775,
      "34": 5776,
      "sin": 5777,
      "kamusi": 5778,
      "##kuza": 5779,
      "ushindani": 5780,
      "kuhamasisha": 5781,
      "robo": 5782,
      "hasara": 5783,
      "zimbabwe": 5784,
      "wam": 5785,
      "kikamilifu": 5786,
      "london": 5787,
      "##gai": 5788,
      "##jengea": 5789,
      "shetani": 5790,
      "mavazi": 5791,
      "kinga": 5792,
      "mich": 5793,
      "##ys": 5794,
      "kugombea": 5795,
      "##jifunza": 5796,
      "uv": 5797,
      "##yasema": 5798,
      "pinda": 5799,
      "##puka": 5800,
      "james": 5801,
      "##jumuisha": 5802,
      "mingine": 5803,
      "maskini": 5804,
      "##wira": 5805,
      "washindi": 5806,
      "hapana": 5807,
      "umekuwa": 5808,
      "##mbeni": 5809,
      "##zetu": 5810,
      "##ingu": 5811,
      "##yara": 5812,
      "##kt": 5813,
      "##wnload": 5814,
      "breaking": 5815,
      "##riwa": 5816,
      "##pf": 5817,
      "##fikapo": 5818,
      "##zozo": 5819,
      "##ange": 5820,
      "somo": 5821,
      "mshahara": 5822,
      "inapatikana": 5823,
      "matatu": 5824,
      "toleo": 5825,
      "##tosha": 5826,
      "kuvi": 5827,
      "##pl": 5828,
      "##hini": 5829,
      "##ongwe": 5830,
      "sukari": 5831,
      "##mka": 5832,
      "kazini": 5833,
      "##it": 5834,
      "mer": 5835,
      "isa": 5836,
      "##stan": 5837,
      "##menti": 5838,
      "##mbie": 5839,
      "usawa": 5840,
      "##ruhusiwa": 5841,
      "one": 5842,
      "muundo": 5843,
      "unahitaji": 5844,
      "mbadala": 5845,
      "kupo": 5846,
      "hekima": 5847,
      "ulimwenguni": 5848,
      "cloud": 5849,
      "maambu": 5850,
      "dewji": 5851,
      "##badilika": 5852,
      "august": 5853,
      "shindano": 5854,
      "kimya": 5855,
      "chenye": 5856,
      "##tawala": 5857,
      "kuzindua": 5858,
      "nidhamu": 5859,
      "kutetea": 5860,
      "ninyi": 5861,
      "majaribio": 5862,
      "##cke": 5863,
      "muh": 5864,
      "hususan": 5865,
      "ungependa": 5866,
      "hasira": 5867,
      "vyeti": 5868,
      "##wanjani": 5869,
      "mapigano": 5870,
      "##rekani": 5871,
      "##fisha": 5872,
      "mzunguko": 5873,
      "upi": 5874,
      "ifikapo": 5875,
      "uharibifu": 5876,
      "kubaini": 5877,
      "hatia": 5878,
      "jamani": 5879,
      "##endera": 5880,
      "kihis": 5881,
      "##ridi": 5882,
      "euro": 5883,
      "wazo": 5884,
      "##azi": 5885,
      "##chapisha": 5886,
      "likiwa": 5887,
      "##jika": 5888,
      "televisheni": 5889,
      "inakuwa": 5890,
      "##jali": 5891,
      "##fara": 5892,
      "aya": 5893,
      "wamiliki": 5894,
      "ushu": 5895,
      "##gania": 5896,
      "##wekea": 5897,
      "wakenya": 5898,
      "##dhui": 5899,
      "usu": 5900,
      "mahi": 5901,
      "vigumu": 5902,
      "##chea": 5903,
      "muswada": 5904,
      "yapo": 5905,
      "kuepuka": 5906,
      "media": 5907,
      "##log": 5908,
      "##bainisha": 5909,
      "##gle": 5910,
      "##celona": 5911,
      "italia": 5912,
      "hebu": 5913,
      "mse": 5914,
      "kadhalika": 5915,
      "kuua": 5916,
      "uda": 5917,
      "##leva": 5918,
      "serenge": 5919,
      "mshika": 5920,
      "jiwe": 5921,
      "nyaraka": 5922,
      "##rabati": 5923,
      "kukua": 5924,
      "kibinadamu": 5925,
      "mtindo": 5926,
      "barcelona": 5927,
      "##lum": 5928,
      "##tambulisha": 5929,
      "mtumishi": 5930,
      "makan": 5931,
      "09": 5932,
      "kiele": 5933,
      "kupanga": 5934,
      "##shwe": 5935,
      "##riko": 5936,
      "ibrahi": 5937,
      "bendera": 5938,
      "sir": 5939,
      "##mko": 5940,
      "##22": 5941,
      "akam": 5942,
      "##cu": 5943,
      "zilikuwa": 5944,
      "itaendelea": 5945,
      "2006": 5946,
      "aku": 5947,
      "waliochaguliwa": 5948,
      "virusi": 5949,
      "##gopa": 5950,
      "wataalam": 5951,
      "bukoba": 5952,
      "##tenda": 5953,
      "david": 5954,
      "kuanzishwa": 5955,
      "##gusa": 5956,
      "mme": 5957,
      "mwanamuziki": 5958,
      "yenyewe": 5959,
      "maudhui": 5960,
      "kujaribu": 5961,
      "mwenzake": 5962,
      "##moni": 5963,
      "##fakari": 5964,
      "hamu": 5965,
      "mageuzi": 5966,
      "08": 5967,
      "fifa": 5968,
      "##ficha": 5969,
      "##zoea": 5970,
      "serengeti": 5971,
      "ubaguzi": 5972,
      "rasimu": 5973,
      "##zui": 5974,
      "##heshimiwa": 5975,
      "ufumbuzi": 5976,
      "tan": 5977,
      "##klia": 5978,
      "nazo": 5979,
      "##hifadhiwa": 5980,
      "mbara": 5981,
      "kumekuwa": 5982,
      "paulo": 5983,
      "##sababu": 5984,
      "wanadamu": 5985,
      "kubeba": 5986,
      "manyara": 5987,
      "by": 5988,
      "jubile": 5989,
      "##skini": 5990,
      "wahamiaji": 5991,
      "##tongo": 5992,
      "##hakikishia": 5993,
      "taaluma": 5994,
      "##sto": 5995,
      "naona": 5996,
      "haiku": 5997,
      "##rison": 5998,
      "##sihi": 5999,
      "ufugaji": 6000,
      "##tengenezwa": 6001,
      "clouds": 6002,
      "vyenye": 6003,
      "##safiri": 6004,
      "karu": 6005,
      "mwanachama": 6006,
      "njaa": 6007,
      "liver": 6008,
      "##ongezea": 6009,
      "##lli": 6010,
      "ishi": 6011,
      "ombi": 6012,
      "abdallah": 6013,
      "##ther": 6014,
      "chuki": 6015,
      "##mbatana": 6016,
      "##fahamika": 6017,
      "##pum": 6018,
      "##fiwa": 6019,
      "bro": 6020,
      "##pelekwa": 6021,
      "tri": 6022,
      "yatoa": 6023,
      "uandishi": 6024,
      "##pool": 6025,
      "yaliyofanyika": 6026,
      "zambia": 6027,
      "umaskini": 6028,
      "umwagi": 6029,
      "kwasababu": 6030,
      "##yang": 6031,
      "kongo": 6032,
      "##takavyo": 6033,
      "nataka": 6034,
      "##rudisha": 6035,
      "##plo": 6036,
      "kuhudhuria": 6037,
      "malai": 6038,
      "##hema": 6039,
      "##mehe": 6040,
      "kukamatwa": 6041,
      "alifanya": 6042,
      "urahisi": 6043,
      "marudi": 6044,
      "##inishwa": 6045,
      "april": 6046,
      "mwenendo": 6047,
      "tunawa": 6048,
      "uwanjani": 6049,
      "mon": 6050,
      "42": 6051,
      "##anzia": 6052,
      "tundu": 6053,
      "##pigia": 6054,
      "kufahamu": 6055,
      "uelewa": 6056,
      "kufurahi": 6057,
      "kujitokeza": 6058,
      "mauzo": 6059,
      "##fanana": 6060,
      "##tiki": 6061,
      "liverpool": 6062,
      "maambukizi": 6063,
      "##onekano": 6064,
      "yatakayo": 6065,
      "##himiza": 6066,
      "tunaomba": 6067,
      "hawapo": 6068,
      "visa": 6069,
      "rukwa": 6070,
      "temeke": 6071,
      "kuwezesha": 6072,
      "kamba": 6073,
      "akimkabidhi": 6074,
      "kuvunja": 6075,
      "kub": 6076,
      "tun": 6077,
      "##vutio": 6078,
      "huja": 6079,
      "mwinyi": 6080,
      "##harakati": 6081,
      "mshikamano": 6082,
      "malaika": 6083,
      "nikiwa": 6084,
      "##lali": 6085,
      "##der": 6086,
      "##idii": 6087,
      "##tive": 6088,
      "anawa": 6089,
      "##tegeme": 6090,
      "vigezo": 6091,
      "##mita": 6092,
      "wach": 6093,
      "hamisi": 6094,
      "ala": 6095,
      "tathmini": 6096,
      "made": 6097,
      "brazil": 6098,
      "crd": 6099,
      "mus": 6100,
      "##hubiri": 6101,
      "inapo": 6102,
      "lini": 6103,
      "kutunza": 6104,
      "##sm": 6105,
      "hatuna": 6106,
      "crdb": 6107,
      "##rida": 6108,
      "##39": 6109,
      "##roni": 6110,
      "upe": 6111,
      "##ongezi": 6112,
      "##athiri": 6113,
      "##islam": 6114,
      "##tanisha": 6115,
      "##ifanya": 6116,
      "uu": 6117,
      "wamesema": 6118,
      "##wazi": 6119,
      "michango": 6120,
      "bomba": 6121,
      "maradhi": 6122,
      "400": 6123,
      "ed": 6124,
      "mwanz": 6125,
      "umwagiliaji": 6126,
      "karume": 6127,
      "walisema": 6128,
      "##pishwa": 6129,
      "##rasi": 6130,
      "##rage": 6131,
      "##vutia": 6132,
      "kihistoria": 6133,
      "majeruhi": 6134,
      "usafirishaji": 6135,
      "mati": 6136,
      "##ishio": 6137,
      "drc": 6138,
      "##bariki": 6139,
      "makamba": 6140,
      "mlango": 6141,
      "##elewe": 6142,
      "##wasilisha": 6143,
      "watuhumiwa": 6144,
      "mda": 6145,
      "kipaumbele": 6146,
      "kuchunguza": 6147,
      "kiserikali": 6148,
      "jkt": 6149,
      "tui": 6150,
      "watano": 6151,
      "ibrahim": 6152,
      "mart": 6153,
      "##soa": 6154,
      "israeli": 6155,
      "kash": 6156,
      "mwanzoni": 6157,
      "michael": 6158,
      "minne": 6159,
      "popote": 6160,
      "##dhuri": 6161,
      "waji": 6162,
      "kumbuka": 6163,
      "kahama": 6164,
      "hadha": 6165,
      "yohana": 6166,
      "miili": 6167,
      "##sababishwa": 6168,
      "unayo": 6169,
      "##andikisha": 6170,
      "madhu": 6171,
      "kusafiri": 6172,
      "##kumbusha": 6173,
      "amefanya": 6174,
      "##ste": 6175,
      "##kane": 6176,
      "##rimu": 6177,
      "##mvi": 6178,
      "##eng": 6179,
      "mbona": 6180,
      "##ombe": 6181,
      "qa": 6182,
      "amefariki": 6183,
      "kunywa": 6184,
      "maafa": 6185,
      "fidia": 6186,
      "mr": 6187,
      "##dhiri": 6188,
      "nyon": 6189,
      "mitambo": 6190,
      "vichwa": 6191,
      "cheti": 6192,
      "amea": 6193,
      "shuleni": 6194,
      "maalim": 6195,
      "anavyo": 6196,
      "##ut": 6197,
      "nna": 6198,
      "##shambulia": 6199,
      "##chezea": 6200,
      "shaba": 6201,
      "##ony": 6202,
      "january": 6203,
      "makali": 6204,
      "bidii": 6205,
      "mfanyakazi": 6206,
      "kupeleka": 6207,
      "fleva": 6208,
      "wastani": 6209,
      "hadharani": 6210,
      "##hudumia": 6211,
      "uchambuzi": 6212,
      "##ccm": 6213,
      "org": 6214,
      "taka": 6215,
      "kumbe": 6216,
      "youtu": 6217,
      "karne": 6218,
      "##kundu": 6219,
      "##kumiwa": 6220,
      "taji": 6221,
      "wivu": 6222,
      "##sikiti": 6223,
      "##shangaa": 6224,
      "alisisitiza": 6225,
      "##ombea": 6226,
      "##sherehe": 6227,
      "mary": 6228,
      "mamia": 6229,
      "tr": 6230,
      "ucho": 6231,
      "mwendo": 6232,
      "##jipanga": 6233,
      "##masi": 6234,
      "##teuliwa": 6235,
      "dhahiri": 6236,
      "ps": 6237,
      "##red": 6238,
      "laki": 6239,
      "diwani": 6240,
      "##muni": 6241,
      "ufahamu": 6242,
      "kutokatuko": 6243,
      "dhamira": 6244,
      "wanapaswa": 6245,
      "##kabidhiwa": 6246,
      "##linzi": 6247,
      "##kagua": 6248,
      "mchu": 6249,
      "aliwataka": 6250,
      "mwenza": 6251,
      "kada": 6252,
      "gmail": 6253,
      "kutakuwa": 6254,
      "##shawishi": 6255,
      "##dc": 6256,
      "##tima": 6257,
      "benja": 6258,
      "38": 6259,
      "##dangan": 6260,
      "##tii": 6261,
      "wafugaji": 6262,
      "##pendekeza": 6263,
      "mweleke": 6264,
      "utangazaji": 6265,
      "##semwa": 6266,
      "azimio": 6267,
      "maagizo": 6268,
      "mabalozi": 6269,
      "kuwawezesha": 6270,
      "##elimisha": 6271,
      "##moyo": 6272,
      "##ishani": 6273,
      "dogo": 6274,
      "##imarisha": 6275,
      "##shuhuda": 6276,
      "mashi": 6277,
      "anafanya": 6278,
      "kuzungumzia": 6279,
      "raisi": 6280,
      "##gogo": 6281,
      "kuvutia": 6282,
      "imetoa": 6283,
      "##dhili": 6284,
      "kufanyiwa": 6285,
      "##kovu": 6286,
      "wenzetu": 6287,
      "uhaba": 6288,
      "##simamisha": 6289,
      "ukombozi": 6290,
      "msamaha": 6291,
      "ac": 6292,
      "qur": 6293,
      "ramani": 6294,
      "ilivyokuwa": 6295,
      "##llo": 6296,
      "haji": 6297,
      "##jikuta": 6298,
      "kando": 6299,
      "zenu": 6300,
      "alipata": 6301,
      "najua": 6302,
      "wokovu": 6303,
      "##gulu": 6304,
      "kiarabu": 6305,
      "##firisha": 6306,
      "##cl": 6307,
      "##sini": 6308,
      "kich": 6309,
      "japan": 6310,
      "beki": 6311,
      "##ganaji": 6312,
      "##dumisha": 6313,
      "##fali": 6314,
      "akipokea": 6315,
      "ruvuma": 6316,
      "african": 6317,
      "kupima": 6318,
      "jubilee": 6319,
      "mateso": 6320,
      "mzigo": 6321,
      "zilizopita": 6322,
      "mzozo": 6323,
      "hauna": 6324,
      "tuwe": 6325,
      "ulivyo": 6326,
      "salum": 6327,
      "ndugai": 6328,
      "kiki": 6329,
      "kutoku": 6330,
      "##tes": 6331,
      "dise": 6332,
      "vipaji": 6333,
      "hawata": 6334,
      "##ree": 6335,
      "##zangu": 6336,
      "akiwasili": 6337,
      "chao": 6338,
      "zikiwa": 6339,
      "##usha": 6340,
      "sene": 6341,
      "google": 6342,
      "run": 6343,
      "atu": 6344,
      "##mbazaji": 6345,
      "##elelezi": 6346,
      "##rah": 6347,
      "mui": 6348,
      "goli": 6349,
      "tasnia": 6350,
      "##zozi": 6351,
      "akihutubia": 6352,
      "kuokoa": 6353,
      "kuifanya": 6354,
      "##tofauti": 6355,
      "kashfa": 6356,
      "##tane": 6357,
      "##likwa": 6358,
      "ununuzi": 6359,
      "##rekebisha": 6360,
      "##vin": 6361,
      "uwazi": 6362,
      "anna": 6363,
      "##fadhili": 6364,
      "hususani": 6365,
      "##hawa": 6366,
      "##miri": 6367,
      "##gemea": 6368,
      "washirika": 6369,
      "##res": 6370,
      "##ance": 6371,
      "kulipwa": 6372,
      "or": 6373,
      "ishirini": 6374,
      "gra": 6375,
      "njombe": 6376,
      "##pumzi": 6377,
      "tho": 6378,
      "##jiandaa": 6379,
      "2000": 6380,
      "##jiriwa": 6381,
      "job": 6382,
      "hayu": 6383,
      "muu": 6384,
      "##maarufu": 6385,
      "bin": 6386,
      "mtukufu": 6387,
      "##hojiwa": 6388,
      "##enea": 6389,
      "clu": 6390,
      "mgonjwa": 6391,
      "mizigo": 6392,
      "kijin": 6393,
      "kwenu": 6394,
      "##sajili": 6395,
      "wanaishi": 6396,
      "071": 6397,
      "##kizwa": 6398,
      "post": 6399,
      "mashamba": 6400,
      "##sari": 6401,
      "mwao": 6402,
      "mamili": 6403,
      "##romo": 6404,
      "des": 6405,
      "48": 6406,
      "mj": 6407,
      "utata": 6408,
      "kana": 6409,
      "inaonekana": 6410,
      "baga": 6411,
      "##dhifa": 6412,
      "##ulizwa": 6413,
      "##uye": 6414,
      "82": 6415,
      "##ice": 6416,
      "machafu": 6417,
      "sele": 6418,
      "##anua": 6419,
      "##timiza": 6420,
      "kijinsia": 6421,
      "##fuatavyo": 6422,
      "alicho": 6423,
      "robert": 6424,
      "mwigulu": 6425,
      "mwelekeo": 6426,
      "alidai": 6427,
      "yafuatayo": 6428,
      "ushuru": 6429,
      "##ploma": 6430,
      "tunapo": 6431,
      "faini": 6432,
      "sek": 6433,
      "##angilia": 6434,
      "uo": 6435,
      "kushughulikia": 6436,
      "##sion": 6437,
      "atoa": 6438,
      "ambae": 6439,
      "##wele": 6440,
      "imewa": 6441,
      "meza": 6442,
      "kisiwa": 6443,
      "mganga": 6444,
      "bia": 6445,
      "mataji": 6446,
      "##kusan": 6447,
      "korosho": 6448,
      "msajili": 6449,
      "asia": 6450,
      "download": 6451,
      "elezo": 6452,
      "mola": 6453,
      "kutisha": 6454,
      "madeni": 6455,
      "##roup": 6456,
      "chris": 6457,
      "rehema": 6458,
      "alipotembelea": 6459,
      "disemba": 6460,
      "mikononi": 6461,
      "asasi": 6462,
      "aj": 6463,
      "club": 6464,
      "tani": 6465,
      "ghasia": 6466,
      "masaa": 6467,
      "udha": 6468,
      "watoa": 6469,
      "ani": 6470,
      "##tamani": 6471,
      "##inikizo": 6472,
      "tunayo": 6473,
      "mbwa": 6474,
      "44": 6475,
      "ibara": 6476,
      "##bani": 6477,
      "##funze": 6478,
      "adui": 6479,
      "mgomo": 6480,
      "wakifuatilia": 6481,
      "tajiri": 6482,
      "##td": 6483,
      "tara": 6484,
      "41": 6485,
      "##56": 6486,
      "humu": 6487,
      "##riri": 6488,
      "mwangi": 6489,
      "##hehe": 6490,
      "madarasa": 6491,
      "songea": 6492,
      "kuwataka": 6493,
      "##ssein": 6494,
      "##mpongeza": 6495,
      "papo": 6496,
      "##ting": 6497,
      "kimsingi": 6498,
      "nnauye": 6499,
      "honge": 6500,
      "##fikiria": 6501,
      "wenzao": 6502,
      "mitu": 6503,
      "##patie": 6504,
      "bagamoyo": 6505,
      "sugar": 6506,
      "phili": 6507,
      "chako": 6508,
      "##budu": 6509,
      "angalau": 6510,
      "##roid": 6511,
      "kijijini": 6512,
      "bea": 6513,
      "ramadhani": 6514,
      "39": 6515,
      "kumw": 6516,
      "sote": 6517,
      "wapata": 6518,
      "##ywaji": 6519,
      "##den": 6520,
      "##rry": 6521,
      "hussein": 6522,
      "##55": 6523,
      "muham": 6524,
      "##angiwa": 6525,
      "arabia": 6526,
      "waliofanya": 6527,
      "group": 6528,
      "ualimu": 6529,
      "ula": 6530,
      "kwaa": 6531,
      "kinana": 6532,
      "wanapata": 6533,
      "magoli": 6534,
      "wama": 6535,
      "kibali": 6536,
      "lisi": 6537,
      "kuachana": 6538,
      "##mfanya": 6539,
      "vitambulisho": 6540,
      "babu": 6541,
      "mpekuzi": 6542,
      "##punguza": 6543,
      "nyen": 6544,
      "inaonyesha": 6545,
      "kushangaza": 6546,
      "coa": 6547,
      "tahadhari": 6548,
      "##tho": 6549,
      "uliyo": 6550,
      "##bal": 6551,
      "budi": 6552,
      "##tembea": 6553,
      "mmiliki": 6554,
      "baridi": 6555,
      "##enezi": 6556,
      "anatarajiwa": 6557,
      "ulipo": 6558,
      "##pende": 6559,
      "##tic": 6560,
      "##sale": 6561,
      "ikawa": 6562,
      "viwili": 6563,
      "##ongoro": 6564,
      "kondo": 6565,
      "##uzito": 6566,
      "##anzibari": 6567,
      "car": 6568,
      "##sherehekea": 6569,
      "dc": 6570,
      "haiwezi": 6571,
      "ujio": 6572,
      "##30": 6573,
      "ghafla": 6574,
      "ph": 6575,
      "akifanya": 6576,
      "maabara": 6577,
      "stu": 6578,
      "kaga": 6579,
      "nabii": 6580,
      "moi": 6581,
      "##ed": 6582,
      "kuonesha": 6583,
      "deni": 6584,
      "vic": 6585,
      "kutenda": 6586,
      "luku": 6587,
      "##tal": 6588,
      "kuadhimisha": 6589,
      "wapiganaji": 6590,
      "ghana": 6591,
      "##ambiwa": 6592,
      "afanya": 6593,
      "iraq": 6594,
      "jane": 6595,
      "ujauzito": 6596,
      "kal": 6597,
      "wasomi": 6598,
      "zinaweza": 6599,
      "york": 6600,
      "simon": 6601,
      "##bs": 6602,
      "nyuklia": 6603,
      "vipimo": 6604,
      "tukufu": 6605,
      "mgumu": 6606,
      "##wakilisha": 6607,
      "wazalendo": 6608,
      "##hoo": 6609,
      "##kutwa": 6610,
      "##bainika": 6611,
      "ndg": 6612,
      "##gharimu": 6613,
      "2557": 6614,
      "shinikizo": 6615,
      "muafaka": 6616,
      "akiba": 6617,
      "##semekana": 6618,
      "##baka": 6619,
      "mwanasiasa": 6620,
      "hawajui": 6621,
      "ushawishi": 6622,
      "##as": 6623,
      "mtaalamu": 6624,
      "tuliyo": 6625,
      "kushuka": 6626,
      "waz": 6627,
      "kikristo": 6628,
      "kuchukuliwa": 6629,
      "##jitahidi": 6630,
      "##use": 6631,
      "##fikishwa": 6632,
      "##uku": 6633,
      "inatoa": 6634,
      "##ishu": 6635,
      "kuibuka": 6636,
      "kuingilia": 6637,
      "mumewe": 6638,
      "ameongeza": 6639,
      "##lishi": 6640,
      "kujiuzulu": 6641,
      "nawe": 6642,
      "ajenda": 6643,
      "kuingiza": 6644,
      "zahana": 6645,
      "cana": 6646,
      "dani": 6647,
      "maduka": 6648,
      "nda": 6649,
      "##tengwa": 6650,
      "vinginevyo": 6651,
      "umaarufu": 6652,
      "wavulana": 6653,
      "##pori": 6654,
      "##pumba": 6655,
      "libya": 6656,
      "##chemba": 6657,
      "zahanati": 6658,
      "aweze": 6659,
      "vipengele": 6660,
      "##kanusha": 6661,
      "##zio": 6662,
      "wajasiriamali": 6663,
      "mitego": 6664,
      "##cial": 6665,
      "jinai": 6666,
      "##liko": 6667,
      "aliwahi": 6668,
      "visiwani": 6669,
      "ltd": 6670,
      "azindua": 6671,
      "pato": 6672,
      "mrembo": 6673,
      "rashi": 6674,
      "##shind": 6675,
      "tunataka": 6676,
      "matara": 6677,
      "shambulio": 6678,
      "##ress": 6679,
      "meno": 6680,
      "abu": 6681,
      "zimekuwa": 6682,
      "##iri": 6683,
      "kutembea": 6684,
      "ilio": 6685,
      "dereva": 6686,
      "warsha": 6687,
      "uchimbaji": 6688,
      "saudi": 6689,
      "musa": 6690,
      "kujitoa": 6691,
      "##kel": 6692,
      "##mshi": 6693,
      "##upe": 6694,
      "sumu": 6695,
      "uvccm": 6696,
      "wacha": 6697,
      "kabwe": 6698,
      "##phone": 6699,
      "madogo": 6700,
      "##bli": 6701,
      "##liwe": 6702,
      "fani": 6703,
      "haikuwa": 6704,
      "plu": 6705,
      "##wapa": 6706,
      "duka": 6707,
      "meneji": 6708,
      "##vamia": 6709,
      "##karibia": 6710,
      "wahitimu": 6711,
      "##lioni": 6712,
      "kifupi": 6713,
      "##katibu": 6714,
      "kilomita": 6715,
      "mlezi": 6716,
      "chetu": 6717,
      "malawi": 6718,
      "##hali": 6719,
      "##mpenda": 6720,
      "kurejesha": 6721,
      "lishe": 6722,
      "songwe": 6723,
      "kusimama": 6724,
      "47": 6725,
      "interna": 6726,
      "##bri": 6727,
      "kigaidi": 6728,
      "##mie": 6729,
      "kusambaza": 6730,
      "radhi": 6731,
      "wepesi": 6732,
      "mtaji": 6733,
      "kudumisha": 6734,
      "membe": 6735,
      "nchemba": 6736,
      "kie": 6737,
      "lingine": 6738,
      "##pport": 6739,
      "##dhuriwa": 6740,
      "uadilifu": 6741,
      "makanisa": 6742,
      "##win": 6743,
      "akijibu": 6744,
      "utumia": 6745,
      "##shikiliwa": 6746,
      "fan": 6747,
      "##net": 6748,
      "ukari": 6749,
      "comp": 6750,
      "##lb": 6751,
      "##tafu": 6752,
      "##ongezwa": 6753,
      "##hamis": 6754,
      "##inho": 6755,
      "nji": 6756,
      "kushuhudia": 6757,
      "hatuwezi": 6758,
      "nilipo": 6759,
      "matarajio": 6760,
      "##geuka": 6761,
      "##sikini": 6762,
      "uchafu": 6763,
      "mlo": 6764,
      "##funguka": 6765,
      "utukufu": 6766,
      "mwenyeji": 6767,
      "matha": 6768,
      "yalio": 6769,
      "akifafanua": 6770,
      "amerika": 6771,
      "kiafrika": 6772,
      "kuunganisha": 6773,
      "ifuatavyo": 6774,
      "##koa": 6775,
      "mande": 6776,
      "kuruhusu": 6777,
      "52": 6778,
      "##kina": 6779,
      "maajabu": 6780,
      "mafuriko": 6781,
      "##pambana": 6782,
      "##rusale": 6783,
      "sekre": 6784,
      "##muru": 6785,
      "##cheke": 6786,
      "makusudi": 6787,
      "mashaka": 6788,
      "kuungana": 6789,
      "yusu": 6790,
      "##shiri": 6791,
      "sugu": 6792,
      "##sudia": 6793,
      "##pasavyo": 6794,
      "nyongeza": 6795,
      "waliopo": 6796,
      "maishani": 6797,
      "km": 6798,
      "mbarawa": 6799,
      "utumiaji": 6800,
      "kufuzu": 6801,
      "menejimenti": 6802,
      "##ridhisha": 6803,
      "utambulisho": 6804,
      "inafanya": 6805,
      "lulu": 6806,
      "kujia": 6807,
      "##kuzwa": 6808,
      "##kumbwa": 6809,
      "2020": 6810,
      "kiafya": 6811,
      "##hukumiwa": 6812,
      "ugaidi": 6813,
      "##phe": 6814,
      "##tar": 6815,
      "##uo": 6816,
      "ipi": 6817,
      "vyumba": 6818,
      "##ration": 6819,
      "wah": 6820,
      "ole": 6821,
      "kirafiki": 6822,
      "##vunia": 6823,
      "##eneza": 6824,
      "akifungua": 6825,
      "mamilioni": 6826,
      "havi": 6827,
      "##fungia": 6828,
      "umasikini": 6829,
      "##fuatiliaji": 6830,
      "hongera": 6831,
      "##elele": 6832,
      "kuthibitisha": 6833,
      "pasaka": 6834,
      "kuwapatia": 6835,
      "wanatakiwa": 6836,
      "##andarasi": 6837,
      "limekuwa": 6838,
      "iweze": 6839,
      "hama": 6840,
      "hawawezi": 6841,
      "zari": 6842,
      "jen": 6843,
      "ukarabati": 6844,
      "ce": 6845,
      "ipasavyo": 6846,
      "alianza": 6847,
      "##teta": 6848,
      "##yce": 6849,
      "bilal": 6850,
      "makadi": 6851,
      "uhifadhi": 6852,
      "mboga": 6853,
      "wayahudi": 6854,
      "aust": 6855,
      "##sanyaji": 6856,
      "##hesa": 6857,
      "ukitaka": 6858,
      "vie": 6859,
      "##kome": 6860,
      "kwaajili": 6861,
      "##usu": 6862,
      "masikini": 6863,
      "mgodi": 6864,
      "kisutu": 6865,
      "tari": 6866,
      "amina": 6867,
      "##tenge": 6868,
      "pana": 6869,
      "watalii": 6870,
      "##zua": 6871,
      "muonekano": 6872,
      "##zembe": 6873,
      "##hodha": 6874,
      "54": 6875,
      "mwake": 6876,
      "##zuka": 6877,
      "zinasema": 6878,
      "kujitolea": 6879,
      "miz": 6880,
      "umbali": 6881,
      "kaya": 6882,
      "##umbe": 6883,
      "ruto": 6884,
      "nilivyo": 6885,
      "uenezi": 6886,
      "##weni": 6887,
      "linaweza": 6888,
      "wadhamini": 6889,
      "takatifu": 6890,
      "uji": 6891,
      "wanga": 6892,
      "##van": 6893,
      "##pt": 6894,
      "##mari": 6895,
      "maas": 6896,
      "chaguzi": 6897,
      "88": 6898,
      "moyoni": 6899,
      "##chiwa": 6900,
      "mwanda": 6901,
      "##heri": 6902,
      "##ington": 6903,
      "wanaendelea": 6904,
      "makadirio": 6905,
      "mio": 6906,
      "imeanza": 6907,
      "kivi": 6908,
      "##jihusisha": 6909,
      "mosi": 6910,
      "##ny": 6911,
      "il": 6912,
      "##chapishwa": 6913,
      "upelelezi": 6914,
      "mchangan": 6915,
      "##milikiwa": 6916,
      "asema": 6917,
      "##by": 6918,
      "##meni": 6919,
      "yamekuwa": 6920,
      "kagame": 6921,
      "pakua": 6922,
      "waliohudhuria": 6923,
      "mabomu": 6924,
      "sule": 6925,
      "umakini": 6926,
      "##funi": 6927,
      "kuhusika": 6928,
      "sitta": 6929,
      "kiraia": 6930,
      "##ungi": 6931,
      "posta": 6932,
      "wenzangu": 6933,
      "ukusanyaji": 6934,
      "hisani": 6935,
      "##tupa": 6936,
      "muhammad": 6937,
      "jwt": 6938,
      "read": 6939,
      "##ction": 6940,
      "tumbo": 6941,
      "android": 6942,
      "mki": 6943,
      "mpo": 6944,
      "mafisadi": 6945,
      "taswira": 6946,
      "nmb": 6947,
      "##eti": 6948,
      "##angalie": 6949,
      "philip": 6950,
      "hayupo": 6951,
      "momba": 6952,
      "kuamkia": 6953,
      "mahindi": 6954,
      "anajua": 6955,
      "##turi": 6956,
      "43": 6957,
      "kuchaguliwa": 6958,
      "##dhihirisha": 6959,
      "tabi": 6960,
      "lema": 6961,
      "##kuma": 6962,
      "kuwekwa": 6963,
      "jwtz": 6964,
      "salma": 6965,
      "##sekana": 6966,
      "daudi": 6967,
      "muse": 6968,
      "##tra": 6969,
      "tafiti": 6970,
      "##wajibikaji": 6971,
      "ushuhuda": 6972,
      "##meta": 6973,
      "vivutio": 6974,
      "##oney": 6975,
      "kumua": 6976,
      "niliyo": 6977,
      "##xi": 6978,
      "##yonge": 6979,
      "msimamizi": 6980,
      "kiwanja": 6981,
      "zinazoendelea": 6982,
      "vikali": 6983,
      "huna": 6984,
      "flo": 6985,
      "hia": 6986,
      "55": 6987,
      "nja": 6988,
      "unaendelea": 6989,
      "asilia": 6990,
      "marudio": 6991,
      "walim": 6992,
      "kelele": 6993,
      "mahiga": 6994,
      "viki": 6995,
      "kibao": 6996,
      "##pitisha": 6997,
      "uliofanywa": 6998,
      "kuwaa": 6999,
      "benjamin": 7000,
      "##spe": 7001,
      "##fanyike": 7002,
      "ameeleza": 7003,
      "makatibu": 7004,
      "##takacho": 7005,
      "kufuta": 7006,
      "##isani": 7007,
      "necta": 7008,
      "madereva": 7009,
      "hispania": 7010,
      "posho": 7011,
      "muga": 7012,
      "malaria": 7013,
      "##tasi": 7014,
      "sensa": 7015,
      "international": 7016,
      "sal": 7017,
      "kis": 7018,
      "udhaifu": 7019,
      "jafo": 7020,
      "##ral": 7021,
      "global": 7022,
      "rashid": 7023,
      "wapatao": 7024,
      "46": 7025,
      "##gawan": 7026,
      "##ir": 7027,
      "##kusanya": 7028,
      "msafara": 7029,
      "viumbe": 7030,
      "mussa": 7031,
      "##chard": 7032,
      "pongezi": 7033,
      "wahariri": 7034,
      "mifano": 7035,
      "unatu": 7036,
      "##penzi": 7037,
      "kulazi": 7038,
      "##mbilia": 7039,
      "boda": 7040,
      "tupo": 7041,
      "##unt": 7042,
      "##daka": 7043,
      "kuisaidia": 7044,
      "aliki": 7045,
      "##cra": 7046,
      "kuwapo": 7047,
      "usambazaji": 7048,
      "##hesabu": 7049,
      "##hol": 7050,
      "53": 7051,
      "##vua": 7052,
      "uzuri": 7053,
      "kuundwa": 7054,
      "tumaini": 7055,
      "madawati": 7056,
      "faraja": 7057,
      "##undation": 7058,
      "##rema": 7059,
      "##dp": 7060,
      "inahitaji": 7061,
      "##kwepa": 7062,
      "kukataa": 7063,
      "kipo": 7064,
      "alizo": 7065,
      "mlipuko": 7066,
      "##ford": 7067,
      "##kumba": 7068,
      "hariri": 7069,
      "##spo": 7070,
      "harrison": 7071,
      "##angilio": 7072,
      "mach": 7073,
      "unga": 7074,
      "wazima": 7075,
      "uwajibikaji": 7076,
      "uzalendo": 7077,
      "unapaswa": 7078,
      "uhakiki": 7079,
      "mkwa": 7080,
      "nahodha": 7081,
      "https": 7082,
      "super": 7083,
      "mbiu": 7084,
      "freeman": 7085,
      "msh": 7086,
      "kupenda": 7087,
      "##rod": 7088,
      "wapa": 7089,
      "kuhamia": 7090,
      "siwezi": 7091,
      "vvu": 7092,
      "makame": 7093,
      "foundation": 7094,
      "56": 7095,
      "##sela": 7096,
      "kiji": 7097,
      "##tie": 7098,
      "##plomasia": 7099,
      "kufundisha": 7100,
      "##ganishwa": 7101,
      "##milivu": 7102,
      "pasipo": 7103,
      "mioyo": 7104,
      "cheo": 7105,
      "kusitisha": 7106,
      "##hiniwa": 7107,
      "salim": 7108,
      "##chua": 7109,
      "49": 7110,
      "waraka": 7111,
      "mato": 7112,
      "walioko": 7113,
      "pos": 7114,
      "##chukue": 7115,
      "##imba": 7116,
      "fanya": 7117,
      "sema": 7118,
      "matamshi": 7119,
      "kupatiwa": 7120,
      "##gara": 7121,
      "merkel": 7122,
      "##mboa": 7123,
      "jamu": 7124,
      "richard": 7125,
      "tanz": 7126,
      "##kamilisha": 7127,
      "pembeni": 7128,
      "kimapenzi": 7129,
      "aliji": 7130,
      "anwani": 7131,
      "600": 7132,
      "kutwaa": 7133,
      "ray": 7134,
      "##unganishi": 7135,
      "mchanga": 7136,
      "##rezani": 7137,
      "taku": 7138,
      "akiwemo": 7139,
      "rose": 7140,
      "chanjo": 7141,
      "nimekuwa": 7142,
      "zuri": 7143,
      "imetolewa": 7144,
      "eli": 7145,
      "mifupa": 7146,
      "uaminifu": 7147,
      "washington": 7148,
      "mail": 7149,
      "mandela": 7150,
      "##moa": 7151,
      "ufadhili": 7152,
      "##hisho": 7153,
      "##tongoji": 7154,
      "mshauri": 7155,
      "##sifu": 7156,
      "hayati": 7157,
      "agano": 7158,
      "waafrika": 7159,
      "maswala": 7160,
      "##gola": 7161,
      "mura": 7162,
      "vidogo": 7163,
      "##od": 7164,
      "##okoaji": 7165,
      "kidi": 7166,
      "ujasiri": 7167,
      "takukuru": 7168,
      "jumu": 7169,
      "jamuhuri": 7170,
      "niwa": 7171,
      "kanumba": 7172,
      "##guri": 7173,
      "mtuhumiwa": 7174,
      "##oa": 7175,
      "##enki": 7176,
      "mkaguzi": 7177,
      "uokoaji": 7178,
      "jingine": 7179,
      "pamba": 7180,
      "##tangulia": 7181,
      "iii": 7182,
      "dira": 7183,
      "kusisitiza": 7184,
      "##ture": 7185,
      "kigamboni": 7186,
      "##df": 7187,
      "wafungwa": 7188,
      "coo": 7189,
      "mac": 7190,
      "wanasheria": 7191,
      "##itaka": 7192,
      "lililopo": 7193,
      "tujadili": 7194,
      "mitaani": 7195,
      "##thibitishwa": 7196,
      "sekretari": 7197,
      "kuiba": 7198,
      "##onaldo": 7199,
      "uw": 7200,
      "kipengele": 7201,
      "##mizwa": 7202,
      "ronaldo": 7203,
      "##kin": 7204,
      "part": 7205,
      "##meko": 7206,
      "mitume": 7207,
      "kuchu": 7208,
      "wanazo": 7209,
      "##roniki": 7210,
      "tulikuwa": 7211,
      "act": 7212,
      "##andamana": 7213,
      "ameji": 7214,
      "##ters": 7215,
      "urafiki": 7216,
      "##nayo": 7217,
      "ametangaza": 7218,
      "machozi": 7219,
      "mwandamizi": 7220,
      "##hc": 7221,
      "web": 7222,
      "##changiaji": 7223,
      "ie": 7224,
      "globu": 7225,
      "mai": 7226,
      "hiari": 7227,
      "msala": 7228,
      "usipi": 7229,
      "abe": 7230,
      "kufikiri": 7231,
      "uana": 7232,
      "##zingatiwa": 7233,
      "##unuliwa": 7234,
      "##isi": 7235,
      "150": 7236,
      "ukuta": 7237,
      "posted": 7238,
      "75": 7239,
      "wapate": 7240,
      "zinapo": 7241,
      "kufanywa": 7242,
      "weka": 7243,
      "##ckson": 7244,
      "promo": 7245,
      "kuvun": 7246,
      "wakimsikiliza": 7247,
      "wamesha": 7248,
      "##takia": 7249,
      "kimarekani": 7250,
      "igp": 7251,
      "mugabe": 7252,
      "kuelezea": 7253,
      "bri": 7254,
      "kona": 7255,
      "tunahitaji": 7256,
      "##ses": 7257,
      "alba": 7258,
      "hawakuwa": 7259,
      "##mbwe": 7260,
      "kushu": 7261,
      "ngor": 7262,
      "unaona": 7263,
      "twa": 7264,
      "nguzo": 7265,
      "##susi": 7266,
      "##takalo": 7267,
      "fla": 7268,
      "mila": 7269,
      "maje": 7270,
      "mwilini": 7271,
      "ujasiriamali": 7272,
      "scho": 7273,
      "##adamu": 7274,
      "##mama": 7275,
      "andi": 7276,
      "jipatie": 7277,
      "##mila": 7278,
      "##rth": 7279,
      "cup": 7280,
      "##geme": 7281,
      "##anis": 7282,
      "##zote": 7283,
      "steph": 7284,
      "akia": 7285,
      "kilio": 7286,
      "##cal": 7287,
      "##for": 7288,
      "mdau": 7289,
      "##gala": 7290,
      "watahiniwa": 7291,
      "dua": 7292,
      "##reen": 7293,
      "##hudumu": 7294,
      "##hitimisha": 7295,
      "amesha": 7296,
      "suluhisho": 7297,
      "##kimbia": 7298,
      "##24": 7299,
      "##hehebu": 7300,
      "##ktaba": 7301,
      "##anganyi": 7302,
      "kusubiri": 7303,
      "##chapishe": 7304,
      "tp": 7305,
      "nalo": 7306,
      "ndilo": 7307,
      "mapumzi": 7308,
      "kusaini": 7309,
      "bla": 7310,
      "mikubwa": 7311,
      "akielezea": 7312,
      "lipumba": 7313,
      "abba": 7314,
      "une": 7315,
      "sp": 7316,
      "watawala": 7317,
      "issa": 7318,
      "sekretarieti": 7319,
      "azma": 7320,
      "mwakani": 7321,
      "msikiti": 7322,
      "kung": 7323,
      "##gin": 7324,
      "support": 7325,
      "alizaliwa": 7326,
      "aliyoi": 7327,
      "omar": 7328,
      "desturi": 7329,
      "hufanya": 7330,
      "alia": 7331,
      "##ulize": 7332,
      "hospitalini": 7333,
      "kujiandaa": 7334,
      "kubuni": 7335,
      "mahafali": 7336,
      "more": 7337,
      "##ongelea": 7338,
      "kubaki": 7339,
      "inabidi": 7340,
      "uch": 7341,
      "majaji": 7342,
      "morocco": 7343,
      "tt": 7344,
      "##badilishwa": 7345,
      "maaskofu": 7346,
      "##lazwa": 7347,
      "usipitwe": 7348,
      "##tawa": 7349,
      "mdo": 7350,
      "##wezekani": 7351,
      "##sibu": 7352,
      "wazanzibari": 7353,
      "##rudia": 7354,
      "ngorongoro": 7355,
      "##chapisho": 7356,
      "##sisimua": 7357,
      "##ling": 7358,
      "muraguri": 7359,
      "2002": 7360,
      "##somea": 7361,
      "canada": 7362,
      "##angalizi": 7363,
      "machapisho": 7364,
      "##malizia": 7365,
      "##takuwa": 7366,
      "tunao": 7367,
      "zana": 7368,
      "malezi": 7369,
      "wanahitaji": 7370,
      "reg": 7371,
      "##cation": 7372,
      "kuharibu": 7373,
      "kabu": 7374,
      "onyo": 7375,
      "tuichapishe": 7376,
      "tabianchi": 7377,
      "february": 7378,
      "kupungua": 7379,
      "##hia": 7380,
      "maua": 7381,
      "inaku": 7382,
      "##ee": 7383,
      "##kilin": 7384,
      "##diliwa": 7385,
      "wor": 7386,
      "##ssf": 7387,
      "##zuku": 7388,
      "palestina": 7389,
      "##fili": 7390,
      "visiwa": 7391,
      "kuinua": 7392,
      "##ley": 7393,
      "machache": 7394,
      "##haribika": 7395,
      "##athirika": 7396,
      "tafuta": 7397,
      "tuu": 7398,
      "alipowasili": 7399,
      "##tuhumiwa": 7400,
      "janga": 7401,
      "waheshimiwa": 7402,
      "tumekuwa": 7403,
      "mour": 7404,
      "nyanja": 7405,
      "maktaba": 7406,
      "lipo": 7407,
      "##inzani": 7408,
      "matajiri": 7409,
      "intane": 7410,
      "##fuatazo": 7411,
      "mizengo": 7412,
      "walemavu": 7413,
      "ziko": 7414,
      "upimaji": 7415,
      "##tendea": 7416,
      "safu": 7417,
      "##nganisha": 7418,
      "allaa": 7419,
      "mashauri": 7420,
      "##pokelewa": 7421,
      "yaku": 7422,
      "machafuko": 7423,
      "sadaka": 7424,
      "angela": 7425,
      "##shambuliwa": 7426,
      "kisukari": 7427,
      "akitokea": 7428,
      "mombasa": 7429,
      "mra": 7430,
      "waliote": 7431,
      "acha": 7432,
      "ur": 7433,
      "victoria": 7434,
      "mourinho": 7435,
      "##badilisha": 7436,
      "afungua": 7437,
      "zifuatazo": 7438,
      "utafu": 7439,
      "##wakabili": 7440,
      "##sanyiko": 7441,
      "umati": 7442,
      "youtube": 7443,
      "hela": 7444,
      "mkongwe": 7445,
      "ningependa": 7446,
      "ubina": 7447,
      "yatima": 7448,
      "##gambo": 7449,
      "vpl": 7450,
      "##ont": 7451,
      "kilikuwa": 7452,
      "##andoa": 7453,
      "uke": 7454,
      "##ondolewa": 7455,
      "##unzi": 7456,
      "tokea": 7457,
      "##kutanisha": 7458,
      "wanyamapori": 7459,
      "ndefu": 7460,
      "##onana": 7461,
      "kurekebisha": 7462,
      "kilichofanyika": 7463,
      "##dd": 7464,
      "unacho": 7465,
      "kufikiria": 7466,
      "kuibua": 7467,
      "dan": 7468,
      "demo": 7469,
      "hauja": 7470,
      "fin": 7471,
      "##iambia": 7472,
      "##mbusho": 7473,
      "wanaofanya": 7474,
      "league": 7475,
      "##cro": 7476,
      "##uwa": 7477,
      "staa": 7478,
      "##hukumu": 7479,
      "kifaa": 7480,
      "mapumziko": 7481,
      "##ar": 7482,
      "inatarajiwa": 7483,
      "nimeona": 7484,
      "viunga": 7485,
      "imetangaza": 7486,
      "nywele": 7487,
      "wanatumia": 7488,
      "##day": 7489,
      "mtumiaji": 7490,
      "utoto": 7491,
      "shari": 7492,
      "##simamiwa": 7493,
      "op": 7494,
      "bot": 7495,
      "amesisitiza": 7496,
      "##zuni": 7497,
      "makinda": 7498,
      "gold": 7499,
      "sports": 7500,
      "kupelekwa": 7501,
      "miche": 7502,
      "##ruka": 7503,
      "##rahman": 7504,
      "er": 7505,
      "karia": 7506,
      "den": 7507,
      "##bakia": 7508,
      "sulei": 7509,
      "kupitisha": 7510,
      "##jiza": 7511,
      "tb": 7512,
      "jadi": 7513,
      "##onde": 7514,
      "##jiuliza": 7515,
      "giza": 7516,
      "kufanyia": 7517,
      "tujadiliane": 7518,
      "treni": 7519,
      "##gama": 7520,
      "zama": 7521,
      "##sajiliwa": 7522,
      "octo": 7523,
      "##taza": 7524,
      "kutangazwa": 7525,
      "gene": 7526,
      "##kasi": 7527,
      "kampa": 7528,
      "asha": 7529,
      "anth": 7530,
      "zilizokuwa": 7531,
      "##danganya": 7532,
      "shambulizi": 7533,
      "baye": 7534,
      "sun": 7535,
      "##giji": 7536,
      "##rick": 7537,
      "kuondolewa": 7538,
      "intaneti": 7539,
      "kambarage": 7540,
      "zikiwemo": 7541,
      "mbao": 7542,
      "swe": 7543,
      "star": 7544,
      "##dee": 7545,
      "daniel": 7546,
      "kukumbu": 7547,
      "aliko": 7548,
      "lililofanyika": 7549,
      "roma": 7550,
      "##nda": 7551,
      "yanayoendelea": 7552,
      "##mbui": 7553,
      "simulizi": 7554,
      "tembo": 7555,
      "ufuatiliaji": 7556,
      "##gundu": 7557,
      "yakiwa": 7558,
      "urithi": 7559,
      "99": 7560,
      "ukili": 7561,
      "chuma": 7562,
      "##himili": 7563,
      "utapata": 7564,
      "##pitishwa": 7565,
      "yaka": 7566,
      "mpendwa": 7567,
      "upepo": 7568,
      "lika": 7569,
      "kuwan": 7570,
      "wanaamini": 7571,
      "##pandi": 7572,
      "##haba": 7573,
      "##fungaji": 7574,
      "mawakala": 7575,
      "afgh": 7576,
      "##iso": 7577,
      "anaamini": 7578,
      "##tika": 7579,
      "kutakiwa": 7580,
      "##mpi": 7581,
      "han": 7582,
      "anapaswa": 7583,
      "##stine": 7584,
      "##cheze": 7585,
      "mwanamu": 7586,
      "niku": 7587,
      "kusafirisha": 7588,
      "kadha": 7589,
      "paro": 7590,
      "##xt": 7591,
      "##umu": 7592,
      "sham": 7593,
      "mapoke": 7594,
      "##wafanya": 7595,
      "##swi": 7596,
      "walizo": 7597,
      "##veni": 7598,
      "##mbiji": 7599,
      "##gonga": 7600,
      "wanaharakati": 7601,
      "rich": 7602,
      "ingekuwa": 7603,
      "tutakuwa": 7604,
      "##waya": 7605,
      "##kwama": 7606,
      "51": 7607,
      "kutekelezwa": 7608,
      "imeendelea": 7609,
      "west": 7610,
      "##andikia": 7611,
      "##safa": 7612,
      "kikati": 7613,
      "steven": 7614,
      "kusahau": 7615,
      "uhamisho": 7616,
      "kujifungua": 7617,
      "nenda": 7618,
      "##lalamika": 7619,
      "72": 7620,
      "mpiga": 7621,
      "anao": 7622,
      "2004": 7623,
      "##ssia": 7624,
      "##fri": 7625,
      "utakapo": 7626,
      "##kiuka": 7627,
      "kuuawa": 7628,
      "njama": 7629,
      "##hamia": 7630,
      "##jage": 7631,
      "##ranga": 7632,
      "mafa": 7633,
      "october": 7634,
      "##wia": 7635,
      "zilizotolewa": 7636,
      "ahmed": 7637,
      "niko": 7638,
      "aliu": 7639,
      "iddi": 7640,
      "wakifanya": 7641,
      "##int": 7642,
      "bank": 7643,
      "##giriki": 7644,
      "tetemeko": 7645,
      "mashitaka": 7646,
      "##kuli": 7647,
      "kibaha": 7648,
      "alie": 7649,
      "kutumiwa": 7650,
      "##hiyo": 7651,
      "kufikisha": 7652,
      "barack": 7653,
      "##kilinganishwa": 7654,
      "##tasari": 7655,
      "kuwafanya": 7656,
      "##nes": 7657,
      "lisilo": 7658,
      "ivo": 7659,
      "tunge": 7660,
      "my": 7661,
      "mavun": 7662,
      "hedhi": 7663,
      "kusikiti": 7664,
      "##sama": 7665,
      "nanyi": 7666,
      "kuzidi": 7667,
      "yanapatikana": 7668,
      "tulio": 7669,
      "##anistan": 7670,
      "##fungiwa": 7671,
      "ruzuku": 7672,
      "kikatiba": 7673,
      "wanandoa": 7674,
      "bendi": 7675,
      "kufurahia": 7676,
      "mshi": 7677,
      "kuchang": 7678,
      "##ongwa": 7679,
      "hamasa": 7680,
      "##gn": 7681,
      "faili": 7682,
      "##pendekezwa": 7683,
      "##pungu": 7684,
      "##pewe": 7685,
      "limesema": 7686,
      "kadiri": 7687,
      "akimkaribisha": 7688,
      "kumiliki": 7689,
      "##tengenezaji": 7690,
      "mapungufu": 7691,
      "nzito": 7692,
      "mm": 7693,
      "homa": 7694,
      "mwl": 7695,
      "##tunza": 7696,
      "uraia": 7697,
      "akisoma": 7698,
      "kumsaidia": 7699,
      "##mero": 7700,
      "##wer": 7701,
      "iphone": 7702,
      "##duku": 7703,
      "kuolewa": 7704,
      "anam": 7705,
      "##mited": 7706,
      "maya": 7707,
      "suleiman": 7708,
      "pep": 7709,
      "kutekwa": 7710,
      "mabe": 7711,
      "waandamana": 7712,
      "zozote": 7713,
      "##kimu": 7714,
      "akisisitiza": 7715,
      "house": 7716,
      "waj": 7717,
      "cd": 7718,
      "mastaa": 7719,
      "##mata": 7720,
      "kutia": 7721,
      "mwanamume": 7722,
      "##toshe": 7723,
      "##hisisha": 7724,
      "mwako": 7725,
      "matawi": 7726,
      "meda": 7727,
      "ul": 7728,
      "wadhifa": 7729,
      "afghanistan": 7730,
      "watetezi": 7731,
      "tulia": 7732,
      "##rusha": 7733,
      "kitakacho": 7734,
      "assa": 7735,
      "kujitegemea": 7736,
      "imesha": 7737,
      "jicho": 7738,
      "waathirika": 7739,
      "unatukio": 7740,
      "sirro": 7741,
      "wauguzi": 7742,
      "zika": 7743,
      "mchanganyiko": 7744,
      "##endelezo": 7745,
      "##news": 7746,
      "kuuliza": 7747,
      "kk": 7748,
      "##soro": 7749,
      "march": 7750,
      "kifua": 7751,
      "tukiwa": 7752,
      "kukimbia": 7753,
      "museveni": 7754,
      "kheri": 7755,
      "tunavyo": 7756,
      "kutegemea": 7757,
      "hes": 7758,
      "viunganishi": 7759,
      "mnazi": 7760,
      "crea": 7761,
      "##kadiriwa": 7762,
      "unyanya": 7763,
      "##faulu": 7764,
      "olim": 7765,
      "##somwa": 7766,
      "kilometa": 7767,
      "kuoa": 7768,
      "##ganda": 7769,
      "anacho": 7770,
      "abdulrahman": 7771,
      "litakalo": 7772,
      "eze": 7773,
      "mwamba": 7774,
      "wanan": 7775,
      "yalivyo": 7776,
      "ufun": 7777,
      "kulipia": 7778,
      "anakuwa": 7779,
      "samatta": 7780,
      "image": 7781,
      "anatakiwa": 7782,
      "ingia": 7783,
      "manunuzi": 7784,
      "internet": 7785,
      "cor": 7786,
      "##tali": 7787,
      "kujipatia": 7788,
      "kimwili": 7789,
      "anthony": 7790,
      "##tere": 7791,
      "cent": 7792,
      "msumbiji": 7793,
      "chote": 7794,
      "bustani": 7795,
      "##car": 7796,
      "tuji": 7797,
      "##tovu": 7798,
      "##anganyifu": 7799,
      "##angazi": 7800,
      "ndicho": 7801,
      "##kira": 7802,
      "wanajua": 7803,
      "mhagama": 7804,
      "##ridhika": 7805,
      "wameanza": 7806,
      "yaliyopo": 7807,
      "kukidhi": 7808,
      "tunaamini": 7809,
      "common": 7810,
      "nuru": 7811,
      "rc": 7812,
      "kuapishwa": 7813,
      "austra": 7814,
      "kufariki": 7815,
      "nay": 7816,
      "gerezani": 7817,
      "##tishia": 7818,
      "vibali": 7819,
      "ahsante": 7820,
      "##ikolojia": 7821,
      "trilioni": 7822,
      "kuhudumia": 7823,
      "maadui": 7824,
      "mlinzi": 7825,
      "jf": 7826,
      "utafutaji": 7827,
      "kiapo": 7828,
      "punde": 7829,
      "##zetini": 7830,
      "kuitwa": 7831,
      "anne": 7832,
      "##soge": 7833,
      "##tanda": 7834,
      "##con": 7835,
      "wanaji": 7836,
      "stephen": 7837,
      "riwaya": 7838,
      "udanganyifu": 7839,
      "zija": 7840,
      "naweza": 7841,
      "##kweli": 7842,
      "masauni": 7843,
      "hotel": 7844,
      "studio": 7845,
      "inapaswa": 7846,
      "unesco": 7847,
      "hila": 7848,
      "##ista": 7849,
      "install": 7850,
      "ikilinganishwa": 7851,
      "ver": 7852,
      "##hudhuriwa": 7853,
      "mpangilio": 7854,
      "57": 7855,
      "##kali": 7856,
      "vitisho": 7857,
      "wakitoa": 7858,
      "##ser": 7859,
      "kujengwa": 7860,
      "marais": 7861,
      "suma": 7862,
      "alitumia": 7863,
      "##onyeshwa": 7864,
      "mfa": 7865,
      "bayern": 7866,
      "waandamizi": 7867,
      "http": 7868,
      "akipata": 7869,
      "maiti": 7870,
      "kivita": 7871,
      "##mwe": 7872,
      "##mbini": 7873,
      "limited": 7874,
      "piga": 7875,
      "tbc": 7876,
      "##rifu": 7877,
      "##pima": 7878,
      "kuwajengea": 7879,
      "mkulima": 7880,
      "nyinyi": 7881,
      "uanachama": 7882,
      "show": 7883,
      "rambi": 7884,
      "viji": 7885,
      "tehama": 7886,
      "##ii": 7887,
      "##unzaji": 7888,
      "wanakuwa": 7889,
      "kujihusisha": 7890,
      "##salia": 7891,
      "##ft": 7892,
      "itawa": 7893,
      "aba": 7894,
      "msomaji": 7895,
      "hua": 7896,
      "kutaja": 7897,
      "kurudisha": 7898,
      "kukosekana": 7899,
      "messi": 7900,
      "world": 7901,
      "mwenzi": 7902,
      "##anzilishi": 7903,
      "wakawa": 7904,
      "akiwasilisha": 7905,
      "kupe": 7906,
      "##shiwa": 7907,
      "nai": 7908,
      "##mbue": 7909,
      "young": 7910,
      "##letwa": 7911,
      "toa": 7912,
      "joyce": 7913,
      "##takabali": 7914,
      "uliokuwa": 7915,
      "albamu": 7916,
      "caf": 7917,
      "##blog": 7918,
      "bomu": 7919,
      "##eleweka": 7920,
      "ubore": 7921,
      "wanamgambo": 7922,
      "##lar": 7923,
      "heslb": 7924,
      "##angulizi": 7925,
      "##saidie": 7926,
      "ugumu": 7927,
      "kisima": 7928,
      "##eledi": 7929,
      "##dada": 7930,
      "##belgiji": 7931,
      "anae": 7932,
      "kairuki": 7933,
      "##cb": 7934,
      "##mz": 7935,
      "##laani": 7936,
      "tembelea": 7937,
      "##rds": 7938,
      "nssf": 7939,
      "##konga": 7940,
      "msisi": 7941,
      "ofa": 7942,
      "iliyoko": 7943,
      "zijazo": 7944,
      "##unganishwa": 7945,
      "atakapo": 7946,
      "kumpata": 7947,
      "##komeza": 7948,
      "kupigia": 7949,
      "ukilinganisha": 7950,
      "##andaaji": 7951,
      "vyetu": 7952,
      "##holanzi": 7953,
      "kuratibu": 7954,
      "waliwa": 7955,
      "kinywa": 7956,
      "zuma": 7957,
      "##ner": 7958,
      "mashuhuri": 7959,
      "kuanguka": 7960,
      "##raji": 7961,
      "berna": 7962,
      "dis": 7963,
      "khamis": 7964,
      "utaa": 7965,
      "chagu": 7966,
      "watangazaji": 7967,
      "##ridhishwa": 7968,
      "kuteuliwa": 7969,
      "majanga": 7970,
      "vipo": 7971,
      "alifariki": 7972,
      "##angili": 7973,
      "kugundua": 7974,
      "bonde": 7975,
      "walinzi": 7976,
      "mwimbaji": 7977,
      "wastaafu": 7978,
      "paki": 7979,
      "litakuwa": 7980,
      "jaco": 7981,
      "##mbee": 7982,
      "vigogo": 7983,
      "##kilizwa": 7984,
      "kupotea": 7985,
      "jang": 7986,
      "kaburi": 7987,
      "july": 7988,
      "##lengwa": 7989,
      "nasema": 7990,
      "uti": 7991,
      "##komboa": 7992,
      "##11": 7993,
      "kivuko": 7994,
      "##shwaji": 7995,
      "##ukwa": 7996,
      "akikabidhi": 7997,
      "##lf": 7998,
      "yaliyokuwa": 7999,
      "kadri": 8000,
      "##fer": 8001,
      "##fichua": 8002,
      "day": 8003,
      "##kosea": 8004,
      "kuzu": 8005,
      "aongoza": 8006,
      "muf": 8007,
      "bashi": 8008,
      "martin": 8009,
      "##kose": 8010,
      "58": 8011,
      "stadi": 8012,
      "allaah": 8013,
      "##mbufu": 8014,
      "##rushi": 8015,
      "kuondokana": 8016,
      "kisayansi": 8017,
      "mnyama": 8018,
      "kondoo": 8019,
      "font": 8020,
      "unakuwa": 8021,
      "sms": 8022,
      "ufaulu": 8023,
      "liko": 8024,
      "bus": 8025,
      "ubelgiji": 8026,
      "anaendelea": 8027,
      "jaribio": 8028,
      "utunzaji": 8029,
      "kupandi": 8030,
      "##mbile": 8031,
      "yatakuwa": 8032,
      "itasaidia": 8033,
      "fundi": 8034,
      "ever": 8035,
      "##jeo": 8036,
      "van": 8037,
      "amepata": 8038,
      "shauri": 8039,
      "ikiwamo": 8040,
      "uh": 8041,
      "muni": 8042,
      "cag": 8043,
      "##anuzi": 8044,
      "lukuvi": 8045,
      "subi": 8046,
      "kansela": 8047,
      "mwai": 8048,
      "kukupa": 8049,
      "##toro": 8050,
      "mathayo": 8051,
      "laza": 8052,
      "kicha": 8053,
      "kitambulisho": 8054,
      "hutumia": 8055,
      "65": 8056,
      "kusisimua": 8057,
      "udhamini": 8058,
      "play": 8059,
      "zinazotolewa": 8060,
      "mado": 8061,
      "umiliki": 8062,
      "##jikita": 8063,
      "alilo": 8064,
      "likizo": 8065,
      "kuimba": 8066,
      "kutua": 8067,
      "olimpiki": 8068,
      "kukiwa": 8069,
      "tunatumia": 8070,
      "waliopata": 8071,
      "majini": 8072,
      "mfumu": 8073,
      "jumuia": 8074,
      "##kinga": 8075,
      "make": 8076,
      "##pha": 8077,
      "aliamua": 8078,
      "2001": 8079,
      "kukabidhiwa": 8080,
      "abbas": 8081,
      "kipaji": 8082,
      "##mir": 8083,
      "nacho": 8084,
      "##okoka": 8085,
      "ari": 8086,
      "australia": 8087,
      "akikagua": 8088,
      "haiwezekani": 8089,
      "##faidi": 8090,
      "##fukuza": 8091,
      "unam": 8092,
      "rodri": 8093,
      "##lsafa": 8094,
      "##angia": 8095,
      "eliza": 8096,
      "thomas": 8097,
      "ufunuo": 8098,
      "##tio": 8099,
      "kubadilika": 8100,
      "kubadilishana": 8101,
      "##eleze": 8102,
      "##pesa": 8103,
      "shoo": 8104,
      "whi": 8105,
      "alichoki": 8106,
      "iliyoandaliwa": 8107,
      "chanya": 8108,
      "yerusale": 8109,
      "paris": 8110,
      "##koo": 8111,
      "alifafanua": 8112,
      "imewasilishwa": 8113,
      "fungu": 8114,
      "ele": 8115,
      "luka": 8116,
      "##choka": 8117,
      "aliendelea": 8118,
      "matusi": 8119,
      "tarime": 8120,
      "atembelea": 8121,
      "kutafsiri": 8122,
      "##shua": 8123,
      "##enyeji": 8124,
      "park": 8125,
      "ken": 8126,
      "##duli": 8127,
      "kikapu": 8128,
      "##shughulisha": 8129,
      "##sin": 8130,
      "walifanya": 8131,
      "##ruga": 8132,
      "jacob": 8133,
      "undani": 8134,
      "##yafanya": 8135,
      "##husishwa": 8136,
      "##rums": 8137,
      "jay": 8138,
      "amefunguka": 8139,
      "michuzi": 8140,
      "wahalifu": 8141,
      "tran": 8142,
      "hamis": 8143,
      "##ek": 8144,
      "ubongo": 8145,
      "##wama": 8146,
      "abeid": 8147,
      "waandamanaji": 8148,
      "##chezi": 8149,
      "sokoine": 8150,
      "##samehe": 8151,
      "##dole": 8152,
      "##simamishwa": 8153,
      "mteule": 8154,
      "##kupa": 8155,
      "sale": 8156,
      "kuzitumia": 8157,
      "dro": 8158,
      "##ishukuru": 8159,
      "##bola": 8160,
      "##tangazia": 8161,
      "##kila": 8162,
      "kipimo": 8163,
      "dhu": 8164,
      "##rc": 8165,
      "upanga": 8166,
      "muhtasari": 8167,
      "kiitwa": 8168,
      "abo": 8169,
      "njiani": 8170,
      "huzuni": 8171,
      "kutafakari": 8172,
      "ilianza": 8173,
      "##keli": 8174,
      "##tin": 8175,
      "ngome": 8176,
      "wenger": 8177,
      "tulivyo": 8178,
      "kisiwani": 8179,
      "kiitwacho": 8180,
      "majeraha": 8181,
      "tunajua": 8182,
      "##vuna": 8183,
      "mbingu": 8184,
      "makalio": 8185,
      "jiunge": 8186,
      "ezeki": 8187,
      "##beth": 8188,
      "mbovu": 8189,
      "lazaro": 8190,
      "800": 8191,
      "heka": 8192,
      "##guswa": 8193,
      "hatuja": 8194,
      "program": 8195,
      "kuathiri": 8196,
      "ui": 8197,
      "afariki": 8198,
      "##juma": 8199,
      "sou": 8200,
      "##ingo": 8201,
      "yawa": 8202,
      "mashujaa": 8203,
      "##mikali": 8204,
      "stahiki": 8205,
      "weledi": 8206,
      "##ganga": 8207,
      "ujinga": 8208,
      "kuzaa": 8209,
      "manne": 8210,
      "uboreshaji": 8211,
      "amo": 8212,
      "tunam": 8213,
      "jarida": 8214,
      "kujionea": 8215,
      "##jukuu": 8216,
      "mazoea": 8217,
      "kuwahi": 8218,
      "##cheni": 8219,
      "anyi": 8220,
      "majambazi": 8221,
      "uwi": 8222,
      "##ingie": 8223,
      "mahala": 8224,
      "tishio": 8225,
      "mpinzani": 8226,
      "mgongo": 8227,
      "milima": 8228,
      "##injili": 8229,
      "##okolewa": 8230,
      "walipata": 8231,
      "mfumuko": 8232,
      "##frey": 8233,
      "alitaka": 8234,
      "##thini": 8235,
      "hutoa": 8236,
      "##tarisha": 8237,
      "wafanye": 8238,
      "all": 8239,
      "##wari": 8240,
      "madhehebu": 8241,
      "kuuli": 8242,
      "kris": 8243,
      "mustakabali": 8244,
      "creative": 8245,
      "digi": 8246,
      "##muona": 8247,
      "##25": 8248,
      "##mzito": 8249,
      "tuwa": 8250,
      "mpina": 8251,
      "time": 8252,
      "kizuri": 8253,
      "mauti": 8254,
      "mikoani": 8255,
      "mguu": 8256,
      "##zoni": 8257,
      "qatar": 8258,
      "thela": 8259,
      "##cen": 8260,
      "##buti": 8261,
      "ukra": 8262,
      "ugo": 8263,
      "kumfanya": 8264,
      "itakapo": 8265,
      "vati": 8266,
      "nashukuru": 8267,
      "mjamzito": 8268,
      "##ktroniki": 8269,
      "prin": 8270,
      "ney": 8271,
      "##elekezwa": 8272,
      "jifunze": 8273,
      "##kemea": 8274,
      "kujeruhiwa": 8275,
      "mbolea": 8276,
      "##16": 8277,
      "katavi": 8278,
      "##rekodi": 8279,
      "mnyika": 8280,
      "happ": 8281,
      "##viti": 8282,
      "nyengine": 8283,
      "##ons": 8284,
      "musoma": 8285,
      "yerusalemu": 8286,
      "2003": 8287,
      "ecke": 8288,
      "zinaonyesha": 8289,
      "ngumi": 8290,
      "tua": 8291,
      "uovu": 8292,
      "unatakiwa": 8293,
      "frank": 8294,
      "59": 8295,
      "jw": 8296,
      "wazuri": 8297,
      "mlimani": 8298,
      "commons": 8299,
      "watapata": 8300,
      "inatakiwa": 8301,
      "utaona": 8302,
      "duru": 8303,
      "utatu": 8304,
      "kupanua": 8305,
      "makaburi": 8306,
      "##mbura": 8307,
      "kahawa": 8308,
      "##shangilia": 8309,
      "lami": 8310,
      "chaguo": 8311,
      "##idh": 8312,
      "makam": 8313,
      "kujiuliza": 8314,
      "mija": 8315,
      "kuchochea": 8316,
      "next": 8317,
      "##like": 8318,
      "ujue": 8319,
      "upiga": 8320,
      "aliandika": 8321,
      "kemikali": 8322,
      "##mbezi": 8323,
      "kat": 8324,
      "##shauriwa": 8325,
      "ndizo": 8326,
      "##nel": 8327,
      "wasaidizi": 8328,
      "wanaotaka": 8329,
      "vyeo": 8330,
      "raundi": 8331,
      "ameamua": 8332,
      "mwijage": 8333,
      "dhi": 8334,
      "kuisha": 8335,
      "##anifu": 8336,
      "##pole": 8337,
      "maovu": 8338,
      "state": 8339,
      "nambari": 8340,
      "nyuki": 8341,
      "gabri": 8342,
      "jp": 8343,
      "##hula": 8344,
      "94": 8345,
      "wajawa": 8346,
      "kitaaluma": 8347,
      "##meru": 8348,
      "waajiri": 8349,
      "kuheshimu": 8350,
      "viatu": 8351,
      "tana": 8352,
      "##siti": 8353,
      "september": 8354,
      "nipo": 8355,
      "##ping": 8356,
      "##pigania": 8357,
      "##teka": 8358,
      "67": 8359,
      "upigaji": 8360,
      "ebola": 8361,
      "wanaki": 8362,
      "majani": 8363,
      "spe": 8364,
      "karatasi": 8365,
      "##butu": 8366,
      "##horo": 8367,
      "chap": 8368,
      "magazetini": 8369,
      "nyekundu": 8370,
      "om": 8371,
      "##ura": 8372,
      "##jivunia": 8373,
      "##del": 8374,
      "##ongozana": 8375,
      "imem": 8376,
      "kavu": 8377,
      "janeth": 8378,
      "##que": 8379,
      "wajawazito": 8380,
      "vyoo": 8381,
      "pori": 8382,
      "kanisani": 8383,
      "usumbufu": 8384,
      "ksh": 8385,
      "##kubalika": 8386,
      "jopo": 8387,
      "##mbora": 8388,
      "##10": 8389,
      "##ries": 8390,
      "ht": 8391,
      "mitindo": 8392,
      "who": 8393,
      "ini": 8394,
      "iv": 8395,
      "##dudu": 8396,
      "##site": 8397,
      "chafu": 8398,
      "fau": 8399,
      "##rie": 8400,
      "tumia": 8401,
      "ruhu": 8402,
      "kusherehekea": 8403,
      "##tambulika": 8404,
      "kusudi": 8405,
      "haito": 8406,
      "blu": 8407,
      "##33": 8408,
      "##humu": 8409,
      "##ren": 8410,
      "##santeni": 8411,
      "mabara": 8412,
      "##sikika": 8413,
      "##vamizi": 8414,
      "rudi": 8415,
      "##ingizwa": 8416,
      "mwamini": 8417,
      "wameamua": 8418,
      "jumba": 8419,
      "##ramia": 8420,
      "makumbusho": 8421,
      "mawakili": 8422,
      "##kanda": 8423,
      "thelathini": 8424,
      "##kies": 8425,
      "unaoendelea": 8426,
      "arumeru": 8427,
      "##teko": 8428,
      "madhumuni": 8429,
      "120": 8430,
      "muigizaji": 8431,
      "vilabu": 8432,
      "gereza": 8433,
      "kuhama": 8434,
      "dhaifu": 8435,
      "##ridhia": 8436,
      "##fuatia": 8437,
      "kujaza": 8438,
      "adam": 8439,
      "andre": 8440,
      "mtaani": 8441,
      "##fadhiliwa": 8442,
      "hiti": 8443,
      "elizabeth": 8444,
      "kunufaika": 8445,
      "##thu": 8446,
      "ilisema": 8447,
      "rea": 8448,
      "hazija": 8449,
      "alfa": 8450,
      "##inikiza": 8451,
      "68": 8452,
      "unyanyasaji": 8453,
      "wakisema": 8454,
      "wanacho": 8455,
      "##shahada": 8456,
      "cookies": 8457,
      "kuwe": 8458,
      "uhalali": 8459,
      "##halo": 8460,
      "##hirishwa": 8461,
      "uratibu": 8462,
      "zimamoto": 8463,
      "wanau": 8464,
      "##andiki": 8465,
      "watafiti": 8466,
      "sw": 8467,
      "anahitaji": 8468,
      "##db": 8469,
      "kasoro": 8470,
      "##yenye": 8471,
      "##rson": 8472,
      "aca": 8473,
      "##choro": 8474,
      "uholanzi": 8475,
      "kariakoo": 8476,
      "##ml": 8477,
      "##zami": 8478,
      "kukiuka": 8479,
      "##tofautiana": 8480,
      "wasimamizi": 8481,
      "mgawan": 8482,
      "wasifu": 8483,
      "##jibika": 8484,
      "taba": 8485,
      "msuku": 8486,
      "##yoo": 8487,
      "##hembe": 8488,
      "kimaendeleo": 8489,
      "wanai": 8490,
      "vizazi": 8491,
      "##thman": 8492,
      "##lewe": 8493,
      "kuashiria": 8494,
      "##emason": 8495,
      "munich": 8496,
      "mdee": 8497,
      "##fuka": 8498,
      "kienyeji": 8499,
      "huweza": 8500,
      "##fundishwa": 8501,
      "kiha": 8502,
      "##lalamikia": 8503,
      "inatokana": 8504,
      "kuvaa": 8505,
      "ue": 8506,
      "##changi": 8507,
      "tunapaswa": 8508,
      "usingi": 8509,
      "tunaku": 8510,
      "gua": 8511,
      "kupu": 8512,
      "wenyeviti": 8513,
      "##69": 8514,
      "##inema": 8515,
      "mijadala": 8516,
      "bundu": 8517,
      "ukraine": 8518,
      "walioji": 8519,
      "libe": 8520,
      "##zalishwa": 8521,
      "wakiongozwa": 8522,
      "wafadhili": 8523,
      "nafikiri": 8524,
      "subira": 8525,
      "##lestina": 8526,
      "64": 8527,
      "mbuzi": 8528,
      "##sasa": 8529,
      "gabriel": 8530,
      "uwiano": 8531,
      "story": 8532,
      "##sua": 8533,
      "kumshukuru": 8534,
      "hakikisha": 8535,
      "unatarajiwa": 8536,
      "game": 8537,
      "hundi": 8538,
      "##mt": 8539,
      "walioshiriki": 8540,
      "net": 8541,
      "kukati": 8542,
      "samu": 8543,
      "vatican": 8544,
      "kilichotokea": 8545,
      "kifahari": 8546,
      "waombaji": 8547,
      "muadhamu": 8548,
      "iwezekana": 8549,
      "alicheza": 8550,
      "wataka": 8551,
      "jaribu": 8552,
      "bunduki": 8553,
      "inatarajia": 8554,
      "hayana": 8555,
      "siha": 8556,
      "##pendi": 8557,
      "chai": 8558,
      "ttcl": 8559,
      "##saf": 8560,
      "kwahiyo": 8561,
      "kutibu": 8562,
      "cla": 8563,
      "mwanawe": 8564,
      "waliofika": 8565,
      "##sai": 8566,
      "kiufundi": 8567,
      "alimu": 8568,
      "standa": 8569,
      "undp": 8570,
      "wameji": 8571,
      "ghari": 8572,
      "uwt": 8573,
      "can": 8574,
      "kuaminika": 8575,
      "ameu": 8576,
      "wamefanya": 8577,
      "waalikwa": 8578,
      "##burg": 8579,
      "atawa": 8580,
      "sabasaba": 8581,
      "bodabo": 8582,
      "ramadhan": 8583,
      "sharti": 8584,
      "##tor": 8585,
      "zinazofanywa": 8586,
      "uwezeshaji": 8587,
      "##wekewa": 8588,
      "##ctor": 8589,
      "##mesha": 8590,
      "##ces": 8591,
      "inasemekana": 8592,
      "##mer": 8593,
      "ugomvi": 8594,
      "madhubuti": 8595,
      "yaliyomo": 8596,
      "sadc": 8597,
      "nas": 8598,
      "kumpiga": 8599,
      "iwezekanavyo": 8600,
      "musi": 8601,
      "kufunguliwa": 8602,
      "ameyasema": 8603,
      "saru": 8604,
      "mkondo": 8605,
      "##cky": 8606,
      "##jano": 8607,
      "##kusudi": 8608,
      "##tumu": 8609,
      "##sumbua": 8610,
      "yemen": 8611,
      "##ments": 8612,
      "akamwambia": 8613,
      "##chipuka": 8614,
      "kisicho": 8615,
      "bodaboda": 8616,
      "##yapata": 8617,
      "pakistan": 8618,
      "pensheni": 8619,
      "dume": 8620,
      "waishio": 8621,
      "wangapi": 8622,
      "milango": 8623,
      "##jisikia": 8624,
      "mnara": 8625,
      "udongo": 8626,
      "nise": 8627,
      "zilizofanyika": 8628,
      "maghembe": 8629,
      "makabidhi": 8630,
      "kupatwa": 8631,
      "kigezo": 8632,
      "##thamini": 8633,
      "moses": 8634,
      "meja": 8635,
      "riba": 8636,
      "##cs": 8637,
      "kuanga": 8638,
      "sidhani": 8639,
      "oa": 8640,
      "kitaalamu": 8641,
      "kuju": 8642,
      "wamepata": 8643,
      "kuitumia": 8644,
      "zabuni": 8645,
      "kuelimisha": 8646,
      "mijini": 8647,
      "nyara": 8648,
      "nyeti": 8649,
      "msukumo": 8650,
      "##gs": 8651,
      "national": 8652,
      "wodi": 8653,
      "zitakuwa": 8654,
      "wario": 8655,
      "kunipa": 8656,
      "##rodhe": 8657,
      "##sikitisha": 8658,
      "##ker": 8659,
      "##chimba": 8660,
      "utabiri": 8661,
      "##bon": 8662,
      "wamea": 8663,
      "mapokezi": 8664,
      "lango": 8665,
      "moon": 8666,
      "kubo": 8667,
      "##hma": 8668,
      "##dharau": 8669,
      "##onzi": 8670,
      "##kisi": 8671,
      "makabidhiano": 8672,
      "hand": 8673,
      "##lt": 8674,
      "eri": 8675,
      "##kidhi": 8676,
      "hutokea": 8677,
      "mbwana": 8678,
      "uvumilivu": 8679,
      "waendelee": 8680,
      "chachu": 8681,
      "imeandikwa": 8682,
      "##tengenezo": 8683,
      "alikiba": 8684,
      "aliyem": 8685,
      "yaliyotokea": 8686,
      "##dra": 8687,
      "per": 8688,
      "ayo": 8689,
      "kuahidi": 8690,
      "everton": 8691,
      "utetezi": 8692,
      "boys": 8693,
      "maombo": 8694,
      "mantiki": 8695,
      "baharini": 8696,
      "kalenda": 8697,
      "##ziwa": 8698,
      "##fai": 8699,
      "kustaafu": 8700,
      "kusonga": 8701,
      "waamini": 8702,
      "##guliwa": 8703,
      "chato": 8704,
      "##ftari": 8705,
      "akisaini": 8706,
      "pri": 8707,
      "wanasa": 8708,
      "tetesi": 8709,
      "hip": 8710,
      "kutolea": 8711,
      "##iness": 8712,
      "uone": 8713,
      "##kum": 8714,
      "walipokuwa": 8715,
      "mtibwa": 8716,
      "tex": 8717,
      "##jaji": 8718,
      "wanamuziki": 8719,
      "##gani": 8720,
      "##or": 8721,
      "azungumza": 8722,
      "matengenezo": 8723,
      "feki": 8724,
      "umefika": 8725,
      "mpito": 8726,
      "##endekeza": 8727,
      "bandia": 8728,
      "warioba": 8729,
      "ukia": 8730,
      "ridhaa": 8731,
      "kampala": 8732,
      "##hudiwa": 8733,
      "manabii": 8734,
      "##rai": 8735,
      "miongozo": 8736,
      "pengo": 8737,
      "upanuzi": 8738,
      "yanayohusu": 8739,
      "##tribu": 8740,
      "##zawa": 8741,
      "sigara": 8742,
      "##kusudia": 8743,
      "changu": 8744,
      "mina": 8745,
      "zilivyo": 8746,
      "tulipo": 8747,
      "unawa": 8748,
      "##bai": 8749,
      "sarafu": 8750,
      "udiwani": 8751,
      "inadaiwa": 8752,
      "website": 8753,
      "coast": 8754,
      "##muliwa": 8755,
      "kukubaliana": 8756,
      "amezaliwa": 8757,
      "sweden": 8758,
      "##endeza": 8759,
      "66": 8760,
      "##dda": 8761,
      "##tambuliwa": 8762,
      "ameahidi": 8763,
      "msitu": 8764,
      "makabila": 8765,
      "afu": 8766,
      "jangwa": 8767,
      "##geuza": 8768,
      "kusali": 8769,
      "tunaona": 8770,
      "uuzaji": 8771,
      "wigo": 8772,
      "kkkt": 8773,
      "utengenezaji": 8774,
      "ruhusa": 8775,
      "alitangaza": 8776,
      "awasili": 8777,
      "##fuatiwa": 8778,
      "ezekiel": 8779,
      "alipofika": 8780,
      "os": 8781,
      "inataka": 8782,
      "uthibiti": 8783,
      "figo": 8784,
      "##mara": 8785,
      "bais": 8786,
      "jangwani": 8787,
      "##paswi": 8788,
      "makocha": 8789,
      "gharib": 8790,
      "##saha": 8791,
      "utotoni": 8792,
      "##ambatana": 8793,
      "standard": 8794,
      "##dom": 8795,
      "nchimbi": 8796,
      "ef": 8797,
      "kite": 8798,
      "wamei": 8799,
      "colo": 8800,
      "##mit": 8801,
      "##peli": 8802,
      "##fike": 8803,
      "##kosoa": 8804,
      "utafanyika": 8805,
      "msalaba": 8806,
      "kirefu": 8807,
      "##hesabiwa": 8808,
      "##pangiwa": 8809,
      "##elea": 8810,
      "##ous": 8811,
      "kasu": 8812,
      "alin": 8813,
      "manji": 8814,
      "mabu": 8815,
      "##enini": 8816,
      "##shoga": 8817,
      "union": 8818,
      "pdf": 8819,
      "tanzani": 8820,
      "dra": 8821,
      "licen": 8822,
      "kumpongeza": 8823,
      "##kate": 8824,
      "##zz": 8825,
      "##msha": 8826,
      "ukiangalia": 8827,
      "25576": 8828,
      "##reat": 8829,
      "wimbi": 8830,
      "channel": 8831,
      "majirani": 8832,
      "wahanga": 8833,
      "hero": 8834,
      "lawama": 8835,
      "waliojitokeza": 8836,
      "##des": 8837,
      "watakapo": 8838,
      "##meji": 8839,
      "kimaisha": 8840,
      "jama": 8841,
      "pauni": 8842,
      "sinema": 8843,
      "##seka": 8844,
      "riziki": 8845,
      "rununu": 8846,
      "utakaofanyika": 8847,
      "ria": 8848,
      "##angwe": 8849,
      "baiskeli": 8850,
      "##27": 8851,
      "mabili": 8852,
      "thabiti": 8853,
      "penzi": 8854,
      "##mela": 8855,
      "##tribution": 8856,
      "washa": 8857,
      "bayana": 8858,
      "##zungumzwa": 8859,
      "michache": 8860,
      "##fuate": 8861,
      "boko": 8862,
      "##zie": 8863,
      "##paji": 8864,
      "pambano": 8865,
      "##tekete": 8866,
      "amini": 8867,
      "kii": 8868,
      "sim": 8869,
      "##227": 8870,
      "##chika": 8871,
      "love": 8872,
      "##rushwa": 8873,
      "##dugu": 8874,
      "spa": 8875,
      "1995": 8876,
      "uzembe": 8877,
      "mvuto": 8878,
      "78": 8879,
      "##haribiwa": 8880,
      "kumtaka": 8881,
      "mle": 8882,
      "watawa": 8883,
      "##leti": 8884,
      "pete": 8885,
      "mvutano": 8886,
      "##via": 8887,
      "##rum": 8888,
      "fun": 8889,
      "patri": 8890,
      "sokoni": 8891,
      "##laumu": 8892,
      "##rdi": 8893,
      "sportpesa": 8894,
      "##mikia": 8895,
      "parokia": 8896,
      "sma": 8897,
      "kupelekea": 8898,
      "pspf": 8899,
      "kichwani": 8900,
      "ubaya": 8901,
      "ulianza": 8902,
      "pendekezo": 8903,
      "amana": 8904,
      "augustine": 8905,
      "##23": 8906,
      "mie": 8907,
      "yaliyotolewa": 8908,
      "inayoendelea": 8909,
      "yatangaza": 8910,
      "ngapi": 8911,
      "##shindana": 8912,
      "pigo": 8913,
      "##vutiwa": 8914,
      "basa": 8915,
      "gaza": 8916,
      "##kusudiwa": 8917,
      "##rf": 8918,
      "uchochezi": 8919,
      "mimea": 8920,
      "maazi": 8921,
      "##vunji": 8922,
      "zimehifadhiwa": 8923,
      "##cent": 8924,
      "kupigana": 8925,
      "##bea": 8926,
      "walianza": 8927,
      "##ukuu": 8928,
      "reu": 8929,
      "##julisha": 8930,
      "kuulizwa": 8931,
      "wanaotumia": 8932,
      "algeria": 8933,
      "iebc": 8934,
      "samuel": 8935,
      "##ngi": 8936,
      "skuli": 8937,
      "party": 8938,
      "license": 8939,
      "##uzia": 8940,
      "kuwahudumia": 8941,
      "falsafa": 8942,
      "##tty": 8943,
      "ee": 8944,
      "##chukia": 8945,
      "ugenini": 8946,
      "kiini": 8947,
      "polepole": 8948,
      "odm": 8949,
      "40227": 8950,
      "##isajili": 8951,
      "christo": 8952,
      "mkristo": 8953,
      "kuchapisha": 8954,
      "##zamikoa": 8955,
      "kuwafikia": 8956,
      "blogzamikoa": 8957,
      "##vuka": 8958,
      "niseme": 8959,
      "yawe": 8960,
      "imefanya": 8961,
      "aliwaambia": 8962,
      "maombolezo": 8963,
      "##keni": 8964,
      "haswa": 8965,
      "tf": 8966,
      "##tafsiri": 8967,
      "wakiendelea": 8968,
      "tumba": 8969,
      "alizi": 8970,
      "##bibu": 8971,
      "##linze": 8972,
      "zinapochipuka": 8973,
      "mur": 8974,
      "mabango": 8975,
      "##ishana": 8976,
      "##zuiwa": 8977,
      "##ship": 8978,
      "sk": 8979,
      "imam": 8980,
      "##br": 8981,
      "##ption": 8982,
      "##furahisha": 8983,
      "##dhami": 8984,
      "##boresho": 8985,
      "##sindi": 8986,
      "warembo": 8987,
      "##rambi": 8988,
      "mor": 8989,
      "jezi": 8990,
      "nim": 8991,
      "mwaliko": 8992,
      "son": 8993,
      "##michezo": 8994,
      "madola": 8995,
      "kaa": 8996,
      "chalinze": 8997,
      "lililokuwa": 8998,
      "amiri": 8999,
      "isaya": 9000,
      "maboresho": 9001,
      "ukristo": 9002,
      "umebadilishwa": 9003,
      "imea": 9004,
      "usingizi": 9005,
      "jema": 9006,
      "madha": 9007,
      "vs": 9008,
      "##hujumu": 9009,
      "rambirambi": 9010,
      "wapili": 9011,
      "##ibua": 9012,
      "bay": 9013,
      "##jari": 9014,
      "##toni": 9015,
      "##dari": 9016,
      "ulaji": 9017,
      "nitumie": 9018,
      "usahihi": 9019,
      "kupum": 9020,
      "io": 9021,
      "ivory": 9022,
      "janja": 9023,
      "##mun": 9024,
      "##ab": 9025,
      "mwengine": 9026,
      "ts": 9027,
      "mkandarasi": 9028,
      "saruji": 9029,
      "700": 9030,
      "tarafa": 9031,
      "194": 9032,
      "##ufaisha": 9033,
      "##dis": 9034,
      "usoni": 9035,
      "##dharia": 9036,
      "tupate": 9037,
      "musta": 9038,
      "##gal": 9039,
      "basata": 9040,
      "##liti": 9041,
      "urembo": 9042,
      "alionekana": 9043,
      "##bay": 9044,
      "clin": 9045,
      "##chochea": 9046,
      "zinavyo": 9047,
      "nyoka": 9048,
      "akimu": 9049,
      "##tofu": 9050,
      "##busu": 9051,
      "##shirikina": 9052,
      "texas": 9053,
      "kusikitisha": 9054,
      "kielektroniki": 9055,
      "umesha": 9056,
      "##neth": 9057,
      "kisasi": 9058,
      "kutunga": 9059,
      "dimba": 9060,
      "##gas": 9061,
      "##399": 9062,
      "85": 9063,
      "##tna": 9064,
      "bots": 9065,
      "chuoni": 9066,
      "good": 9067,
      "mahiri": 9068,
      "alikiri": 9069,
      "wapendwa": 9070,
      "hen": 9071,
      "sabato": 9072,
      "##moud": 9073,
      "akitangaza": 9074,
      "kuchapika": 9075,
      "##pendelea": 9076,
      "nguru": 9077,
      "##forums": 9078,
      "akichangia": 9079,
      "##epusha": 9080,
      "asanteni": 9081,
      "kuyatazama": 9082,
      "##shangazwa": 9083,
      "kusaka": 9084,
      "attribution": 9085,
      "khali": 9086,
      "pepo": 9087,
      "lou": 9088,
      "udaku": 9089,
      "vipya": 9090,
      "beach": 9091,
      "tamaduni": 9092,
      "sharea": 9093,
      "yusuf": 9094,
      "ulifanyika": 9095,
      "##shindo": 9096,
      "##mbukiza": 9097,
      "##muika": 9098,
      "baria": 9099,
      "viungavyo": 9100,
      "tcra": 9101,
      "shemeji": 9102,
      "kinachohusiana": 9103,
      "anaandika": 9104,
      "##chekesho": 9105,
      "amezi": 9106,
      "##5056": 9107,
      "sharealike": 9108,
      "andrew": 9109,
      "fasihi": 9110,
      "kurahisisha": 9111,
      "unafanya": 9112,
      "kumuua": 9113,
      "255765056": 9114,
      "uefa": 9115,
      "russia": 9116,
      "hatma": 9117,
      "ekari": 9118,
      "##18": 9119,
      "trans": 9120,
      "tunda": 9121,
      "tuku": 9122,
      "##dhamiria": 9123,
      "inayom": 9124,
      "harambee": 9125,
      "bariadi": 9126,
      "pazia": 9127,
      "alipofanya": 9128,
      "akifuatilia": 9129,
      "igunga": 9130,
      "##lazimisha": 9131,
      "selemani": 9132,
      "kikanda": 9133,
      "##usuru": 9134,
      "dj": 9135,
      "mwekezaji": 9136,
      "##onao": 9137,
      "##varo": 9138,
      "##licha": 9139,
      "wametakiwa": 9140,
      "##ongi": 9141,
      "kuagiza": 9142,
      "##stal": 9143,
      "##tili": 9144,
      "uza": 9145,
      "mbagala": 9146,
      "##dhalili": 9147,
      "anatoa": 9148,
      "anaishi": 9149,
      "255765056399": 9150,
      "limetangaza": 9151,
      "kipigo": 9152,
      "##ukwaji": 9153,
      "##pher": 9154,
      "mazito": 9155,
      "jamiiforums": 9156,
      "naam": 9157,
      "##ashiria": 9158,
      "wanyonge": 9159,
      "anayeweza": 9160,
      "ufupi": 9161,
      "ovyo": 9162,
      "wakam": 9163,
      "tufanye": 9164,
      "wamem": 9165,
      "##vuta": 9166,
      "chukua": 9167,
      "uwakilishi": 9168,
      "hayaja": 9169,
      "wae": 9170,
      "##lson": 9171,
      "##ganisha": 9172,
      "##tibu": 9173,
      "produ": 9174,
      "ujangili": 9175,
      "##luhi": 9176,
      "anu": 9177,
      "walezi": 9178,
      "##kara": 9179,
      "##17": 9180,
      "zube": 9181,
      "utepe": 9182,
      "halima": 9183,
      "bun": 9184,
      "shujaa": 9185,
      "ukiukwaji": 9186,
      "##furahishwa": 9187,
      "##ksi": 9188,
      "kumwambia": 9189,
      "kiru": 9190,
      "fujo": 9191,
      "dece": 9192,
      "kube": 9193,
      "##press": 9194,
      "alifunga": 9195,
      "unaonyesha": 9196,
      "malkia": 9197,
      "##ks": 9198,
      "vis": 9199,
      "bernard": 9200,
      "aliyasema": 9201,
      "##ah": 9202,
      "promosheni": 9203,
      "##zizi": 9204,
      "##ssu": 9205,
      "great": 9206,
      "windo": 9207,
      "kumuona": 9208,
      "##kusanyika": 9209,
      "auawa": 9210,
      "bwawa": 9211,
      "##kwamisha": 9212,
      "wanaom": 9213,
      "##lm": 9214,
      "jisajili": 9215,
      "##sadi": 9216,
      "alikamatwa": 9217,
      "##ghai": 9218,
      "utume": 9219,
      "tanapa": 9220,
      "kuchelewa": 9221,
      "##entina": 9222,
      "maridhi": 9223,
      "kibinafsi": 9224,
      "77": 9225,
      "eac": 9226,
      "mkazo": 9227,
      "othman": 9228,
      "##tuhumu": 9229,
      "afp": 9230,
      "kupigania": 9231,
      "##ujiza": 9232,
      "kibo": 9233,
      "anai": 9234,
      "berlin": 9235,
      "christi": 9236,
      "mafao": 9237,
      "##yima": 9238,
      "stella": 9239,
      "cuba": 9240,
      "##cri": 9241,
      "waaminifu": 9242,
      "waume": 9243,
      "##chelewa": 9244,
      "kwakuwa": 9245,
      "her": 9246,
      "chri": 9247,
      "maazimio": 9248,
      "##cas": 9249,
      "top": 9250,
      "##fahamisha": 9251,
      "jenista": 9252,
      "black": 9253,
      "white": 9254,
      "##gele": 9255,
      "##lti": 9256,
      "nembo": 9257,
      "kinye": 9258,
      "wachi": 9259,
      "wanaona": 9260,
      "money": 9261,
      "anau": 9262,
      "monduli": 9263,
      "utaalamu": 9264,
      "tw": 9265,
      "ukame": 9266,
      "mdahalo": 9267,
      "wametoa": 9268,
      "##kura": 9269,
      "##kilize": 9270,
      "green": 9271,
      "html": 9272,
      "anapenda": 9273,
      "##rejeshwa": 9274,
      "maridhiano": 9275,
      "aliweza": 9276,
      "icc": 9277,
      "waliuawa": 9278,
      "##meroon": 9279,
      "upendeleo": 9280,
      "##cta": 9281,
      "kuipa": 9282,
      "maf": 9283,
      "matano": 9284,
      "##lete": 9285,
      "runinga": 9286,
      "muhongo": 9287,
      "##pc": 9288,
      "zinaendelea": 9289,
      "riadha": 9290,
      "champi": 9291,
      "##kitiko": 9292,
      "win": 9293,
      "##lichako": 9294,
      "##shea": 9295,
      "##ot": 9296,
      "dala": 9297,
      "ndalichako": 9298,
      "injini": 9299,
      "inaonesha": 9300,
      "wamewa": 9301,
      "##mala": 9302,
      "kitanda": 9303,
      "mc": 9304,
      "richmond": 9305,
      "high": 9306,
      "kuuzwa": 9307,
      "76": 9308,
      "japokuwa": 9309,
      "sharif": 9310,
      "road": 9311,
      "sau": 9312,
      "##iliwa": 9313,
      "tar": 9314,
      "anaji": 9315,
      "apate": 9316,
      "mayai": 9317,
      "que": 9318,
      "##hamishi": 9319,
      "wameuawa": 9320,
      "##hamishwa": 9321,
      "inatu": 9322,
      "kukusaidia": 9323,
      "kinyang": 9324,
      "##changanya": 9325,
      "mlio": 9326,
      "kiislam": 9327,
      "unai": 9328,
      "manara": 9329,
      "##baha": 9330,
      "##ds": 9331,
      "##umiza": 9332,
      "kijani": 9333,
      "mzito": 9334,
      "utangulizi": 9335,
      "clinton": 9336,
      "##zeni": 9337,
      "kuwait": 9338,
      "liwe": 9339,
[...]
