{
  "version": "1.0",
  "truncation": null,
  "padding": null,
  "added_tokens": [
    {
      "id": 0,
      "content": "[UNK]",
      "single_word": false,
      "lstrip": false,
      "rstrip": false,
      "normalized": false,
      "special": true
    },
    {
      "id": 1,
      "content": "[CLS]",
      "single_word": false,
      "lstrip": false,
      "rstrip": false,
      "normalized": false,
      "special": true
    },
    {
      "id": 2,
      "content": "[SEP]",
      "single_word": false,
      "lstrip": false,
      "rstrip": false,
      "normalized": false,
      "special": true
    },
    {
      "id": 3,
      "content": "[PAD]",
      "single_word": false,
      "lstrip": false,
      "rstrip": false,
      "normalized": false,
      "special": true
    },
    {
      "id": 4,
      "content": "[MASK]",
      "single_word": false,
      "lstrip": false,
      "rstrip": false,
      "normalized": false,
      "special": true
    }
  ],
  "normalizer": null,
  "pre_tokenizer": {
    "type": "ByteLevel",
    "add_prefix_space": false,
    "trim_offsets": true,
    "use_regex": true
  },
  "post_processor": null,
  "decoder": {
    "type": "ByteLevel",
    "add_prefix_space": true,
    "trim_offsets": true,
    "use_regex": true
  },
  "model": {
    "type": "BPE",
    "dropout": null,
    "unk_token": null,
    "continuing_subword_prefix": null,
    "end_of_word_suffix": null,
    "fuse_unk": false,
    "byte_fallback": false,
    "ignore_merges": false,
    "vocab": {
      "[UNK]": 0,
      "[CLS]": 1,
      "[SEP]": 2,
      "[PAD]": 3,
      "[MASK]": 4,
      "!": 5,
      "\"": 6,
      "#": 7,
      "$": 8,
      "%": 9,
      "&": 10,
      "'": 11,
      "(": 12,
      ")": 13,
      "*": 14,
      "+": 15,
      ",": 16,
      "-": 17,
      ".": 18,
      "/": 19,
      "0": 20,
      "1": 21,
      "2": 22,
      "3": 23,
      "4": 24,
      "5": 25,
      "6": 26,
      "7": 27,
      "8": 28,
      "9": 29,
      ":": 30,
      ";": 31,
      "<": 32,
      "=": 33,
      ">": 34,
      "?": 35,
      "@": 36,
      "A": 37,
      "B": 38,
      "C": 39,
      "D": 40,
      "E": 41,
      "F": 42,
      "G": 43,
      "H": 44,
      "I": 45,
      "J": 46,
      "K": 47,
      "L": 48,
      "M": 49,
      "N": 50,
      "O": 51,
      "P": 52,
      "Q": 53,
      "R": 54,
      "S": 55,
      "T": 56,
      "U": 57,
      "V": 58,
      "W": 59,
      "X": 60,
      "Y": 61,
      "Z": 62,
      "[": 63,
      "\\": 64,
      "]": 65,
      "^": 66,
      "_": 67,
      "`": 68,
      "a": 69,
      "b": 70,
      "c": 71,
      "d": 72,
      "e": 73,
      "f": 74,
      "g": 75,
      "h": 76,
      "i": 77,
      "j": 78,
      "k": 79,
      "l": 80,
      "m": 81,
      "n": 82,
      "o": 83,
      "p": 84,
      "q": 85,
      "r": 86,
      "s": 87,
      "t": 88,
      "u": 89,
      "v": 90,
      "w": 91,
      "x": 92,
      "y": 93,
      "z": 94,
      "{": 95,
      "}": 96,
      "~": 97,
      "¡": 98,
      "¢": 99,
      "£": 100,
      "¤": 101,
      "¥": 102,
      "¦": 103,
      "§": 104,
      "¨": 105,
      "©": 106,
      "ª": 107,
      "«": 108,
      "¬": 109,
      "®": 110,
      "¯": 111,
      "°": 112,
      "±": 113,
      "²": 114,
      "³": 115,
      "´": 116,
      "µ": 117,
      "¶": 118,
      "·": 119,
      "¸": 120,
      "¹": 121,
      "º": 122,
      "»": 123,
      "¼": 124,
      "½": 125,
      "¾": 126,
      "¿": 127,
      "Â": 128,
      "Ã": 129,
      "Ä": 130,
      "Å": 131,
      "Æ": 132,
      "Ç": 133,
      "È": 134,
      "É": 135,
      "Ê": 136,
      "Ë": 137,
      "Ì": 138,
      "Í": 139,
      "Î": 140,
      "Ï": 141,
      "Ð": 142,
      "Ñ": 143,
      "Ò": 144,
      "Ó": 145,
      "Ô": 146,
      "Õ": 147,
      "Ö": 148,
      "×": 149,
      "Ø": 150,
      "Ù": 151,
      "Ú": 152,
      "Û": 153,
      "Ü": 154,
      "à": 155,
      "á": 156,
      "â": 157,
      "ã": 158,
      "ä": 159,
      "å": 160,
      "æ": 161,
      "ç": 162,
      "è": 163,
      "é": 164,
      "ê": 165,
      "ë": 166,
      "ì": 167,
      "í": 168,
      "î": 169,
      "ï": 170,
      "ð": 171,
      "ó": 172,
      "Ā": 173,
      "ā": 174,
      "Ă": 175,
      "ă": 176,
      "Ą": 177,
      "ą": 178,
      "Ć": 179,
      "ć": 180,
      "Ĉ": 181,
      "Ċ": 182,
      "ċ": 183,
      "Č": 184,
      "ď": 185,
      "Đ": 186,
      "đ": 187,
      "Ē": 188,
      "ē": 189,
      "Ĕ": 190,
      "ĕ": 191,
      "ė": 192,
      "Ě": 193,
      "ğ": 194,
      "Ġ": 195,
      "ġ": 196,
      "Ģ": 197,
      "ģ": 198,
      "Ĥ": 199,
      "ĥ": 200,
      "Ħ": 201,
      "ħ": 202,
      "Ĩ": 203,
      "ĩ": 204,
      "Ī": 205,
      "ī": 206,
      "Ĭ": 207,
      "ĭ": 208,
      "Į": 209,
      "į": 210,
      "İ": 211,
      "ı": 212,
      "Ĳ": 213,
      "ĳ": 214,
      "Ĵ": 215,
      "ĵ": 216,
      "Ķ": 217,
      "ķ": 218,
      "ĸ": 219,
      "Ĺ": 220,
      "ĺ": 221,
      "Ļ": 222,
      "ļ": 223,
      "Ľ": 224,
      "ľ": 225,
      "Ŀ": 226,
      "ŀ": 227,
      "Ł": 228,
      "ł": 229,
      "Ń": 230,
      "wa": 231,
      "Ġk": 232,
      "na": 233,
      "ya": 234,
      "Ġwa": 235,
      "Ġm": 236,
      "li": 237,
      "Ġya": 238,
      "ha": 239,
      "Ġku": 240,
      "ka": 241,
      "ni": 242,
      "Ġna": 243,
      "hi": 244,
      "ng": 245,
      "ta": 246,
      "ĠM": 247,
      "am": 248,
      "ba": 249,
      "za": 250,
      "ti": 251,
      "ri": 252,
      "zi": 253,
      "ki": 254,
      "si": 255,
      "la": 256,
      "Ġu": 257,
      "nd": 258,
      "ku": 259,
      "Ġma": 260,
      "Ġa": 261,
      "we": 262,
      "ji": 263,
      "ma": 264,
      "Ġkwa": 265,
      "ĠK": 266,
      "tu": 267,
      "sa": 268,
      "hu": 269,
      "ra": 270,
      "yo": 271,
      "le": 272,
      "to": 273,
      "Ġka": 274,
      "fa": 275,
      "Ġi": 276,
      "Ġha": 277,
      "ye": 278,
      "sha": 279,
      "Ġki": 280,
      "ja": 281,
      "ke": 282,
      "di": 283,
      "te": 284,
      "fu": 285,
      "cha": 286,
      "Ġza": 287,
      "Ġhi": 288,
      "ĠS": 289,
      "ĠW": 290,
      "Ġni": 291,
      "tika": 292,
      "me": 293,
      "ko": 294,
      "bu": 295,
      "bi": 296,
      "Ġv": 297,
      "da": 298,
      "he": 299,
      "an": 300,
      "pi": 301,
      "zo": 302,
      "pa": 303,
      "Ġla": 304,
      "mi": 305,
      "Ġkatika": 306,
      "mu": 307,
      "ĠMa": 308,
      "ĠN": 309,
      "po": 310,
      "Ġn": 311,
      "shi": 312,
      "Ġam": 313,
      "ĠA": 314,
      "ĠT": 315,
      "ĠU": 316,
      "se": 317,
      "Ġhu": 318,
      "ne": 319,
      "nye": 320,
      "nda": 321,
      "ho": 322,
      "ngi": 323,
      "ĠB": 324,
      "ngu": 325,
      "ama": 326,
      "Ġkuwa": 327,
      "nga": 328,
      "mba": 329,
      "chi": 330,
      "..": 331,
      "ĠJ": 332,
      "Ġmi": 333,
      "Ġvi": 334,
      "ĠH": 335,
      "ĠY": 336,
      "Ġcha": 337,
      "ĠD": 338,
      "bo": 339,
      "ngo": 340,
      "Ġali": 341,
      "Ġsa": 342,
      "ru": 343,
      "ele": 344,
      "Ġba": 345,
      "re": 346,
      "wenye": 347,
      "Ġwana": 348,
      "ndi": 349,
      "oja": 350,
      "fan": 351,
      "âĢ": 352,
      "ĠC": 353,
      "Ġta": 354,
      "lo": 355,
      "Ġ2": 356,
      "Ġamba": 357,
      "wi": 358,
      "fi": 359,
      "kuwa": 360,
      "ju": 361,
      "nge": 362,
      "Ġ(": 363,
      "ĠWa": 364,
      "pe": 365,
      "Ġsi": 366,
      "su": 367,
      "ai": 368,
      "ĠKi": 369,
      "Ġtu": 370,
      "Ġili": 371,
      "nia": 372,
      "rika": 373,
      "Ġmwa": 374,
      "AN": 375,
      "be": 376,
      "sema": 377,
      "je": 378,
      "Ġkuto": 379,
      "ĠYA": 380,
      "ĠR": 381,
      "ĠP": 382,
      "Ġzi": 383,
      "dha": 384,
      "gu": 385,
      "no": 386,
      "dhi": 387,
      "go": 388,
      "ami": 389,
      "ĠL": 390,
      "Ġ1": 391,
      "ga": 392,
      "ĠWA": 393,
      "ze": 394,
      "Ġaki": 395,
      "lio": 396,
      "ĠI": 397,
      "vyo": 398,
      "Ġnchi": 399,
      "lia": 400,
      "Ġ20": 401,
      "kuu": 402,
      "ungu": 403,
      "ro": 404,
      "anza": 405,
      "ĠKa": 406,
      "WA": 407,
      "fanya": 408,
      "Ġkama": 409,
      "Ġs": 410,
      "Ġkwenye": 411,
      "che": 412,
      "Ġina": 413,
      "yi": 414,
      "Ġhiyo": 415,
      "du": 416,
      "ada": 417,
      "kati": 418,
      "ge": 419,
      "Ġame": 420,
      "ano": 421,
      "Ġli": 422,
      "vu": 423,
      "mo": 424,
      "idi": 425,
      "end": 426,
      "nzi": 427,
      "nza": 428,
      "Ġwe": 429,
      "ongo": 430,
      "cho": 431,
      "ĠZ": 432,
      "Ġvya": 433,
      "LI": 434,
      "ĠKu": 435,
      "Ġe": 436,
      "ndo": 437,
      "...": 438,
      "Ġana": 439,
      "amu": 440,
      "tumi": 441,
      "HA": 442,
      "Ġkutoka": 443,
      "Ġmu": 444,
      "sho": 445,
      "Ġ201": 446,
      "mbe": 447,
      "chu": 448,
      "bwa": 449,
      "Ġpi": 450,
      "endele": 451,
      "ĠHa": 452,
      "ria": 453,
      "sh": 454,
      "ngine": 455,
      "Ġji": 456,
      "bari": 457,
      "kiwa": 458,
      "Ġse": 459,
      "Ġyake": 460,
      "anzania": 461,
      "yu": 462,
      "rikali": 463,
      "Ġbi": 464,
      "Ma": 465,
      "KA": 466,
      "ĠV": 467,
      "MA": 468,
      "taka": 469,
      "ĠTanzania": 470,
      "do": 471,
      "ĠF": 472,
      "ana": 473,
      "Ġuna": 474,
      "Ġwatu": 475,
      "nu": 476,
      "Ġbaada": 477,
      "ĠMA": 478,
      "bali": 479,
      "riki": 480,
      "Ġmwaka": 481,
      "Ġju": 482,
      "ĠSe": 483,
      "Ġp": 484,
      "kini": 485,
      "weza": 486,
      "ais": 487,
      "koa": 488,
      "lu": 489,
      "uri": 490,
      "Ġwakati": 491,
      "ĠKU": 492,
      "vi": 493,
      "moja": 494,
      "Ġzaidi": 495,
      "ifa": 496,
      "Ġle": 497,
      "ambo": 498,
      "ĠBa": 499,
      "Ġkwamba": 500,
      "ĠSa": 501,
      "Ġwali": 502,
      "Ġye": 503,
      "mbu": 504,
      "RI": 505,
      "ziri": 506,
      "Ġnchini": 507,
      "jini": 508,
      "Ġwake": 509,
      "pata": 510,
      "mbo": 511,
      "liwa": 512,
      "so": 513,
      "Ġhii": 514,
      "ĠE": 515,
      "tia": 516,
      "TA": 517,
      "shwa": 518,
      "ĠMi": 519,
      "Ġhuo": 520,
      "amoja": 521,
      "Ġime": 522,
      "ar": 523,
      "nde": 524,
      "Ġmoja": 525,
      "00": 526,
      "Ġkui": 527,
      "sili": 528,
      "Ġau": 529,
      "ĠNA": 530,
      "ari": 531,
      "ĠMkuu": 532,
      "ĠMu": 533,
      "IN": 534,
      "ĠO": 535,
      "ĠâĢ": 536,
      "de": 537,
      "Ġra": 538,
      "ĠG": 539,
      "BA": 540,
      "kuta": 541,
      "Ġpamoja": 542,
      "Ġuta": 543,
      "Wa": 544,
      "nya": 545,
      "Ġsana": 546,
      "Ġsiku": 547,
      "zungu": 548,
      "IS": 549,
      "husu": 550,
      "ongozi": 551,
      "Ġwi": 552,
      "Ġkuo": 553,
      "ĠJu": 554,
      "ia": 555,
      "Ġmbali": 556,
      "jili": 557,
      "ĠAf": 558,
      "Ġkazi": 559,
      "ĠRais": 560,
      "Ġwame": 561,
      "kia": 562,
      "anzi": 563,
      "ndu": 564,
      "ZI": 565,
      "Ġhilo": 566,
      "TO": 567,
      "pu": 568,
      "ĠMwa": 569,
      "mbi": 570,
      "Ġhivyo": 571,
      "TI": 572,
      "wo": 573,
      "Ġj": 574,
      "kea": 575,
      "RA": 576,
      "toa": 577,
      "YA": 578,
      "ĠWi": 579,
      "aka": 580,
      "Ġsasa": 581,
      "kwa": 582,
      "zungum": 583,
      "kio": 584,
      "laya": 585,
      "Ġkuji": 586,
      "Ġkupi": 587,
      "âĢĿ": 588,
      "is": 589,
      "Ġkila": 590,
      "jana": 591,
      "zaji": 592,
      "ĠDar": 593,
      "sia": 594,
      "nchi": 595,
      "toto": 596,
      "taifa": 597,
      "ĠSi": 598,
      "Ġleo": 599,
      "zwa": 600,
      "Ġmaa": 601,
      "Ġme": 602,
      "kana": 603,
      "ĠTa": 604,
      "KU": 605,
      "Ġpia": 606,
      "Ġwalio": 607,
      "fanyi": 608,
      "Ġndi": 609,
      "Ġhabari": 610,
      "Ġmara": 611,
      "shiriki": 612,
      "Ġhuu": 613,
      "tumia": 614,
      "gi": 615,
      "asi": 616,
      "Ġf": 617,
      "Ġjuu": 618,
      "Ġambayo": 619,
      "EN": 620,
      "laam": 621,
      "neo": 622,
      "jia": 623,
      "gha": 624,
      "isha": 625,
      "Ha": 626,
      "endelea": 627,
      "Ġlakini": 628,
      "HI": 629,
      "dili": 630,
      "Ġmwi": 631,
      "amii": 632,
      "Ġes": 633,
      "yote": 634,
      "Ġalisema": 635,
      "limu": 636,
      "ĠHA": 637,
      "Ġzina": 638,
      "nja": 639,
      "UN": 640,
      "kubwa": 641,
      "ina": 642,
      "DA": 643,
      "Ku": 644,
      "Ġwata": 645,
      "Ġhata": 646,
      "pya": 647,
      "Ġiliyo": 648,
      "Ġwaki": 649,
      "ĠMungu": 650,
      "pita": 651,
      "Ġkufanya": 652,
      "Ġkwe": 653,
      "Ġnyi": 654,
      "Ġkum": 655,
      "babu": 656,
      "swa": 657,
      "ĠNa": 658,
      "kazi": 659,
      "mani": 660,
      "IA": 661,
      "ĠCha": 662,
      "ĠSerikali": 663,
      "tibu": 664,
      "ĠDk": 665,
      "amba": 666,
      "heria": 667,
      "arifa": 668,
      "Ġhali": 669,
      "Ġ3": 670,
      "co": 671,
      "ndani": 672,
      "Ġkuu": 673,
      "husi": 674,
      "bia": 675,
      "Ġmtu": 676,
      "chezo": 677,
      "mbali": 678,
      "zuri": 679,
      "Ġmmoja": 680,
      "kwe": 681,
      "Ġambao": 682,
      "chagu": 683,
      "Ġhayo": 684,
      "ĠKwa": 685,
      "bunge": 686,
      "Ġkuhusu": 687,
      "Ġyao": 688,
      "sta": 689,
      "Ġwo": 690,
      "ĠMo": 691,
      "Ġ-": 692,
      "adhi": 693,
      "ĠWaziri": 694,
      "ĠAfrika": 695,
      "Ġajili": 696,
      "Ġulio": 697,
      "shu": 698,
      "Ġmiaka": 699,
      "Ġkuli": 700,
      "KI": 701,
      "Ġume": 702,
      "fua": 703,
      "Ġserikali": 704,
      "Ġmbalimbali": 705,
      "kili": 706,
      "Ġo": 707,
      "ZA": 708,
      "amo": 709,
      "andi": 710,
      "Ġkati": 711,
      "Ġwananchi": 712,
      "kuru": 713,
      "Ġto": 714,
      "Ġyana": 715,
      "Ġda": 716,
      "tanga": 717,
      "ĠYa": 718,
      "Ġtuna": 719,
      "ĠVi": 720,
      "ĠBu": 721,
      "shara": 722,
      "tua": 723,
      "Ġwao": 724,
      "ribu": 725,
      "kani": 726,
      "Ġti": 727,
      "Ġshu": 728,
      "ĠKI": 729,
      "ĠSalaam": 730,
      "Ġuli": 731,
      "CM": 732,
      "Ġndani": 733,
      "weze": 734,
      "fanyika": 735,
      "sim": 736,
      "kiti": 737,
      "Ġhapa": 738,
      "ngwa": 739,
      "nzo": 740,
      "Ġkubwa": 741,
      "Ġpe": 742,
      "ua": 743,
      "edha": 744,
      "Ġhuyo": 745,
      "ĠJo": 746,
      "Ka": 747,
      "Ġbo": 748,
      "Kwa": 749,
      "Ġnyu": 750,
      "kutano": 751,
      "Ġkwanza": 752,
      "),": 753,
      "rehe": 754,
      "endeleo": 755,
      "ona": 756,
      "twa": 757,
      "ĠTu": 758,
      "KE": 759,
      "Ġsababu": 760,
      "Ġmaji": 761,
      "Ġhawa": 762,
      "Ġdu": 763,
      "Ġzili": 764,
      "ĠMhe": 765,
      "Ġmwana": 766,
      "kua": 767,
      "bele": 768,
      "Ġmwe": 769,
      "ON": 770,
      "ĠKWA": 771,
      "sua": 772,
      "ce": 773,
      "duma": 774,
      "saidi": 775,
      "taji": 776,
      "ĠPo": 777,
      "ini": 778,
      "ĠKA": 779,
      "Ġkuna": 780,
      "Ġko": 781,
      "TU": 782,
      "Ġte": 783,
      "Ġwenye": 784,
      "ngia": 785,
      "Ġmuda": 786,
      "Ġambaye": 787,
      "Ġwanao": 788,
      "zungumza": 789,
      "Ġwote": 790,
      "mia": 791,
      "SI": 792,
      "Ġ5": 793,
      "Ġho": 794,
      "20": 795,
      "ANA": 796,
      "Ġpa": 797,
      "âĢĻ": 798,
      "Ġyako": 799,
      "PA": 800,
      "ani": 801,
      "ve": 802,
      "ung": 803,
      "Ġita": 804,
      "Ġmkoa": 805,
      "lisi": 806,
      "chini": 807,
      "ĠMwenye": 808,
      "shauri": 809,
      "Ġkutoa": 810,
      "Ġfu": 811,
      "Ġpo": 812,
      "lewa": 813,
      "miwa": 814,
      "LA": 815,
      "kama": 816,
      "fiki": 817,
      "Ġmsi": 818,
      "ĠZA": 819,
      "bar": 820,
      "FA": 821,
      "Ġkuta": 822,
      "Ġmbi": 823,
      "lamu": 824,
      "MB": 825,
      "ngeza": 826,
      "Ġnje": 827,
      "ĠNi": 828,
      "Ġ_": 829,
      "wanja": 830,
      "Ġhao": 831,
      "Ġmambo": 832,
      "Ġyali": 833,
      "Ġkupata": 834,
      "Ġmaisha": 835,
      "chaguzi": 836,
      "jua": 837,
      "Ġaliye": 838,
      "Ġkua": 839,
      "Ġga": 840,
      "thi": 841,
      "Ġambapo": 842,
      "Ġkitu": 843,
      "suala": 844,
      "JI": 845,
      "MU": 846,
      "lama": 847,
      "Ġzo": 848,
      "SA": 849,
      "aifa": 850,
      "she": 851,
      "KO": 852,
      "huri": 853,
      "Ġmwenye": 854,
      "uti": 855,
      "âĢľ": 856,
      "Ġkam": 857,
      "Ġhizo": 858,
      "Ġakiwa": 859,
      "fisi": 860,
      "himu": 861,
      "ungano": 862,
      "DI": 863,
      "in": 864,
      "ĠZanzi": 865,
      "Ġtaarifa": 866,
      "ĠMkoa": 867,
      "GA": 868,
      "one": 869,
      "Ġwengi": 870,
      "ĠCCM": 871,
      "fasi": 872,
      "Ġjijini": 873,
      "ĠMe": 874,
      "Ġdunia": 875,
      "ĠTaifa": 876,
      "zima": 877,
      "Ġyetu": 878,
      "oni": 879,
      "Ġhadi": 880,
      "fani": 881,
      "ĠZanzibar": 882,
      "Na": 883,
      "ĠCHA": 884,
      "Ġmpa": 885,
      "Ġkute": 886,
      "zara": 887,
      "Ġ4": 888,
      "Ġkutokana": 889,
      "zu": 890,
      "Ġkupitia": 891,
      "ĠâĢľ": 892,
      "Ġhaki": 893,
      "Ġdhi": 894,
      "Ġamesema": 895,
      "haki": 896,
      "badili": 897,
      "Ġlina": 898,
      "ara": 899,
      "lioni": 900,
      "kata": 901,
      "Ġ2018": 902,
      "toke": 903,
      "funzi": 904,
      "hemu": 905,
      "on": 906,
      "ANI": 907,
      "kabi": 908,
      "Ġhuduma": 909,
      "unga": 910,
      "ĠDkt": 911,
      "weka": 912,
      "Ġchini": 913,
      "GU": 914,
      "Ġzao": 915,
      "Ġupa": 916,
      "Ġdhidi": 917,
      "Ġhatua": 918,
      "ĠLi": 919,
      "Ġfa": 920,
      "ĠBi": 921,
      "Ġnafasi": 922,
      "genzi": 923,
      "tanda": 924,
      "Ġbila": 925,
      "puni": 926,
      "Ġusa": 927,
      "Ġmpya": 928,
      "ĠJe": 929,
      "damu": 930,
      "mili": 931,
      "hili": 932,
      "Ġuwe": 933,
      "Ġaka": 934,
      "sto": 935,
      "Ġmada": 936,
      "Ġviongozi": 937,
      "ĠKe": 938,
      "Ġfedha": 939,
      "ĠLA": 940,
      "Ġkina": 941,
      "Ġmaana": 942,
      "Ġinayo": 943,
      "Ġbaadhi": 944,
      "bla": 945,
      "tizo": 946,
      "201": 947,
      "fuli": 948,
      "ĠMuungano": 949,
      "Ġhicho": 950,
      "fisa": 951,
      "Ġwetu": 952,
      "wili": 953,
      "kta": 954,
      "Ġbara": 955,
      "rekani": 956,
      "jwa": 957,
      "kurugenzi": 958,
      "Ġhili": 959,
      "ĠJam": 960,
      "jibu": 961,
      "Ġhivi": 962,
      "ĠMagu": 963,
      "fungu": 964,
      "Ġchama": 965,
      "Ġkili": 966,
      "Ġ,": 967,
      "Ġwatoto": 968,
      "Ġngu": 969,
      "saidia": 970,
      "HU": 971,
      "dogo": 972,
      "Ġkaribu": 973,
      "mwa": 974,
      "ĠHi": 975,
      "radi": 976,
      "hitaji": 977,
      "Ġnjia": 978,
      "uli": 979,
      "Ġ19": 980,
      "wala": 981,
      "Ġnyumba": 982,
      "Ġeneo": 983,
      "el": 984,
      "wasili": 985,
      "Ġzilizo": 986,
      "Ġhuku": 987,
      "Ta": 988,
      "kisha": 989,
      "Ġshi": 990,
      "pindi": 991,
      "futa": 992,
      "ĠMagufuli": 993,
      "kono": 994,
      "jumbe": 995,
      "Ġjambo": 996,
      "ter": 997,
      "dhaa": 998,
      "hari": 999,
      "Ġwengine": 1000,
      "Ġmkuu": 1001,
      "Ġjana": 1002,
      "Ġlili": 1003,
      "LE": 1004,
      "Ba": 1005,
      "penda": 1006,
      "kari": 1007,
      "Ġhapo": 1008,
      "Ġzote": 1009,
      "nzania": 1010,
      "Ġata": 1011,
      "shimiwa": 1012,
      "or": 1013,
      ").": 1014,
      "Ġhaya": 1015,
      "Ġmfu": 1016,
      "Ġ2017": 1017,
      "ĠBara": 1018,
      "va": 1019,
      "nduzi": 1020,
      "Ġdha": 1021,
      "ĠJamhuri": 1022,
      "Ġ\"": 1023,
      "ĠYe": 1024,
      "en": 1025,
      "INI": 1026,
      "eneo": 1027,
      "Ġum": 1028,
      "Ali": 1029,
      "bara": 1030,
      "Ġtimu": 1031,
      "Ġzake": 1032,
      "JA": 1033,
      "Ġpicha": 1034,
      "ndwa": 1035,
      "Ġkabla": 1036,
      "âĢ¦": 1037,
      "Ġhai": 1038,
      "risha": 1039,
      "nsi": 1040,
      "ghu": 1041,
      "tenda": 1042,
      "Ġsehemu": 1043,
      "mali": 1044,
      "Ġalikuwa": 1045,
      "ĠLa": 1046,
      "Ġkweli": 1047,
      "ĠShi": 1048,
      "ĠDo": 1049,
      "Ġmkutano": 1050,
      "ĠJi": 1051,
      "kele": 1052,
      "amini": 1053,
      "ĠMarekani": 1054,
      "Rais": 1055,
      "ĠTA": 1056,
      "hn": 1057,
      "ĠHabari": 1058,
      "HE": 1059,
      "ĠKo": 1060,
      "Ġmo": 1061,
      "mataifa": 1062,
      "ili": 1063,
      "Ġkutumia": 1064,
      "Ġje": 1065,
      "Ġhe": 1066,
      "ĠKama": 1067,
      "Ġsheria": 1068,
      "TE": 1069,
      "Ġuchaguzi": 1070,
      "kao": 1071,
      "tukio": 1072,
      "Ġiki": 1073,
      "Ġt": 1074,
      "ghuli": 1075,
      "MI": 1076,
      "Ġhaku": 1077,
      "Ġndo": 1078,
      "dini": 1079,
      "ĠWilaya": 1080,
      "faa": 1081,
      "Ġmata": 1082,
      "Ġzinazo": 1083,
      "ume": 1084,
      "Ġwasi": 1085,
      "Ġmwisho": 1086,
      "Ġkuku": 1087,
      "Ġmjini": 1088,
      "ĠMwenyekiti": 1089,
      "Ġalipo": 1090,
      "ida": 1091,
      "ĠBo": 1092,
      "Ġndio": 1093,
      "ĠUmoja": 1094,
      "Ġmaeneo": 1095,
      "Ġyote": 1096,
      "ĠWizara": 1097,
      "Ġmuhimu": 1098,
      "tandao": 1099,
      "chumi": 1100,
      "ĠJohn": 1101,
      "Ġjamii": 1102,
      "liana": 1103,
      "Ġbe": 1104,
      "Ġmchezo": 1105,
      "ĠBunge": 1106,
      "ĠKenya": 1107,
      "Ġnyingine": 1108,
      "Ġwilaya": 1109,
      "GO": 1110,
      "Ġikiwa": 1111,
      "fsi": 1112,
      "Ġkup": 1113,
      "fya": 1114,
      "sani": 1115,
      "simami": 1116,
      "ĠPa": 1117,
      "mbea": 1118,
      "andishi": 1119,
      "zama": 1120,
      "Ġmaha": 1121,
      "Ġshule": 1122,
      "Ġbora": 1123,
      "FU": 1124,
      "Waziri": 1125,
      "wana": 1126,
      "njwa": 1127,
      "nyesha": 1128,
      "Ġso": 1129,
      "aibu": 1130,
      "Ġkuzi": 1131,
      "ĠWana": 1132,
      "Ġnyingi": 1133,
      "bisha": 1134,
      "ĠJuma": 1135,
      "Ġkabi": 1136,
      "lma": 1137,
      "ch": 1138,
      "Ġke": 1139,
      "fauti": 1140,
      "DE": 1141,
      "Ġkwani": 1142,
      "omba": 1143,
      "Ġelimu": 1144,
      "Ġsimu": 1145,
      "Ġyaliyo": 1146,
      "asisi": 1147,
      "Ġasili": 1148,
      "000": 1149,
      "siasa": 1150,
      "ĠAl": 1151,
      "Ki": 1152,
      "zeti": 1153,
      "Ġusi": 1154,
      "Ġvita": 1155,
      "tendaji": 1156,
      "Ni": 1157,
      "wanda": 1158,
      "ĠSu": 1159,
      "ran": 1160,
      "ezi": 1161,
      "Ġmbili": 1162,
      "yari": 1163,
      "dai": 1164,
      "Ġkusi": 1165,
      "Ġmkubwa": 1166,
      "Ġkura": 1167,
      "st": 1168,
      "vuti": 1169,
      "ywa": 1170,
      "Ġsha": 1171,
      "Ġbina": 1172,
      "dia": 1173,
      "Ġmaendeleo": 1174,
      "taa": 1175,
      "wali": 1176,
      "Ġnini": 1177,
      "icha": 1178,
      "!!": 1179,
      "huru": 1180,
      "ĠDe": 1181,
      "CHA": 1182,
      "chukua": 1183,
      "Ġze": 1184,
      "ĠAli": 1185,
      "Ġ6": 1186,
      "Ġlime": 1187,
      "gonjwa": 1188,
      "tikana": 1189,
      "Ġwako": 1190,
      "san": 1191,
      "Ġpili": 1192,
      "ĠLe": 1193,
      "Ġbia": 1194,
      "Ġ...": 1195,
      "Ġmasha": 1196,
      "Ġmkono": 1197,
      "jenzi": 1198,
      "biti": 1199,
      "tokeo": 1200,
      "Ġ10": 1201,
      "Ġkipindi": 1202,
      "Ġkabisa": 1203,
      "Vi": 1204,
      "ĠHu": 1205,
      "Ġtaifa": 1206,
      "shaji": 1207,
      "sti": 1208,
      "soma": 1209,
      "Ġyenye": 1210,
      "baya": 1211,
      "tumizi": 1212,
      "Ġmcha": 1213,
      "piga": 1214,
      "fika": 1215,
      "wani": 1216,
      "Ġyangu": 1217,
      "Ġbado": 1218,
      "Ġhasa": 1219,
      "Hi": 1220,
      "ĠSA": 1221,
      "wake": 1222,
      "Ġtena": 1223,
      "ĠUta": 1224,
      "fikia": 1225,
      "Ġkufu": 1226,
      "pika": 1227,
      "ende": 1228,
      "tolewa": 1229,
      "Ġuku": 1230,
      "Ġmazi": 1231,
      "Ġkwenda": 1232,
      "ĠKatika": 1233,
      "uzi": 1234,
      "Ġbiashara": 1235,
      "reza": 1236,
      "ĠWe": 1237,
      "rasa": 1238,
      "Ġambazo": 1239,
      "Ġ7": 1240,
      "ngira": 1241,
      "Katika": 1242,
      "lima": 1243,
      "Ġvile": 1244,
      "ĠMasha": 1245,
      "YE": 1246,
      "Ġkuanzi": 1247,
      "elezo": 1248,
      "penzi": 1249,
      "shoto": 1250,
      "RE": 1251,
      "Ġmbele": 1252,
      "zazi": 1253,
      "wezi": 1254,
      "Se": 1255,
      "mini": 1256,
      "ratibu": 1257,
      "Ġ200": 1258,
      "ME": 1259,
      "Ġupande": 1260,
      "lmashauri": 1261,
      "mbele": 1262,
      "tokea": 1263,
      "ĠâĢĺ": 1264,
      "Ġvijana": 1265,
      "chezaji": 1266,
      "Ġmwezi": 1267,
      "Ġmaka": 1268,
      "Ġnguvu": 1269,
      "toka": 1270,
      "ĠHAPA": 1271,
      "Ġuwezo": 1272,
      "Ġwewe": 1273,
      "ĠKATI": 1274,
      "lozi": 1275,
      "eleza": 1276,
      "ĠKuu": 1277,
      "jeru": 1278,
      "mla": 1279,
      "Ġwanafunzi": 1280,
      "zia": 1281,
      "ĠSo": 1282,
      "raka": 1283,
      "Ġwale": 1284,
      "Ġmkoani": 1285,
      "zee": 1286,
      "nti": 1287,
      "shindi": 1288,
      "fuata": 1289,
      "ca": 1290,
      "WE": 1291,
      "pango": 1292,
      "Ġyanayo": 1293,
      "Ġakizungumza": 1294,
      "YO": 1295,
      "NA": 1296,
      "ZO": 1297,
      "Ġzime": 1298,
      "hakikisha": 1299,
      "saba": 1300,
      "com": 1301,
      "smi": 1302,
      "mna": 1303,
      "tumishi": 1304,
      "Ġ8": 1305,
      "Ġaina": 1306,
      "Ġkiasi": 1307,
      "tanzania": 1308,
      "yombo": 1309,
      "dala": 1310,
      "ĠMI": 1311,
      "Ġbu": 1312,
      "tangaza": 1313,
      "tara": 1314,
      "kula": 1315,
      "lla": 1316,
      "....": 1317,
      "Ġtayari": 1318,
      "ishi": 1319,
      "Ġwakiwa": 1320,
      "ĠOfisi": 1321,
      "ĠKati": 1322,
      "ĠHo": 1323,
      "Ġtofauti": 1324,
      "ĠDA": 1325,
      "Ġtatu": 1326,
      "ĠJa": 1327,
      "pote": 1328,
      "Ġtarehe": 1329,
      "fadhi": 1330,
      "ĠChama": 1331,
      "rudi": 1332,
      "swahili": 1333,
      "hidi": 1334,
      "ĠRe": 1335,
      "ĠBA": 1336,
      "Ġafya": 1337,
      "th": 1338,
      ",âĢĿ": 1339,
      "takiwa": 1340,
      "Ġkiu": 1341,
      "ĠMaka": 1342,
      "doma": 1343,
      "Ġgani": 1344,
      "Ġnili": 1345,
      "geni": 1346,
      "TAN": 1347,
      "Ġmafu": 1348,
      "TOKE": 1349,
      "Ġduniani": 1350,
      "ĠKatibu": 1351,
      "ĠTAN": 1352,
      "Ġmsingi": 1353,
      "amuzi": 1354,
      "Ġbasi": 1355,
      "Ġmatumizi": 1356,
      "kutana": 1357,
      "Ġyeye": 1358,
      "Ġkuka": 1359,
      "Tu": 1360,
      "Ġkushiriki": 1361,
      "MO": 1362,
      "Ġkuja": 1363,
      "Ġwiki": 1364,
      "patikana": 1365,
      "wasiliano": 1366,
      "Ġunao": 1367,
      "enda": 1368,
      "kiliza": 1369,
      "MBA": 1370,
      "Ġchu": 1371,
      "Ġkule": 1372,
      "laka": 1373,
      "SHA": 1374,
      "pinduzi": 1375,
      "spita": 1376,
      "Ġsaa": 1377,
      "kumbu": 1378,
      "ĠPe": 1379,
      "saada": 1380,
      "sini": 1381,
      "wemo": 1382,
      "fo": 1383,
      "Ġnamna": 1384,
      "Ġhizi": 1385,
      "hami": 1386,
      "ĠDodoma": 1387,
      "Ġuliopita": 1388,
      "jenga": 1389,
      "Ġyame": 1390,
      "Ġhuko": 1391,
      "Ġmpaka": 1392,
      "Ġuka": 1393,
      "Ġmtoto": 1394,
      "Ġsuala": 1395,
      "ck": 1396,
      "gwa": 1397,
      "kwete": 1398,
      "refu": 1399,
      "Ġkushi": 1400,
      "ĠJamii": 1401,
      "Ġkampuni": 1402,
      "ĠRo": 1403,
      "ĠNchi": 1404,
      "ziki": 1405,
      "kra": 1406,
      "ngalia": 1407,
      "tendo": 1408,
      "kubali": 1409,
      "Ġjina": 1410,
      "labu": 1411,
      "Ġtume": 1412,
      "risto": 1413,
      "pokea": 1414,
      "ĠRa": 1415,
      "wango": 1416,
      "ĠMataifa": 1417,
      "ĠLu": 1418,
      "Ġmimi": 1419,
      "asa": 1420,
      "ĠMashariki": 1421,
      "Ġmali": 1422,
      "rahi": 1423,
      "amlaka": 1424,
      "RU": 1425,
      "BU": 1426,
      "Ġkutu": 1427,
      "Ġhakuna": 1428,
      "chungu": 1429,
      "Ġ2016": 1430,
      "ĠDu": 1431,
      "spitali": 1432,
      "ĠRu": 1433,
      "cheza": 1434,
      "fano": 1435,
      "ĠMkurugenzi": 1436,
      "Ġvitu": 1437,
      "Ġvizuri": 1438,
      "rufu": 1439,
      "ĠPolisi": 1440,
      "PI": 1441,
      "jiji": 1442,
      "Ġkuhakikisha": 1443,
      "KUU": 1444,
      "kosa": 1445,
      "ĠKikwete": 1446,
      "gombea": 1447,
      "NE": 1448,
      "nt": 1449,
      "waida": 1450,
      "goro": 1451,
      "Ġuki": 1452,
      "TOKEO": 1453,
      "husiano": 1454,
      "Ġ0": 1455,
      "Ġwaka": 1456,
      "Ġmashi": 1457,
      "BARI": 1458,
      "Ġute": 1459,
      "ĠMaendeleo": 1460,
      "mea": 1461,
      "ĠMW": 1462,
      "Ġlazima": 1463,
      "poti": 1464,
      "Ġanaye": 1465,
      "ĠPro": 1466,
      "nzani": 1467,
      "Ġsu": 1468,
      "dio": 1469,
      "Ġrasmi": 1470,
      "ry": 1471,
      "Ġpolisi": 1472,
      "rt": 1473,
      "ĠRA": 1474,
      "Ġasilimia": 1475,
      "Ġmita": 1476,
      "Ġmilioni": 1477,
      "badiliko": 1478,
      "Ġwanawake": 1479,
      "fanyakazi": 1480,
      "HO": 1481,
      "kweli": 1482,
      "ame": 1483,
      "ĠKATIKA": 1484,
      "amoto": 1485,
      "mbuli": 1486,
      "kee": 1487,
      "pewa": 1488,
      "Si": 1489,
      "nunu": 1490,
      "sanii": 1491,
      "elekea": 1492,
      "anu": 1493,
      "mke": 1494,
      "Ġshughuli": 1495,
      "Ġ.": 1496,
      "chuku": 1497,
      "Ġkusema": 1498,
      "heshimiwa": 1499,
      "ZAN": 1500,
      "rsa": 1501,
      "lani": 1502,
      "amilia": 1503,
      "ĠYesu": 1504,
      "Ġgha": 1505,
      "TAA": 1506,
      "Ġ9": 1507,
      "ĠTi": 1508,
      "tokana": 1509,
      "ĠNaibu": 1510,
      "lum": 1511,
      "Ġndiyo": 1512,
      "Ġfi": 1513,
      "chama": 1514,
      "nne": 1515,
      "Ġtangu": 1516,
      "ondo": 1517,
      "ĠChu": 1518,
      "PO": 1519,
      "Ġmujibu": 1520,
      "dadi": 1521,
      "Ġambalo": 1522,
      "pinzani": 1523,
      "Ġyo": 1524,
      "ngeze": 1525,
      "Ġsio": 1526,
      "Ġkawaida": 1527,
      "Ġjinsi": 1528,
      "Ġwazi": 1529,
      "Ġujenzi": 1530,
      "nisa": 1531,
      "Ġri": 1532,
      "ĠVI": 1533,
      "ĠNe": 1534,
      "Ġtatizo": 1535,
      "ZANIA": 1536,
      "GE": 1537,
      "Ġwala": 1538,
      "hamu": 1539,
      "Ġkita": 1540,
      "Ġrais": 1541,
      "Ġmengi": 1542,
      "ILI": 1543,
      "sheria": 1544,
      "Alisema": 1545,
      "fe": 1546,
      "rusha": 1547,
      "wepo": 1548,
      "Ġwaandishi": 1549,
      "ĠKusini": 1550,
      "ngea": 1551,
      "Ġilikuwa": 1552,
      "mbelea": 1553,
      ".âĢĿ": 1554,
      "dhali": 1555,
      "nyi": 1556,
      "Ġvyombo": 1557,
      "amua": 1558,
      "rua": 1559,
      "tangazo": 1560,
      "Ġkwake": 1561,
      "Ġ15": 1562,
      "Ġmengine": 1563,
      "Ġyu": 1564,
      "Ġmatokeo": 1565,
      "Ġmazingira": 1566,
      "ĠTe": 1567,
      "ane": 1568,
      "ngamoto": 1569,
      "ĠBaraza": 1570,
      "Aki": 1571,
      "Ġkuanza": 1572,
      "ongoza": 1573,
      "ĠChi": 1574,
      "ĠMaa": 1575,
      "log": 1576,
      "weke": 1577,
      "ngereza": 1578,
      "kumu": 1579,
      "Ġkuendelea": 1580,
      "fiti": 1581,
      "ĠAfya": 1582,
      "biki": 1583,
      "kundi": 1584,
      "ĠMwana": 1585,
      "fungua": 1586,
      "lii": 1587,
      "Ġkaribuni": 1588,
      "tiha": 1589,
      "tion": 1590,
      "Mi": 1591,
      "Ġmama": 1592,
      "Ġnime": 1593,
      "Habari": 1594,
      "ĠâĢĵ": 1595,
      "kataba": 1596,
      "mbua": 1597,
      "Ġnde": 1598,
      "Ġkuongeza": 1599,
      "Ġru": 1600,
      "Ġlengo": 1601,
      "DO": 1602,
      "mwe": 1603,
      "Ġmji": 1604,
      "ĠFa": 1605,
      "ĠDa": 1606,
      "jiwa": 1607,
      "ĠBw": 1608,
      "Ġ12": 1609,
      "ĠMapinduzi": 1610,
      "ngene": 1611,
      "Ġziara": 1612,
      "Ġmasuala": 1613,
      "Ġbarabara": 1614,
      "ĠDi": 1615,
      "ndishi": 1616,
      "Ġuwanja": 1617,
      "dau": 1618,
      "Ġmfumo": 1619,
      "safi": 1620,
      "Ġkuona": 1621,
      "Ġkilicho": 1622,
      "ĠSpika": 1623,
      "IFA": 1624,
      "Ġuha": 1625,
      "Ġmawa": 1626,
      "jiri": 1627,
      "ĠDunia": 1628,
      "Ġmechi": 1629,
      "ingereza": 1630,
      "Ġwangu": 1631,
      "ĠPombe": 1632,
      "dhu": 1633,
      "Ġamani": 1634,
      "rama": 1635,
      "jamii": 1636,
      "rdhi": 1637,
      "nisha": 1638,
      "Ġmao": 1639,
      "LO": 1640,
      "Ġusalama": 1641,
      "Ġsisi": 1642,
      "bore": 1643,
      "ĠKam": 1644,
      "Ġkimataifa": 1645,
      "shirikiano": 1646,
      "Ġmwingine": 1647,
      "ĠCo": 1648,
      "idha": 1649,
      "ssa": 1650,
      "onekana": 1651,
      "maa": 1652,
      "Ġumri": 1653,
      "dani": 1654,
      "ĠGe": 1655,
      "ĠHalmashauri": 1656,
      "ĠSimba": 1657,
      "Ġnyumbani": 1658,
      "ndari": 1659,
      "us": 1660,
      "mp": 1661,
      "deo": 1662,
      "ll": 1663,
      "Ġfursa": 1664,
      "Ġlililo": 1665,
      "Ġvina": 1666,
      "Ġofisi": 1667,
      "rea": 1668,
      "jerumani": 1669,
      "FUN": 1670,
      "islamu": 1671,
      "Ġmradi": 1672,
      "kika": 1673,
      "Ġchangamoto": 1674,
      "Ġnzuri": 1675,
      "mui": 1676,
      "Ġ2015": 1677,
      "kuja": 1678,
      "ĠLE": 1679,
      "ambia": 1680,
      "Ġmpango": 1681,
      "ĠIn": 1682,
      "Ġsekta": 1683,
      "Ġlu": 1684,
      "Ġyoyote": 1685,
      "ongoni": 1686,
      "BC": 1687,
      "ngan": 1688,
      "med": 1689,
      "Ġkupa": 1690,
      "Ġmaga": 1691,
      "Ġnya": 1692,
      "Ġja": 1693,
      "rti": 1694,
      "Ġmna": 1695,
      "Ġkuanzia": 1696,
      "ĠKiswahili": 1697,
      "fari": 1698,
      "Ġb": 1699,
      "ingia": 1700,
      "fafan": 1701,
      "Ġ/": 1702,
      "kabidhi": 1703,
      "siti": 1704,
      "rd": 1705,
      "Ġmafunzo": 1706,
      "Ġvye": 1707,
      "sababisha": 1708,
      "Kama": 1709,
      "misha": 1710,
      "pato": 1711,
      "Ġne": 1712,
      "ĠShe": 1713,
      "Ġtukio": 1714,
      "wapo": 1715,
      "tumika": 1716,
      "Ġmakubwa": 1717,
      "ĠKas": 1718,
      "rs": 1719,
      "it": 1720,
      "zali": 1721,
      "Ġmka": 1722,
      "ĠJeshi": 1723,
      "ĠMambo": 1724,
      "Ġunaweza": 1725,
      "Ġsawa": 1726,
      "guzi": 1727,
      "Ġzetu": 1728,
      "Ġndege": 1729,
      "paswa": 1730,
      "hama": 1731,
      "Ġmichezo": 1732,
      "Ġhiki": 1733,
      "reje": 1734,
      "Ġcho": 1735,
      "Ġ11": 1736,
      "ndano": 1737,
      "fuati": 1738,
      "staa": 1739,
      "ĠKamati": 1740,
      "Ġfamilia": 1741,
      "Ġlake": 1742,
      "baini": 1743,
      "Ġmaoni": 1744,
      "Ġklabu": 1745,
      "Ġkucha": 1746,
      "ĠHABARI": 1747,
      "Ġpale": 1748,
      "Mheshimiwa": 1749,
      "Ġkuliko": 1750,
      "ĠMheshimiwa": 1751,
      "ss": 1752,
      "fundi": 1753,
      "duni": 1754,
      "Ġzama": 1755,
      "UA": 1756,
      "ĠArusha": 1757,
      "Ġmfano": 1758,
      "Mkuu": 1759,
      "CH": 1760,
      "Ġumma": 1761,
      "ĠNo": 1762,
      "onyesha": 1763,
      "Ġwalikuwa": 1764,
      "Ġde": 1765,
      "jira": 1766,
      "fanywa": 1767,
      "peni": 1768,
      "Ġmaba": 1769,
      "Ġsalaam": 1770,
      "Ġkuondo": 1771,
      "zungumzo": 1772,
      "ĠSI": 1773,
      "jali": 1774,
      "ĠChuo": 1775,
      "hisi": 1776,
      "Ġkituo": 1777,
      "Ġmaelezo": 1778,
      "Ġuchumi": 1779,
      "Ġ'": 1780,
      "zea": 1781,
      "Ġuzi": 1782,
      "Ġnao": 1783,
      "Ġsiasa": 1784,
      "chana": 1785,
      "ndaa": 1786,
      "Ġ50": 1787,
      "dara": 1788,
      "biri": 1789,
      "ĠBen": 1790,
      "son": 1791,
      "maduni": 1792,
      "GI": 1793,
      "Ġnina": 1794,
      "Ġuongozi": 1795,
      "Ġuju": 1796,
      "singi": 1797,
      "rusi": 1798,
      "Ġmrefu": 1799,
      "lojia": 1800,
      "Ġmwili": 1801,
      "gr": 1802,
      "ĠÂ": 1803,
      "Ġkuweka": 1804,
      "Ġdo": 1805,
      "Ġkundi": 1806,
      "hudi": 1807,
      "ita": 1808,
      "Ġmwanamke": 1809,
      "teja": 1810,
      "amia": 1811,
      "Ġlugha": 1812,
      "ĠKimataifa": 1813,
      "ENYE": 1814,
      "Ġmabadiliko": 1815,
      "ES": 1816,
      "Ġtaasisi": 1817,
      "ĠAb": 1818,
      "mma": 1819,
      "Ġ[": 1820,
      "ibu": 1821,
      "Ġkile": 1822,
      "wezesha": 1823,
      "Je": 1824,
      "ĠLEO": 1825,
      "Ġmtandao": 1826,
      "fahamu": 1827,
      "biashara": 1828,
      "pende": 1829,
      "ndua": 1830,
      "pungu": 1831,
      "ZIRI": 1832,
      "ĠWatanzania": 1833,
      "ngana": 1834,
      "ali": 1835,
      "Ġbinafsi": 1836,
      "Ġmta": 1837,
      "tuma": 1838,
      "pele": 1839,
      "Hata": 1840,
      "ĠNI": 1841,
      "Ġtuli": 1842,
      "ĠBe": 1843,
      "Ġ14": 1844,
      "jeshi": 1845,
      "jo": 1846,
      "ĠMan": 1847,
      "Ġbali": 1848,
      "lai": 1849,
      "aidi": 1850,
      "Ġkuki": 1851,
      "man": 1852,
      "ĠAp": 1853,
      "ĠLakini": 1854,
      "ĠUhuru": 1855,
      "fanikio": 1856,
      "ĠKIDA": 1857,
      "ĠElimu": 1858,
      "Ġumeme": 1859,
      "Ġkiwango": 1860,
      "ĠUlaya": 1861,
      "Ġile": 1862,
      "kosi": 1863,
      "Ġhuru": 1864,
      "kwi": 1865,
      "dhara": 1866,
      "Ġzamani": 1867,
      "Ġdawa": 1868,
      "uaji": 1869,
      "ĠTANZANIA": 1870,
      "Ġnne": 1871,
      "Ġvyama": 1872,
      "mwengu": 1873,
      "pamba": 1874,
      "RIKA": 1875,
      "amano": 1876,
      "maliza": 1877,
      "Ġmsaada": 1878,
      "Ġuja": 1879,
      "Ġtovuti": 1880,
      "wahi": 1881,
      "Ġmke": 1882,
      "ribi": 1883,
      "ĠShirika": 1884,
      "DHA": 1885,
      "MBO": 1886,
      "shukuru": 1887,
      "Ġkula": 1888,
      "Ġwadau": 1889,
      "Ġhuwa": 1890,
      "Ġmiongoni": 1891,
      "Ġ18": 1892,
      "tarajiwa": 1893,
      "Ġhumo": 1894,
      "INA": 1895,
      "Ġukweli": 1896,
      "gumu": 1897,
      "ĠFe": 1898,
      "Ġdi": 1899,
      "ĠDW": 1900,
      "ĠHI": 1901,
      "kilishi": 1902,
      "Ġnia": 1903,
      "Ġsita": 1904,
      "ĠMoha": 1905,
      "ĠMwi": 1906,
      "ĠMbe": 1907,
      "fanikiwa": 1908,
      "Ġlo": 1909,
      "FAN": 1910,
      "Ġmbaya": 1911,
      "ĠYanga": 1912,
      "Ġkijamii": 1913,
      "lea": 1914,
      "Matukio": 1915,
      "pokuwa": 1916,
      "Ġkuvu": 1917,
      "ndugu": 1918,
      "Ġmoyo": 1919,
      "ĠVYA": 1920,
      "Ġkadhaa": 1921,
      "Ġkinacho": 1922,
      "ĠBwana": 1923,
      "Una": 1924,
      "Ġmatatizo": 1925,
      "ĠKatiba": 1926,
      "husika": 1927,
      "Ġkujenga": 1928,
      "Ġusiku": 1929,
      "Ġnamba": 1930,
      "ĠMaha": 1931,
      "MBE": 1932,
      "Ġmazungumzo": 1933,
      "keleza": 1934,
      "Ġche": 1935,
      "Ġkikao": 1936,
      "Ġre": 1937,
      "Ġ16": 1938,
      "dhani": 1939,
      "Ġndoa": 1940,
      "ted": 1941,
      "Ġujumbe": 1942,
      "Ġidadi": 1943,
      "zuia": 1944,
      "il": 1945,
      "neno": 1946,
      "andika": 1947,
      "Ġkiongozi": 1948,
      "lingi": 1949,
      "ĠMWA": 1950,
      "staafu": 1951,
      "Ġtuta": 1952,
      "ĠMwanza": 1953,
      "liki": 1954,
      "nyo": 1955,
      "Ġkumu": 1956,
      "Ġkufikia": 1957,
      "Ġkisa": 1958,
      "ĠMKUU": 1959,
      "rais": 1960,
      "La": 1961,
      "Ġkisiasa": 1962,
      "sheni": 1963,
      "katifu": 1964,
      "ZE": 1965,
      "kazini": 1966,
      "Ġbidhaa": 1967,
      "ĠUwanja": 1968,
      "ĠSE": 1969,
      "ngatia": 1970,
      "ISHA": 1971,
      "Ġilivyo": 1972,
      "ĠMbunge": 1973,
      "ĠGa": 1974,
      "hara": 1975,
      "ĠTo": 1976,
      "tea": 1977,
      "storia": 1978,
      "ĠMawasiliano": 1979,
      "Ġisi": 1980,
      "ĠKIDATO": 1981,
      "ĠSheria": 1982,
      "Ġimani": 1983,
      "Ġnaye": 1984,
      "dhibiti": 1985,
      "Ġmaneno": 1986,
      "Ġmatangazo": 1987,
      "ĠTume": 1988,
      "Ġhau": 1989,
      "Ġchakula": 1990,
      "ĠYo": 1991,
      "Ġshilingi": 1992,
      "juli": 1993,
      "Ġkesi": 1994,
      "Ġwawili": 1995,
      "nyu": 1996,
      "Ġutu": 1997,
      "simamia": 1998,
      "Mwa": 1999,
      "Ġ30": 2000,
      "Ġkuti": 2001,
      "Ġuko": 2002,
      "neja": 2003,
      "hihi": 2004,
      "fuatilia": 2005,
      "Ġambacho": 2006,
      "muiya": 2007,
      "Ġ13": 2008,
      "ĠBalozi": 2009,
      "ĠLigi": 2010,
      "Ġndugu": 2011,
      "Ġmuziki": 2012,
      "ts": 2013,
      "zungumzia": 2014,
      "miza": 2015,
      "itwa": 2016,
      "lme": 2017,
      "Ġkuingia": 2018,
      "shia": 2019,
      "RO": 2020,
      "kwenda": 2021,
      "ĠHU": 2022,
      "boresha": 2023,
      "dema": 2024,
      "ĠLeo": 2025,
      "ok": 2026,
      "ĠNye": 2027,
      "husiana": 2028,
      "fadhali": 2029,
      "Ġawali": 2030,
      "swali": 2031,
      "wamu": 2032,
      "Ġmwanzo": 2033,
      "Ġal": 2034,
      "raha": 2035,
      "Ġtha": 2036,
      "Ho": 2037,
      "kulu": 2038,
      "lizi": 2039,
      "Ġwabunge": 2040,
      "elewa": 2041,
      "Ġmwenyewe": 2042,
      "Ġkujua": 2043,
      "Ġgharama": 2044,
      "shindwa": 2045,
      "ĠHe": 2046,
      "sitiza": 2047,
      "fla": 2048,
      "Ġkupiga": 2049,
      "pira": 2050,
      "Ġpekee": 2051,
      "Ġchake": 2052,
      "Ġdini": 2053,
      "mokra": 2054,
      "ĠUchaguzi": 2055,
      "Ġmauaji": 2056,
      "Ġkupungu": 2057,
      "Ġasi": 2058,
      "Ġbei": 2059,
      "kopo": 2060,
      "Ġin": 2061,
      "Ġbinadamu": 2062,
      "Ġbadala": 2063,
      "ĠJU": 2064,
      "Ġwaa": 2065,
      "chunguzi": 2066,
      "ĠJA": 2067,
      "ingi": 2068,
      "Picha": 2069,
      "Ġhuyu": 2070,
      "sali": 2071,
      "Ġmaju": 2072,
      "Ġupe": 2073,
      "es": 2074,
      "tege": 2075,
      "poteza": 2076,
      "ĠUna": 2077,
      "lami": 2078,
      "Ġ25": 2079,
      "rere": 2080,
      "ĠMfu": 2081,
      "Ġnasi": 2082,
      "Ġnyuma": 2083,
      "kno": 2084,
      "Wana": 2085,
      "Ġhospitali": 2086,
      "Ġardhi": 2087,
      "Ġwanachama": 2088,
      "fariki": 2089,
      "Ġhatu": 2090,
      "Ġkidogo": 2091,
      "Ġiliyopita": 2092,
      "Ġwafanyakazi": 2093,
      "Ġbunge": 2094,
      "KT": 2095,
      "buni": 2096,
      "Ġhaja": 2097,
      "Ġukurasa": 2098,
      "ĠUingereza": 2099,
      "mbia": 2100,
      "Ġmaarufu": 2101,
      "dumu": 2102,
      "CHI": 2103,
      "Maka": 2104,
      "Ġmafanikio": 2105,
      "Ġshe": 2106,
      "Ġvili": 2107,
      "Taarifa": 2108,
      "zaliwa": 2109,
      "miliki": 2110,
      "bora": 2111,
      "Baada": 2112,
      "Ġmaalum": 2113,
      "ĠMtu": 2114,
      "WAN": 2115,
      "VI": 2116,
      "Hu": 2117,
      "Ġkampeni": 2118,
      "ly": 2119,
      "Ġkuya": 2120,
      "ĠSta": 2121,
      "Ġjimbo": 2122,
      "pili": 2123,
      "Ġkuchukua": 2124,
      "ĠHii": 2125,
      "Ġmsimu": 2126,
      "kelezaji": 2127,
      "ungani": 2128,
      "sikiliza": 2129,
      "Ġkilimo": 2130,
      "SE": 2131,
      "Ġwatumishi": 2132,
      "Ġmaja": 2133,
      "Ġ17": 2134,
      "undo": 2135,
      "Ġlinalo": 2136,
      "Ġwachezaji": 2137,
      "Ġaliyekuwa": 2138,
      "Ġmiradi": 2139,
      "thibiti": 2140,
      "Ġkisheria": 2141,
      "SU": 2142,
      "falme": 2143,
      "Katibu": 2144,
      "Ġpro": 2145,
      "giza": 2146,
      "ĠWI": 2147,
      "ĠRAIS": 2148,
      "eleke": 2149,
      "Ġule": 2150,
      "ĠLo": 2151,
      "funza": 2152,
      "ganda": 2153,
      "ĠNya": 2154,
      "Ġila": 2155,
      "jeti": 2156,
      "Aidha": 2157,
      "Ġakim": 2158,
      "kato": 2159,
      "ktari": 2160,
      "ĠFedha": 2161,
      "Ġkauli": 2162,
      "ĠJI": 2163,
      "ĠNyerere": 2164,
      "Ġngo": 2165,
      "rehemu": 2166,
      "Ġkime": 2167,
      "Ġharaka": 2168,
      "pte": 2169,
      "mokrasia": 2170,
      "marisha": 2171,
      "Ġvifaa": 2172,
      "Ġgari": 2173,
      "ĠMakamu": 2174,
      "Ġbarua": 2175,
      "ĠMbeya": 2176,
      "Ġushindi": 2177,
      "tembelea": 2178,
      "Ġanasema": 2179,
      "ĠMU": 2180,
      "Ġraia": 2181,
      "blia": 2182,
      "FYA": 2183,
      "Ġhatari": 2184,
      "hifadhi": 2185,
      "book": 2186,
      "ĠTaasisi": 2187,
      "spa": 2188,
      "Ġmgo": 2189,
      "ĠMtendaji": 2190,
      "CCM": 2191,
      "ĠMjini": 2192,
      "biwa": 2193,
      "DEMA": 2194,
      "ĠMwaka": 2195,
      "2018": 2196,
      "Ġjeshi": 2197,
      "pema": 2198,
      "ĠKIS": 2199,
      "Ġ:": 2200,
      "ĠMwenyezi": 2201,
      "ĠBBC": 2202,
      "Ġhati": 2203,
      "tokeza": 2204,
      "CO": 2205,
      "knolojia": 2206,
      "Ġwenyewe": 2207,
      "Ġwenza": 2208,
      "ĠSha": 2209,
      "Ġmas": 2210,
      "waji": 2211,
      "tisha": 2212,
      "takayo": 2213,
      "ĠShu": 2214,
      "cebook": 2215,
      "Ġmaso": 2216,
      "Ġhoja": 2217,
      "ĠMaji": 2218,
      "gh": 2219,
      "Ame": 2220,
      "gua": 2221,
      "ws": 2222,
      "zidi": 2223,
      "Ġwafu": 2224,
      "Ġitakuwa": 2225,
      "ĠMATOKEO": 2226,
      "WI": 2227,
      "ĠKikuu": 2228,
      "Ġtano": 2229,
      "bwe": 2230,
      "Ġmiezi": 2231,
      "Ġsafari": 2232,
      "Ġpesa": 2233,
      "ĠDAR": 2234,
      "ĠGo": 2235,
      "Ġaliyo": 2236,
      "ĠIs": 2237,
      "Ġnga": 2238,
      "ld": 2239,
      "Ġsoka": 2240,
      "ĠMwalimu": 2241,
      "yansi": 2242,
      "gazeti": 2243,
      "Ġmataifa": 2244,
      "Ġsaba": 2245,
      "ĠMB": 2246,
      "ĠUli": 2247,
      "ĠChina": 2248,
      "ĠUjerumani": 2249,
      "Mkurugenzi": 2250,
      "takao": 2251,
      "Ġ2013": 2252,
      "Ġmafuta": 2253,
      "rodha": 2254,
      "Ġkuboresha": 2255,
      "nganyi": 2256,
      "Ġhazi": 2257,
      "jui": 2258,
      "shinda": 2259,
      "tihani": 2260,
      "Ġfara": 2261,
      "shirika": 2262,
      "Ġfulani": 2263,
      "Ġwaziri": 2264,
      "Ġikiwemo": 2265,
      "Ġusafi": 2266,
      "JINI": 2267,
      "Ġushirikiano": 2268,
      "ĠMta": 2269,
      "Ġzita": 2270,
      "Ġkulia": 2271,
      "fuatia": 2272,
      "tiwa": 2273,
      "dri": 2274,
      "Ġuamuzi": 2275,
      "ĠKristo": 2276,
      "chwa": 2277,
      "samba": 2278,
      "ĠJijini": 2279,
      "Ġmoto": 2280,
      "Ġsahihi": 2281,
      "ĠMO": 2282,
      "ĠJimbo": 2283,
      "Ġjumla": 2284,
      "zimi": 2285,
      "Ġkuweza": 2286,
      "ĠMahakama": 2287,
      "PYA": 2288,
      "Baadhi": 2289,
      "ĠJanu": 2290,
      "funga": 2291,
      "Ġupinzani": 2292,
      "Ġkodi": 2293,
      "Ġkamati": 2294,
      "ĠNove": 2295,
      "Ġuhuru": 2296,
      "simamizi": 2297,
      "kushoto": 2298,
      "ĠJumata": 2299,
      "land": 2300,
      "pwa": 2301,
      "ĠIkulu": 2302,
      "shughuli": 2303,
      "shambu": 2304,
      "ster": 2305,
      "Ġtabia": 2306,
      "kulima": 2307,
      "tta": 2308,
      "ĠHata": 2309,
      "kamili": 2310,
      "Ġmamlaka": 2311,
      "ongeza": 2312,
      "al": 2313,
      "Ġkima": 2314,
      "kondari": 2315,
      "UNGU": 2316,
      "Ġama": 2317,
      "ĠSh": 2318,
      "VU": 2319,
      "ĠPI": 2320,
      "lote": 2321,
      "ĠZi": 2322,
      "ONGO": 2323,
      "Ġmikoa": 2324,
      "ĠKanisa": 2325,
      "Ġukumbi": 2326,
      "ĠBenki": 2327,
      "nki": 2328,
      "shuhu": 2329,
      "kulia": 2330,
      "Ġc": 2331,
      "Ġmagari": 2332,
      "Ġmkataba": 2333,
      "Ġkushoto": 2334,
      "nunua": 2335,
      "Ġamewa": 2336,
      "ĠTanga": 2337,
      "Ġkikubwa": 2338,
      "baki": 2339,
      "ĠMKO": 2340,
      "nyama": 2341,
      "MIS": 2342,
      "daiwa": 2343,
      "ĠWatu": 2344,
      "ĠBO": 2345,
      "muhimu": 2346,
      "sasi": 2347,
      "fisadi": 2348,
      "sika": 2349,
      "Ġmdogo": 2350,
      "Ġutekelezaji": 2351,
      "ssan": 2352,
      "Ġkushirikiana": 2353,
      "ĠWANA": 2354,
      "ĠMara": 2355,
      "Ġajira": 2356,
      "Ġambavyo": 2357,
      "pendeke": 2358,
      "Ġas": 2359,
      "eli": 2360,
      "Ġshirika": 2361,
      "uliza": 2362,
      "ĠTU": 2363,
      "ĠMichezo": 2364,
      "sikia": 2365,
      "FANYA": 2366,
      "Naibu": 2367,
      "ĠKUTO": 2368,
      "Ġ21": 2369,
      "HILI": 2370,
      "akaya": 2371,
      "Ġaliwa": 2372,
      "Ġyata": 2373,
      "endesha": 2374,
      "ĠMaja": 2375,
      "Ġkupunguza": 2376,
      "nywa": 2377,
      "rani": 2378,
      "ĠSepte": 2379,
      "Ġhistoria": 2380,
      "toba": 2381,
      "ĠRi": 2382,
      "Ġyeyote": 2383,
      "siliana": 2384,
      "Ġ23": 2385,
      "Ġbilioni": 2386,
      "Mwenye": 2387,
      "ĠZa": 2388,
      "ngeneza": 2389,
      "Wakati": 2390,
      "Ġutawala": 2391,
      "Ġviwanja": 2392,
      "Ġwasio": 2393,
      "Ġthamani": 2394,
      "Ġmifu": 2395,
      "ema": 2396,
      "Ġmapenzi": 2397,
      "Ġuzinduzi": 2398,
      "Ġligi": 2399,
      "subu": 2400,
      "Ġuma": 2401,
      "Ġkubadili": 2402,
      "tha": 2403,
      "ĠKazi": 2404,
      "iashara": 2405,
      "ph": 2406,
      "ĠSiku": 2407,
      "Ġinaweza": 2408,
      "Ġviwanda": 2409,
      "AM": 2410,
      "ĠKampuni": 2411,
      "fanyabiashara": 2412,
      "DU": 2413,
      "lengo": 2414,
      "KIO": 2415,
      "Ġwateja": 2416,
      "shima": 2417,
      "patia": 2418,
      "kamatwa": 2419,
      "ĠUni": 2420,
      "Ġakitoa": 2421,
      "ĠNNE": 2422,
      "jijini": 2423,
      "10": 2424,
      "ul": 2425,
      "lumu": 2426,
      "Ġmau": 2427,
      "Ġ*": 2428,
      "Ġmawazo": 2429,
      "Ġutaratibu": 2430,
      "zamo": 2431,
      "ĠHassan": 2432,
      "subuhi": 2433,
      "usu": 2434,
      "Ġmatukio": 2435,
      "Ġkifo": 2436,
      "jaa": 2437,
      "Ġro": 2438,
      "Ġujumla": 2439,
      "Hii": 2440,
      "Ġwanaume": 2441,
      "ĠQ": 2442,
      "kri": 2443,
      "Ġmapema": 2444,
      "ĠJose": 2445,
      "Ġkucheza": 2446,
      "Akizungumza": 2447,
      "ĠJin": 2448,
      "Ġbaba": 2449,
      "ver": 2450,
      "dato": 2451,
      "ĠMoro": 2452,
      "Ġmzuri": 2453,
      "Ġajali": 2454,
      "panga": 2455,
      "Ġkutafuta": 2456,
      "ĠApri": 2457,
      "ad": 2458,
      "husisha": 2459,
      "Ġkuleta": 2460,
      "ENZI": 2461,
      "yumba": 2462,
      "bingwa": 2463,
      "ĠAu": 2464,
      "mbuzi": 2465,
      "Ġyale": 2466,
      "ĠMWAKA": 2467,
      "MATOKEO": 2468,
      "Ġ24": 2469,
      "changia": 2470,
      "Ġwamekuwa": 2471,
      "Lakini": 2472,
      "unti": 2473,
      "Ġtafadhali": 2474,
      "dugu": 2475,
      "Ġkasi": 2476,
      "ANO": 2477,
      "Ġvideo": 2478,
      "ongozo": 2479,
      "endeleza": 2480,
      "Ġlolote": 2481,
      "ĠJakaya": 2482,
      "ĠNovemba": 2483,
      "ktoba": 2484,
      "Ġimekuwa": 2485,
      "Ġkijiji": 2486,
      "ĠMkutano": 2487,
      "mbaji": 2488,
      "ur": 2489,
      "Ġuchunguzi": 2490,
      "ransa": 2491,
      "Ġkumi": 2492,
      "Ġmasi": 2493,
      "tt": 2494,
      "Ġkusaidia": 2495,
      "Ġvitendo": 2496,
      "tani": 2497,
      "Wi": 2498,
      "ĠPicha": 2499,
      "sajili": 2500,
      "spaa": 2501,
      "Ġtoka": 2502,
      "siri": 2503,
      "Ġugonjwa": 2504,
      "Ġndiye": 2505,
      "Ġdakika": 2506,
      "Ġneno": 2507,
      "aimu": 2508,
      "faransa": 2509,
      "ir": 2510,
      "wezekana": 2511,
      "Ġkuangalia": 2512,
      "ĠMama": 2513,
      "ĠNje": 2514,
      "ĠHaki": 2515,
      "wekwa": 2516,
      "julikana": 2517,
      "Ġdola": 2518,
      "ĠFeb": 2519,
      "Ġlita": 2520,
      "nispaa": 2521,
      "fesa": 2522,
      "Ġakili": 2523,
      "Ġmahakama": 2524,
      "ĠMamlaka": 2525,
      "elezea": 2526,
      "shanga": 2527,
      "Ġkupamba": 2528,
      "Ġkuhu": 2529,
      "zoe": 2530,
      "Ġkiuchumi": 2531,
      "ĠUganda": 2532,
      "Ġkitaifa": 2533,
      "Ġwatanzania": 2534,
      "furahi": 2535,
      "??": 2536,
      "gramu": 2537,
      "tuba": 2538,
      "amaa": 2539,
      "ĠWatoto": 2540,
      "YU": 2541,
      "Ġ2012": 2542,
      "ngezeka": 2543,
      "Ġngazi": 2544,
      "Ġmashindano": 2545,
      "Home": 2546,
      "Ġjuhudi": 2547,
      "Me": 2548,
      "ĠFacebook": 2549,
      "Ġkutaka": 2550,
      "frika": 2551,
      "kala": 2552,
      "Ġsera": 2553,
      "Ġuhusiano": 2554,
      "tuo": 2555,
      "ĠAna": 2556,
      "Ġwakazi": 2557,
      "ĠMkoani": 2558,
      "hamia": 2559,
      "Tuna": 2560,
      "Ġumuhimu": 2561,
      "simu": 2562,
      "Ġmati": 2563,
      "ĠBiblia": 2564,
      "tegemea": 2565,
      "Ġuhaki": 2566,
      "Mwana": 2567,
      "pongeza": 2568,
      "Ġulinzi": 2569,
      "25": 2570,
      "Ġkata": 2571,
      "Ġnani": 2572,
      "Ġkutosha": 2573,
      "fafanuzi": 2574,
      "lli": 2575,
      "Ġkuishi": 2576,
      "Ġkutekeleza": 2577,
      "Ġsiyo": 2578,
      "nyeza": 2579,
      "ĠKata": 2580,
      "zika": 2581,
      "Ġzisi": 2582,
      "misho": 2583,
      "Ġsoko": 2584,
      "Ġulimwengu": 2585,
      "SHI": 2586,
      "tumiaji": 2587,
      "Ġrahisi": 2588,
      "semba": 2589,
      "ĠOktoba": 2590,
      "pia": 2591,
      "Ġasubuhi": 2592,
      "Ġfilamu": 2593,
      "chache": 2594,
      "Ko": 2595,
      "ANGA": 2596,
      "ĠHAYA": 2597,
      "guu": 2598,
      "Ġbaadaye": 2599,
      "DHI": 2600,
      "Ġanaweza": 2601,
      "ringa": 2602,
      "ridhi": 2603,
      "Ġufu": 2604,
      "ĠAgo": 2605,
      "RASA": 2606,
      "Ġalama": 2607,
      "hana": 2608,
      "kaa": 2609,
      "UNI": 2610,
      "les": 2611,
      "lifu": 2612,
      "yuo": 2613,
      "chuano": 2614,
      "Ġge": 2615,
      "Ġsifa": 2616,
      "ĠChe": 2617,
      "leta": 2618,
      "SO": 2619,
      "gharibi": 2620,
      "ĠMohamed": 2621,
      "ĠBodi": 2622,
      "Ġfaragha": 2623,
      "Sa": 2624,
      "pambano": 2625,
      "ĠTuna": 2626,
      "Ġwajumbe": 2627,
      "Ġmawasiliano": 2628,
      "kano": 2629,
      "Ġkisha": 2630,
      "Ġkuwepo": 2631,
      "LU": 2632,
      "Ġkatiba": 2633,
      "Ġwalimu": 2634,
      "Ġwilayani": 2635,
      "Ġndogo": 2636,
      "Ġheshima": 2637,
      "Ġkupambana": 2638,
      "ĠBiashara": 2639,
      "RAIS": 2640,
      "ĠKombe": 2641,
      "nuni": 2642,
      "ĠSeptemba": 2643,
      "Ġutafiti": 2644,
      "lahi": 2645,
      "Ġ22": 2646,
      "Ġhafla": 2647,
      "ĠChadema": 2648,
      "Ġvituo": 2649,
      "Ġwapi": 2650,
      "Ġmahali": 2651,
      "Ġusha": 2652,
      "ĠKili": 2653,
      "Ġawamu": 2654,
      "RIFA": 2655,
      "ĠKaskazini": 2656,
      "Ġzenye": 2657,
      "ngawa": 2658,
      "ĠAme": 2659,
      "Mwenyekiti": 2660,
      "Ġmitandao": 2661,
      "Ġkwao": 2662,
      "OTE": 2663,
      "Ġkim": 2664,
      "kuna": 2665,
      "mail": 2666,
      "amond": 2667,
      "Ġ2014": 2668,
      "hoji": 2669,
      "LIWA": 2670,
      "Ġmakundi": 2671,
      "kristo": 2672,
      "ĠCHADEMA": 2673,
      "WAZIRI": 2674,
      "sisitiza": 2675,
      ".\"": 2676,
      "Ġmadai": 2677,
      "mina": 2678,
      "FF": 2679,
      "kufu": 2680,
      "ĠAr": 2681,
      "saha": 2682,
      "ZAMA": 2683,
      "goma": 2684,
      "Ġuba": 2685,
      "line": 2686,
      "ĠIdara": 2687,
      "ĠPICHA": 2688,
      "KATI": 2689,
      "Ġwazazi": 2690,
      "Ġhusika": 2691,
      "ĠJulai": 2692,
      "Ġnyo": 2693,
      "ĠIringa": 2694,
      "pate": 2695,
      "ngwe": 2696,
      "Ġmkononi": 2697,
      "Ġ100": 2698,
      "shambulia": 2699,
      "dhuria": 2700,
      "Ġnayo": 2701,
      "Ġkuelekea": 2702,
      "kabiliana": 2703,
      "Ġkusoma": 2704,
      "ĠFebru": 2705,
      "Ġfaida": 2706,
      "ambu": 2707,
      "taja": 2708,
      "hati": 2709,
      "BO": 2710,
      "Ġmacho": 2711,
      "Ġwapo": 2712,
      "Ġgazeti": 2713,
      "uka": 2714,
      "Ġmvu": 2715,
      "GUFU": 2716,
      "Ġkujiunga": 2717,
      "ISI": 2718,
      "Ġvilivyo": 2719,
      "Ġmapato": 2720,
      "Ġdamu": 2721,
      "Ġchuo": 2722,
      "ĠCH": 2723,
      "er": 2724,
      "chagua": 2725,
      "Ġ199": 2726,
      "ĠAgosti": 2727,
      "GUFULI": 2728,
      "ĠMajaliwa": 2729,
      "UF": 2730,
      "Ġkanuni": 2731,
      "takapo": 2732,
      "ĠJuni": 2733,
      "Cha": 2734,
      "ĠMagazeti": 2735,
      "salama": 2736,
      "sanya": 2737,
      "wekezaji": 2738,
      "ĠWALI": 2739,
      "zalishaji": 2740,
      "ĠHai": 2741,
      "safiri": 2742,
      "ĠMei": 2743,
      "Ġmalengo": 2744,
      "ĠJumuiya": 2745,
      "Ġuweze": 2746,
      "zam": 2747,
      "Ġwakuu": 2748,
      "Ġkuwasili": 2749,
      "ĠSALA": 2750,
      "ĠMka": 2751,
      "Ġmahitaji": 2752,
      "Hivi": 2753,
      "ĠWananchi": 2754,
      "Mu": 2755,
      "ĠIsra": 2756,
      "Ġuliofanyika": 2757,
      "ĠJanuari": 2758,
      "TUKIO": 2759,
      "Ġkufanyika": 2760,
      "ĠMha": 2761,
      "Ju": 2762,
      "Ġsherehe": 2763,
      "bamba": 2764,
      "ĠMachi": 2765,
      "ol": 2766,
      "reke": 2767,
      "lalami": 2768,
      "Sera": 2769,
      "lali": 2770,
      "Ġrafiki": 2771,
      "airo": 2772,
      "ĠHospitali": 2773,
      "Ġhalisi": 2774,
      "Ġzisizo": 2775,
      "ENI": 2776,
      "Ġkushindwa": 2777,
      "Ġnita": 2778,
      "chukuliwa": 2779,
      "ĠMwe": 2780,
      "Ġmchakato": 2781,
      "ĠUtalii": 2782,
      "ĠVijana": 2783,
      "ene": 2784,
      "Kuhusu": 2785,
      "kriba": 2786,
      "Ġfuraha": 2787,
      "Ġbajeti": 2788,
      "simamo": 2789,
      "Ġkinyu": 2790,
      "RIKALI": 2791,
      "ruhusu": 2792,
      "ĠES": 2793,
      "hadi": 2794,
      "Ġsauti": 2795,
      "Ġwizara": 2796,
      "ĠNdani": 2797,
      "hiti": 2798,
      "Ġyenu": 2799,
      "Ġmaswali": 2800,
      "Ġnye": 2801,
      "Ġkuimarisha": 2802,
      "chaguliwa": 2803,
      "katika": 2804,
      "ĠMAGUFULI": 2805,
      "rejea": 2806,
      "MOJA": 2807,
      "Ġmajina": 2808,
      "unganisho": 2809,
      "keti": 2810,
      "jabu": 2811,
      "vya": 2812,
      "WAHILI": 2813,
      "Ġmakini": 2814,
      "Ġkuzingatia": 2815,
      "kodi": 2816,
      "ĠPia": 2817,
      "Ġkuhusiana": 2818,
      "ĠUmma": 2819,
      "Serikali": 2820,
      "TOTO": 2821,
      "onesha": 2822,
      "hiri": 2823,
      "inali": 2824,
      "jitokeza": 2825,
      "bika": 2826,
      "nce": 2827,
      "jeruhi": 2828,
      "Ġchanzo": 2829,
      "Ġwimbo": 2830,
      "ndisi": 2831,
      "ĠPA": 2832,
      "Ġumoja": 2833,
      "wadi": 2834,
      "ongozwa": 2835,
      "Ġbaina": 2836,
      "ING": 2837,
      "Ġkanisa": 2838,
      "Ġkisasa": 2839,
      "ĠKisiasa": 2840,
      "ĠSy": 2841,
      "Ġmadini": 2842,
      "habari": 2843,
      "Ġmume": 2844,
      "ĠMh": 2845,
      "Ġkitabu": 2846,
      "Masha": 2847,
      "ĠBaba": 2848,
      "lim": 2849,
      "18": 2850,
      ",\"": 2851,
      "Ġmiwili": 2852,
      "chote": 2853,
      "ĠBaada": 2854,
      "shuhudia": 2855,
      "lezi": 2856,
      "Ġkesho": 2857,
      "Ġthe": 2858,
      "epu": 2859,
      "fanyia": 2860,
      "ĠIna": 2861,
      "Ġmchezaji": 2862,
      "pp": 2863,
      "nze": 2864,
      "IDI": 2865,
      "Ġfainali": 2866,
      "Ġmipango": 2867,
      "Ġmazuri": 2868,
      "subiri": 2869,
      "kuwepo": 2870,
      "amili": 2871,
      "Ġblog": 2872,
      "Pia": 2873,
      "saidizi": 2874,
      "hariri": 2875,
      "laha": 2876,
      "elea": 2877,
      "Ġmabao": 2878,
      "ĠKW": 2879,
      "id": 2880,
      "wote": 2881,
      "Ġmaamuzi": 2882,
      "ĠUfaransa": 2883,
      "Ġwakulima": 2884,
      "Makamu": 2885,
      "ONI": 2886,
      "ww": 2887,
      "Ġaskari": 2888,
      "Ġkufuatia": 2889,
      "ĠProfesa": 2890,
      "Ġmatibabu": 2891,
      "2017": 2892,
      "fanye": 2893,
      "jengwa": 2894,
      "Ġuhakika": 2895,
      "ruki": 2896,
      "ĠJIJINI": 2897,
      "kubaliano": 2898,
      "Ġmasomo": 2899,
      "ton": 2900,
      "ĠKwanza": 2901,
      "nekana": 2902,
      "Ġwasanii": 2903,
      "Ġika": 2904,
      "Ġkinyume": 2905,
      "Ġyule": 2906,
      "kwimu": 2907,
      "mamo": 2908,
      "Ġiwe": 2909,
      "Ġpepe": 2910,
      "DHAA": 2911,
      "ndaliwa": 2912,
      "Ġjioni": 2913,
      "ĠMorogoro": 2914,
      "mbwa": 2915,
      "bina": 2916,
      "Ġtaratibu": 2917,
      "ĠSana": 2918,
      "Ġyaani": 2919,
      "tambua": 2920,
      "ĠMTAA": 2921,
      "lam": 2922,
      "anga": 2923,
      "Ġkusikiliza": 2924,
      "rikisho": 2925,
      "ombe": 2926,
      "ĠKISWAHILI": 2927,
      "Ġmichuano": 2928,
      "wazi": 2929,
      "Ġnzima": 2930,
      "mamosi": 2931,
      "Ġziki": 2932,
      "Ġwaliokuwa": 2933,
      "kofu": 2934,
      "Ġvyema": 2935,
      "11": 2936,
      "lle": 2937,
      "Ġkuni": 2938,
      "ĠUnited": 2939,
      "Ġmaombi": 2940,
      "Ġlicha": 2941,
      "ud": 2942,
      "simama": 2943,
      "kataa": 2944,
      "Ġvingine": 2945,
      "Ġmajukumu": 2946,
      "port": 2947,
      "Ġuvu": 2948,
      "ĠShule": 2949,
      "ity": 2950,
      "Ġurais": 2951,
      "ĠPi": 2952,
      "Ġmakala": 2953,
      "JU": 2954,
      "IDHAA": 2955,
      "Ġbenki": 2956,
      "niki": 2957,
      "gizo": 2958,
      "teli": 2959,
      "Ġripoti": 2960,
      "kie": 2961,
      "Ġzoezi": 2962,
      "kabili": 2963,
      "paka": 2964,
      "Ġhawana": 2965,
      "Ġkali": 2966,
      "Ġ40": 2967,
      "Ġkikosi": 2968,
      "ĠJumapili": 2969,
      "zoezi": 2970,
      "Mia": 2971,
      "Ġalivyo": 2972,
      "beba": 2973,
      "WANA": 2974,
      "Ġmarehemu": 2975,
      "ĠThe": 2976,
      "Ġkumbu": 2977,
      "the": 2978,
      "ty": 2979,
      "ANDA": 2980,
      "Miaka": 2981,
      "Ġchochote": 2982,
      "SH": 2983,
      "Ġmatu": 2984,
      "Ġmakosa": 2985,
      "Ġwowote": 2986,
      "ĠMaisha": 2987,
      "Ġupendo": 2988,
      "fikiri": 2989,
      "Ġkumaliza": 2990,
      "tro": 2991,
      "ngamano": 2992,
      "Ġkurudi": 2993,
      "Ġkupokea": 2994,
      "âĢ¦]": 2995,
      "uza": 2996,
      "CHE": 2997,
      "jumaa": 2998,
      "uru": 2999,
      "geria": 3000,
      "Ġ28": 3001,
      "lenga": 3002,
      "Ġmgombea": 3003,
      "BI": 3004,
      "Ġmashabiki": 3005,
      "ĠJoseph": 3006,
      "ĠTAIFA": 3007,
      "Ġrushwa": 3008,
      "luhu": 3009,
      "ĠShein": 3010,
      "Ġmpira": 3011,
      "Ġwanaweza": 3012,
      "ZETI": 3013,
      "12": 3014,
      "fuu": 3015,
      "Ġsilaha": 3016,
      "liza": 3017,
      "ndia": 3018,
      "Ġkutokea": 3019,
      "Ġvinavyo": 3020,
      "tarajia": 3021,
      "Ġvyote": 3022,
      "Ġliki": 3023,
      "Ġ[âĢ¦]": 3024,
      "ĠSALAAM": 3025,
      "Ġkipa": 3026,
      "Ġlenye": 3027,
      "Ġmaslahi": 3028,
      "ĠBongo": 3029,
      "njaro": 3030,
      "ĠTru": 3031,
      "ADA": 3032,
      "RIA": 3033,
      "Ġkutangaza": 3034,
      "Ġwajibu": 3035,
      "tumiwa": 3036,
      "MII": 3037,
      "Ġanga": 3038,
      "Ġ26": 3039,
      "thiri": 3040,
      "tafuta": 3041,
      "Ġamekuwa": 3042,
      "tengo": 3043,
      "Ġkushinda": 3044,
      "ĠAs": 3045,
      "Ġsalama": 3046,
      "FI": 3047,
      "Ġtuzo": 3048,
      "ĠâĢ¦": 3049,
      "ĠKassim": 3050,
      "tumaini": 3051,
      "JE": 3052,
      "amizi": 3053,
      "Ġkukabiliana": 3054,
      "ĠSera": 3055,
      "LIMU": 3056,
      "ngida": 3057,
      "laa": 3058,
      "ĠRai": 3059,
      "ENDE": 3060,
      "ĠKUWA": 3061,
      "Ġfo": 3062,
      "ĠHuduma": 3063,
      "Ġmawili": 3064,
      "toaji": 3065,
      "ĠFi": 3066,
      "Ġtakriba": 3067,
      "PE": 3068,
      "tihada": 3069,
      "Ġushauri": 3070,
      "kezaji": 3071,
      "mavu": 3072,
      "ripoti": 3073,
      "gawa": 3074,
      "ĠManispaa": 3075,
      "Ġhotuba": 3076,
      "Ġalim": 3077,
      "Co": 3078,
      "ambi": 3079,
      "ĠMazi": 3080,
      "Ġkufa": 3081,
      "humiwa": 3082,
      "ĠAprili": 3083,
      "Ġkukamili": 3084,
      "thibitisha": 3085,
      "Ġkike": 3086,
      "Ġsta": 3087,
      "sea": 3088,
      "ĠDKT": 3089,
      "ĠMpya": 3090,
      "ĠMar": 3091,
      "fsiri": 3092,
      "Ġmti": 3093,
      "Bo": 3094,
      "Ġkufunga": 3095,
      "ĠKilima": 3096,
      "ment": 3097,
      "19": 3098,
      "ĠMikoa": 3099,
      "ĠHapa": 3100,
      "wasi": 3101,
      "Ġmchango": 3102,
      "Pa": 3103,
      "fanyiwa": 3104,
      "mbinu": 3105,
      "Ġmiundo": 3106,
      "Ġsiri": 3107,
      "Kuna": 3108,
      "Ġkusimamia": 3109,
      "ĠMbo": 3110,
      "Ġ07": 3111,
      "lala": 3112,
      "Ġbure": 3113,
      "maye": 3114,
      "pig": 3115,
      "ĠMpango": 3116,
      "ĠUsalama": 3117,
      "ndamano": 3118,
      "uliwa": 3119,
      "tangazaji": 3120,
      "Ġdhambi": 3121,
      "Ġwalipo": 3122,
      "shahara": 3123,
      "KIWA": 3124,
      "Ġkuzuia": 3125,
      "Ġkwako": 3126,
      "karibisha": 3127,
      "LIA": 3128,
      "Ji": 3129,
      "ĠKilimo": 3130,
      "ĠSingida": 3131,
      "ĠFC": 3132,
      "ĠFran": 3133,
      "Ġmajibu": 3134,
      "ongea": 3135,
      "nal": 3136,
      "mbulizi": 3137,
      "ĠBLO": 3138,
      "alamu": 3139,
      "Ġmaalumu": 3140,
      "ĠDiamond": 3141,
      "Ġmbunge": 3142,
      "Ġyasi": 3143,
      "Le": 3144,
      "Ġulikuwa": 3145,
      "Ġiliyopo": 3146,
      "Ġmadara": 3147,
      "Ġkujifunza": 3148,
      "zao": 3149,
      "ĠUjenzi": 3150,
      "Ġalipokuwa": 3151,
      "ĠPILI": 3152,
      "CHINI": 3153,
      "Ġutendaji": 3154,
      "Ġ27": 3155,
      "nyanga": 3156,
      "Ġmikono": 3157,
      "saini": 3158,
      "Ġmbo": 3159,
      "wakilishi": 3160,
      "Ġswali": 3161,
      "Ġjiji": 3162,
      "mana": 3163,
      "Ġletu": 3164,
      "ote": 3165,
      "Ġiko": 3166,
      "dhabu": 3167,
      "gaji": 3168,
      "Ġufisadi": 3169,
      "mwi": 3170,
      "ISA": 3171,
      "ndalizi": 3172,
      "ambamba": 3173,
      "Ġataka": 3174,
      "kamani": 3175,
      "ĠWakati": 3176,
      "ngaji": 3177,
      "GAZETI": 3178,
      "bada": 3179,
      "gera": 3180,
      "ĠPO": 3181,
      "Ġmakubaliano": 3182,
      "Ġof": 3183,
      "ĠIran": 3184,
      "fafanua": 3185,
      "Ġshaka": 3186,
      "ĠFebruari": 3187,
      "ilizo": 3188,
      "Ġkulipa": 3189,
      "Ġuzalishaji": 3190,
      "ngependa": 3191,
      "Ġwageni": 3192,
      "Ġkidato": 3193,
      "Ġkosa": 3194,
      "somaji": 3195,
      "Ġzawadi": 3196,
      "ĠNCHINI": 3197,
      "ĠShirikisho": 3198,
      "Ġmahusiano": 3199,
      "ĠCity": 3200,
      "Ġnusu": 3201,
      "Mbunge": 3202,
      "ĠKilimanjaro": 3203,
      "miana": 3204,
      "malizika": 3205,
      "liasili": 3206,
      "Ġkuko": 3207,
      "nganisha": 3208,
      "Ġipo": 3209,
      "kali": 3210,
      "Ġkuonyesha": 3211,
      "Re": 3212,
      "Ġitakayo": 3213,
      "Ġucha": 3214,
      "Ġmazoezi": 3215,
      "Ġjamaa": 3216,
      "Ġ29": 3217,
      "airobi": 3218,
      "Ġmalipo": 3219,
      "Ġupo": 3220,
      "Ġkifu": 3221,
      "Ġmaafisa": 3222,
      "Ġmbinu": 3223,
      "llah": 3224,
      "ĠPili": 3225,
      "can": 3226,
      "ĠKituo": 3227,
      "jaribu": 3228,
      "Ġwapiga": 3229,
      "ĠMatukio": 3230,
      "pitia": 3231,
      "Watu": 3232,
      "mbizi": 3233,
      "Ġon": 3234,
      "Ġkume": 3235,
      "Ġkia": 3236,
      "Ġambako": 3237,
      "HUSU": 3238,
      "Ġkusababisha": 3239,
      "Ġbaraza": 3240,
      "Ġvime": 3241,
      "amani": 3242,
      "pigwa": 3243,
      "ĠFu": 3244,
      "ĠAzam": 3245,
      "ĠUrusi": 3246,
      "Ġkulinda": 3247,
      "ĠWazee": 3248,
      "Ġzangu": 3249,
      "ĠRwanda": 3250,
      "hakiki": 3251,
      "Ġkununua": 3252,
      "kufa": 3253,
      "Ġkuwasiliana": 3254,
      "Ġsh": 3255,
      "14": 3256,
      "ĠAbdu": 3257,
      "Ra": 3258,
      "ĠZAIDI": 3259,
      "Ġwito": 3260,
      "ĠProf": 3261,
      "jadala": 3262,
      "ĠDr": 3263,
      "Ġmwishoni": 3264,
      "ĠNE": 3265,
      "Ġhana": 3266,
      "ĠKila": 3267,
      "ĠKWENYE": 3268,
      "tajwa": 3269,
      "dan": 3270,
      "Ġmfupi": 3271,
      "Ġhalmashauri": 3272,
      "13": 3273,
      "sante": 3274,
      "silimali": 3275,
      "ZIN": 3276,
      "ĠYAKE": 3277,
      "ĠDuniani": 3278,
      "shughulikia": 3279,
      "ĠMtakatifu": 3280,
      "tel": 3281,
      "Ġmitatu": 3282,
      "We": 3283,
      "ĠTrump": 3284,
      "Ġkukutana": 3285,
      "Unaweza": 3286,
      "Ġkamili": 3287,
      "ĠKuwa": 3288,
      "TANO": 3289,
      "Ġkambi": 3290,
      "acha": 3291,
      "Ġmikopo": 3292,
      "ĠMstaafu": 3293,
      "15": 3294,
      "ĠAfri": 3295,
      "my": 3296,
      "pinga": 3297,
      "ĠShinyanga": 3298,
      "bati": 3299,
      "funzo": 3300,
      "Ġkuzungumza": 3301,
      "ĠZilizo": 3302,
      "Shi": 3303,
      "ĠSte": 3304,
      "ule": 3305,
      "Ġutamaduni": 3306,
      "Ġwaweze": 3307,
      "ĠKorea": 3308,
      "Ġkuanzisha": 3309,
      "Ġzilizopo": 3310,
      "Ġbao": 3311,
      "sama": 3312,
      "TAIFA": 3313,
      "ĠMako": 3314,
      "baliana": 3315,
      "Ġmwandishi": 3316,
      "ika": 3317,
      "ĠAF": 3318,
      "Ġwau": 3319,
      "Ġkuomba": 3320,
      "ĠViongozi": 3321,
      "Ġwagonjwa": 3322,
      "fungwa": 3323,
      "ĠFara": 3324,
      "ĠSyria": 3325,
      "tambuli": 3326,
      "ĠHII": 3327,
      "Ġteknolojia": 3328,
      "semaji": 3329,
      "Ġjitihada": 3330,
      "ĠKagera": 3331,
      "ĠKanda": 3332,
      "ĠJumamosi": 3333,
      "ĠLI": 3334,
      "ĠWAZIRI": 3335,
      "dhimisho": 3336,
      "Dk": 3337,
      "Ġhewa": 3338,
      "Ġbarani": 3339,
      "ĠMis": 3340,
      "VYO": 3341,
      "ĠMeneja": 3342,
      "pisha": 3343,
      "andaa": 3344,
      "ĠNdi": 3345,
      "Ġbahati": 3346,
      "ĠDARASA": 3347,
      "Ġmaadili": 3348,
      "ĠMipango": 3349,
      "Ġgo": 3350,
      "if": 3351,
      "Ġhadhara": 3352,
      "ĠCUF": 3353,
      "dhamini": 3354,
      "unda": 3355,
      "TAZAMA": 3356,
      "ĠUtamaduni": 3357,
      "Ġhusu": 3358,
      "mpuni": 3359,
      "Ġyaki": 3360,
      "fia": 3361,
      "sabu": 3362,
      "onal": 3363,
      "Ġmwenza": 3364,
      "Ġg": 3365,
      "Ġmsimamo": 3366,
      "rudani": 3367,
      "ngekuwa": 3368,
      "wishi": 3369,
      "ahidi": 3370,
      "mara": 3371,
      "Ġmagonjwa": 3372,
      "Ġmakuu": 3373,
      "Ġubora": 3374,
      "ĠDesemba": 3375,
      "Ġ2011": 3376,
      "Ġmli": 3377,
      "ĠKiislamu": 3378,
      "ght": 3379,
      "Ġkuchangia": 3380,
      "tumwa": 3381,
      "Ġmba": 3382,
      "ĠHivyo": 3383,
      "ĠNde": 3384,
      "Ġkufuata": 3385,
      "ĠKuna": 3386,
      "ĠBLOG": 3387,
      "Ġmaadhimisho": 3388,
      "ĠAn": 3389,
      "NI": 3390,
      "nsia": 3391,
      "jadili": 3392,
      "ĠKwenye": 3393,
      "kusu": 3394,
      "ĠIjumaa": 3395,
      "Ġnaomba": 3396,
      "kakati": 3397,
      "Ġjuzi": 3398,
      "Ġmigo": 3399,
      "Ġhuenda": 3400,
      "ree": 3401,
      "Ne": 3402,
      "uawa": 3403,
      "DIO": 3404,
      "ĠSanaa": 3405,
      "Amesema": 3406,
      "Ġnafuu": 3407,
      "diwani": 3408,
      "bwana": 3409,
      "ĠJuli": 3410,
      "ĠTawala": 3411,
      "kwaa": 3412,
      "ĠNchini": 3413,
      "Ġâ": 3414,
      "Ġwafanyabiashara": 3415,
      "ĠWiki": 3416,
      "lele": 3417,
      "ĠKUTOKA": 3418,
      "Ġkukosa": 3419,
      "yama": 3420,
      "ĠPla": 3421,
      "Ġkuondoa": 3422,
      "Ġutoaji": 3423,
      "UNG": 3424,
      "huma": 3425,
      "Ġmikutano": 3426,
      "LEA": 3427,
      "Ġkukaa": 3428,
      "ĠVo": 3429,
      "Ġchache": 3430,
      "Ġkote": 3431,
      "nganyika": 3432,
      "salimiana": 3433,
      "MIA": 3434,
      "To": 3435,
      "Ġmwanafunzi": 3436,
      "Ġmchana": 3437,
      "Ġ2010": 3438,
      "Ġuwekezaji": 3439,
      "ĠUtu": 3440,
      "hamasi": 3441,
      "ĠBar": 3442,
      "Ġmaje": 3443,
      "Ġwatatu": 3444,
      "Ġvyuo": 3445,
      "ns": 3446,
      "shna": 3447,
      "andaliwa": 3448,
      "Ġkulevya": 3449,
      "Ġzako": 3450,
      "Ġkufika": 3451,
      "RC": 3452,
      "Ġkwetu": 3453,
      "Ġvipi": 3454,
      "ĠJinsia": 3455,
      "kh": 3456,
      "Bi": 3457,
      "diri": 3458,
      "Ġingawa": 3459,
      "panda": 3460,
      "Ġkuingi": 3461,
      "Ġkuendeleza": 3462,
      "ĠZilizopo": 3463,
      "CHU": 3464,
      "naji": 3465,
      "ĠSamia": 3466,
      "tter": 3467,
      "tangazwa": 3468,
      "Ġkupo": 3469,
      "Ġkijana": 3470,
      "Ġdara": 3471,
      "ĠMAA": 3472,
      "lie": 3473,
      "ungo": 3474,
      "luma": 3475,
      "KWA": 3476,
      "tolea": 3477,
      "gram": 3478,
      "gaidi": 3479,
      "inti": 3480,
      "16": 3481,
      "Ġmshindi": 3482,
      "hutu": 3483,
      "UNGE": 3484,
      "amali": 3485,
      "Ġmadarakani": 3486,
      "zalisha": 3487,
      "ĠZaidi": 3488,
      "Ġamem": 3489,
      "Ġmahakamani": 3490,
      "ĠMadini": 3491,
      "dui": 3492,
      "Ġutakuwa": 3493,
      "ssi": 3494,
      "ĠMBA": 3495,
      "Ġkumbukumbu": 3496,
      "nufa": 3497,
      "Ġndipo": 3498,
      "ĠChar": 3499,
      "Tanzania": 3500,
      "risho": 3501,
      "Ġmaandamano": 3502,
      "kabiliwa": 3503,
      "nana": 3504,
      "sahau": 3505,
      "ondoa": 3506,
      "Ġkutengeneza": 3507,
      "CA": 3508,
      "SS": 3509,
      "Ġkilo": 3510,
      "ny": 3511,
      "Ġkulingana": 3512,
      "bda": 3513,
      "Ġjukumu": 3514,
      "Ġkuacha": 3515,
      "Ġprogramu": 3516,
      "peleka": 3517,
      "siwa": 3518,
      "mua": 3519,
      "buri": 3520,
      "âĢĿ.": 3521,
      "chester": 3522,
      "biria": 3523,
      "ĠMfumo": 3524,
      "Ġmingi": 3525,
      "FUNZI": 3526,
      "Ġsekondari": 3527,
      "ĠSuluhu": 3528,
      "ĠPaul": 3529,
      "Ġkuwapa": 3530,
      "TAARIFA": 3531,
      "pungufu": 3532,
      "Ġhifadhi": 3533,
      "Ġkujadili": 3534,
      "Ġ&": 3535,
      "17": 3536,
      "ĠJulius": 3537,
      "Ġtaa": 3538,
      "nera": 3539,
      "Ġametoa": 3540,
      "Ġwataalamu": 3541,
      "udi": 3542,
      "Ġmate": 3543,
      "Ġrisasi": 3544,
      "bishwa": 3545,
      "Ġat": 3546,
      "Ġco": 3547,
      "zoefu": 3548,
      "Ġhakika": 3549,
      "ĠMKU": 3550,
      "zindua": 3551,
      "ĠSasa": 3552,
      "22": 3553,
      "Ġukiwa": 3554,
      "seme": 3555,
      "Ġsambamba": 3556,
      "Ġisiyo": 3557,
      "ngele": 3558,
      "Ġjengo": 3559,
      "tiba": 3560,
      "elezwa": 3561,
      "Ġmwenyekiti": 3562,
      "andikwa": 3563,
      "ĠBARA": 3564,
      "ĠKUU": 3565,
      "endelee": 3566,
      "ĠYako": 3567,
      "vo": 3568,
      "âĢĺ": 3569,
      "Ġkuondoka": 3570,
      "Ġwingi": 3571,
      "Ġorodha": 3572,
      "Ġiwapo": 3573,
      "Ġahadi": 3574,
      "Ġmsanii": 3575,
      "ĠPwani": 3576,
      "ĠCa": 3577,
      "ĠJAMII": 3578,
      "Ġmiundombinu": 3579,
      "mko": 3580,
      "Ġkiswahili": 3581,
      "Ġmwanaume": 3582,
      "30": 3583,
      "ĠSimu": 3584,
      "Ġhaina": 3585,
      "shika": 3586,
      "Ġmko": 3587,
      "Ġpande": 3588,
      "Ġvitabu": 3589,
      "Ġtuhuma": 3590,
      "Ġwenzake": 3591,
      "Ġkuandika": 3592,
      "leo": 3593,
      "ĠNigeria": 3594,
      "Ġmagazeti": 3595,
      "Ġkitendo": 3596,
      "Ġmazao": 3597,
      "ĠMaliasili": 3598,
      "ĠJumatatu": 3599,
      "ĠSeif": 3600,
      "HANI": 3601,
      "nishwa": 3602,
      "Ġnika": 3603,
      "ĠEd": 3604,
      "ĠWATU": 3605,
      "ĠMfuko": 3606,
      "ĠUshirikiano": 3607,
      "ima": 3608,
      "Ġmpenzi": 3609,
      "ĠMitaa": 3610,
      "50": 3611,
      "lili": 3612,
      "zigo": 3613,
      "ELE": 3614,
      "Ġkukuza": 3615,
      "TANGA": 3616,
      "pan": 3617,
      "Ġjo": 3618,
      "lendo": 3619,
      "Ġwanyama": 3620,
      "ĠBora": 3621,
      "Ġiliyofanyika": 3622,
      "Ġmgogoro": 3623,
      "ĠMwandishi": 3624,
      "ifadhi": 3625,
      "Ġkutambua": 3626,
      "ary": 3627,
      "nua": 3628,
      "ci": 3629,
      "Ġnyimbo": 3630,
      "jio": 3631,
      "kelezwa": 3632,
      "!!!": 3633,
      "ĠMPYA": 3634,
      "Ġusajili": 3635,
      "zalendo": 3636,
      "hudhuria": 3637,
      "PICHA": 3638,
      "Ġ#": 3639,
      "ZARA": 3640,
      "ĠMtume": 3641,
      "mbani": 3642,
      "ĠNisha": 3643,
      "kumbuka": 3644,
      "wassa": 3645,
      "Ġmakazi": 3646,
      "ndoni": 3647,
      "ĠJumanne": 3648,
      "ĠMoja": 3649,
      "ĠMrisho": 3650,
      "Ġjirani": 3651,
      "shambuliaji": 3652,
      "Ġakisalimiana": 3653,
      "SILI": 3654,
      "hamiaji": 3655,
      "ĠWALIO": 3656,
      "hitajika": 3657,
      "wn": 3658,
      "cto": 3659,
      "Ġmno": 3660,
      "Ġkanda": 3661,
      "Ġua": 3662,
      "saka": 3663,
      "Ġmaandalizi": 3664,
      "taalamu": 3665,
      "Ina": 3666,
      "tumikia": 3667,
      "ĠFaragha": 3668,
      "ĠFo": 3669,
      "fahami": 3670,
      "Ġkusini": 3671,
      "ĠMbi": 3672,
      "heshi": 3673,
      "Ġkupewa": 3674,
      "Ġkipe": 3675,
      "ISHI": 3676,
      "twara": 3677,
      "anzishwa": 3678,
      "Ġmashirika": 3679,
      "DANI": 3680,
      "ĠMifu": 3681,
      "Ġmatumaini": 3682,
      "Ġhofu": 3683,
      "Ġrangi": 3684,
      "Ġyasiyo": 3685,
      "fikisha": 3686,
      "Ġzile": 3687,
      "Ġbungeni": 3688,
      "Ufafanuzi": 3689,
      "ĠKiongozi": 3690,
      "Ġwazee": 3691,
      "Ġmitano": 3692,
      "ANZA": 3693,
      "jumu": 3694,
      "ĠMazingira": 3695,
      "amishna": 3696,
      "Ġushahidi": 3697,
      "Ġusafiri": 3698,
      "Ġwatakao": 3699,
      "gundua": 3700,
      "rou": 3701,
      "ĠKenyatta": 3702,
      "bisho": 3703,
      "Ġuwezekano": 3704,
      "Ġkatikati": 3705,
      "Ġadhabu": 3706,
      "ifu": 3707,
      "ĠNew": 3708,
      "mar": 3709,
      "dhamu": 3710,
      "lipa": 3711,
      "bino": 3712,
      "ĠIsrael": 3713,
      "Ġalio": 3714,
      "ĠNishati": 3715,
      "DEO": 3716,
      "rafiki": 3717,
      "Ġinavyo": 3718,
      "Ġkombe": 3719,
      "swi": 3720,
      "Ġrasilimali": 3721,
      "ĠArse": 3722,
      "ĠMisri": 3723,
      "ĠKaimu": 3724,
      "sefu": 3725,
      "ĠMsingi": 3726,
      "choche": 3727,
      "Ġkupatikana": 3728,
      "ĠNyumba": 3729,
      "shuka": 3730,
      "Ġroho": 3731,
      "Matangazo": 3732,
      "kwisha": 3733,
      "MP": 3734,
      "Ġmanu": 3735,
      "ine": 3736,
      "ĠSai": 3737,
      "Ġnane": 3738,
      "Ġwatendaji": 3739,
      "lau": 3740,
      "Po": 3741,
      "ĠIli": 3742,
      "Ġajabu": 3743,
      "ĠJaji": 3744,
      "Ġvingi": 3745,
      "Ġkutembelea": 3746,
      "ĠMKOA": 3747,
      "Ġyanaweza": 3748,
      "ĠSABA": 3749,
      "ramu": 3750,
      "Siku": 3751,
      "lafu": 3752,
      "mbulisho": 3753,
      "Ġmadaktari": 3754,
      "Ġdirisha": 3755,
      "rahisi": 3756,
      "Ġmuungano": 3757,
      "sse": 3758,
      "Ġkupele": 3759,
      "Ġmadawa": 3760,
      "nondoni": 3761,
      "Ġwashiriki": 3762,
      "ĠSayansi": 3763,
      "per": 3764,
      "bama": 3765,
      "ĠIlani": 3766,
      "rakati": 3767,
      "Ġshida": 3768,
      "ĠMagharibi": 3769,
      "tandaoni": 3770,
      "fanisi": 3771,
      "ĠÂ»": 3772,
      "ĠHami": 3773,
      "Ġawe": 3774,
      "taki": 3775,
      "Ġtiketi": 3776,
      "kusan": 3777,
      "Ġmakao": 3778,
      "ĠBlog": 3779,
      "kizi": 3780,
      "ĠWilli": 3781,
      "Uku": 3782,
      "Ġmiguu": 3783,
      "ĠManchester": 3784,
      "Uta": 3785,
      "ĠMzee": 3786,
      "sara": 3787,
      "fanikisha": 3788,
      "lizo": 3789,
      "Ġujao": 3790,
      "Ġatakuwa": 3791,
      "ĠMWANA": 3792,
      "ĠGu": 3793,
      "lazimi": 3794,
      "tari": 3795,
      "ĠEng": 3796,
      "stahili": 3797,
      "Ġupatikana": 3798,
      "hamasisha": 3799,
      "ĠKigoma": 3800,
      "hamisi": 3801,
      "ĠALI": 3802,
      "ĠNairobi": 3803,
      "Ġkikuu": 3804,
      "Ġzingine": 3805,
      "ĠArdhi": 3806,
      "Ġvipa": 3807,
      "Ġmvua": 3808,
      "CC": 3809,
      "ĠĠ": 3810,
      "ĠTaarifa": 3811,
      "hanga": 3812,
      "ĠRedio": 3813,
      "ĠJumatano": 3814,
      "ĠAbdul": 3815,
      "200": 3816,
      "ĠDO": 3817,
      "Ġvifo": 3818,
      "Ġmadaraka": 3819,
      "Ġdhamana": 3820,
      "Pamoja": 3821,
      "Ġmgeni": 3822,
      "TIHANI": 3823,
      "funguzi": 3824,
      "KAMU": 3825,
      "pishwa": 3826,
      "Ġkiume": 3827,
      "Ġutalii": 3828,
      "TOA": 3829,
      "masha": 3830,
      "Ġhisia": 3831,
      "RD": 3832,
      "Ġwanapo": 3833,
      "fikiria": 3834,
      "ĠMhandisi": 3835,
      "hitimu": 3836,
      "ĠMimi": 3837,
      "Ġwaliyo": 3838,
      "Ġlako": 3839,
      "mpa": 3840,
      "Ġupatikanaji": 3841,
      "ĠFA": 3842,
      "RIKI": 3843,
      "Ġkocha": 3844,
      "Ġwaja": 3845,
      "ĠMafunzo": 3846,
      "stawi": 3847,
      "Ġmarafiki": 3848,
      "Ġmadhara": 3849,
      "Ġ31": 3850,
      "tie": 3851,
      "Ġbahari": 3852,
      "toliki": 3853,
      "seni": 3854,
      "Ġwafuasi": 3855,
      "bunifu": 3856,
      "stani": 3857,
      "piki": 3858,
      "shiki": 3859,
      "//": 3860,
      "Ġniaba": 3861,
      "Ġmawaziri": 3862,
      "ĠMS": 3863,
      "Haki": 3864,
      "Ġakisema": 3865,
      "Ġwanasema": 3866,
      "Ġngumu": 3867,
      "Ġkubadilisha": 3868,
      "ĠNyi": 3869,
      "ĠMba": 3870,
      "ĠKUHUSU": 3871,
      "ĠHar": 3872,
      "chungaji": 3873,
      "LAYA": 3874,
      "ĠMtwara": 3875,
      "mmed": 3876,
      "ĠNdege": 3877,
      "ĠBU": 3878,
      "Ġkutumika": 3879,
      "ĠJuu": 3880,
      "ĠTV": 3881,
      "Ġmasikio": 3882,
      "Masharti": 3883,
      "ĠME": 3884,
      "bert": 3885,
      "PATA": 3886,
      "achi": 3887,
      "Ġ+": 3888,
      "ĠNCHI": 3889,
      "siriamali": 3890,
      "Sehemu": 3891,
      "ĠLowassa": 3892,
      "Ġkupoteza": 3893,
      "Ġmzima": 3894,
      "Ti": 3895,
      "ganga": 3896,
      "ĠCharles": 3897,
      "ĠSIKU": 3898,
      "Ġwadogo": 3899,
      "Ġvibaya": 3900,
      "kubaliana": 3901,
      "ĠILI": 3902,
      "ĠAki": 3903,
      "REHE": 3904,
      "TANZANIA": 3905,
      "katikati": 3906,
      "ĠUrais": 3907,
      "Ġdarasa": 3908,
      "ĠUTA": 3909,
      "for": 3910,
      "Ġupya": 3911,
      "Ġsafi": 3912,
      "zito": 3913,
      "den": 3914,
      "ĠMada": 3915,
      "hali": 3916,
      "URI": 3917,
      "kamata": 3918,
      "ĠKinondoni": 3919,
      "Ġimesema": 3920,
      "cis": 3921,
      "Ġmisingi": 3922,
      "ĠTanganyika": 3923,
      "eni": 3924,
      "elle": 3925,
      "bii": 3926,
      "âĢ¢": 3927,
      "Ġpichani": 3928,
      "ĠJUMA": 3929,
      "ĠHifadhi": 3930,
      "Ġufanisi": 3931,
      "py": 3932,
      "ĠBina": 3933,
      "ĠSekondari": 3934,
      "waziri": 3935,
      "Ġkupinga": 3936,
      "ĠBI": 3937,
      "ĠUM": 3938,
      "Ġkudhibiti": 3939,
      "Ġuzoefu": 3940,
      "Ġnjema": 3941,
      "ĠRoho": 3942,
      "Ġpembe": 3943,
      "letea": 3944,
      "Ġuso": 3945,
      "lango": 3946,
      "ĠJiji": 3947,
      "nguja": 3948,
      "Ġkimoja": 3949,
      "kiri": 3950,
      "Ġh": 3951,
      "hutubia": 3952,
      "mber": 3953,
      "Ġutakao": 3954,
      "ĠÂ©": 3955,
      "Mimi": 3956,
      "livu": 3957,
      "nerali": 3958,
      "Ġwachache": 3959,
      "ĠBAADA": 3960,
      "zui": 3961,
      "Ġburudani": 3962,
      "pedia": 3963,
      "rundi": 3964,
      "nunuzi": 3965,
      "Ġhaija": 3966,
      "ĠSoma": 3967,
      "usi": 3968,
      "Ġwasiwasi": 3969,
      "MBU": 3970,
      "BWA": 3971,
      "Ġspika": 3972,
      "arabu": 3973,
      "uzu": 3974,
      "wekeza": 3975,
      "ĠUturuki": 3976,
      "ĠMsi": 3977,
      "Ġamri": 3978,
      "MBI": 3979,
      "ĠAfisa": 3980,
      "Ġathari": 3981,
      "Ġyupo": 3982,
      "ĠIdhaa": 3983,
      "ĠWanawake": 3984,
      "Ġkas": 3985,
      "Ġkiti": 3986,
      "faka": 3987,
      "Ġhawaku": 3988,
      "Ġmako": 3989,
      "reva": 3990,
      "ĠKanu": 3991,
      "Ġakawa": 3992,
      "Ġdaraja": 3993,
      "ĠSudan": 3994,
      "Ġgesi": 3995,
      "ribio": 3996,
      "gambo": 3997,
      "ĠIta": 3998,
      "Ġwavuti": 3999,
      "orge": 4000,
      "dumia": 4001,
      "cia": 4002,
      "ĠMKOANI": 4003,
      "Ġkiwanda": 4004,
      "Ġmnamo": 4005,
      "Ġyuko": 4006,
      "ĠMakonda": 4007,
      "ĠTam": 4008,
      "ndama": 4009,
      "tabu": 4010,
      "Ġkufungua": 4011,
      "Mungu": 4012,
      "thirika": 4013,
      "chunguza": 4014,
      "âĢĶ": 4015,
      "Asili": 4016,
      "choki": 4017,
      "Ukurasa": 4018,
      "Ġmikakati": 4019,
      "ward": 4020,
      "levi": 4021,
      "saji": 4022,
      "ĠMji": 4023,
      "ĠMali": 4024,
      "iti": 4025,
      "Ġkuepu": 4026,
      "Ġwenu": 4027,
      "rura": 4028,
      "bidi": 4029,
      "ĠUki": 4030,
      "kilisha": 4031,
      "ulu": 4032,
      "So": 4033,
      "Ġalitoa": 4034,
      "ber": 4035,
      "Ġkuzaliwa": 4036,
      "YI": 4037,
      "Ġmisaada": 4038,
      "VE": 4039,
      "Ġkuendesha": 4040,
      "ĠObama": 4041,
      "logu": 4042,
      "ĠNews": 4043,
      "IBU": 4044,
      "ĠMtandao": 4045,
      "Ġija": 4046,
      "ĠWE": 4047,
      "gwanga": 4048,
      "Ġharakati": 4049,
      "ndika": 4050,
      "Ġibada": 4051,
      "dacom": 4052,
      "ĠAFYA": 4053,
      "Ġkuuza": 4054,
      "ĠSisi": 4055,
      "ĠUlinzi": 4056,
      "ĠCh": 4057,
      "Ġtamaa": 4058,
      "jea": 4059,
      "ĠMala": 4060,
      "mmy": 4061,
      "kwazo": 4062,
      "ĠDara": 4063,
      "ondoka": 4064,
      "24": 4065,
      "ĠWilliam": 4066,
      "Ġuliopo": 4067,
      "Matokeo": 4068,
      "Ġwasichana": 4069,
      "Ġmanufaa": 4070,
      "INE": 4071,
      "TANA": 4072,
      "ĠMaso": 4073,
      "witter": 4074,
      "TAKA": 4075,
      "ĠUnguja": 4076,
      "pendekezo": 4077,
      "ENDA": 4078,
      "Ġmiti": 4079,
      "ĠMIA": 4080,
      "ĠFrancis": 4081,
      "Ġmimba": 4082,
      "fadhili": 4083,
      "tana": 4084,
      "uni": 4085,
      "fundisha": 4086,
      "Ġhatimaye": 4087,
      "ĠTFF": 4088,
      "elekezo": 4089,
      "Ġd": 4090,
      "safa": 4091,
      "Ġchumba": 4092,
      "ĠUku": 4093,
      "Ġbonyeza": 4094,
      "ĠMTIHANI": 4095,
      "Ġkutimiza": 4096,
      "suku": 4097,
      "Ġnisha": 4098,
      "swada": 4099,
      "Ġziada": 4100,
      "ĠMohammed": 4101,
      "Ġkuongoza": 4102,
      "Ġmabo": 4103,
      "ĠPamoja": 4104,
      "Ġkutatua": 4105,
      "Ġabiria": 4106,
      "Mako": 4107,
      "Ġndoto": 4108,
      "ibuka": 4109,
      "nji": 4110,
      "ĠAir": 4111,
      "HABARI": 4112,
      "ĠPemba": 4113,
      "Ġwanasiasa": 4114,
      "Ġtiba": 4115,
      "Ġw": 4116,
      "Ġ196": 4117,
      "anzisha": 4118,
      "Ġmbe": 4119,
      "ĠMaalum": 4120,
      "rembo": 4121,
      "Ġwanahabari": 4122,
      "Ġkuamini": 4123,
      "ĠAmani": 4124,
      "Ġufunguzi": 4125,
      "ĠSaba": 4126,
      "angalia": 4127,
      "Ġmakampuni": 4128,
      "ps": 4129,
      "Ġbarabarani": 4130,
      "Ġishara": 4131,
      "Ġwatumiaji": 4132,
      "Ġvijiji": 4133,
      "ĠArsenal": 4134,
      "ngezeko": 4135,
      "Ġkuwasaidia": 4136,
      "Ġtuki": 4137,
      "Ġviwango": 4138,
      "nali": 4139,
      "ĠMata": 4140,
      "Ġkizazi": 4141,
      "ĠNdugu": 4142,
      "vaa": 4143,
      "01": 4144,
      "Tabia": 4145,
      "linda": 4146,
      "Nime": 4147,
      "Ġmbingu": 4148,
      "ĠMradi": 4149,
      "drid": 4150,
      "hada": 4151,
      "TC": 4152,
      "Kuwa": 4153,
      "lulizo": 4154,
      "Ġsura": 4155,
      "ĠStars": 4156,
      "Ġviti": 4157,
      "ĠMIAKA": 4158,
      "gereza": 4159,
      "Ġkumwa": 4160,
      "INGI": 4161,
      "muziki": 4162,
      "ĠBasi": 4163,
      "Ġkuche": 4164,
      "Ġakaunti": 4165,
      "Ġkuua": 4166,
      "ĠMkazi": 4167,
      "Ġkuandaa": 4168,
      "Ġkigeni": 4169,
      "kye": 4170,
      "pum": 4171,
      "Ġatakaye": 4172,
      "Ġhukumu": 4173,
      "ĠTimu": 4174,
      "pendwa": 4175,
      "Jin": 4176,
      "Ġand": 4177,
      "Ġwakimbizi": 4178,
      "Ndugu": 4179,
      "jiunga": 4180,
      "Ġpeke": 4181,
      "ĠKutoka": 4182,
      "Sasa": 4183,
      "hova": 4184,
      "Ġ>": 4185,
      "ĠWabunge": 4186,
      "ĠKijerumani": 4187,
      "ĠBOFYA": 4188,
      "ĠKAZI": 4189,
      "Ġkichwa": 4190,
      "Ġusimamizi": 4191,
      "Ġuhalifu": 4192,
      "zingatia": 4193,
      "Ġtakwimu": 4194,
      "gezo": 4195,
      "Ġvijijini": 4196,
      "Ġmjadala": 4197,
      "Ġkupanda": 4198,
      "Ġkudumu": 4199,
      "ĠHama": 4200,
      "lah": 4201,
      "ruhusi": 4202,
      "ĠMUNGU": 4203,
      "Ġ60": 4204,
      "ĠSHE": 4205,
      "Ġalbino": 4206,
      "tumie": 4207,
      "nyesho": 4208,
      "ĠViwanda": 4209,
      "Ġlilikuwa": 4210,
      "kyembe": 4211,
      "uts": 4212,
      "ble": 4213,
      "ĠKigwanga": 4214,
      "vie": 4215,
      "uzulu": 4216,
      "thmini": 4217,
      "Ġkaskazini": 4218,
      "ĠUlimwengu": 4219,
      "stari": 4220,
      "Ġkuba": 4221,
      "Sha": 4222,
      "ĠUtawala": 4223,
      "od": 4224,
      "ĠIndia": 4225,
      "Ġdalili": 4226,
      "qu": 4227,
      "leke": 4228,
      "Ġhoteli": 4229,
      "ĠVodacom": 4230,
      "Ġkijeshi": 4231,
      "rume": 4232,
      "right": 4233,
      "Ġnyota": 4234,
      "kiza": 4235,
      "pelekea": 4236,
      "Ġkulikuwa": 4237,
      "Kila": 4238,
      "Ġbongo": 4239,
      "Ġusio": 4240,
      "Ġuongo": 4241,
      "stina": 4242,
      "CHO": 4243,
      "pesi": 4244,
      "lex": 4245,
      "Ġmtazamo": 4246,
      "Ili": 4247,
      "Ġkukubali": 4248,
      "okoa": 4249,
      "ĠMadrid": 4250,
      "ĠApp": 4251,
      "ĠInsta": 4252,
      "pangwa": 4253,
      "shindani": 4254,
      "ĠWaandishi": 4255,
      "agiza": 4256,
      "um": 4257,
      "PENZI": 4258,
      "Ġunajua": 4259,
      "resheni": 4260,
      "onald": 4261,
      "tekeleza": 4262,
      "shiria": 4263,
      "kuaji": 4264,
      "Bara": 4265,
      "ĠAlhamisi": 4266,
      "ESHI": 4267,
      "endeshaji": 4268,
      "ĠTabora": 4269,
      "Ġuteuzi": 4270,
      "wahili": 4271,
      "andikie": 4272,
      "03": 4273,
      "ZWA": 4274,
      "Ġhawaja": 4275,
      "ĠRaila": 4276,
      "ĠUsi": 4277,
      "ĠX": 4278,
      "katili": 4279,
      "tengene": 4280,
      "Tume": 4281,
      "Ġmkakati": 4282,
      "Meneja": 4283,
      "jita": 4284,
      "Ġfomu": 4285,
      "vana": 4286,
      "MATUKIO": 4287,
      "zaa": 4288,
      "ongezeka": 4289,
      "ĠHali": 4290,
      "ĠBurundi": 4291,
      "rithi": 4292,
      "Leo": 4293,
      "stan": 4294,
      "Ġnishati": 4295,
      "Ġmasharti": 4296,
      "oko": 4297,
      "\".": 4298,
      "kamilika": 4299,
      "MANI": 4300,
      "Ġijayo": 4301,
      "Ġkwangu": 4302,
      "leni": 4303,
      "kabidhiwa": 4304,
      "shtaka": 4305,
      "Ġmabaya": 4306,
      "Ġkudai": 4307,
      "ĠWAN": 4308,
      "Ġwakim": 4309,
      "nk": 4310,
      "Ġwagombea": 4311,
      "utsche": 4312,
      "nganya": 4313,
      "Viongozi": 4314,
      "maani": 4315,
      "Ġleseni": 4316,
      "Ġhalali": 4317,
      "ĠAidha": 4318,
      "Ġmashambulizi": 4319,
      "ĠCHINI": 4320,
      "Ġmagumu": 4321,
      "shwe": 4322,
      "yuta": 4323,
      "mbili": 4324,
      "shirikisha": 4325,
      "ĠMna": 4326,
      "ndoa": 4327,
      "lalamiko": 4328,
      "jifunza": 4329,
      "Ġng": 4330,
      "ĠRama": 4331,
      "Ġhawezi": 4332,
      "tende": 4333,
      "jeruhiwa": 4334,
      "Ġmtihani": 4335,
      "ĠKO": 4336,
      "ĠMoshi": 4337,
      "UNIA": 4338,
      "saa": 4339,
      "Ġkibiashara": 4340,
      "Ġidara": 4341,
      "Ġ198": 4342,
      "takazo": 4343,
      "Â©": 4344,
      "Masuala": 4345,
      "Kaimu": 4346,
      "ĠYehova": 4347,
      "rekebisho": 4348,
      "ĠSERIKALI": 4349,
      "ĠWaislamu": 4350,
      "Ġmashariki": 4351,
      "Ġchombo": 4352,
      "Ġiliyotolewa": 4353,
      "ĠIb": 4354,
      "tikadi": 4355,
      "urugu": 4356,
      "shirikiana": 4357,
      "raia": 4358,
      "Ġkuha": 4359,
      "lazimika": 4360,
      "ĠWakuu": 4361,
      "picha": 4362,
      "Ġmaelekezo": 4363,
      "ĠTI": 4364,
      "shangaza": 4365,
      "rufuku": 4366,
      "mpyuta": 4367,
      "rn": 4368,
      "Ġdada": 4369,
      "Ġmiliki": 4370,
      "ĠWAKE": 4371,
      "Ġakiongea": 4372,
      "DOMA": 4373,
      "Ġmbio": 4374,
      "ĠLis": 4375,
      "Ġkiji": 4376,
      "Kozi": 4377,
      "pyright": 4378,
      "Ġvyao": 4379,
      "Su": 4380,
      "hojiano": 4381,
      "ĠKiba": 4382,
      "ĠNYU": 4383,
      "Ġtuandikie": 4384,
      "Ġwakubwa": 4385,
      "Ġmade": 4386,
      "azi": 4387,
      "nduliwa": 4388,
      "loni": 4389,
      "Ġpointi": 4390,
      "Ġvikao": 4391,
      "heshimu": 4392,
      "Ana": 4393,
      "Ġ197": 4394,
      "Ġkuamua": 4395,
      "Ġamei": 4396,
      "Ġmajengo": 4397,
      "Ġmasikioni": 4398,
      "ĠKwe": 4399,
      "leza": 4400,
      "ĠUNA": 4401,
      "umbele": 4402,
      "Ġanapo": 4403,
      "Mo": 4404,
      "Ġakina": 4405,
      "Ġwalivyo": 4406,
      "hoo": 4407,
      "stu": 4408,
      "Ġkuvi": 4409,
      "39": 4410,
      "nesha": 4411,
      "DC": 4412,
      "iasa": 4413,
      "bel": 4414,
      "anze": 4415,
      "bainisha": 4416,
      "2016": 4417,
      "Ġsanaa": 4418,
      "ndamizi": 4419,
      "Ġmkewe": 4420,
      "KWE": 4421,
      "zunguka": 4422,
      "Ġwavu": 4423,
      "ĠAnd": 4424,
      "ĠKUJI": 4425,
      "ĠMwakyembe": 4426,
      "Ri": 4427,
      "Ġange": 4428,
      "WT": 4429,
      "Ġniki": 4430,
      "CHAGU": 4431,
      "ĠMatokeo": 4432,
      "Ġlao": 4433,
      "Ġshabiki": 4434,
      "Ġnguo": 4435,
      "tri": 4436,
      "Ġwanavyo": 4437,
      "ĠMIKO": 4438,
      "Ġwatakuwa": 4439,
      "ĠWelle": 4440,
      "fakari": 4441,
      "unge": 4442,
      "ĠAlisema": 4443,
      "Ġkuso": 4444,
      "ĠNgu": 4445,
      "Mapambano": 4446,
      "rati": 4447,
      "''": 4448,
      "Kutokana": 4449,
      "kawa": 4450,
      "ĠJenerali": 4451,
      "Copyright": 4452,
      "ven": 4453,
      "Ġkuonekana": 4454,
      "rejesha": 4455,
      "Ġkadi": 4456,
      "wajibiki": 4457,
      "ĠKijiji": 4458,
      "rishaji": 4459,
      "undwa": 4460,
      "ĠUme": 4461,
      "Ġkuunga": 4462,
      "Ġmigogoro": 4463,
      "ĠMuongozo": 4464,
      "kuza": 4465,
      "Ġmipaka": 4466,
      "ĠZe": 4467,
      "Ġno": 4468,
      "ĠKAMA": 4469,
      "ĠDeutsche": 4470,
      "Vipindi": 4471,
      "Ġkipi": 4472,
      "ĠMATUKIO": 4473,
      "suaji": 4474,
      "binadamu": 4475,
      "Ġkipato": 4476,
      "BAR": 4477,
      "Ġwanayo": 4478,
      "num": 4479,
      "ĠUN": 4480,
      "Ġdemokrasia": 4481,
      "Ġamewataka": 4482,
      "ĠDemokrasia": 4483,
      "Ġkutolewa": 4484,
      "Ġmilele": 4485,
      "ingiza": 4486,
      "Makofi": 4487,
      "elele": 4488,
      "ĠMku": 4489,
      "07": 4490,
      "KUTANA": 4491,
      "ĠWake": 4492,
      "wasilishwa": 4493,
      "ĠGeorge": 4494,
      "mbuliwa": 4495,
      "rne": 4496,
      "Ġutulivu": 4497,
      "ĠGeita": 4498,
      "ĠWILAYA": 4499,
      "ĠKigwangalla": 4500,
      "ĠSam": 4501,
      "ĠHaiwajibiki": 4502,
      "og": 4503,
      "ii": 4504,
      "ĠMakuu": 4505,
      "Ġkiunganisho": 4506,
      "funguliwa": 4507,
      "Maelezo": 4508,
      "Ġmashu": 4509,
      "Ġviunganisho": 4510,
      "red": 4511,
      "zimio": 4512,
      "Nakili": 4513,
      "LISI": 4514,
      "Ġhasi": 4515,
      "Ġvitafungua": 4516,
      "Ġmatunda": 4517,
      "chukuzi": 4518,
      "twe": 4519,
      "Rejea": 4520,
      "ĠInjili": 4521,
      "Ġkuhifadhi": 4522,
      "Ġalii": 4523,
      "Ġmapambano": 4524,
      "Ġbwana": 4525,
      "ĠWetu": 4526,
      "ĠDODOMA": 4527,
      "57": 4528,
      "AND": 4529,
      "lsea": 4530,
      "anya": 4531,
      "roho": 4532,
      "Ġmacha": 4533,
      "ĠUtumishi": 4534,
      "ĠTO": 4535,
      "ĠRuvu": 4536,
      "tengeneza": 4537,
      "Ġjuma": 4538,
      "Ġmifugo": 4539,
      "Ġjumuiya": 4540,
      "ĠELIMU": 4541,
      "Ġpasi": 4542,
      "Ġtija": 4543,
      "Ġkutokuwa": 4544,
      "Ġvisi": 4545,
      "ĠTigo": 4546,
      "jue": 4547,
      "Naye": 4548,
      "Kusikiliza": 4549,
      "ĠNjia": 4550,
      "ĠMuhi": 4551,
      "ĠMAGAZETI": 4552,
      "Ġwapinzani": 4553,
      "ĠWikipedia": 4554,
      "ĠTamko": 4555,
      "anzia": 4556,
      "itto": 4557,
      "Ġyalikuwa": 4558,
      "KAMA": 4559,
      "ONGE": 4560,
      "Ġvurugu": 4561,
      "ĠBungeni": 4562,
      "ikh": 4563,
      "Ġtisa": 4564,
      "potea": 4565,
      "Ġmatakwa": 4566,
      "Ġmbegu": 4567,
      "chukulia": 4568,
      "ct": 4569,
      "://": 4570,
      "tishwa": 4571,
      "ĠMakao": 4572,
      "mon": 4573,
      "ĠNdu": 4574,
      "Ġkuzalisha": 4575,
      "Jinsi": 4576,
      "Ġmajira": 4577,
      "ĠLindi": 4578,
      "ĠMBALI": 4579,
      "Ġmiji": 4580,
      "Ġsare": 4581,
      "JILI": 4582,
      "LEO": 4583,
      "Ġlile": 4584,
      "Ġmkali": 4585,
      "dw": 4586,
      "ys": 4587,
      "ĠMke": 4588,
      "ĠMBE": 4589,
      "ngiwa": 4590,
      "Ġvyakula": 4591,
      "ĠBila": 4592,
      "ĠBra": 4593,
      "Ġdharura": 4594,
      "Ġinasema": 4595,
      "Ġunapo": 4596,
      "Ġkuwania": 4597,
      "ĠKILI": 4598,
      "phe": 4599,
      "twaa": 4600,
      "mama": 4601,
      "Ġlangu": 4602,
      "Ġbinti": 4603,
      "bile": 4604,
      "ĠAh": 4605,
      "Ġmapya": 4606,
      "Ġtakribani": 4607,
      "Ġnyakati": 4608,
      "SERIKALI": 4609,
      "Ġkilichopo": 4610,
      "Pro": 4611,
      "Ġilipo": 4612,
      "Ġkupita": 4613,
      "Ġongezeko": 4614,
      "Ġujuzi": 4615,
      "Ġubunge": 4616,
      "ĠKWAN": 4617,
      "ĠWanafunzi": 4618,
      "Ġkiungo": 4619,
      "Ġsemina": 4620,
      "Ġkusamba": 4621,
      "kusudi": 4622,
      "Ġkero": 4623,
      "pendekeza": 4624,
      "nuel": 4625,
      "ndelea": 4626,
      "ĠAWA": 4627,
      "Ġwawekezaji": 4628,
      "maji": 4629,
      "Maa": 4630,
      "Ġrekodi": 4631,
      "ms": 4632,
      "Ġdhati": 4633,
      "ĠZI": 4634,
      "ĠTE": 4635,
      "Ġmarufuku": 4636,
      "fedha": 4637,
      "ĠTeknolojia": 4638,
      "dhalika": 4639,
      "Ġkufanikisha": 4640,
      "Ġwapenzi": 4641,
      "sco": 4642,
      "Mta": 4643,
      "rini": 4644,
      "ANZI": 4645,
      "Ġwasomaji": 4646,
      "ĠUSA": 4647,
      "Ġuhai": 4648,
      "endeshwa": 4649,
      "ĠUfundi": 4650,
      "Ġuzazi": 4651,
      "pambana": 4652,
      "Ġmapendekezo": 4653,
      "adhimisha": 4654,
      "Ġwanajeshi": 4655,
      "Ġmago": 4656,
      "CE": 4657,
      "Ġawa": 4658,
      "gue": 4659,
      "Ġmfuko": 4660,
      "ĠEngland": 4661,
      "chango": 4662,
      "Ġkumalizika": 4663,
      "ris": 4664,
      "takuwa": 4665,
      "ndapo": 4666,
      "ĠHUU": 4667,
      "pungua": 4668,
      "hadha": 4669,
      "Ġmwalimu": 4670,
      "ĠMbowe": 4671,
      "ulo": 4672,
      "Ġmahojiano": 4673,
      "Ġimara": 4674,
      "tional": 4675,
      "ĠUkumbi": 4676,
      "tete": 4677,
      "mivu": 4678,
      "Ġmikataba": 4679,
      "PP": 4680,
      "Ġkujali": 4681,
      "Ġkuwasilisha": 4682,
      "Kiongozi": 4683,
      "KULU": 4684,
      "Ġkukagua": 4685,
      "ESCO": 4686,
      "mwambia": 4687,
      "ĠYeye": 4688,
      "Ġkukata": 4689,
      "mira": 4690,
      "BIA": 4691,
      "Ġiliyokuwa": 4692,
      "27": 4693,
      "Ġbodi": 4694,
      "thio": 4695,
      "habu": 4696,
      "Ġndivyo": 4697,
      "Ġmalalamiko": 4698,
      "Ġkisi": 4699,
      "gizaji": 4700,
      "Ġkuunda": 4701,
      "Ġmfululizo": 4702,
      "Ġhatia": 4703,
      "peresheni": 4704,
      "isi": 4705,
      "ambiwa": 4706,
      "furahia": 4707,
      "ĠBarua": 4708,
      "Ġkufuatilia": 4709,
      "Ġsara": 4710,
      "fikiwa": 4711,
      "ndisha": 4712,
      "gai": 4713,
      "www": 4714,
      "TIA": 4715,
      "ĠUwekezaji": 4716,
      "Ġwawe": 4717,
      "ĠDUNIA": 4718,
      "23": 4719,
      "Ġkiba": 4720,
      "ĠYAKO": 4721,
      "tuko": 4722,
      "ĠMWENYE": 4723,
      "dy": 4724,
      "ĠTuko": 4725,
      "sasa": 4726,
      "Ġhakuwa": 4727,
      "Ġmapinduzi": 4728,
      "teuliwa": 4729,
      "hat": 4730,
      "Ġkueleza": 4731,
      "teua": 4732,
      "Ġukaguzi": 4733,
      "ĠMBEYA": 4734,
      "Idadi": 4735,
      "ĠMuhimbili": 4736,
      "Ġinawa": 4737,
      "Ġ2009": 4738,
      "poke": 4739,
      "amaki": 4740,
      "ĠMbara": 4741,
      "tetea": 4742,
      "Ġ)": 4743,
      "ISHO": 4744,
      "endelevu": 4745,
      "Mambo": 4746,
      "2012": 4747,
      "Ġuwepo": 4748,
      "lana": 4749,
      "ĠAbda": 4750,
      "dhe": 4751,
      "ĠSoka": 4752,
      "Usi": 4753,
      "puko": 4754,
      "Ġzitakazo": 4755,
      "Ġkuibu": 4756,
      "ĠSiasa": 4757,
      "ĠTano": 4758,
      "ĠAwamu": 4759,
      "ONA": 4760,
      "aa": 4761,
      "Ġmema": 4762,
      "Ġmashtaka": 4763,
      "TUKO": 4764,
      "Ġel": 4765,
      "Ġkucho": 4766,
      "ĠSere": 4767,
      "Ġkujibu": 4768,
      "ĠKamishna": 4769,
      "PAN": 4770,
      "CHEZO": 4771,
      ".....": 4772,
      "badilisha": 4773,
      "MAA": 4774,
      "Hali": 4775,
      "HURI": 4776,
      "haribi": 4777,
      "yahudi": 4778,
      "Ġkufanikiwa": 4779,
      "KAZI": 4780,
      "ĠTatu": 4781,
      "lwa": 4782,
      "ĠPeter": 4783,
      "thiopia": 4784,
      "ĠAd": 4785,
      "wongozo": 4786,
      "ONGOZI": 4787,
      "ĠKuhusu": 4788,
      "ĠGlo": 4789,
      "shawishi": 4790,
      "ĠNDANI": 4791,
      "Ġwanataka": 4792,
      "Ġukosefu": 4793,
      "ĠTAA": 4794,
      "ĠIKULU": 4795,
      "ĠCongo": 4796,
      "Ġnilikuwa": 4797,
      "Ġtawala": 4798,
      "ĠHO": 4799,
      "ĠSaid": 4800,
      "Ġkutuma": 4801,
      "ĠNgo": 4802,
      "ĠAjira": 4803,
      "Ġilitumwa": 4804,
      "ĠEdward": 4805,
      "Mara": 4806,
      "Ġkusu": 4807,
      "Ġuzito": 4808,
      "ĠMao": 4809,
      "ĠDonald": 4810,
      "Ġwanafanya": 4811,
      "kuzi": 4812,
      "Ġkupigwa": 4813,
      "Ġkukamilisha": 4814,
      "Ġukubwa": 4815,
      "Ġmwanadamu": 4816,
      "Ġsaini": 4817,
      "Ġkurejea": 4818,
      "âĢĿ,": 4819,
      "ĠKWANZA": 4820,
      "Ġkuongezeka": 4821,
      "toe": 4822,
      "Ġofisini": 4823,
      "ĠNEC": 4824,
      "wajibika": 4825,
      "tosha": 4826,
      "skini": 4827,
      "Ġmarekebisho": 4828,
      "tego": 4829,
      "Ġasiye": 4830,
      "onesho": 4831,
      "Ġanayo": 4832,
      "ĠAskofu": 4833,
      "PF": 4834,
      "demokrasia": 4835,
      "Kupata": 4836,
      "Umoja": 4837,
      "Ġmia": 4838,
      "muni": 4839,
      "Ġpole": 4840,
      "Ġwizi": 4841,
      "Ġmeli": 4842,
      "maanisha": 4843,
      "nufaika": 4844,
      "Ġfor": 4845,
      "chimbaji": 4846,
      "elekeza": 4847,
      "Haya": 4848,
      "ZUNGU": 4849,
      "iko": 4850,
      "Ya": 4851,
      "ĠAfrica": 4852,
      "Ġufafanuzi": 4853,
      "nguka": 4854,
      "elfu": 4855,
      "ĠNina": 4856,
      "lly": 4857,
      "ĠDavi": 4858,
      "ĠSC": 4859,
      "Ġmitaa": 4860,
      "tenga": 4861,
      "tawala": 4862,
      "Ġwaumini": 4863,
      "diliano": 4864,
      "Ġendelevu": 4865,
      "ĠHawa": 4866,
      "krani": 4867,
      "ĠNyingine": 4868,
      "ĠWafanyakazi": 4869,
      "Ġmasoko": 4870,
      "lisha": 4871,
      "Ġmtaa": 4872,
      "Ġngozi": 4873,
      "ĠMsu": 4874,
      "tangu": 4875,
      "Ġmzazi": 4876,
      "Ġpindi": 4877,
      "lipwa": 4878,
      "56": 4879,
      "ĠCon": 4880,
      "Ġkusikia": 4881,
      "ĠMSI": 4882,
      "somi": 4883,
      "Ġkuchagua": 4884,
      "MAKAMU": 4885,
      "Ġkipya": 4886,
      "Ġvyanzo": 4887,
      "Ġmungu": 4888,
      "ĠBarabara": 4889,
      "kamilifu": 4890,
      "Ġkusafi": 4891,
      "mbozi": 4892,
      "Ġdata": 4893,
      "pasa": 4894,
      "Ġinaendelea": 4895,
      "miyu": 4896,
      "Ġharamu": 4897,
      "Ġbaadae": 4898,
      "kita": 4899,
      "Da": 4900,
      "mbulio": 4901,
      "Ġwanne": 4902,
      "Ġunavyo": 4903,
      "Ġupasuaji": 4904,
      "ĠChelsea": 4905,
      "hirisha": 4906,
      "ĠMiaka": 4907,
      "fuatayo": 4908,
      "Ġkukusanya": 4909,
      "ĠHakuna": 4910,
      "numz": 4911,
      "VIDEO": 4912,
      "Ġnaku": 4913,
      "Ġtunaweza": 4914,
      "tawa": 4915,
      "INDI": 4916,
      "ĠKatoliki": 4917,
      "TANDA": 4918,
      "gar": 4919,
      "mbabwe": 4920,
      "situ": 4921,
      "ĠSekta": 4922,
      "Ġmishahara": 4923,
      "TWA": 4924,
      "Kari": 4925,
      "Msanii": 4926,
      "bungo": 4927,
      "Ġkumpa": 4928,
      "vazi": 4929,
      "cke": 4930,
      "Ġagizo": 4931,
      ":-": 4932,
      "dilifu": 4933,
      "Ġvema": 4934,
      "Mwaka": 4935,
      "RT": 4936,
      "ĠHamad": 4937,
      "alisema": 4938,
      "CT": 4939,
      "Mhe": 4940,
      "ĠSO": 4941,
      "ĠUongozi": 4942,
      "ĠNini": 4943,
      "ĠNeno": 4944,
      "rey": 4945,
      "oo": 4946,
      "Ġbandari": 4947,
      "fikishwa": 4948,
      "ĠKitaifa": 4949,
      "MAN": 4950,
      "Ġmashine": 4951,
      "26": 4952,
      "likuwa": 4953,
      "Di": 4954,
      "lona": 4955,
      "badilika": 4956,
      "balozi": 4957,
      "ĠUtafiti": 4958,
      "Mwi": 4959,
      "Ġtuweze": 4960,
      "ĠKamanda": 4961,
      "Ga": 4962,
      "ĠZiwa": 4963,
      "aji": 4964,
      "Ġmatendo": 4965,
      "kima": 4966,
      "kanda": 4967,
      "zil": 4968,
      "Ġupungufu": 4969,
      "ĠAFRIKA": 4970,
      "ĠManya": 4971,
      "Ġaibu": 4972,
      "06": 4973,
      "amusi": 4974,
      "ĠSimiyu": 4975,
      "ripotiwa": 4976,
      "FUNZO": 4977,
      "zunguko": 4978,
      "Ġkuwekeza": 4979,
      "ĠJinsi": 4980,
      "jumuisha": 4981,
      "Video": 4982,
      "ĠSHU": 4983,
      "Ġanataka": 4984,
      "Ġnafsi": 4985,
      "Ġmojawapo": 4986,
      "geuzi": 4987,
      "Ġwakiwemo": 4988,
      "Afrika": 4989,
      "Ġwaasi": 4990,
      "ĠMsaidizi": 4991,
      "ZAJI": 4992,
      "dinga": 4993,
      "ĠEmma": 4994,
      "wasilisha": 4995,
      "rio": 4996,
      "PL": 4997,
      "Ġtas": 4998,
      "ĠCHU": 4999,
      "WS": 5000,
      "kumba": 5001,
      "cy": 5002,
      "ĠMasa": 5003,
      "wji": 5004,
      "sababu": 5005,
      "ĠKulia": 5006,
      "aminifu": 5007,
      "ndisho": 5008,
      "ĠNape": 5009,
      "Ġ70": 5010,
      "Ġngono": 5011,
      "SHARA": 5012,
      "Ġakasema": 5013,
      "Ġlabda": 5014,
      "imarisha": 5015,
      "shikama": 5016,
      "ĠInter": 5017,
      "Ġ90": 5018,
      "ĠWema": 5019,
      "Mkutano": 5020,
      "FASI": 5021,
      "tk": 5022,
      "serikali": 5023,
      "Li": 5024,
      "ĠKisu": 5025,
      "Ġwanam": 5026,
      "haribifu": 5027,
      "zozo": 5028,
      "Ġkatibu": 5029,
      "ĠIlala": 5030,
      "ĠZitto": 5031,
      "aga": 5032,
      "Ġmingine": 5033,
      "Ġ300": 5034,
      "ĠINA": 5035,
      "uzwa": 5036,
      "VA": 5037,
      "ĠKiingereza": 5038,
      "Ġkikamilifu": 5039,
      "pendo": 5040,
      "ĠEthiopia": 5041,
      "Ġjipya": 5042,
      "Ġtamasha": 5043,
      "Ġkompyuta": 5044,
      "king": 5045,
      "KUWA": 5046,
      "WANJA": 5047,
      "pisho": 5048,
      "Ġunataka": 5049,
      "ĠCom": 5050,
      "ĠKai": 5051,
      "Ġwanaoishi": 5052,
      "ANCHI": 5053,
      "Ġkifungo": 5054,
      "Balozi": 5055,
      "ĠMilioni": 5056,
      "ĠMKUTANO": 5057,
      "ĠUchukuzi": 5058,
      "ndiko": 5059,
      "samaha": 5060,
      "Ġshiriki": 5061,
      "Ke": 5062,
      "Pe": 5063,
      "Ġkukamilika": 5064,
      "DIA": 5065,
      "njo": 5066,
      "jengea": 5067,
      "yasema": 5068,
      "pigano": 5069,
      "gusa": 5070,
      "ĠZu": 5071,
      "puka": 5072,
      "TEMBE": 5073,
      "ĠMahi": 5074,
      "ĠMawaziri": 5075,
      "mbuka": 5076,
      "ĠHis": 5077,
      "Ġtuka": 5078,
      "ĠMapato": 5079,
      "lestina": 5080,
      "Ġkubaini": 5081,
      "ruhusiwa": 5082,
      "ĠAg": 5083,
      "Ġvyake": 5084,
      "ĠUchumi": 5085,
      "fikapo": 5086,
      "MWI": 5087,
      "zinga": 5088,
      "Ġmstaafu": 5089,
      "Kutoka": 5090,
      "ĠBan": 5091,
      "Ġtakriban": 5092,
      "Ġwahusika": 5093,
      "ĠCu": 5094,
      "DS": 5095,
      "Ġmsichana": 5096,
      "ĠMkapa": 5097,
      "ĠAllah": 5098,
      "ĠOdinga": 5099,
      "Jo": 5100,
      "lin": 5101,
      "Ġonline": 5102,
      "Ġada": 5103,
      "nyanya": 5104,
      "MHURI": 5105,
      "55": 5106,
      "ĠAnge": 5107,
      "ĠNne": 5108,
      "Ġvia": 5109,
      "Ġvigumu": 5110,
      "Ġmaumivu": 5111,
      "ĠMagereza": 5112,
      "ngazo": 5113,
      "Ġkihi": 5114,
      "wawa": 5115,
      "cco": 5116,
      "ĠDUNI": 5117,
      "Ġkushika": 5118,
      "ĠWANAFUNZI": 5119,
      "Ġmbinguni": 5120,
      "sala": 5121,
      "Ġ500": 5122,
      "Ġ2005": 5123,
      "ĠWakala": 5124,
      "ĠMtanzania": 5125,
      "ĠSomalia": 5126,
      "Hivyo": 5127,
      "skofu": 5128,
      "Ġkugombea": 5129,
      "ĠBer": 5130,
      "chezwa": 5131,
      "Ġmzee": 5132,
      "hawa": 5133,
      "tume": 5134,
      "UNGANO": 5135,
      "tus": 5136,
      "Hayo": 5137,
      "sababishwa": 5138,
      "Ġmitihani": 5139,
      "âĢ¦.": 5140,
      "Ġdhana": 5141,
      "rah": 5142,
      "ĠMatumizi": 5143,
      "Ġmajadiliano": 5144,
      "Ġlikiwa": 5145,
      "Ġkikundi": 5146,
      "Ġham": 5147,
      "Ġvikundi": 5148,
      "tano": 5149,
      "some": 5150,
      "........": 5151,
      "Ġ80": 5152,
      "Nina": 5153,
      "vunja": 5154,
      "Wizara": 5155,
      "Ġhususan": 5156,
      "Ġkiko": 5157,
      "Ġjela": 5158,
      "ĠHakimu": 5159,
      "shtakiwa": 5160,
      "Ġmifumo": 5161,
      "Ġjoto": 5162,
      "koba": 5163,
      "ĠDUNIANI": 5164,
      "ĠHE": 5165,
      "KON": 5166,
      "uro": 5167,
      "Ġendapo": 5168,
      "Ġisipokuwa": 5169,
      "ĠFE": 5170,
      "Ġshamba": 5171,
      "Ġkilele": 5172,
      "ĠAlex": 5173,
      "Ġchenye": 5174,
      "Ġkuelewa": 5175,
      "Ġkwanini": 5176,
      "Ġpengine": 5177,
      "ĠUnaweza": 5178,
      "load": 5179,
      "Ġmtandaoni": 5180,
      "SOMA": 5181,
      "Ġubingwa": 5182,
      "Ġkimya": 5183,
      "ĠEmmanuel": 5184,
      "Ġkifungu": 5185,
      "SHO": 5186,
      "ĠAN": 5187,
      "pelekwa": 5188,
      "ĠAugu": 5189,
      "ĠReal": 5190,
      "KURU": 5191,
      "!!!!": 5192,
      "ĠAU": 5193,
      "vuvi": 5194,
      "ngezea": 5195,
      "Ġzilikuwa": 5196,
      "hifadhiwa": 5197,
      "tambulisha": 5198,
      "ifanya": 5199,
      "Ġumekuwa": 5200,
      "DILI": 5201,
      "ĠBABA": 5202,
      "Ġtuma": 5203,
      "gopa": 5204,
      "Ġvikwazo": 5205,
      "ĠKha": 5206,
      "ĠMUUNGANO": 5207,
      "Ġnami": 5208,
      "hudumia": 5209,
      "Ġkufungwa": 5210,
      "DUA": 5211,
      "Ġushiriki": 5212,
      "MISE": 5213,
      "Ġkaunti": 5214,
      "TATU": 5215,
      "Ġmwingi": 5216,
      "ĠSlaa": 5217,
      "afrika": 5218,
      "Ġca": 5219,
      "Ye": 5220,
      "Ġyenyewe": 5221,
      "nes": 5222,
      "ficha": 5223,
      "ĠII": 5224,
      "ondon": 5225,
      "tima": 5226,
      "klia": 5227,
      "amhuri": 5228,
      "ĠMuha": 5229,
      "Ġkutetea": 5230,
      "ĠAlly": 5231,
      "zwe": 5232,
      "KIA": 5233,
      "celona": 5234,
      "Ġnapenda": 5235,
      "Ġwapya": 5236,
      "faulu": 5237,
      "rasi": 5238,
      "kusanyi": 5239,
      "Ġmkopo": 5240,
      "Ġukuaji": 5241,
      "hakikishia": 5242,
      "Ġktk": 5243,
      "21": 5244,
      "nsa": 5245,
      "Ġhasara": 5246,
      "lingana": 5247,
      "athiri": 5248,
      "zoea": 5249,
      "ĠRasmi": 5250,
      "toria": 5251,
      "aneno": 5252,
      "ĠMaana": 5253,
      "Ġitaendelea": 5254,
      "Ġjua": 5255,
      "Ġmatatu": 5256,
      "ĠUbungo": 5257,
      "Ġmwenzake": 5258,
      "hubiri": 5259,
      "ĠMwisho": 5260,
      "ĠMAFUNZO": 5261,
      "Ġkifedha": 5262,
      "ĠNime": 5263,
      "mka": 5264,
      "Ġulemavu": 5265,
      "ungana": 5266,
      "ĠMWANZA": 5267,
      ".)": 5268,
      "rabati": 5269,
      "ĠZimbabwe": 5270,
      "ĠPar": 5271,
      "ĠLib": 5272,
      "Ġelfu": 5273,
      "stine": 5274,
      "Ġfupi": 5275,
      "2011": 5276,
      "liongeza": 5277,
      "loud": 5278,
      "wapa": 5279,
      "fahamika": 5280,
      "Ġmazishi": 5281,
      "luhi": 5282,
      "ngeti": 5283,
      "kaji": 5284,
      "punguza": 5285,
      "ĠTuma": 5286,
      "Ġuendeshaji": 5287,
      "Ġsijui": 5288,
      "Ġwenyeji": 5289,
      "Ġ35": 5290,
      "huo": 5291,
      "ĠMpira": 5292,
      "ĠMifugo": 5293,
      "wekea": 5294,
      "semwa": 5295,
      "JINA": 5296,
      "amehe": 5297,
      "Ġbusara": 5298,
      "rison": 5299,
      "ĠUKI": 5300,
      "TV": 5301,
      "Ġushindani": 5302,
      "Ġkikazi": 5303,
      "Ġmsiba": 5304,
      "shuru": 5305,
      "Ġkujaribu": 5306,
      "MW": 5307,
      "Ġtete": 5308,
      "mwagi": 5309,
      "nzetu": 5310,
      "ĠZANZI": 5311,
      "Ġsamaki": 5312,
      "Ġkuam": 5313,
      "tra": 5314,
      "takavyo": 5315,
      "kipiki": 5316,
      "KARI": 5317,
      "Ġkidini": 5318,
      "ĠAra": 5319,
      "ĠLondon": 5320,
      "Ġifikapo": 5321,
      "Ġmajimbo": 5322,
      "NEC": 5323,
      "Ġmajeshi": 5324,
      "ĠZANZIBAR": 5325,
      "Kam": 5326,
      "Lu": 5327,
      "ambatana": 5328,
      "Ġrufaa": 5329,
      "Ġenzi": 5330,
      "kundu": 5331,
      "pigia": 5332,
      "ĠVyama": 5333,
      "Ġtamko": 5334,
      "nyika": 5335,
      "OH": 5336,
      "Ġkupanga": 5337,
      "Hakuna": 5338,
      "rahim": 5339,
      "rudisha": 5340,
      "Hatua": 5341,
      "Ġuda": 5342,
      "shikamano": 5343,
      "Ġviungo": 5344,
      "vutia": 5345,
      "moni": 5346,
      "Ġsina": 5347,
      "nendo": 5348,
      "MISEMI": 5349,
      "Ġkuongea": 5350,
      "ĠPlat": 5351,
      "gogo": 5352,
      "ĠRE": 5353,
      "OND": 5354,
      "Ġwaha": 5355,
      "ĠSU": 5356,
      "liaji": 5357,
      "Ġvyenye": 5358,
      "funguka": 5359,
      "ĠAirtel": 5360,
      "Ġ@": 5361,
      "ĠVideo": 5362,
      "ridi": 5363,
      "cro": 5364,
      "ambukizi": 5365,
      "ĠLissu": 5366,
      "plo": 5367,
      "Ġmstari": 5368,
      "Ġyaliyofanyika": 5369,
      "ZINDUA": 5370,
      "Ġhasira": 5371,
      "Ġnazo": 5372,
      "nusu": 5373,
      "gia": 5374,
      "Ġkuhamasisha": 5375,
      "ĠMarehemu": 5376,
      "kumbusha": 5377,
      "FISI": 5378,
      "Ġnk": 5379,
      "Ġmkazi": 5380,
      "Ġkipekee": 5381,
      "Timu": 5382,
      "Ġwacha": 5383,
      "Ġkuzindua": 5384,
      "RDB": 5385,
      "ENE": 5386,
      "pumzi": 5387,
      "hiki": 5388,
      "ÂĶ": 5389,
      "ĠUMMA": 5390,
      "Hapa": 5391,
      "Ġalicho": 5392,
      "Ġ37": 5393,
      "ngezi": 5394,
      "wnload": 5395,
      "Ġkazini": 5396,
      "Afisa": 5397,
      "Ġchuki": 5398,
      "ĠUmmy": 5399,
      "MPYA": 5400,
      "Ġhadhi": 5401,
      "ZUNGUM": 5402,
      "Ikiwa": 5403,
      "UNGA": 5404,
      "Ġakimkabidhi": 5405,
      "sari": 5406,
      "ĠNdo": 5407,
      "laika": 5408,
      "Ġufundi": 5409,
      "ĠBajeti": 5410,
      "tembea": 5411,
      "Ġdhahabu": 5412,
      "Ġinakuwa": 5413,
      "Ġufumbuzi": 5414,
      "ĠPetro": 5415,
      "ajiri": 5416,
      "Ġmabingwa": 5417,
      "huku": 5418,
      "Ġkujitokeza": 5419,
      "ĠKanuni": 5420,
      "nte": 5421,
      "ĠKidato": 5422,
      "Nili": 5423,
      "ĠRadio": 5424,
      "ĠPaulo": 5425,
      "ĠCRDB": 5426,
      "ĠIra": 5427,
      "ĠItalia": 5428,
      "GUA": 5429,
      "ĠJames": 5430,
      "KANA": 5431,
      "tazama": 5432,
      "ghari": 5433,
      "res": 5434,
      "Ġmagharibi": 5435,
      "unganisha": 5436,
      "Ġyatakayo": 5437,
      "ĠMashi": 5438,
      "Dkt": 5439,
      "Ġâĸ": 5440,
      "ĠHaya": 5441,
      "ĠKUKA": 5442,
      "ĠTiba": 5443,
      "pumba": 5444,
      "ĠWATOTO": 5445,
      "ĠBarcelona": 5446,
      "ĠAKUTANA": 5447,
      "net": 5448,
      "shiwa": 5449,
      "patiwa": 5450,
      "ĠGod": 5451,
      "Ġkamwe": 5452,
      "Ġjinsia": 5453,
      "zami": 5454,
      "Ġ2008": 5455,
      "ĠBinadamu": 5456,
      "dhuri": 5457,
      "Ġzima": 5458,
      "BE": 5459,
      "rg": 5460,
      "kagua": 5461,
      "tofauti": 5462,
      "Ġvikuu": 5463,
      "Ġjukwaa": 5464,
      "MBALI": 5465,
      "mita": 5466,
      "Ġsakata": 5467,
      "meke": 5468,
      "Ġkuvunja": 5469,
      "ĠBONGO": 5470,
      "ĠSASA": 5471,
      "Ġkivi": 5472,
      "hani": 5473,
      "Ġzipo": 5474,
      "ĠTwitter": 5475,
      "ðŁ": 5476,
      "Te": 5477,
      "Michezo": 5478,
      "Ġkongamano": 5479,
      "mwo": 5480,
      "Ġmajaribio": 5481,
      "Ġmbadala": 5482,
      "Ġhazina": 5483,
      "Ġpu": 5484,
      "Ġuelewa": 5485,
      "lewe": 5486,
      "riko": 5487,
      "Ġnjaa": 5488,
      "pool": 5489,
      "Ġkiroho": 5490,
      "Ġuharibifu": 5491,
      "ĠMAJI": 5492,
      "Ġhaiku": 5493,
      "Ġutajiri": 5494,
      "as": 5495,
      "ĠKima": 5496,
      "Shirika": 5497,
      "KITI": 5498,
      "sherehe": 5499,
      "lan": 5500,
      "ĠPAMOJA": 5501,
      "KILI": 5502,
      "ĠId": 5503,
      "Ġukatili": 5504,
      "MKE": 5505,
      "ĠMAN": 5506,
      "ĠSoko": 5507,
      "tive": 5508,
      "Ġusawa": 5509,
      "Ġurahisi": 5510,
      "fuko": 5511,
      "ĠDola": 5512,
      "Ġneema": 5513,
      "ger": 5514,
      "ĠAbdallah": 5515,
      "tii": 5516,
      "TFF": 5517,
      "SHU": 5518,
      "ĠMer": 5519,
      "Ġhuwezi": 5520,
      "ĠkutokaTUKO": 5521,
      "ĠFai": 5522,
      "Ġalifanya": 5523,
      "ĠCA": 5524,
      "Ġupate": 5525,
      "ĠPinda": 5526,
      "shikilia": 5527,
      "Mbali": 5528,
      "ĠDavid": 5529,
      "sikiti": 5530,
      "mvi": 5531,
      "Ġmaziwa": 5532,
      "ĠKlabu": 5533,
      "Ġmua": 5534,
      "Ġhalafu": 5535,
      "ĠJubile": 5536,
      "Ġuwanjani": 5537,
      "shangaa": 5538,
      "Ġwaji": 5539,
      "bas": 5540,
      "ĠNd": 5541,
      "Ġmaofisa": 5542,
      "ĠAka": 5543,
      "bri": 5544,
      "Ġkukua": 5545,
      "Ġmaskini": 5546,
      "Ġtusi": 5547,
      "verpool": 5548,
      "TEMBELEA": 5549,
      "ĠIsraeli": 5550,
      "oa": 5551,
      "lay": 5552,
      "ISH": 5553,
      "Ġjapo": 5554,
      "shangi": 5555,
      "Ġkuwezesha": 5556,
      "Ġswala": 5557,
      "ĠPlatnumz": 5558,
      "tho": 5559,
      "Ġkuhudhuria": 5560,
      "Ġnyama": 5561,
      "ĠUpinzani": 5562,
      "Ġkingine": 5563,
      "Ġmto": 5564,
      "china": 5565,
      "nse": 5566,
      "ĠMBALIMBALI": 5567,
      "ĠYOTE": 5568,
      "Makala": 5569,
      "ĠMtoto": 5570,
      "Ġkamusi": 5571,
      "HAYA": 5572,
      "ruka": 5573,
      "Ġhavi": 5574,
      "louds": 5575,
      "Ġkale": 5576,
      "rage": 5577,
      "binafsi": 5578,
      "Kamati": 5579,
      "ĠSir": 5580,
      "ĠKushoto": 5581,
      "Ġmlango": 5582,
      "Ġsija": 5583,
      "dhui": 5584,
      "ĠSH": 5585,
      "Ġmtindo": 5586,
      "ĠJUU": 5587,
      "Ġ2007": 5588,
      "Ġalieleza": 5589,
      "Ġmapigano": 5590,
      "lika": 5591,
      "ĠKarume": 5592,
      "islam": 5593,
      "ĠMwili": 5594,
      "chochea": 5595,
      "ĠNDO": 5596,
      "jiandaa": 5597,
      "tegeme": 5598,
      "MWA": 5599,
      "Orodha": 5600,
      "harakati": 5601,
      "Ġmme": 5602,
      "mb": 5603,
      "thu": 5604,
      "kabila": 5605,
      "ĠWIZARA": 5606,
      "Ġkuepuka": 5607,
      "ĠMwinyi": 5608,
      "jikuta": 5609,
      "jipanga": 5610,
      "ĠTovuti": 5611,
      "ĠSheikh": 5612,
      "rwa": 5613,
      "zaidi": 5614,
      "ĠMABA": 5615,
      "Ġmaarifa": 5616,
      "ĠHamisi": 5617,
      "ĠUvuvi": 5618,
      "ĠZambia": 5619,
      "Wananchi": 5620,
      "KWETE": 5621,
      "Ġkubeba": 5622,
      "ĠNga": 5623,
      "Ġhadharani": 5624,
      "ĠKIMA": 5625,
      "hindi": 5626,
      "ĠNjo": 5627,
      "ĠPOLISI": 5628,
      "liona": 5629,
      "Mabadiliko": 5630,
      "Ġwema": 5631,
      "Ġdaima": 5632,
      "Ġâĸ·": 5633,
      "Ġwawakilishi": 5634,
      "Ġkipaumbele": 5635,
      "Ime": 5636,
      "ĠWEN": 5637,
      "ĠMwakilishi": 5638,
      "ĠCHUO": 5639,
      "Ġninyi": 5640,
      "Ġkupeleka": 5641,
      "ĠNAFASI": 5642,
      "ĠNDIO": 5643,
      "ĠJune": 5644,
      "alam": 5645,
      "Ġshuleni": 5646,
      "ĠManyara": 5647,
      "ress": 5648,
      "Ġzilizopita": 5649,
      "Ġkuzungumzia": 5650,
      "Ġaje": 5651,
      "Ġis": 5652,
      "ĠKitengo": 5653,
      "Ġimetoa": 5654,
      "ĠIbrahim": 5655,
      "Ġdhahiri": 5656,
      "dii": 5657,
      "Ġvikosi": 5658,
      "Ġkusafiri": 5659,
      "ĠWilayani": 5660,
      "Ġkukamatwa": 5661,
      "ĠSport": 5662,
      "Ġwanapaswa": 5663,
      "ĠHivi": 5664,
      "tafu": 5665,
      "leva": 5666,
      "Ġalizo": 5667,
      "Ġwanaishi": 5668,
      "ĠUislamu": 5669,
      "ĠMAKA": 5670,
      "Ġanawa": 5671,
      "ĠKUTU": 5672,
      "Ġmakali": 5673,
      "ĠTemeke": 5674,
      "ĠVa": 5675,
      "Ġamefariki": 5676,
      "ogle": 5677,
      "chia": 5678,
      "tongo": 5679,
      "rudia": 5680,
      "Ġmadu": 5681,
      "REA": 5682,
      "Ġwatano": 5683,
      "Kazi": 5684,
      "nau": 5685,
      "FO": 5686,
      "UME": 5687,
      "33": 5688,
      "fiwa": 5689,
      "Kamanda": 5690,
      "ĠKongo": 5691,
      "ĠKIKWETE": 5692,
      "SHAURI": 5693,
      "Ġmadiwani": 5694,
      "Ġwamesema": 5695,
      "ĠBibi": 5696,
      "rekebisha": 5697,
      "tekelezwa": 5698,
      "STA": 5699,
      "bariki": 5700,
      "MAGAZETI": 5701,
      "ambe": 5702,
      "Ġumaskini": 5703,
      "CHADEMA": 5704,
      "ĠHuu": 5705,
      "ĠLIGI": 5706,
      "zanzi": 5707,
      "Ġnidhamu": 5708,
      "Ġhamu": 5709,
      "Ġungependa": 5710,
      "ĠMAMA": 5711,
      "Ġmaradhi": 5712,
      "SOMO": 5713,
      "cm": 5714,
      "nder": 5715,
      "Soma": 5716,
      "Ġzenu": 5717,
      "Ġkaka": 5718,
      "Ġpopote": 5719,
      "shfa": 5720,
      "elimisha": 5721,
      "--": 5722,
      "Ġkara": 5723,
      "ĠBaadhi": 5724,
      "simamisha": 5725,
      "Ġinapo": 5726,
      "ĠUKIMWI": 5727,
      "Ġaliongeza": 5728,
      "pengele": 5729,
      "Ġinawezekana": 5730,
      "Basi": 5731,
      "KTA": 5732,
      "Ġshukrani": 5733,
      "Ġmeza": 5734,
      "ĠMaria": 5735,
      "ĠNili": 5736,
      "tz": 5737,
      "Ġsayansi": 5738,
      "ĠDawa": 5739,
      "ĠKiu": 5740,
      "Ġmaelfu": 5741,
      "Ġsalamu": 5742,
      "Ġhuruma": 5743,
      "ĠWenye": 5744,
      "Ġminne": 5745,
      "Ġ36": 5746,
      "Ġkuvutia": 5747,
      "Fu": 5748,
      "Ġkufanyiwa": 5749,
      "De": 5750,
      "lazi": 5751,
      "vutio": 5752,
      "xi": 5753,
      "Ġunayo": 5754,
      "Ġpikipiki": 5755,
      "Ġchao": 5756,
      "ĠWAKATI": 5757,
      "Ġmawe": 5758,
      "Ġilivyokuwa": 5759,
      "Ġngoma": 5760,
      "Ġ45": 5761,
      "pelelezi": 5762,
      "Ġnakala": 5763,
      "Ġnyaraka": 5764,
      "Tovuti": 5765,
      "dhifa": 5766,
      "JANA": 5767,
      "samehe": 5768,
      "ĠJANA": 5769,
      "Ġkuwawezesha": 5770,
      "Ġ2006": 5771,
      "Baraza": 5772,
      "ting": 5773,
      "Ġmwao": 5774,
      "men": 5775,
      "ĠVYO": 5776,
      "ĠWOTE": 5777,
      "Ġfikra": 5778,
      "SHIRIKI": 5779,
      "Ġjibu": 5780,
      "ast": 5781,
      "Ġanavyo": 5782,
      "TEN": 5783,
      "timiza": 5784,
      "neti": 5785,
      "Ġbidii": 5786,
      "hojiwa": 5787,
      "petu": 5788,
      "ngeweza": 5789,
      "Ġmfalme": 5790,
      "Ġkufahamu": 5791,
      "dhiri": 5792,
      "Ġmafundisho": 5793,
      "Ġsho": 5794,
      "ĠApril": 5795,
      "Ġrobo": 5796,
      "ĠFree": 5797,
      "ĠTundu": 5798,
      "Ġmwanachama": 5799,
      "MS": 5800,
      "Ġusu": 5801,
      "Ġmshahara": 5802,
      "Ġmaambukizi": 5803,
      "lekeo": 5804,
      "Ġuu": 5805,
      "ĠYou": 5806,
      "RS": 5807,
      "Ġanafanya": 5808,
      "ENDELEO": 5809,
      "Ġombi": 5810,
      "Ġhususani": 5811,
      "ĠBandari": 5812,
      "28": 5813,
      "ĠMJINI": 5814,
      "ĠMHE": 5815,
      "Ġuo": 5816,
      "Ġkufurahi": 5817,
      "Chadema": 5818,
      "ĠMasoko": 5819,
      "ĠTUKO": 5820,
      "04": 5821,
      "hadhari": 5822,
      "fuatavyo": 5823,
      "mfanya": 5824,
      "Kauli": 5825,
      "Ġhauna": 5826,
      "shirini": 5827,
      "Ġkwasababu": 5828,
      "Ġnawa": 5829,
      "ĠKUPI": 5830,
      "Ġwastani": 5831,
      "Ġkuifanya": 5832,
      "rosho": 5833,
      "Ġkihistoria": 5834,
      "ĠMaafisa": 5835,
      "ĠYor": 5836,
      "Ġmadhu": 5837,
      "ulizwa": 5838,
      "GON": 5839,
      "He": 5840,
      "Ġkuanzishwa": 5841,
      "Ġhisa": 5842,
      "SMI": 5843,
      "karibia": 5844,
      "Ġamefanya": 5845,
      "Ġlini": 5846,
      "maarufu": 5847,
      "Ġuji": 5848,
      "sale": 5849,
      "ice": 5850,
      "ime": 5851,
      "Ġmuundo": 5852,
      "ĠClouds": 5853,
      "IDA": 5854,
      "dumisha": 5855,
      "Ġserikalini": 5856,
      "Do": 5857,
      "ĠSerengeti": 5858,
      "kel": 5859,
      "Ġzikiwa": 5860,
      "Ġkitengo": 5861,
      "ĠAnna": 5862,
      "Ġtumbo": 5863,
      "ywe": 5864,
      "ĠTha": 5865,
      "Ġmkurugenzi": 5866,
      "ĠHAPO": 5867,
      "Awali": 5868,
      "Ġdhamira": 5869,
      "use": 5870,
      "Ġurefu": 5871,
      "Ġfe": 5872,
      "Ġmbu": 5873,
      "ĠJubilee": 5874,
      "ĠRU": 5875,
      "Ġmichango": 5876,
      "Ġwanazo": 5877,
      "Ġuzima": 5878,
      "Ġratiba": 5879,
      "ĠMAISHA": 5880,
      "Ġvyeti": 5881,
      "romo": 5882,
      "ff": 5883,
      "ĠNda": 5884,
      "Ġmwanga": 5885,
      "van": 5886,
      "tatu": 5887,
      "ĠYE": 5888,
      "Ġwakifuatilia": 5889,
      "onya": 5890,
      "kusanya": 5891,
      "ĠMtaa": 5892,
      "ploma": 5893,
      "DUMA": 5894,
      "Ġelezo": 5895,
      "ĠMTOTO": 5896,
      "ĠSalum": 5897,
      "ĠKilo": 5898,
      "Ġkuwataka": 5899,
      "Ġalipata": 5900,
      "Ġmana": 5901,
      "fri": 5902,
      "mas": 5903,
      "tto": 5904,
      "Ġulivyo": 5905,
      "Ġwamiliki": 5906,
      "ĠNDI": 5907,
      "LIO": 5908,
      "gan": 5909,
      "Ġwenzetu": 5910,
      "ĠSwahili": 5911,
      "Ġhuja": 5912,
      "shuhuda": 5913,
      "Ġkulipwa": 5914,
      "Ġkunywa": 5915,
      "tes": 5916,
      "Ġvigezo": 5917,
      "Ġaji": 5918,
      "Ġmapa": 5919,
      "ĠSehemu": 5920,
      "Ġwalisema": 5921,
      "ĠEs": 5922,
      "sambazaji": 5923,
      "ĠNGU": 5924,
      "Ġmzigo": 5925,
      "lakini": 5926,
      "tamani": 5927,
      "onea": 5928,
      "ĠSepetu": 5929,
      "ang": 5930,
      "ĠNdiyo": 5931,
      "ĠKisha": 5932,
      "Ġmavazi": 5933,
      "KEA": 5934,
      "Ġalipotembelea": 5935,
      "ntho": 5936,
      "Ġtendo": 5937,
      "ĠLea": 5938,
      "Ġvu": 5939,
      "ĠInstagram": 5940,
      "Ġinapatikana": 5941,
      "\",": 5942,
      "menti": 5943,
      "Ġubaguzi": 5944,
      "nyang": 5945,
      "Ġubunifu": 5946,
      "Ġambae": 5947,
      "Ġvipaji": 5948,
      "ĠMti": 5949,
      "iara": 5950,
      "ĠBrazil": 5951,
      "saidie": 5952,
      "ĠMaelezo": 5953,
      "ĠKambi": 5954,
      "ĠTuzo": 5955,
      "Ġshindano": 5956,
      "App": 5957,
      "ĠMakazi": 5958,
      "ĠMwananchi": 5959,
      "Ġmshambuliaji": 5960,
      "Ġwenzao": 5961,
      "Sikiliza": 5962,
      "JENZI": 5963,
      "Ġmitambo": 5964,
      "HIDI": 5965,
      "Ġkarne": 5966,
      "Ġulimwenguni": 5967,
      "mwagiliaji": 5968,
      "Ġhaita": 5969,
      "ĠRukwa": 5970,
      "LOZI": 5971,
      "Ġpamba": 5972,
      "Ġmikononi": 5973,
      "ĠBukoba": 5974,
      "Ġhekima": 5975,
      "fanana": 5976,
      "Ġilio": 5977,
      "kutwa": 5978,
      "mmad": 5979,
      "Ġmizigo": 5980,
      "JIA": 5981,
      "Ġakipokea": 5982,
      "ANG": 5983,
      "Ġwanapata": 5984,
      "ĠWako": 5985,
      "?âĢĿ": 5986,
      "Ġreli": 5987,
      "pania": 5988,
      "ĠMpe": 5989,
      "nauye": 5990,
      "ĠUMOJA": 5991,
      "Ġ2000": 5992,
      "Maswali": 5993,
      "Ġlisi": 5994,
      "Ġkuchunguza": 5995,
      "sajiliwa": 5996,
      "Ġmami": 5997,
      "MILI": 5998,
      "ĠLiverpool": 5999,
      "âĢ¦âĢ¦": 6000,
      "mishwa": 6001,
      "ĠMAENDELEO": 6002,
      "Ġbudi": 6003,
      "ĠWakristo": 6004,
      "ĠJK": 6005,
      "sisi": 6006,
      "Ġupi": 6007,
      "ĠMAMBO": 6008,
      "Magazeti": 6009,
      "Ġ32": 6010,
      "Ġmiili": 6011,
      "Ġmteja": 6012,
      "ĠViwanja": 6013,
      "ĠHadi": 6014,
      "himiza": 6015,
      "Ġkulala": 6016,
      "ĠSANA": 6017,
      "TOBA": 6018,
      "Ġgoli": 6019,
      "kanisa": 6020,
      "Ġhadithi": 6021,
      "ĠVya": 6022,
      "baka": 6023,
      "wakilisha": 6024,
      "tar": 6025,
      "Ġemail": 6026,
      "ĠUmeme": 6027,
      "ĠVyombo": 6028,
      "lub": 6029,
      "Ġkashfa": 6030,
      "ban": 6031,
      "Ġwapata": 6032,
      "sikini": 6033,
      "ĠMuhimu": 6034,
      "Ġuhaba": 6035,
      "nika": 6036,
      "ĠMakamba": 6037,
      "Maendeleo": 6038,
      "Ġkushughulikia": 6039,
      "miri": 6040,
      "ĠNnauye": 6041,
      "ĠAMBA": 6042,
      "ĠNdugai": 6043,
      "phi": 6044,
      "ĠMoyo": 6045,
      "amasha": 6046,
      "nikizo": 6047,
      "ĠMko": 6048,
      "ĠKura": 6049,
      "gulu": 6050,
      "UNA": 6051,
      "Ġkutakuwa": 6052,
      "ĠAKIWA": 6053,
      "Ġnaona": 6054,
      "ĠSan": 6055,
      "Ġmio": 6056,
      "Ġmsamaha": 6057,
      "ĠSita": 6058,
      "Ġimewa": 6059,
      "ĠRobert": 6060,
      "Ġeti": 6061,
      "rambi": 6062,
      "ishia": 6063,
      "bongo": 6064,
      "2557": 6065,
      "ĠQu": 6066,
      "gmail": 6067,
      "ĠPapa": 6068,
      "Ġoperesheni": 6069,
      "ĠKUI": 6070,
      "gemea": 6071,
      "ĠAm": 6072,
      "Ġkiki": 6073,
      "Ġtaaluma": 6074,
      "ombea": 6075,
      "Ġkusa": 6076,
      "td": 6077,
      "bainika": 6078,
      "fali": 6079,
      "Ġmgonjwa": 6080,
      "Ro": 6081,
      "jitahidi": 6082,
      "ed": 6083,
      "ĠAfrican": 6084,
      "yekuwa": 6085,
      "Ġnadhani": 6086,
      "ĠMbu": 6087,
      "ĠNdio": 6088,
      "ĠMicha": 6089,
      "KTOBA": 6090,
      "ĠAmba": 6091,
      "ĠUko": 6092,
      "Ġfaini": 6093,
      "thamini": 6094,
      "ĠMICHEZO": 6095,
      "ĠRASMI": 6096,
      "Ġunahitaji": 6097,
      "ĠWaki": 6098,
      "ĠJob": 6099,
      "Ġmwenendo": 6100,
      "Ġkwenu": 6101,
      "Ġyapo": 6102,
      "ĠVYOMBO": 6103,
      "DP": 6104,
      "ĠUWANJA": 6105,
      "iri": 6106,
      "Ġvirusi": 6107,
      "ĠTsh": 6108,
      "ĠUkimwi": 6109,
      "Ġwazo": 6110,
      "Ġkupima": 6111,
      "gharimu": 6112,
      "roup": 6113,
      "GENZI": 6114,
      "Ġmzozo": 6115,
      "Ġkuokoa": 6116,
      "ĠKUTOA": 6117,
      "ĠMana": 6118,
      "ĠMikopo": 6119,
      "Ġwatuhumiwa": 6120,
      "Ġyafuatayo": 6121,
      "Ġkuonesha": 6122,
      "Ġkutoku": 6123,
      "ĠIN": 6124,
      "semekana": 6125,
      "Ġzinaweza": 6126,
      "Ġmabasi": 6127,
      "amoyo": 6128,
      "02": 6129,
      "Ġmwendo": 6130,
      "Ġkushangaza": 6131,
      "Ġsaratani": 6132,
      "ĠUfalme": 6133,
      "ĠGi": 6134,
      "tupa": 6135,
      "ĠAL": 6136,
      "ĠAM": 6137,
      "Ġsikukuu": 6138,
      "ĠSHULE": 6139,
      "ĠKumi": 6140,
      "Ġtelevi": 6141,
      "DM": 6142,
      "nayo": 6143,
      "Ġviwili": 6144,
      "ĠGA": 6145,
      "Ġakihutubia": 6146,
      "ĠKuji": 6147,
      "mshi": 6148,
      "Ġmwelekeo": 6149,
      "Ġuliyo": 6150,
      "ĠLugha": 6151,
      "Ġulipo": 6152,
      "Ġmgumu": 6153,
      "05": 6154,
      "au": 6155,
      "Ġwanadamu": 6156,
      "semi": 6157,
      "Ġlaki": 6158,
      "liwe": 6159,
      "Huduma": 6160,
      "budu": 6161,
      "Mb": 6162,
      "Akizungumzia": 6163,
      "ĠMary": 6164,
      "ĠMari": 6165,
      "Ġhumu": 6166,
      "Ġkuchukuliwa": 6167,
      "ĠUhusiano": 6168,
      "Ġvyo": 6169,
      "ĠBORA": 6170,
      "Ġtawi": 6171,
      "vua": 6172,
      "Ġchako": 6173,
      "Ġmtumishi": 6174,
      "ĠPre": 6175,
      "bal": 6176,
      "Ġbingwa": 6177,
      "ssein": 6178,
      "Ġhtt": 6179,
      "ĠMabingwa": 6180,
      "ĠKufanya": 6181,
      "ĠWasi": 6182,
      "ĠKweli": 6183,
      "gamoyo": 6184,
      "Ġaweze": 6185,
      "ĠNYUMBA": 6186,
      "Ġpombe": 6187,
      "ĠJanuary": 6188,
      "Ġwashindi": 6189,
      "Ġudha": 6190,
      "Ġan": 6191,
      "ĠMjumbe": 6192,
      "ĠKAB": 6193,
      "Ġangalau": 6194,
      "ĠPu": 6195,
      "ĠRuvuma": 6196,
      "ste": 6197,
      "Ġkuachana": 6198,
      "Ġzimekuwa": 6199,
      "Ġanatarajiwa": 6200,
      "patie": 6201,
      "ĠFilamu": 6202,
      "roid": 6203,
      "ĠVyuo": 6204,
      "2015": 6205,
      "ĠKim": 6206,
      "sherehekea": 6207,
      "ĠKIMATAIFA": 6208,
      "ĠArabia": 6209,
      "ĠAsia": 6210,
      "ction": 6211,
      "Ġaliwahi": 6212,
      "ĠVijijini": 6213,
      "ambazi": 6214,
      "Ġmaagizo": 6215,
      "upe": 6216,
      "ĠMaalim": 6217,
      "Ġhatuna": 6218,
      "ĠWATA": 6219,
      "nywaji": 6220,
      "EZI": 6221,
      "ĠKale": 6222,
      "Mmoja": 6223,
      "ĠJapan": 6224,
      "News": 6225,
      "kizwa": 6226,
      "Ġkuingilia": 6227,
      "ndele": 6228,
      "Ġtunayo": 6229,
      "Maha": 6230,
      "YIKA": 6231,
      "Mama": 6232,
      "ĠMASHA": 6233,
      "ĠQur": 6234,
      "ĠIraq": 6235,
      "Ġnae": 6236,
      "Ġhawajui": 6237,
      "geuka": 6238,
      "ĠKahama": 6239,
      "ĠMichael": 6240,
      "SIMA": 6241,
      "shangilia": 6242,
      "JUMBE": 6243,
      "82": 6244,
      "wezo": 6245,
      "Ġ2019": 6246,
      "Fo": 6247,
      "ĠSele": 6248,
      "tte": 6249,
      "Tazama": 6250,
      "Ġ33": 6251,
      "Ġakiwasili": 6252,
      "Ġmuafaka": 6253,
      "ĠAKA": 6254,
      "ĠBenj": 6255,
      "ĠHakika": 6256,
      "Ġmaonyesho": 6257,
      "kumbwa": 6258,
      "Ġwalizo": 6259,
      "Ġhaiwezi": 6260,
      "bli": 6261,
      "pori": 6262,
      "dhuriwa": 6263,
      "ĠDisemba": 6264,
      "Mtazamo": 6265,
      "Ġwataalam": 6266,
      "ĠHussein": 6267,
      "Ġdaktari": 6268,
      "ĠKUFANYA": 6269,
      "ĠMbali": 6270,
      "Ġkibinadamu": 6271,
      "spo": 6272,
      "Karibu": 6273,
      "ĠJan": 6274,
      "ĠPhili": 6275,
      "ĠHili": 6276,
      "Ġshirikisho": 6277,
      "ĠDewji": 6278,
      "Ġkuibuka": 6279,
      "40": 6280,
      "tetezi": 6281,
      "ĠMau": 6282,
      "enye": 6283,
      "Ġmasaa": 6284,
      "kum": 6285,
      "OR": 6286,
      "Ġharusi": 6287,
      "Ġwafugaji": 6288,
      "/=": 6289,
      "lemavu": 6290,
      "ĠSugar": 6291,
      "zua": 6292,
      "ĠIme": 6293,
      "Fi": 6294,
      "Ġmwema": 6295,
      "Ġtunaomba": 6296,
      "Ġnaamini": 6297,
      "ridhisha": 6298,
      "TANDAO": 6299,
      "Ġmwanzoni": 6300,
      "Ġinatoa": 6301,
      "vamia": 6302,
      "ĠMASOMO": 6303,
      "hanati": 6304,
      "Ġkibali": 6305,
      "Ġuga": 6306,
      "Ġmaandishi": 6307,
      "Ġredio": 6308,
      "Ġtani": 6309,
      "ngezwa": 6310,
      "zanzibari": 6311,
      "Ġakam": 6312,
      "MISHI": 6313,
      "ĠKija": 6314,
      "ĠJina": 6315,
      "Ġkutenda": 6316,
      "OHN": 6317,
      "Ġtaka": 6318,
      "Ġula": 6319,
      "ĠWIKI": 6320,
      "ĠYork": 6321,
      "Ġlingine": 6322,
      "ĠMWE": 6323,
      "Ġtelevisheni": 6324,
      "Ġyalio": 6325,
      "nho": 6326,
      "Ġinaonyesha": 6327,
      "TCL": 6328,
      "ĠHatua": 6329,
      "Ġchetu": 6330,
      "Juma": 6331,
      "hilingi": 6332,
      "ĠTANESCO": 6333,
      "safara": 6334,
      "ĠARU": 6335,
      "ĠMola": 6336,
      "ĠLibya": 6337,
      "ĠChakula": 6338,
      "Ġaliwataka": 6339,
      "ĠTRA": 6340,
      "ĠMabadiliko": 6341,
      "Ġtaji": 6342,
      "ĠUsimamizi": 6343,
      "Ġkigaidi": 6344,
      "Ġwaliopo": 6345,
      "sifu": 6346,
      "Ġtasnia": 6347,
      "ĠMto": 6348,
      "ness": 6349,
      "ANDISHI": 6350,
      "Mtu": 6351,
      "bra": 6352,
      "VCCM": 6353,
      "rusale": 6354,
      "Ġkusimama": 6355,
      "bani": 6356,
      "ĠNg": 6357,
      "Ġmumewe": 6358,
      "funze": 6359,
      "Ġifuatavyo": 6360,
      "Ġkujiuzulu": 6361,
      "ĠBWANA": 6362,
      "ĠWengine": 6363,
      "Ġjiwe": 6364,
      "pasavyo": 6365,
      "Chama": 6366,
      "ajili": 6367,
      "Ġbaya": 6368,
      "Mgombea": 6369,
      "ĠTakwimu": 6370,
      "EL": 6371,
      "Ġukanda": 6372,
      "Ġmashamba": 6373,
      "ngani": 6374,
      "nusha": 6375,
      "umba": 6376,
      "ĠAma": 6377,
      "Ġchi": 6378,
      "kimbia": 6379,
      "Ġby": 6380,
      "ST": 6381,
      "Ġudhibiti": 6382,
      "ĠFre": 6383,
      "ĠKUPATA": 6384,
      "ĠOKTOBA": 6385,
      "Aliongeza": 6386,
      "Yo": 6387,
      "Ġmakusudi": 6388,
      "umbe": 6389,
      "ĠRamadhani": 6390,
      "âĢĻ.": 6391,
      "Ġkushuhudia": 6392,
      "09": 6393,
      "ĠTAREHE": 6394,
      "ĠWakenya": 6395,
      "Ġiweze": 6396,
      "Ġkumekuwa": 6397,
      "Ġkijinsia": 6398,
      "reni": 6399,
      "Kabla": 6400,
      "Ġkuruhusu": 6401,
      "BOFYA": 6402,
      "Ġuvuvi": 6403,
      "WEZA": 6404,
      "mari": 6405,
      "Ġghafla": 6406,
      "ĠSITA": 6407,
      "Bwana": 6408,
      "Kwenye": 6409,
      "ĠMag": 6410,
      "Ġziwa": 6411,
      "ndoo": 6412,
      "ENDELEA": 6413,
      "kuzwa": 6414,
      "Ġ400": 6415,
      "ĠIkiwa": 6416,
      "Ġmzunguko": 6417,
      "ĠDarasa": 6418,
      "ĠUJENZI": 6419,
      "Mwandishi": 6420,
      "ĠMV": 6421,
      "ĠHUDUMA": 6422,
      "ĠSIMU": 6423,
      "Ġhawata": 6424,
      "ĠBagamoyo": 6425,
      "Ġinaonekana": 6426,
      "GP": 6427,
      "Ġumaarufu": 6428,
      "ĠUpendo": 6429,
      "NAIBU": 6430,
      "Ġmtangazaji": 6431,
      "ĠGhana": 6432,
      "Ġkujitoa": 6433,
      "Ġmadogo": 6434,
      "pendeza": 6435,
      "Ġlimekuwa": 6436,
      "Ġmaudhui": 6437,
      "ĠMwezi": 6438,
      "kamilisha": 6439,
      "ĠWewe": 6440,
      "ĠSimon": 6441,
      "sc": 6442,
      "nganishwa": 6443,
      "ĠHIYO": 6444,
      "yupo": 6445,
      "Ġutumishi": 6446,
      "Ġkando": 6447,
      "chemba": 6448,
      "undi": 6449,
      "Ġwakio": 6450,
      "ĠWakurugenzi": 6451,
      "Ġkufuzu": 6452,
      "Ġkuchu": 6453,
      "fuatiliaji": 6454,
      "ĠNam": 6455,
      "Ġ?": 6456,
      "Ġgereza": 6457,
      "uzito": 6458,
      "Ġustawi": 6459,
      "ĠPE": 6460,
      "ngton": 6461,
      "Ġipasavyo": 6462,
      "ĠEl": 6463,
      "HEMU": 6464,
      "kome": 6465,
      "Ġsukari": 6466,
      "hone": 6467,
      "cial": 6468,
      "Ġwashirika": 6469,
      "ĠKUP": 6470,
      "ĠDRC": 6471,
      "Ġadui": 6472,
      "ĠShilingi": 6473,
      "Msemaji": 6474,
      "neji": 6475,
      "ĠSIMBA": 6476,
      "Ġnyuklia": 6477,
      "Huu": 6478,
      "Ġmisitu": 6479,
      "risti": 6480,
      "ĠWANANCHI": 6481,
      "Ġafisa": 6482,
      "yce": 6483,
      "ĠYu": 6484,
      "Ġmabi": 6485,
      "Mpango": 6486,
      "ĠTAZAMA": 6487,
      "Ġwange": 6488,
      "ĠImani": 6489,
      "Ġkadhalika": 6490,
      "ngera": 6491,
      "Ġmagoli": 6492,
      "ĠMay": 6493,
      "TAJI": 6494,
      "ĠJKT": 6495,
      "ĠANA": 6496,
      "chezea": 6497,
      "Ġnikiwa": 6498,
      "ĠMsa": 6499,
      "zinduzi": 6500,
      "Ġkutembea": 6501,
      "llo": 6502,
      "JWA": 6503,
      "ngazaji": 6504,
      "nline": 6505,
      "Ġkuwapatia": 6506,
      "RADI": 6507,
      "Ġmadarasa": 6508,
      "Ġitikadi": 6509,
      "ENKI": 6510,
      "Ġalidai": 6511,
      "husishwa": 6512,
      "kimbi": 6513,
      "kaguzi": 6514,
      "Ġ34": 6515,
      "Bw": 6516,
      "ĠZIA": 6517,
      "Ġmjumbe": 6518,
      "Ġaku": 6519,
      "MHE": 6520,
      "Ġbaridi": 6521,
      "Ġushawishi": 6522,
      "kiangalia": 6523,
      "ĠNjombe": 6524,
      "hats": 6525,
      "hiyo": 6526,
      "ĠWali": 6527,
      "stra": 6528,
      "ĠTele": 6529,
      "ï»": 6530,
      "LIN": 6531,
      "Ġzinasema": 6532,
      "ï»¿": 6533,
      "ĠMWANAMKE": 6534,
      "ĠVe": 6535,
      "jihusisha": 6536,
      "08": 6537,
      "tma": 6538,
      "Ġtuwe": 6539,
      "game": 6540,
      "spe": 6541,
      "The": 6542,
      "adhimisho": 6543,
      "Ġkiafya": 6544,
      "zembe": 6545,
      "ISHWA": 6546,
      "Ġmfanyakazi": 6547,
      "MIWA": 6548,
      ".[": 6549,
      "Ġwaliohudhuria": 6550,
      "Ġuwazi": 6551,
      "chukue": 6552,
      "ANII": 6553,
      "takacho": 6554,
      "rsha": 6555,
      "âĢĻ,": 6556,
      "Ġkuthibitisha": 6557,
      "hukumiwa": 6558,
      "ĠAmerika": 6559,
      "tajiri": 6560,
      "Al": 6561,
      "ĠKILA": 6562,
      "Ġimeanza": 6563,
      "ĠMashirika": 6564,
      "hawapo": 6565,
      "Ġmwake": 6566,
      "WTZ": 6567,
      "ĠTAARIFA": 6568,
      "Ġmaonesho": 6569,
      "ĠProgramu": 6570,
      "Ġsomo": 6571,
      "Mh": 6572,
      "Ġyamekuwa": 6573,
      "tal": 6574,
      "ĠMiguu": 6575,
      "ndera": 6576,
      "you": 6577,
      "Ġwanaendelea": 6578,
      "HAMA": 6579,
      "ĠMeya": 6580,
      "She": 6581,
      "ĠKijamii": 6582,
      "mbole": 6583,
      "zinduliwa": 6584,
      "Ġwanatakiwa": 6585,
      "Kampuni": 6586,
      "himili": 6587,
      "Ġununuzi": 6588,
      "ĠHaji": 6589,
      "Ġwapiganaji": 6590,
      "hata": 6591,
      "ndamana": 6592,
      "Ġkukabidhi": 6593,
      "ĠWor": 6594,
      "dhihirisha": 6595,
      "Ġmateso": 6596,
      "kupa": 6597,
      "Ġkwaajili": 6598,
      "ĠKara": 6599,
      "tasi": 6600,
      "Ġkuwapo": 6601,
      "meta": 6602,
      "Ġhawawezi": 6603,
      "liko": 6604,
      "ĠGoogle": 6605,
      "gwe": 6606,
      "athirika": 6607,
      "Ġfani": 6608,
      "Ġtuliyo": 6609,
      "ZALIWA": 6610,
      "milikiwa": 6611,
      "ĠMbarawa": 6612,
      "......": 6613,
      "ĠUjumbe": 6614,
      "ĠMaalumu": 6615,
      "Ġhaikuwa": 6616,
      "Shu": 6617,
      "ĠWATANZANIA": 6618,
      "ĠMAHA": 6619,
      "ĠKITU": 6620,
      "teta": 6621,
      "Ġkuungana": 6622,
      "ĠKinana": 6623,
      "zuka": 6624,
      "Ġtanzania": 6625,
      "hodha": 6626,
      "Ġtathmini": 6627,
      "ĠWajumbe": 6628,
      "DAU": 6629,
      "LMA": 6630,
      "Ġkuhusika": 6631,
      "Ġkiserikali": 6632,
      "ĠEuro": 6633,
      "kose": 6634,
      "kre": 6635,
      "pitisha": 6636,
      "ĠSaudi": 6637,
      "ĠTra": 6638,
      "Ġvikali": 6639,
      "Ġikawa": 6640,
      "by": 6641,
      "Ġwai": 6642,
      "ĠKampeni": 6643,
      "MTAA": 6644,
      "heri": 6645,
      "Ġmwananchi": 6646,
      "Ġwahamiaji": 6647,
      "nejimenti": 6648,
      "ĠWote": 6649,
      "Mchezo": 6650,
      "ĠTho": 6651,
      "Ġmda": 6652,
      "national": 6653,
      "ĠKUBWA": 6654,
      "Ġkupe": 6655,
      "Ġccm": 6656,
      "Ġkijijini": 6657,
      "amiza": 6658,
      "ĠKUTAZAMA": 6659,
      "Ġkilomita": 6660,
      "ĠPS": 6661,
      "ĠWawakilishi": 6662,
      "ĠAbu": 6663,
      "tengenezwa": 6664,
      "Be": 6665,
      "Ġkurejesha": 6666,
      "ĠSalma": 6667,
      "Ġuliofanywa": 6668,
      "ĠTazama": 6669,
      "ANGU": 6670,
      "Ġzinazoendelea": 6671,
      "44": 6672,
      "fanyike": 6673,
      "alikwa": 6674,
      "SWA": 6675,
      "sion": 6676,
      "Ġwapatao": 6677,
      "PITA": 6678,
      "Ġmaswa": 6679,
      "Ġmadeni": 6680,
      "ls": 6681,
      "ĠNchemba": 6682,
      "36": 6683,
      "Mada": 6684,
      "jadi": 6685,
      "ĠMOJA": 6686,
      "29": 6687,
      "Ja": 6688,
      "ĠMiss": 6689,
      "hamis": 6690,
      "wajibikaji": 6691,
      "38": 6692,
      "ĠUshirika": 6693,
      "hatsApp": 6694,
      "ngoro": 6695,
      "Ġmwongozo": 6696,
      "ĠMmoja": 6697,
      "tilia": 6698,
      "CHAGUZI": 6699,
      "ĠUhamiaji": 6700,
      "ĠMSA": 6701,
      "ĠJane": 6702,
      "Ġkusambaza": 6703,
      "LII": 6704,
      "Ġvipindi": 6705,
      "geme": 6706,
      "Ġcom": 6707,
      "Ġtafsiri": 6708,
      "vile": 6709,
      "Ġkabila": 6710,
      "Ġkuadhimisha": 6711,
      "ĠMusa": 6712,
      "jambazi": 6713,
      "ĠMwigulu": 6714,
      "ĠNASA": 6715,
      "Ġinafanya": 6716,
      "Ġwenzangu": 6717,
      "zma": 6718,
      "jama": 6719,
      "Ġunaendelea": 6720,
      "enezi": 6721,
      "Ġvyumba": 6722,
      "kate": 6723,
      "2014": 6724,
      "Ġbaraka": 6725,
      "sanyaji": 6726,
      "enea": 6727,
      "ĠKundi": 6728,
      "Ġkuisaidia": 6729,
      "ĠOFISI": 6730,
      "Fa": 6731,
      "soa": 6732,
      "ĠNyo": 6733,
      "ĠHoteli": 6734,
      "ĠKisutu": 6735,
      "ĠMuda": 6736,
      "ford": 6737,
      "hebu": 6738,
      "nwa": 6739,
      "ĠYusu": 6740,
      "Ġumakini": 6741,
      "ĠSt": 6742,
      "ĠHam": 6743,
      "Ġumbali": 6744,
      "bian": 6745,
      "ĠMwenge": 6746,
      "Spika": 6747,
      "amin": 6748,
      "kwepa": 6749,
      "Ġnataka": 6750,
      "Ġmwakilishi": 6751,
      "nger": 6752,
      "Wanafunzi": 6753,
      "Ġkifupi": 6754,
      "ĠKIKUU": 6755,
      "nganyiko": 6756,
      "SISI": 6757,
      "ĠTANO": 6758,
      "Mahakama": 6759,
      "ĠGroup": 6760,
      "Ġujauzito": 6761,
      "shid": 6762,
      "Ġufahamu": 6763,
      "Jeshi": 6764,
      "Ġwalim": 6765,
      "RODHA": 6766,
      "tunza": 6767,
      "Ġviki": 6768,
      "Mke": 6769,
      "katibu": 6770,
      "ĠKidemokrasia": 6771,
      "sted": 6772,
      "Ġgu": 6773,
      "ngua": 6774,
      "ĠUpate": 6775,
      "ĠKum": 6776,
      "Ġfidia": 6777,
      "hesabu": 6778,
      "itaka": 6779,
      "ĠMalawi": 6780,
      "ĠCO": 6781,
      "plomasia": 6782,
      "Idara": 6783,
      "Ġuchimbaji": 6784,
      "ĠDani": 6785,
      "bila": 6786,
      "pigi": 6787,
      "Ġsote": 6788,
      "Ġtajiri": 6789,
      "Ġmgomo": 6790,
      "ĠVita": 6791,
      "Ġushuru": 6792,
      "ĠUKA": 6793,
      "Ġshambulio": 6794,
      "Ġmatara": 6795,
      "Ġkelele": 6796,
      "Ġmifuko": 6797,
      "eti": 6798,
      "Ġugaidi": 6799,
      "Ġnilivyo": 6800,
      "ĠDaraja": 6801,
      "endana": 6802,
      "Ġniliyo": 6803,
      "sukuma": 6804,
      "ĠNor": 6805,
      "ĠPhilip": 6806,
      "SIKU": 6807,
      "Ġutata": 6808,
      "ĠRuto": 6809,
      "dirio": 6810,
      "pri": 6811,
      "ĠTamasha": 6812,
      "Ġufugaji": 6813,
      "ĠFI": 6814,
      "ĠFEDHA": 6815,
      "rema": 6816,
      "Ġkupenda": 6817,
      "pishe": 6818,
      "Ġmageuzi": 6819,
      "ONGOZA": 6820,
      "Ġmamilioni": 6821,
      "ĠMembe": 6822,
      "Ġusafirishaji": 6823,
      "PU": 6824,
      "ĠYake": 6825,
      "ĠBro": 6826,
      "ONYE": 6827,
      "TRA": 6828,
      "ĠTabia": 6829,
      "Ġmaduka": 6830,
      "Ġmanispaa": 6831,
      "ĠFIFA": 6832,
      "Ġmatarajio": 6833,
      "ĠKUT": 6834,
      "Ġdeni": 6835,
      "WIZARA": 6836,
      "Ġkudumisha": 6837,
      "'s": 6838,
      "Ġkutunza": 6839,
      "Ġalisisitiza": 6840,
      "MTOTO": 6841,
      "Ġajenda": 6842,
      "ZEE": 6843,
      "nea": 6844,
      "MIZI": 6845,
      "ĠNJE": 6846,
      "andikisha": 6847,
      "ĠNMB": 6848,
      "JALI": 6849,
      "Ġmarudi": 6850,
      "ĠMakame": 6851,
      "Ġakifanya": 6852,
      "Gazeti": 6853,
      "Ġmabe": 6854,
      "hudumu": 6855,
      "Ġmauzo": 6856,
      "lanzi": 6857,
      "ham": 6858,
      "ĠFM": 6859,
      "Ġmapi": 6860,
      "PIGA": 6861,
      "Jamhuri": 6862,
      "Ripoti": 6863,
      "INSI": 6864,
      "Ġmovie": 6865,
      "ndela": 6866,
      "Ġkija": 6867,
      "Ġkushuka": 6868,
      "ĠHispania": 6869,
      "Ġkufikiri": 6870,
      "ĠBUNGE": 6871,
      "ĠZIARA": 6872,
      "Zaidi": 6873,
      "Ġanajua": 6874,
      "Ġmoyoni": 6875,
      "Ġsumu": 6876,
      "Ġkuwekwa": 6877,
      "kuli": 6878,
      "Sisi": 6879,
      "tongoji": 6880,
      "ut": 6881,
      "mboa": 6882,
      "ulize": 6883,
      "thibitishwa": 6884,
      "Ġkukataa": 6885,
      "Ġcheti": 6886,
      "Ġkupatiwa": 6887,
      "Moja": 6888,
      "Ofisi": 6889,
      "pport": 6890,
      "Ġkusisitiza": 6891,
      "Ġinge": 6892,
      "Ġkirafiki": 6893,
      "ĠKUM": 6894,
      "ĠMwanamke": 6895,
      "ĠCana": 6896,
      "Ġmhariri": 6897,
      "Ġsala": 6898,
      "Ġwavulana": 6899,
      "Ġakifungua": 6900,
      "MKUU": 6901,
      "ifaa": 6902,
      "ĠJambo": 6903,
      "Ġameji": 6904,
      "ĠKamba": 6905,
      "Ġkugo": 6906,
      "ĠSTA": 6907,
      "Rai": 6908,
      "ĠMTU": 6909,
      "Ġkitaa": 6910,
      "ĠVicto": 6911,
      "zote": 6912,
      "ĠMahiga": 6913,
      "nna": 6914,
      "ĠMkataba": 6915,
      "ĠMte": 6916,
      "aki": 6917,
      "ĠBri": 6918,
      "Ġraha": 6919,
      "Bonyeza": 6920,
      "ĠYANGA": 6921,
      "Ġmaandiko": 6922,
      "Ġalianza": 6923,
      "ĠMuse": 6924,
      "Ġgiza": 6925,
      "lei": 6926,
      "jam": 6927,
      "LAMU": 6928,
      "onekano": 6929,
      "undation": 6930,
      "Ġmabomu": 6931,
      "ĠARUSHA": 6932,
      "mume": 6933,
      "ĠWanao": 6934,
      "ĠMwanasheria": 6935,
      "ses": 6936,
      "ĠMomba": 6937,
      "nyonge": 6938,
      "hesa": 6939,
      "Ġkusitisha": 6940,
      "ĠMuhammad": 6941,
      "ĠJESHI": 6942,
      "Ġbalozi": 6943,
      "der": 6944,
      "Ġwamesha": 6945,
      "ĠSitta": 6946,
      "ĠKagame": 6947,
      "ĠBei": 6948,
      "ĠAS": 6949,
      "ĠMwenyewe": 6950,
      "Ġaliji": 6951,
      "jenge": 6952,
      "Ġmaafa": 6953,
      "guri": 6954,
      "ghani": 6955,
      "ĠDha": 6956,
      "gabe": 6957,
      "Ġlililopo": 6958,
      "ĠĠĠĠ": 6959,
      "sihi": 6960,
      "hamisho": 6961,
      "Ġwanawa": 6962,
      "ĠWan": 6963,
      "Jamii": 6964,
      "ĠDaudi": 6965,
      "ĠMakala": 6966,
      "**": 6967,
      "Ġzinapo": 6968,
      "Ġinahitaji": 6969,
      "Ġwww": 6970,
      "Maandishi": 6971,
      "umini": 6972,
      "ĠMADA": 6973,
      "ĠKabwe": 6974,
      "Ġmfanyabiashara": 6975,
      "Ġametangaza": 6976,
      "Ġmasikini": 6977,
      "Ġvipimo": 6978,
      "Ġtujadili": 6979,
      "Ġghasia": 6980,
      "ĠKAN": 6981,
      "Ġjingine": 6982,
      "ĠAFUN": 6983,
      "kutanisha": 6984,
      "Ġshinikizo": 6985,
      "AJI": 6986,
      "mura": 6987,
      "Ġuadilifu": 6988,
      "Ġwapate": 6989,
      "ĠUHU": 6990,
      "Ġkuunganisha": 6991,
      "Ġposho": 6992,
      "Ġwasomi": 6993,
      "ĠKwani": 6994,
      "ĠWalimu": 6995,
      "handisi": 6996,
      "Ġtahadhari": 6997,
      "ENDO": 6998,
      "ĠMpekuzi": 6999,
      "Ġkufanywa": 7000,
      "adamu": 7001,
      "Ġumasikini": 7002,
      "Ġmioyo": 7003,
      ",,": 7004,
      "Ġpasipo": 7005,
      "RIS": 7006,
      "Tuma": 7007,
      "ĠMechi": 7008,
      "ĠWatumishi": 7009,
      "tangulia": 7010,
      "Ġtunapo": 7011,
      "Ġkika": 7012,
      "ĠZetu": 7013,
      "Ġkufuta": 7014,
      "win": 7015,
      "ĠNdg": 7016,
      "ĠMli": 7017,
      "Ġkuelezea": 7018,
      "Ġushirika": 7019,
      "KONDA": 7020,
      "Ġmwenyeji": 7021,
      "badilishwa": 7022,
      "ffi": 7023,
      "ĠTari": 7024,
      "Ġakiwemo": 7025,
      "ĠWashi": 7026,
      "gana": 7027,
      "ĠMWISHO": 7028,
      "ngelea": 7029,
      "ckson": 7030,
      "Ġuwi": 7031,
      "ĠMussa": 7032,
      "ĠUA": 7033,
      "dge": 7034,
      "Ġmshikamano": 7035,
      "FUA": 7036,
      "Ġvisa": 7037,
      "ĠSHI": 7038,
      "takalo": 7039,
      "cal": 7040,
      "MOND": 7041,
      "ĠQa": 7042,
      "pitwe": 7043,
      "Ġvinginevyo": 7044,
      "Ġkufundisha": 7045,
      "ĠAKI": 7046,
      "pole": 7047,
      "Ġbima": 7048,
      "ĠMfalme": 7049,
      "min": 7050,
      "tali": 7051,
      "Ġkuchaguliwa": 7052,
      "Ġup": 7053,
      "Wiki": 7054,
      "tuhumiwa": 7055,
      "ĠRufaa": 7056,
      "ĠWAFANYA": 7057,
      "ĠSalim": 7058,
      "Ġwakimsikiliza": 7059,
      "YANGA": 7060,
      "Ġradhi": 7061,
      "ĠHarrison": 7062,
      "nunuliwa": 7063,
      "Ġtuicha": 7064,
      "Ġudhaifu": 7065,
      "achia": 7066,
      "ĠMECHI": 7067,
      "MLA": 7068,
      "Ġwatalii": 7069,
      "anyi": 7070,
      "ADHI": 7071,
      "ĠLtd": 7072,
      "HC": 7073,
      "Ġkuhamia": 7074,
      "lion": 7075,
      "Ġamesha": 7076,
      "sturi": 7077,
      "ĠPen": 7078,
      "Ġuchafu": 7079,
      "Ġhawakuwa": 7080,
      "Ġmwangi": 7081,
      "ĠMerkel": 7082,
      "muraguri": 7083,
      "Ġtuichapishe": 7084,
      "ila": 7085,
      "bakia": 7086,
      "Ġnawe": 7087,
      "vunia": 7088,
      "Ġmga": 7089,
      "ĠJAMHURI": 7090,
      "ĠCho": 7091,
      "TORIA": 7092,
      ".âĢĻ": 7093,
      "ĠKiarabu": 7094,
      "99": 7095,
      "Ġcheo": 7096,
      "Ġdogo": 7097,
      "ĠMbili": 7098,
      "Ġkimapenzi": 7099,
      "Ġ$": 7100,
      "onaldo": 7101,
      "Mtangazaji": 7102,
      "WAKE": 7103,
      "ĠNguvu": 7104,
      "Ġ48": 7105,
      "Ġkivu": 7106,
      "Nchi": 7107,
      "ĠCar": 7108,
      "ĠDini": 7109,
      "Ġkada": 7110,
      "ĠYoyote": 7111,
      "Ġmikubwa": 7112,
      "wezekani": 7113,
      "ĠNyama": 7114,
      "rida": 7115,
      "danganya": 7116,
      "Ġlinaweza": 7117,
      "Ġwalioko": 7118,
      "ndoka": 7119,
      "Ujumbe": 7120,
      "nje": 7121,
      "Ġkusubiri": 7122,
      "Ġduka": 7123,
      "Ben": 7124,
      "Jipatie": 7125,
      "meko": 7126,
      "gamboni": 7127,
      "ĠBenjamin": 7128,
      "ĠMaki": 7129,
      "ĠDai": 7130,
      "hukumu": 7131,
      "pima": 7132,
      "mes": 7133,
      "Ġmaswala": 7134,
      "Ġkuamkia": 7135,
      "Lugha": 7136,
      "MZ": 7137,
      "ĠMAPENZI": 7138,
      "ther": 7139,
      "VYOMBO": 7140,
      "ĠMedia": 7141,
      "MERA": 7142,
      "Ġkubaki": 7143,
      "Njia": 7144,
      "ĠGha": 7145,
      "ĠMARA": 7146,
      "Ġ2020": 7147,
      "Ġkusaini": 7148,
      "Ġnyongeza": 7149,
      "Ġmchu": 7150,
      "Ġkutazama": 7151,
      "rk": 7152,
      "kiona": 7153,
      "Ġkujitolea": 7154,
      "haribika": 7155,
      "ĠMAJINA": 7156,
      "ĠSongea": 7157,
      "changiaji": 7158,
      "ĠUCHAGUZI": 7159,
      "Ġbendera": 7160,
      "shtu": 7161,
      "imba": 7162,
      "Ġukarabati": 7163,
      "okoaji": 7164,
      "pumziko": 7165,
      "HALI": 7166,
      "milivu": 7167,
      "tendea": 7168,
      "Ġwazima": 7169,
      "reen": 7170,
      "Ġukusanyaji": 7171,
      "Ġkutwaa": 7172,
      "Ġujasiri": 7173,
      "Ġkisu": 7174,
      "baha": 7175,
      "Ġkumwo": 7176,
      "ĠChali": 7177,
      "ley": 7178,
      "UTI": 7179,
      "Ġtulio": 7180,
      "pande": 7181,
      "SSF": 7182,
      "Ġmajeruhi": 7183,
      "ĠCen": 7184,
      "takia": 7185,
      "cheke": 7186,
      "kiuka": 7187,
      "PANGO": 7188,
      "ĠMaadili": 7189,
      "mond": 7190,
      "wakabili": 7191,
      "Ġkinga": 7192,
      "Ġtoleo": 7193,
      "ĠHiyo": 7194,
      "Ġbanda": 7195,
      "lazwa": 7196,
      "ĠIsa": 7197,
      "Ġ88": 7198,
      "Ġnaibu": 7199,
      "ĠMATAIFA": 7200,
      "lishi": 7201,
      "ĠVVU": 7202,
      "Ġmamia": 7203,
      "ĠDAWA": 7204,
      "ĠNane": 7205,
      "Âĵ": 7206,
      "Ġmmiliki": 7207,
      "Ġbeki": 7208,
      "Polisi": 7209,
      "amuru": 7210,
      "luhisho": 7211,
      "ndarasi": 7212,
      "Elimu": 7213,
      "ĠWashington": 7214,
      "ser": 7215,
      "Ġchaguzi": 7216,
      "DUZI": 7217,
      "Ġmachache": 7218,
      "ndaji": 7219,
      "Huyu": 7220,
      "Ġmitaani": 7221,
      "Ġinter": 7222,
      "Ġkurasa": 7223,
      "TOKEA": 7224,
      "Ġ06": 7225,
      "gala": 7226,
      "ichard": 7227,
      "Ġmwakani": 7228,
      "Ġaliyoi": 7229,
      "Chi": 7230,
      "daka": 7231,
      "masi": 7232,
      "susi": 7233,
      "ĠMKA": 7234,
      "SHE": 7235,
      "Ġmtaji": 7236,
      "INGINE": 7237,
      "Ġkuhami": 7238,
      "SHIN": 7239,
      "Ġalipowasili": 7240,
      "jumui": 7241,
      "ĠEA": 7242,
      "Ġmwilini": 7243,
      "Ġvidogo": 7244,
      "Ġkuharibu": 7245,
      "gara": 7246,
      "tini": 7247,
      "Asante": 7248,
      "ĠAmina": 7249,
      "shambuliwa": 7250,
      "ĠMIKOPO": 7251,
      "ĠAbe": 7252,
      "ongezea": 7253,
      "ĠFoundation": 7254,
      "Ġ2002": 7255,
      "fichu": 7256,
      "ĠGra": 7257,
      "Mwanzo": 7258,
      "Ġndilo": 7259,
      "Ġakutana": 7260,
      "Ġhuna": 7261,
      "Kocha": 7262,
      "ĠJafo": 7263,
      "32": 7264,
      "Ġkujiandaa": 7265,
      "simamiwa": 7266,
      "Ġvido": 7267,
      "ĠMoto": 7268,
      "ĠRoma": 7269,
      "Ġkuingiza": 7270,
      "katiba": 7271,
      "Ġviumbe": 7272,
      "KING": 7273,
      "Ġshahada": 7274,
      "ĠFreeman": 7275,
      "ĠUkweli": 7276,
      "49": 7277,
      "Ġazma": 7278,
      "hitimisha": 7279,
      "Ġwasiliana": 7280,
      "ĠUte": 7281,
      "WANI": 7282,
      "ĠVIJANA": 7283,
      "Ġvilevile": 7284,
      "Ġviunga": 7285,
      "ĠKitabu": 7286,
      "pendi": 7287,
      "Maoni": 7288,
      "Ġwanahitaji": 7289,
      "Ġutukufu": 7290,
      "ĠKikristo": 7291,
      "Ġanam": 7292,
      "MWANA": 7293,
      "PC": 7294,
      "Ġmsemaji": 7295,
      "pha": 7296,
      "ĠUfu": 7297,
      "ĠMandela": 7298,
      "Ġtujadiliane": 7299,
      "Ġkumbe": 7300,
      "ĠKUKU": 7301,
      "ĠIla": 7302,
      ".(": 7303,
      "ĠSho": 7304,
      "xt": 7305,
      "Ġduni": 7306,
      "ĠYALI": 7307,
      "Ġwaku": 7308,
      "ĠYetu": 7309,
      "ĠBILA": 7310,
      "ĠJukwaa": 7311,
      "Ġmafuriko": 7312,
      "Ġnalo": 7313,
      "ĠKutokana": 7314,
      "kane": 7315,
      "Ġwivu": 7316,
      "ĠMIKOA": 7317,
      "ĠUstawi": 7318,
      "katoliki": 7319,
      "nuku": 7320,
      "ĠMah": 7321,
      "unganishi": 7322,
      "Ġkilikuwa": 7323,
      "ĠMugabe": 7324,
      "et": 7325,
      "nter": 7326,
      "Ġzilizokuwa": 7327,
      "kretari": 7328,
      "rick": 7329,
      "amuhuri": 7330,
      "ĠViti": 7331,
      "ĠMafanikio": 7332,
      "Maeneo": 7333,
      "Ġpana": 7334,
      "rahman": 7335,
      "Ġaliu": 7336,
      "ĠAllaa": 7337,
      "ĠUn": 7338,
      "Ġmafisadi": 7339,
      "malizia": 7340,
      "Vyombo": 7341,
      "Ġndefu": 7342,
      "Ġkushu": 7343,
      "KAMERA": 7344,
      "ĠAjili": 7345,
      "ĠGazeti": 7346,
      "Ġmadawati": 7347,
      "zengo": 7348,
      "Ġikili": 7349,
      "fuatazo": 7350,
      "GWA": 7351,
      "ĠTZ": 7352,
      "Ġmaishani": 7353,
      "milia": 7354,
      "zuku": 7355,
      "Ġheri": 7356,
      "Ġkilichofanyika": 7357,
      "ngapi": 7358,
      "Ġhesabu": 7359,
      "Ġmsaidizi": 7360,
      "Ġkufikiria": 7361,
      "Ġakifafanua": 7362,
      "Ġkutakiwa": 7363,
      "Ġmbwa": 7364,
      "tere": 7365,
      "jiuliza": 7366,
      "Ġameeleza": 7367,
      "Ġtunao": 7368,
      "LMASHAURI": 7369,
      "ĠWENYE": 7370,
      "70": 7371,
      "veni": 7372,
      "ĠOfisa": 7373,
      "ĠFebruary": 7374,
      "ENO": 7375,
      "ramia": 7376,
      "blog": 7377,
      "ĠMtihani": 7378,
      "ĠUTALII": 7379,
      "Ġzikiwemo": 7380,
      "pitishwa": 7381,
      "ĠKupata": 7382,
      "bianchi": 7383,
      "Ġanao": 7384,
      "swira": 7385,
      "SCO": 7386,
      "sibu": 7387,
      "unt": 7388,
      "cation": 7389,
      "ĠLipumba": 7390,
      "Ġ38": 7391,
      "una": 7392,
      "salia": 7393,
      "Ġwafanya": 7394,
      "Ġtunawa": 7395,
      "dee": 7396,
      "ĠWhatsApp": 7397,
      "taneti": 7398,
      "Ġlipo": 7399,
      "Ġuwajibikaji": 7400,
      "SIMU": 7401,
      "yan": 7402,
      "Ġkisiwa": 7403,
      "ĠRashid": 7404,
      "pendekezwa": 7405,
      "ONE": 7406,
      "Ġmeneja": 7407,
      "ĠKocha": 7408,
      "Ġkupelekwa": 7409,
      "Ġinatarajiwa": 7410,
      "ĠKudumu": 7411,
      "Ġzuri": 7412,
      "Ġkadha": 7413,
      "ĠIssa": 7414,
      "Chuo": 7415,
      "ĠSHIN": 7416,
      "2019": 7417,
      "nganyifu": 7418,
      "haribu": 7419,
      "ĠKongamano": 7420,
      "rdi": 7421,
      "onye": 7422,
      "ĠZOTE": 7423,
      "ĠKAMP": 7424,
      "AA": 7425,
      "Ġipi": 7426,
      "Ġmapumziko": 7427,
      "Ġ42": 7428,
      "Ġmja": 7429,
      "Ġkupitisha": 7430,
      "ney": 7431,
      "ĠPri": 7432,
      "ĠEli": 7433,
      "ĠSafari": 7434,
      "Ġukombozi": 7435,
      "Ġimeendelea": 7436,
      "ĠKIN": 7437,
      "Baba": 7438,
      "giji": 7439,
      "Ġkuinua": 7440,
      "Ġhospitalini": 7441,
      "ĠMgombea": 7442,
      "BARA": 7443,
      "Swali": 7444,
      "urinho": 7445,
      "Ġmbiu": 7446,
      "ĠWata": 7447,
      "giriki": 7448,
      "Ġkupu": 7449,
      "ĠPalestina": 7450,
      "shio": 7451,
      "org": 7452,
      "FAA": 7453,
      "ĠâĨ": 7454,
      "Ġusambazaji": 7455,
      "Ġwanatumia": 7456,
      "ĠKina": 7457,
      "live": 7458,
      "ture": 7459,
      "Ġakitokea": 7460,
      "ĠLIN": 7461,
      "riadha": 7462,
      "Ġhauja": 7463,
      "Ġmil": 7464,
      "njika": 7465,
      "ctober": 7466,
      "Ġimetangaza": 7467,
      "ghanistan": 7468,
      "ĠKaribu": 7469,
      "dh": 7470,
      "CUF": 7471,
      "ĠBilioni": 7472,
      "Ġwajasiriamali": 7473,
      "ĠKITAIFA": 7474,
      "ĠAt": 7475,
      "ĠWayahudi": 7476,
      "Ġuana": 7477,
      "diriwa": 7478,
      "Ġlililofanyika": 7479,
      "pati": 7480,
      "zio": 7481,
      "ĠAJILI": 7482,
      "ĠVIDEO": 7483,
      "Licha": 7484,
      "ĠYule": 7485,
      "ĠWAKO": 7486,
      "ĠSHA": 7487,
      "ĠJOHN": 7488,
      "mbui": 7489,
      "ĠKILIMO": 7490,
      "Ġufalme": 7491,
      "ESU": 7492,
      "Kulingana": 7493,
      "Ġsafu": 7494,
      "ĠOle": 7495,
      "Ġmachozi": 7496,
      "Ġnam": 7497,
      "Sh": 7498,
      "ĠUNI": 7499,
      "nufaisha": 7500,
      "raji": 7501,
      "Ġpwani": 7502,
      "toshe": 7503,
      "Ġwanaofanya": 7504,
      "hatsa": 7505,
      "35": 7506,
      "TANGAZO": 7507,
      "ĠFor": 7508,
      "Ġzilizotolewa": 7509,
      "Ġuchungu": 7510,
      "oezi": 7511,
      "bomo": 7512,
      "Ġuhifadhi": 7513,
      "ĠKigamboni": 7514,
      "ĠUbalozi": 7515,
      "ngilio": 7516,
      "Vijana": 7517,
      "Ġkufanyia": 7518,
      "ĠMuziki": 7519,
      "ĠBima": 7520,
      "ywele": 7521,
      "Ġtangazo": 7522,
      "2013": 7523,
      "Ġmachafuko": 7524,
      "ziwa": 7525,
      "Hawa": 7526,
      "Ġkutekelezwa": 7527,
      "ĠLema": 7528,
      "igizaji": 7529,
      "ĠBURE": 7530,
      "Ġukili": 7531,
      "Ġtuu": 7532,
      "Ġhela": 7533,
      "Ġanaamini": 7534,
      "Ġkutangazwa": 7535,
      "Ġkuwafanya": 7536,
      "Ġkung": 7537,
      "kiongea": 7538,
      "Ġkufikisha": 7539,
      "haba": 7540,
      "ĠCanada": 7541,
      "kretarieti": 7542,
      "LS": 7543,
      "ktaba": 7544,
      "ĠFm": 7545,
      "ĠMchungaji": 7546,
      "Ġmahindi": 7547,
      "ĠMgo": 7548,
      "ĠWengi": 7549,
      "Ġnilipo": 7550,
      "Ġdereva": 7551,
      "uala": 7552,
      "Ġkupungua": 7553,
      "ĠKiuchumi": 7554,
      "ĠSto": 7555,
      "ĠMAKU": 7556,
      "ĠRichard": 7557,
      "akasema": 7558,
      "levile": 7559,
      "Ġlimesema": 7560,
      "OMBA": 7561,
      "ĠMTA": 7562,
      "Ġwatawala": 7563,
      "Ġkusahau": 7564,
      "ee": 7565,
      "ĠZari": 7566,
      "kinga": 7567,
      "Ġwanaamini": 7568,
      "Ġkuuliza": 7569,
      "ĠKambarage": 7570,
      "Ġmwanasiasa": 7571,
      "ĠSer": 7572,
      "Ġunatukio": 7573,
      "ĠDIA": 7574,
      "ĠMombasa": 7575,
      "Ġzozote": 7576,
      "Ġziko": 7577,
      "hatsapp": 7578,
      "mika": 7579,
      "LB": 7580,
      "Ġhama": 7581,
      "Halmashauri": 7582,
      "kezo": 7583,
      "site": 7584,
      "Ġkidi": 7585,
      "Ġmeno": 7586,
      "kusudia": 7587,
      "ngano": 7588,
      "suko": 7589,
      "ĠKWE": 7590,
      "SPITA": 7591,
      "Ġ150": 7592,
      "SIA": 7593,
      "UKI": 7594,
      "mbiji": 7595,
      "Ġkuondolewa": 7596,
      "pigania": 7597,
      "Ġkuzidi": 7598,
      "Ġwatoa": 7599,
      "ĠLINK": 7600,
      "UZI": 7601,
      "ZAZI": 7602,
      "Ġkipengele": 7603,
      "Ġanapaswa": 7604,
      "ĠMacha": 7605,
      "Ġblogu": 7606,
      "ĠYohana": 7607,
      "Ġdesturi": 7608,
      "Ġmtendaji": 7609,
      "ĠMarti": 7610,
      "AS": 7611,
      "kadiriwa": 7612,
      "ĠAUA": 7613,
      "ĠNDE": 7614,
      "Mna": 7615,
      "pewe": 7616,
      "ndishwa": 7617,
      "Ġwakifanya": 7618,
      "Ġinjili": 7619,
      "jiza": 7620,
      "ĠWil": 7621,
      "Ġwalia": 7622,
      "Ġmaabara": 7623,
      "Ġimesha": 7624,
      "shikiliwa": 7625,
      "Ġyanayoendelea": 7626,
      "Ġkimsingi": 7627,
      "ĠWasiliana": 7628,
      "âĢĭ": 7629,
      "jage": 7630,
      "Ġpembeni": 7631,
      "Ġkuuawa": 7632,
      "Ratiba": 7633,
      "ĠInternational": 7634,
      "Ġsto": 7635,
      "ambie": 7636,
      "Mshambuliaji": 7637,
      "Ġpato": 7638,
      "ĠAsha": 7639,
      "Ġitawa": 7640,
      "ard": 7641,
      "Ġwakili": 7642,
      "Ġlisilo": 7643,
      "Ġmifano": 7644,
      "ĠUbunge": 7645,
      "ĠMakinda": 7646,
      "ĠMwanadamu": 7647,
      "Ġubalozi": 7648,
      "CB": 7649,
      "Ġwarsha": 7650,
      "ĠTarehe": 7651,
      "ĠAZINDUA": 7652,
      "ĠSHERIA": 7653,
      "45": 7654,
      "Ġmtuhumiwa": 7655,
      "ĠMWEZI": 7656,
      "Ġukuta": 7657,
      "Ġmakamu": 7658,
      "ration": 7659,
      "ĠMapenzi": 7660,
      "Ġwahitimu": 7661,
      "ĠGlobal": 7662,
      "rushi": 7663,
      "Ġakimkaribisha": 7664,
      "dam": 7665,
      "ĠKitu": 7666,
      "Ġmadereva": 7667,
      "ELEZO": 7668,
      "laani": 7669,
      "Ġvichwa": 7670,
      "ĠILIYO": 7671,
      "ĠUME": 7672,
      "CHUKU": 7673,
      "soro": 7674,
      "ridhika": 7675,
      "ĠFU": 7676,
      "ĠAndroid": 7677,
      "PIN": 7678,
      "Ġkujifungua": 7679,
      "Ġhufanya": 7680,
      "Ġkaburi": 7681,
      "REAKING": 7682,
      "AD": 7683,
      "ĠClub": 7684,
      "ĠLU": 7685,
      "Ġjinai": 7686,
      "tasari": 7687,
      "Mtoto": 7688,
      "Ġwadhifa": 7689,
      "ISTORIA": 7690,
      "Ġwafungwa": 7691,
      "Ġvitambulisho": 7692,
      "juma": 7693,
      "tuna": 7694,
      "Ġkurekebisha": 7695,
      "Ġsupport": 7696,
      "Ġbomba": 7697,
      "ĠUsafi": 7698,
      "ĠOmar": 7699,
      "Ġkumsaidia": 7700,
      "ĠMWILI": 7701,
      "ĠMizengo": 7702,
      "ĠMashindano": 7703,
      "ĠAG": 7704,
      "ĠMadiwani": 7705,
      "ĠMua": 7706,
      "kete": 7707,
      "ĠFlo": 7708,
      "ure": 7709,
      "jazo": 7710,
      "ĠMUDA": 7711,
      "ĠAfghanistan": 7712,
      "Ġhiari": 7713,
      "jengo": 7714,
      "Blog": 7715,
      "Ġakiba": 7716,
      "Ġmboga": 7717,
      "ĠRonaldo": 7718,
      "ĠKitanzania": 7719,
      "Ġkusafirisha": 7720,
      "Ġyaliyopo": 7721,
      "elelezo": 7722,
      "tovu": 7723,
      "cs": 7724,
      "Ġkutia": 7725,
      "ĠHati": 7726,
      "hudhuriwa": 7727,
      "Ġnguzo": 7728,
      "Ġtokea": 7729,
      "ĠWalio": 7730,
      "OMBI": 7731,
      "ssia": 7732,
      "VUTI": 7733,
      "Tangu": 7734,
      "Mwisho": 7735,
      "mited": 7736,
      "Ġkujipatia": 7737,
      "FAHA": 7738,
      "ĠTAMISEMI": 7739,
      "Ġhapana": 7740,
      "FUKO": 7741,
      "Ġmlipuko": 7742,
      "ONGEZA": 7743,
      "500": 7744,
      "RATI": 7745,
      "wer": 7746,
      "Ġkipo": 7747,
      "Ġmashaka": 7748,
      "Ġkutegemea": 7749,
      "Ġmuswada": 7750,
      "VIE": 7751,
      "SPITALI": 7752,
      "rushwa": 7753,
      "Ġtulikuwa": 7754,
      "Ġmalaika": 7755,
      "ĠSama": 7756,
      "ĠUHURU": 7757,
      "Ġsuluhisho": 7758,
      "BS": 7759,
      "ĠBaraka": 7760,
      "ĠOctober": 7761,
      "ĠIddi": 7762,
      "Ġwameanza": 7763,
      "Ġkukidhi": 7764,
      "ah": 7765,
      "Ġakisisitiza": 7766,
      "Ġtunavyo": 7767,
      "UAJI": 7768,
      "ranga": 7769,
      "Ġkitakacho": 7770,
      "Mwanamke": 7771,
      "weni": 7772,
      "WANDA": 7773,
      "ENYA": 7774,
      "Mjumbe": 7775,
      "37": 7776,
      "Maafisa": 7777,
      "gama": 7778,
      "ron": 7779,
      "Ġlishe": 7780,
      "Ġkifa": 7781,
      "Ġufadhili": 7782,
      "ĠMasuala": 7783,
      "eleweka": 7784,
      "changi": 7785,
      "Anasema": 7786,
      "tre": 7787,
      "Ġlitakalo": 7788,
      "reaking": 7789,
      "simua": 7790,
      "Ġhatuwezi": 7791,
      "Ġkukimbia": 7792,
      "Zi": 7793,
      "mpi": 7794,
      "ĠAbdulrahman": 7795,
      "Ġkifaa": 7796,
      "ĠBIA": 7797,
      "ĠDIAMOND": 7798,
      "Ġuchambuzi": 7799,
      "ĠStar": 7800,
      "Ġz": 7801,
      "Ġuaminifu": 7802,
      "tekwa": 7803,
      "Usipitwe": 7804,
      "dudu": 7805,
      "ĠKUONA": 7806,
      "ĠMiradi": 7807,
      "Ġimetolewa": 7808,
      "ĠWo": 7809,
      "Ġ2004": 7810,
      "BORA": 7811,
      "Ġaya": 7812,
      "njari": 7813,
      "MNA": 7814,
      "ĠYESU": 7815,
      "sawa": 7816,
      "Ġmato": 7817,
      "Ġanacho": 7818,
      "kosea": 7819,
      "Ġnyanja": 7820,
      "Ġakijibu": 7821,
      "yern": 7822,
      "Ġmila": 7823,
      "Ġnjama": 7824,
      "ĠWepesi": 7825,
      "umu": 7826,
      "Ġkusikiti": 7827,
      "Ġinabidi": 7828,
      "Ġkubuni": 7829,
      "67": 7830,
      "Ġmapungufu": 7831,
      "ĠRO": 7832,
      "ĠHesabu": 7833,
      "Ġtunataka": 7834,
      "Mai": 7835,
      "tudio": 7836,
      "ZURI": 7837,
      "mesha": 7838,
      "Ġpongezi": 7839,
      "Ġuhamisho": 7840,
      "Ġmwako": 7841,
      "HII": 7842,
      "Ġwanaji": 7843,
      "Ġyanapatikana": 7844,
      "phen": 7845,
      "troniki": 7846,
      "Ġkumiliki": 7847,
      "Ġunga": 7848,
      "hema": 7849,
      "ĠIDA": 7850,
      "ĠPlu": 7851,
      "ĠIE": 7852,
      "UNGO": 7853,
      "Ġanakuwa": 7854,
      "ĠMsajili": 7855,
      "ĠUzinduzi": 7856,
      "ĠInstall": 7857,
      "ĠAPP": 7858,
      "tengwa": 7859,
      "MALI": 7860,
      "ĠDR": 7861,
      "nthony": 7862,
      "ĠBarack": 7863,
      "Ġakipata": 7864,
      "ĠBea": 7865,
      "Ġmchanga": 7866,
      "kasi": 7867,
      "Ġujio": 7868,
      "ĠIm": 7869,
      "Ġshambulizi": 7870,
      "tishia": 7871,
      "nta": 7872,
      "toro": 7873,
      "FANI": 7874,
      "Ġpepo": 7875,
      "JABU": 7876,
      "Ġnzito": 7877,
      "Ġulaya": 7878,
      "Ġuliokuwa": 7879,
      "ĠMpo": 7880,
      "Ġ55": 7881,
      "gorongoro": 7882,
      "faidi": 7883,
      "Ġkulipia": 7884,
      "mati": 7885,
      "ĠHAI": 7886,
      "Ġkufariki": 7887,
      "ĠBilal": 7888,
      "zuni": 7889,
      "Hizi": 7890,
      "ĠKucheza": 7891,
      "BISHA": 7892,
      "Ġinapaswa": 7893,
      "Mzee": 7894,
      "Ġkutaja": 7895,
      "TANGAZA": 7896,
      "roni": 7897,
      "FANYIKA": 7898,
      "ĠAME": 7899,
      "soge": 7900,
      "Ġikilinganishwa": 7901,
      "nuo": 7902,
      "Ġkilio": 7903,
      "ĠNDEGE": 7904,
      "KANI": 7905,
      "ukwa": 7906,
      "Ġtara": 7907,
      "Wewe": 7908,
      "Ġzijazo": 7909,
      "kanusha": 7910,
      "Ġkimwili": 7911,
      "ĠAliye": 7912,
      "Ġmwanamuziki": 7913,
      "Ġfaili": 7914,
      "ram": 7915,
      "eleze": 7916,
      "bamu": 7917,
      "Mfu": 7918,
      "uwa": 7919,
      "Diamond": 7920,
      "basi": 7921,
      "Ġchote": 7922,
      "Ġwanakuwa": 7923,
      "Ġsadaka": 7924,
      "ĠKATIBU": 7925,
      "baba": 7926,
      "anua": 7927,
      "lar": 7928,
      "Ġiliyoko": 7929,
      "belgiji": 7930,
      "ĠMaoni": 7931,
      "Ġuzalendo": 7932,
      "Ġnywele": 7933,
      "ninga": 7934,
      "Ġtutakuwa": 7935,
      "Ġalilo": 7936,
      "letwa": 7937,
      "fana": 7938,
      "Ġkutumiwa": 7939,
      "ĠMSINGI": 7940,
      "ledi": 7941,
      "Ġ!": 7942,
      "Ġmwo": 7943,
      "Ġwaliwa": 7944,
      "Ġnu": 7945,
      "Ġanatakiwa": 7946,
      "ONT": 7947,
      "Ġ75": 7948,
      "ĠUKU": 7949,
      "Ġkuolewa": 7950,
      "Mwakilishi": 7951,
      "Ġniku": 7952,
      "nukuu": 7953,
      "RY": 7954,
      "ĠMlezi": 7955,
      "KAO": 7956,
      "kilizwa": 7957,
      "ĠHUYU": 7958,
      "Ġmtumiaji": 7959,
      "Ġatakapo": 7960,
      "Ġjanga": 7961,
      "Ġasema": 7962,
      "Aliyekuwa": 7963,
      "Ġï»¿": 7964,
      "ndamanaji": 7965,
      "ĠFainali": 7966,
      "Ġkitanzania": 7967,
      "31": 7968,
      "ĠKUJIUNGA": 7969,
      "ĠMourinho": 7970,
      "rry": 7971,
      "Ġmlo": 7972,
      "komboa": 7973,
      "ĠAnne": 7974,
      "fuatiwa": 7975,
      "ĠDaniel": 7976,
      "zana": 7977,
      "IDADI": 7978,
      "futaji": 7979,
      "ngili": 7980,
      "34": 7981,
      "Ġwakitoa": 7982,
      "Ġtafiti": 7983,
      "?.": 7984,
      "holanzi": 7985,
      "ksi": 7986,
      "Ġutoto": 7987,
      "Ġurafiki": 7988,
      "ĠâĨĴ": 7989,
      "ĠMuni": 7990,
      "Ġugeni": 7991,
      "mbukumbu": 7992,
      "ĠSulei": 7993,
      "ĠNdoa": 7994,
      "Ġalie": 7995,
      "Tukio": 7996,
      "Ġkujihusisha": 7997,
      "Ġradio": 7998,
      "Ġujasiriamali": 7999,
      "BIASHARA": 8000,
      "ĠMratibu": 8001,
      "ĠAsili": 8002,
      "SEMA": 8003,
      "ĠWazazi": 8004,
      "HIMU": 8005,
      "nikiza": 8006,
      "kovu": 8007,
      "Ġikiwamo": 8008,
      "PS": 8009,
      "ĠCup": 8010,
      "WASILI": 8011,
      "shughulisha": 8012,
      "yafanya": 8013,
      "jikita": 8014,
      "sung": 8015,
      "ungwa": 8016,
      "staka": 8017,
      "Ġndicho": 8018,
      "ĠSongwe": 8019,
      "Ġkunyo": 8020,
      "JAMII": 8021,
      "Viunganishi": 8022,
      "Ġl": 8023,
      "nusuru": 8024,
      "gen": 8025,
      "94": 8026,
      "Ġtri": 8027,
      "ĠUVCCM": 8028,
      "ĠAhmed": 8029,
      "Wada": 8030,
      "mbufu": 8031,
      "shwaji": 8032,
      "Watoto": 8033,
      "Ġchanjo": 8034,
      "ĠNEWS": 8035,
      "Ġwaishi": 8036,
      "dada": 8037,
      "ĠKikosi": 8038,
      "Ġyaliyokuwa": 8039,
      "Ġasilia": 8040,
      "Ġkivita": 8041,
      "ntiki": 8042,
      "Ġkujadi": 8043,
      "Ġutakapo": 8044,
      "ENGO": 8045,
      "wafanya": 8046,
      "mila": 8047,
      "ĠMafuta": 8048,
      "Ġlitakuwa": 8049,
      "ĠBingwa": 8050,
      "wama": 8051,
      "Ġukilinganisha": 8052,
      "elek": 8053,
      "Kwanza": 8054,
      "fariji": 8055,
      "jiriwa": 8056,
      "pho": 8057,
      "ĠYATOA": 8058,
      "Ġkiwanja": 8059,
      "weli": 8060,
      "ĠBahari": 8061,
      "ĠMuseveni": 8062,
      "Ġvitisho": 8063,
      "Benki": 8064,
      "fungia": 8065,
      "Ġyatakuwa": 8066,
      "Ġ600": 8067,
      "Ġwam": 8068,
      "dhehebu": 8069,
      "fukuza": 8070,
      "Ġuzuri": 8071,
      "mer": 8072,
      "TER": 8073,
      "ĠWANAO": 8074,
      "90": 8075,
      "TANGAZWA": 8076,
      "ĠBIASHARA": 8077,
      "Ġkujengwa": 8078,
      "zina": 8079,
      "????": 8080,
      "Ġwaliochaguliwa": 8081,
      "RUFU": 8082,
      "ĠMtukufu": 8083,
      "Ġingekuwa": 8084,
      "ĠUa": 8085,
      "ĠDC": 8086,
      "BL": 8087,
      "ĠAngela": 8088,
      "Ġuraia": 8089,
      "Ġuandishi": 8090,
      "ĠKanumba": 8091,
      "Ġwanajua": 8092,
      "ĠOnline": 8093,
      "ĠMOVIE": 8094,
      "Ġudanganyifu": 8095,
      "ĠVictoria": 8096,
      "Ġunaona": 8097,
      "Ġkorosho": 8098,
      "TEKE": 8099,
      "Ġvyetu": 8100,
      "ĠiP": 8101,
      "Ġmsafara": 8102,
      "imu": 8103,
      "Ġmpi": 8104,
      "guo": 8105,
      "GUZI": 8106,
      "ĠManeno": 8107,
      "Ġkifua": 8108,
      "ĠAJALI": 8109,
      "Ġtuko": 8110,
      "Ġmakanisa": 8111,
      "ĠKWAKE": 8112,
      "Ġkugundua": 8113,
      "ĠMaswali": 8114,
      "Ġ47": 8115,
      "ĠIre": 8116,
      "Ġhutumia": 8117,
      "sela": 8118,
      "wanga": 8119,
      "Ġzinazotolewa": 8120,
      "Ġkuwajengea": 8121,
      "ĠAustra": 8122,
      "anguka": 8123,
      "Hili": 8124,
      "wataka": 8125,
      "ĠKuzuia": 8126,
      "Ġmgodi": 8127,
      "Ġzifuatazo": 8128,
      "âĨ": 8129,
      "ĠPOMBE": 8130,
      "rugenzi": 8131,
      "Hadi": 8132,
      "Ġmrembo": 8133,
      "ĠRushwa": 8134,
      "Ġasasi": 8135,
      "ANE": 8136,
      "Ġkupigia": 8137,
      "Ġakikagua": 8138,
      "aris": 8139,
      "SABA": 8140,
      "ĠSirro": 8141,
      "Ġamefunguka": 8142,
      "Ġmaadui": 8143,
      "Pakua": 8144,
      "Ġmtakatifu": 8145,
      "Ġkuzitumia": 8146,
      "Ġkurudisha": 8147,
      "Ġwakala": 8148,
      "ĠMcha": 8149,
      "dongo": 8150,
      "Ġnanyi": 8151,
      "Ġkutisha": 8152,
      "Ġmafa": 8153,
      "bwawa": 8154,
      "ĠYerusale": 8155,
      "Ġvibali": 8156,
      "Sababu": 8157,
      "Dar": 8158,
      "ĠSauti": 8159,
      "ĠLuku": 8160,
      "SINI": 8161,
      "ĠCHINA": 8162,
      "Ġzahanati": 8163,
      "ĠCrea": 8164,
      "Ġaliko": 8165,
      "mons": 8166,
      "nzaji": 8167,
      "Ġamepata": 8168,
      "RIN": 8169,
      "Sheria": 8170,
      "Ġyakiwa": 8171,
      "Ġjadi": 8172,
      "kwama": 8173,
      "eleka": 8174,
      "Pi": 8175,
      "mbile": 8176,
      "Ġwokovu": 8177,
      "komeza": 8178,
      "chapishwa": 8179,
      "wia": 8180,
      "Ġkiraia": 8181,
      "Ġvivutio": 8182,
      "salimia": 8183,
      "Ġtumekuwa": 8184,
      "ĠSEHEMU": 8185,
      "ĠWANAWAKE": 8186,
      "ONDO": 8187,
      "ĠMsumbiji": 8188,
      "ZIA": 8189,
      "Ġupepo": 8190,
      "michezo": 8191,
      "ĠAllaah": 8192,
      "ĠMfano": 8193,
      "Ġunge": 8194,
      "Ġkadiri": 8195,
      "milifu": 8196,
      "Ġkukose": 8197,
      "ters": 8198,
      "kusanyiko": 8199,
      "Ġitasaidia": 8200,
      "ĠFleva": 8201,
      "cheni": 8202,
      "ruga": 8203,
      "oki": 8204,
      "Wachezaji": 8205,
      "cob": 8206,
      "Ġkuchi": 8207,
      "ĠNgorongoro": 8208,
      "ĠKhamis": 8209,
      "Ġakielezea": 8210,
      "itwacho": 8211,
      "Ġmashuhuri": 8212,
      "Ġalitumia": 8213,
      "ĠShari": 8214,
      "Ġaliamua": 8215,
      "lalamika": 8216,
      "Ġupelelezi": 8217,
      "buti": 8218,
      "ĠBerna": 8219,
      "Ġliko": 8220,
      "ĠWhatsapp": 8221,
      "ĠKATIBA": 8222,
      "JALIWA": 8223,
      "INIWA": 8224,
      "lian": 8225,
      "ĠMaadhimisho": 8226,
      "rums": 8227,
      "Ġmse": 8228,
      "zaro": 8229,
      "Ġzana": 8230,
      "Ġmdau": 8231,
      "ĠUmwagiliaji": 8232,
      "Ġkubadilishana": 8233,
      "familia": 8234,
      "Ġwakawa": 8235,
      "ĠKabla": 8236,
      "ĠMaga": 8237,
      "ĠHATA": 8238,
      "ĠMsemaji": 8239,
      "Ġkiitwacho": 8240,
      "ĠNYE": 8241,
      "BREAKING": 8242,
      "Ġsuluhu": 8243,
      "Ġkuathiri": 8244,
      "Ġiliyoandaliwa": 8245,
      "ĠKUPITIA": 8246,
      "Ġkukabidhiwa": 8247,
      "MT": 8248,
      "Ġalifariki": 8249,
      "Maneno": 8250,
      "lizwa": 8251,
      "Pesa": 8252,
      "GINE": 8253,
      "Ġkaya": 8254,
      "Ġkukiwa": 8255,
      "ĠWakimbizi": 8256,
      "ĠSwe": 8257,
      "ĠIbada": 8258,
      "Ġalizaliwa": 8259,
      "ĠWazanzibari": 8260,
      "Ġhamasa": 8261,
      "Mgeni": 8262,
      "Miongoni": 8263,
      "ĠLimited": 8264,
      "ĠShetani": 8265,
      "Ġutapata": 8266,
      "thini": 8267,
      "ĠWest": 8268,
      "miaji": 8269,
      "ĠIS": 8270,
      "ĠStephen": 8271,
      "Tatizo": 8272,
      "ZU": 8273,
      "ĠRipoti": 8274,
      "ĠUTU": 8275,
      "Ġalimu": 8276,
      "Ġunyanya": 8277,
      "ĠDHIDI": 8278,
      "Ġkona": 8279,
      "Ġkilometa": 8280,
      "Uki": 8281,
      "ĠMSIBA": 8282,
      "ĠUtangazaji": 8283,
      "Ġkukupa": 8284,
      "ĠMpi": 8285,
      "Ġmlima": 8286,
      "ĠMPENZI": 8287,
      "Ġunacho": 8288,
      "Ġstahiki": 8289,
      "somea": 8290,
      "ĠGavana": 8291,
      "ĠEcke": 8292,
      "ĠSuleiman": 8293,
      "ĠMwai": 8294,
      "ondolewa": 8295,
      "ĠMlima": 8296,
      "ĠAbeid": 8297,
      "moto": 8298,
      "teka": 8299,
      "ĠJamuhuri": 8300,
      "ĠRodri": 8301,
      "Ġtulivyo": 8302,
      "...]": 8303,
      "ĠSports": 8304,
      "ĠMAS": 8305,
      "BIDHI": 8306,
      "Ġchanya": 8307,
      "ujiza": 8308,
      "ĠMitihani": 8309,
      "ĠMashahidi": 8310,
      "ashiria": 8311,
      "sso": 8312,
      "ĠSteven": 8313,
      "Ġniwa": 8314,
      "Ġwaathirika": 8315,
      "imewasilishwa": 8316,
      "Ġmwenzi": 8317,
      "Ġnimeona": 8318,
      "kumbusho": 8319,
      "DB": 8320,
      "ĠAP": 8321,
      "waki": 8322,
      "shana": 8323,
      "frey": 8324,
      "Ġakiongoza": 8325,
      "ĠUenezi": 8326,
      "ndeni": 8327,
      "Ġtabianchi": 8328,
      "guswa": 8329,
      "elekezwa": 8330,
      "ĠSababu": 8331,
      "ĠPaki": 8332,
      "angalie": 8333,
      "moc": 8334,
      "pepe": 8335,
      "INGIDA": 8336,
      "Ġsiwezi": 8337,
      "ĠBinafsi": 8338,
      "Ġmbovu": 8339,
      "Ġkujionea": 8340,
      "pindu": 8341,
      "Ġwalipata": 8342,
      "TUBA": 8343,
      "Ġkuondokana": 8344,
      "Ġkuundwa": 8345,
      "htasari": 8346,
      "Ġzinaonyesha": 8347,
      "kubalika": 8348,
      "Ġhatima": 8349,
      "ĠHEWA": 8350,
      "ĠMajina": 8351,
      "Ġkibao": 8352,
      "Ġ..": 8353,
      "Ġvisiwani": 8354,
      "rekodi": 8355,
      "tangazia": 8356,
      "ĠAbbas": 8357,
      "ĠCommons": 8358,
      "mikali": 8359,
      "muia": 8360,
      "Ġkubadilika": 8361,
      "Ġundani": 8362,
      "Ġbibi": 8363,
      "ngamizi": 8364,
      "uta": 8365,
      "adala": 8366,
      "ĠZote": 8367,
      "elewe": 8368,
      "ĠWaafrika": 8369,
      "His": 8370,
      "Tafadhali": 8371,
      "FONT": 8372,
      "ĠKujenga": 8373,
      "JESHI": 8374,
      "2007": 8375,
      "riwa": 8376,
      "Ġuhamiaji": 8377,
      "KATIBU": 8378,
      "Ġnyengine": 8379,
      "ĠMAKAMU": 8380,
      "Ġuanachama": 8381,
      "gani": 8382,
      "reno": 8383,
      "YAN": 8384,
      "ishu": 8385,
      "ĠUbelgiji": 8386,
      "Ġunakuwa": 8387,
      "viti": 8388,
      "ĠKaria": 8389,
      "UNGENI": 8390,
      "bola": 8391,
      "thayo": 8392,
      "Ġkiapo": 8393,
      "ĠCreative": 8394,
      "Ġshetani": 8395,
      "ĠMorocco": 8396,
      "ngoni": 8397,
      "Ġmatawi": 8398,
      "Ġimem": 8399,
      "Ġkwi": 8400,
      "Ġwalifanya": 8401,
      "ĠIshara": 8402,
      "PATI": 8403,
      "ingie": 8404,
      "idhi": 8405,
      "sayansi": 8406,
      "bira": 8407,
      "domo": 8408,
      "stakabali": 8409,
      "Ġanaendelea": 8410,
      "Ġufaulu": 8411,
      "tuni": 8412,
      "beth": 8413,
      "Ġkutafsiri": 8414,
      "ĠSINGIDA": 8415,
      "ĠParis": 8416,
      "ĠJoyce": 8417,
      "?\"": 8418,
      "ĠYerusalemu": 8419,
      "ĠBE": 8420,
      "Ġwanandoa": 8421,
      "Ġanae": 8422,
      "ĠMkakati": 8423,
      "ĠKENYA": 8424,
      "Ġugumu": 8425,
      "ĠWETU": 8426,
      "Ġkikatiba": 8427,
      "ĠKikao": 8428,
      "LEWA": 8429,
      "andiko": 8430,
      "mbwe": 8431,
      "Ġwadhamini": 8432,
      "ngam": 8433,
      "Uchaguzi": 8434,
      "Ġ2001": 8435,
      "Bodi": 8436,
      "ĠMTANDAO": 8437,
      "Ġkumpata": 8438,
      "kara": 8439,
      "simamishwa": 8440,
      "Yesu": 8441,
      "mpo": 8442,
      "ĠNGO": 8443,
      "ner": 8444,
      "ĠAmo": 8445,
      "paji": 8446,
      "Jambo": 8447,
      "Ġkutafakari": 8448,
      "roo": 8449,
      "NEWS": 8450,
      "htt": 8451,
      "riri": 8452,
      "Ġilianza": 8453,
      "lathini": 8454,
      "Ġ[...]": 8455,
      "Ġkuteuliwa": 8456,
      "ĠKibaha": 8457,
      "ĠNyu": 8458,
      "ĠBUNGENI": 8459,
      "Ġkujeruhiwa": 8460,
      "humu": 8461,
      "mbue": 8462,
      "__": 8463,
      "day": 8464,
      "Go": 8465,
      "ĠJuly": 8466,
      "ĠMkono": 8467,
      "Ġhutoa": 8468,
      "anesco": 8469,
      "keza": 8470,
      "teni": 8471,
      "Ġwatapata": 8472,
      "Ġ54": 8473,
      "ĠUS": 8474,
      "Ġkuapishwa": 8475,
      "ĠCHAMA": 8476,
      "Akiwa": 8477,
      "Ġruzuku": 8478,
      "Ġkupotea": 8479,
      "Ġitakapo": 8480,
      "ĠGlobu": 8481,
      "Kundi": 8482,
      "Ġmbona": 8483,
      "BADA": 8484,
      "Ġatu": 8485,
      "Ġmashitaka": 8486,
      "enzi": 8487,
      "ĠMati": 8488,
      "Maana": 8489,
      "ĠCame": 8490,
      "MKO": 8491,
      "ĠNDOA": 8492,
      "Ġonyo": 8493,
      "ĠKivu": 8494,
      "tambulika": 8495,
      "limpiki": 8496,
      "ĠMwanzo": 8497,
      "ĠBARAZA": 8498,
      "ĠMhagama": 8499,
      "kaza": 8500,
      "Ġuhakiki": 8501,
      "ĠSHINYANGA": 8502,
      "ft": 8503,
      "Ġmtaalamu": 8504,
      "ries": 8505,
      "ĠAmesema": 8506,
      "ĠKairuki": 8507,
      "TY": 8508,
      "atu": 8509,
      "wakati": 8510,
      "ĠLengo": 8511,
      "jaji": 8512,
      "Ġnyinyi": 8513,
      "Nairobi": 8514,
      "ĠUkra": 8515,
      "mbora": 8516,
      "ingizwa": 8517,
      "Ġamesisitiza": 8518,
      "wapongeza": 8519,
      "ĠKULI": 8520,
      "ĠKiti": 8521,
      "ĠKisi": 8522,
      "ĠOrodha": 8523,
      "ĠKiafrika": 8524,
      "Ġkukosekana": 8525,
      "Ġkusha": 8526,
      "boreshaji": 8527,
      "ĠUha": 8528,
      "sumbua": 8529,
      "ĠLeague": 8530,
      "zingatiwa": 8531,
      "Ġukawa": 8532,
      "ĠZuma": 8533,
      "Msaada": 8534,
      "Ġkufurahia": 8535,
      "choka": 8536,
      "choro": 8537,
      "Ġkujiuliza": 8538,
      "ĠThi": 8539,
      "Ġkani": 8540,
      "ĠSalama": 8541,
      "hula": 8542,
      "::": 8543,
      "ĠMitego": 8544,
      "teule": 8545,
      "TAAFU": 8546,
      "okies": 8547,
      "Ġ41": 8548,
      "Ġanwani": 8549,
      "ĠMIS": 8550,
      "ĠSamu": 8551,
      "ĠMadaktari": 8552,
      "Ġwanamgambo": 8553,
      "tofautiana": 8554,
      "Ġjicho": 8555,
      "Breaking": 8556,
      "Ndi": 8557,
      "koo": 8558,
      "sadi": 8559,
      "Ġnjiani": 8560,
      "Pata": 8561,
      "Ġkuoa": 8562,
      "Ġkadri": 8563,
      "Ġwanai": 8564,
      "ĠTanza": 8565,
      "Ġanaji": 8566,
      "horo": 8567,
      "ĠKAMATI": 8568,
      "54": 8569,
      "ENA": 8570,
      "TH": 8571,
      "ĠHALI": 8572,
      "Ġkuachi": 8573,
      "ngulizi": 8574,
      "ĠItikadi": 8575,
      "guvu": 8576,
      "Ġjamani": 8577,
      "ĠHuyu": 8578,
      "ĠMenejimenti": 8579,
      "ĠPosta": 8580,
      "ĠSala": 8581,
      "pt": 8582,
      "ĠEx": 8583,
      "Ġmina": 8584,
      "Du": 8585,
      "Tangazo": 8586,
      "ĠKupitia": 8587,
      "ĠQatar": 8588,
      "Ġmalezi": 8589,
      "Ġunaoendelea": 8590,
      "sli": 8591,
      "Ġrama": 8592,
      "kizo": 8593,
      "nduki": 8594,
      "Ġucho": 8595,
      "Ġuwa": 8596,
      "hii": 8597,
      "ĠJacob": 8598,
      "Ġameamua": 8599,
      "chochezi": 8600,
      "ĠMATU": 8601,
      "Mashariki": 8602,
      "Ġyatima": 8603,
      "ĠScho": 8604,
      "ĠAugust": 8605,
      "ĠKIJAMII": 8606,
      "fadhiliwa": 8607,
      "ĠSale": 8608,
      "John": 8609,
      "Ġwahalifu": 8610,
      "Ġukimwi": 8611,
      "ĠJangwa": 8612,
      "Marekani": 8613,
      "Ġmatusi": 8614,
      "Ġnajua": 8615,
      "era": 8616,
      "TENDA": 8617,
      "butu": 8618,
      "ĠLazaro": 8619,
      "aina": 8620,
      "Ġmatajiri": 8621,
      "Ġkuzaa": 8622,
      "Ġnimekuwa": 8623,
      "FAHAMU": 8624,
      "keli": 8625,
      "Ġmazoea": 8626,
      "Ġkizuri": 8627,
      "ĠAustralia": 8628,
      "Ġwakurugenzi": 8629,
      "patika": 8630,
      "Ġpunde": 8631,
      "SHINDI": 8632,
      "wazito": 8633,
      "Wajumbe": 8634,
      "Ġkupanua": 8635,
      "Yanga": 8636,
      "Ġusumbufu": 8637,
      "Ġwameamua": 8638,
      "ĠKIA": 8639,
      "bibu": 8640,
      "Ġishirini": 8641,
      "Ġmguu": 8642,
      "Ġvipo": 8643,
      "ĠMal": 8644,
      "Ġwafanye": 8645,
      "ĠHamis": 8646,
      "Ġmajeraha": 8647,
      "ĠUWE": 8648,
      "pigaji": 8649,
      "gra": 8650,
      "nyima": 8651,
      "THI": 8652,
      "ndeleo": 8653,
      "sikika": 8654,
      "Ġumiliki": 8655,
      "ĠÂĵ": 8656,
      "ĠRua": 8657,
      "Ġ39": 8658,
      "enyeji": 8659,
      "ption": 8660,
      "rew": 8661,
      "Hati": 8662,
      "Ġwatetezi": 8663,
      "Ġgerezani": 8664,
      "Ġuti": 8665,
      "Ġkuheshimu": 8666,
      "Ġjaribio": 8667,
      "Ġkozi": 8668,
      "puuzi": 8669,
      "Ġ2003": 8670,
      "YUO": 8671,
      "ĠFamilia": 8672,
      "zini": 8673,
      "Ġwakisema": 8674,
      "zalishwa": 8675,
      "Mratibu": 8676,
      "Ġkujitegemea": 8677,
      "Ġkuashiria": 8678,
      "Ġameli": 8679,
      "sukumo": 8680,
      "Ġhuzuni": 8681,
      "mbie": 8682,
      "shauriwa": 8683,
      "Ġmpinzani": 8684,
      "YAMA": 8685,
      "ĠUtendaji": 8686,
      "Ġmatamshi": 8687,
      "Sura": 8688,
      "Ġameu": 8689,
      "Kili": 8690,
      "ĠWasichana": 8691,
      "wongo": 8692,
      "ĠMarch": 8693,
      "ĠThomas": 8694,
      "ĠâĢĿ": 8695,
      "Mwalimu": 8696,
      "Ġkuanguka": 8697,
      "ĠKupambana": 8698,
      "ĠAI": 8699,
      "mage": 8700,
      "ĠMasauni": 8701,
      "Ġkuchochea": 8702,
      "INGWA": 8703,
      "ĠWADAU": 8704,
      "hayupo": 8705,
      "Nam": 8706,
      "ĠWale": 8707,
      "ĠLIVE": 8708,
      "Ġinatokana": 8709,
      "ndwe": 8710,
      "INGA": 8711,
      "ĠPasaka": 8712,
      "leti": 8713,
      "Ġakikabidhi": 8714,
      "Ġwalinzi": 8715,
      "Ġkuhudumia": 8716,
      "hirishwa": 8717,
      "lsafa": 8718,
      "mbana": 8719,
      "Ġkukiuka": 8720,
      "Ġmauti": 8721,
      "elimu": 8722,
      "ĠDE": 8723,
      "Ġtishio": 8724,
      "vamizi": 8725,
      "wezekanavyo": 8726,
      "meni": 8727,
      "ridhishwa": 8728,
      "Ġkiislamu": 8729,
      "Ġkicha": 8730,
      "Ġkipaji": 8731,
      "ĠTarime": 8732,
      "Ġwanaotaka": 8733,
      "Ġkumfanya": 8734,
      "rri": 8735,
      "ĠMuadhamu": 8736,
      "ridhia": 8737,
      "LIONI": 8738,
      "Ġbin": 8739,
      "ab": 8740,
      "Hiyo": 8741,
      "Ġkitambulisho": 8742,
      "Ġhazija": 8743,
      "DILIKO": 8744,
      "ĠLukuvi": 8745,
      "ĠMPA": 8746,
      "shua": 8747,
      "ĠMr": 8748,
      "Ġugo": 8749,
      "ĠEndelea": 8750,
      "ĠYETU": 8751,
      "sera": 8752,
      "Ġunatarajiwa": 8753,
      "Ġhuweza": 8754,
      "CHAMA": 8755,
      "ĠLulu": 8756,
      "Ġkulalami": 8757,
      "ker": 8758,
      "Ġtukiwa": 8759,
      "TEKELE": 8760,
      "Barua": 8761,
      "rence": 8762,
      "jina": 8763,
      "muko": 8764,
      "ĠSerikalini": 8765,
      "Ġpre": 8766,
      "fuka": 8767,
      "tafsiri": 8768,
      "ĠJE": 8769,
      "ĠHALMASHAURI": 8770,
      "Ġhaito": 8771,
      "Ġalitaka": 8772,
      "pro": 8773,
      "ĠGE": 8774,
      "Ġmahala": 8775,
      "ĠWanyama": 8776,
      "bonyeza": 8777,
      "ĠMwandamizi": 8778,
      "ĠNaomba": 8779,
      "Ġkitaaluma": 8780,
      "Ġkuke": 8781,
      "Mchezaji": 8782,
      "HARI": 8783,
      "Ġmsomaji": 8784,
      "GONJWA": 8785,
      "Ġlami": 8786,
      "Historia": 8787,
      "ĠEliza": 8788,
      "ĠWame": 8789,
      "ĠMai": 8790,
      "ĠJana": 8791,
      "juzi": 8792,
      "Ġmaovu": 8793,
      "ĠIME": 8794,
      "muona": 8795,
      "dola": 8796,
      "ĠVIONGOZI": 8797,
      "ĠZINA": 8798,
      "que": 8799,
      "Ġwaislamu": 8800,
      "MUI": 8801,
      "Wali": 8802,
      "chwani": 8803,
      "ĠTANGA": 8804,
      "wekewa": 8805,
      "burg": 8806,
      "ĠUsajili": 8807,
      "ĠMwijage": 8808,
      "Waki": 8809,
      "Ġmaiti": 8810,
      "Ġwalioshiriki": 8811,
      "Ġkuimba": 8812,
      "ĠMartin": 8813,
      "kwaju": 8814,
      "Ġkuaminika": 8815,
      "BILI": 8816,
      "Ġilisema": 8817,
      "TABU": 8818,
      "Ġwaliofika": 8819,
      "imbaji": 8820,
      ",...": 8821,
      "Ġunapaswa": 8822,
      "Ġinatarajia": 8823,
      "FUTA": 8824,
      "mizwa": 8825,
      "Ġkuitwa": 8826,
      "Mradi": 8827,
      "ĠAlikuwa": 8828,
      "halo": 8829,
      "yota": 8830,
      "Ġmawakala": 8831,
      "Ġmki": 8832,
      "arifu": 8833,
      "ĠKISA": 8834,
      "achwa": 8835,
      "Ġweledi": 8836,
      "NO": 8837,
      "dra": 8838,
      "Ġwanacho": 8839,
      "Ġkimaendeleo": 8840,
      "ĠAR": 8841,
      "ĠWenger": 8842,
      "salaba": 8843,
      "ĠNY": 8844,
      "ĠMengi": 8845,
      "ĠMunich": 8846,
      "Ġakisoma": 8847,
      "][": 8848,
      "Ġchafu": 8849,
      "Ġiwezekanavyo": 8850,
      "ĠMAALU": 8851,
      "shitakiwa": 8852,
      "ĠUkraine": 8853,
      "nyenye": 8854,
      "Ġkugawa": 8855,
      "ĠChini": 8856,
      "CHAGULIWA": 8857,
      "WALA": 8858,
      "Ġkunipa": 8859,
      "87": 8860,
      "ĠBla": 8861,
      "Ġdhaifu": 8862,
      "ĠAFUNGUA": 8863,
      "MAMBO": 8864,
      "wel": 8865,
      "Ġaliandika": 8866,
      "47": 8867,
      "ĠKan": 8868,
      "Ġvipengele": 8869,
      "ĠDK": 8870,
      "Ġwamepata": 8871,
      "Ġkuhama": 8872,
      "ndikiza": 8873,
      "rodhe": 8874,
      "pumzika": 8875,
      "Ġkatoliki": 8876,
      "Ġumati": 8877,
      "Ġazimio": 8878,
      "Fursa": 8879,
      "ĠVu": 8880,
      "wl": 8881,
      "Ġbomu": 8882,
      "ĠSura": 8883,
      "PM": 8884,
      "Ġwanaharakati": 8885,
      "mtaka": 8886,
      "sababi": 8887,
      "Ġhayana": 8888,
      "kozi": 8889,
      "TOKA": 8890,
      "saidiwa": 8891,
      "Ġuni": 8892,
      "husa": 8893,
      "KINI": 8894,
      "ous": 8895,
      "ikolojia": 8896,
      "KURUGENZI": 8897,
      "Ġnacho": 8898,
      "ĠSou": 8899,
      "US": 8900,
      "Ġmala": 8901,
      "Kwani": 8902,
      "WATU": 8903,
      "mir": 8904,
      "ĠKUYA": 8905,
      "ĠMkaguzi": 8906,
      "ĠKITUO": 8907,
      "chapisha": 8908,
      "zozi": 8909,
      "ĠHAKI": 8910,
      "chipuka": 8911,
      "LAMA": 8912,
      "nene": 8913,
      "watu": 8914,
      "ĠAnthony": 8915,
      "Ġkisicho": 8916,
      "Bunge": 8917,
      "Ġafu": 8918,
      "HES": 8919,
      "Ġmachi": 8920,
      "ĠKUA": 8921,
      "Ġwajawazito": 8922,
      "kabidhiano": 8923,
      "Ġmashauri": 8924,
      "ĠWateja": 8925,
      "Ġwanau": 8926,
      "Ġzitakuwa": 8927,
      "Ġwakiongozwa": 8928,
      "dharau": 8929,
      "Ġtunahitaji": 8930,
      "KILIZA": 8931,
      "ans": 8932,
      "ĠMikutano": 8933,
      "ory": 8934,
      "ĠGabri": 8935,
      "Ġkinywa": 8936,
      "Ġwazuri": 8937,
      "ĠUFUN": 8938,
      "ĠINAYO": 8939,
      "ĠMessi": 8940,
      "ĠUKAWA": 8941,
      "JUA": 8942,
      "Lengo": 8943,
      "Ġmadhubuti": 8944,
      "eneza": 8945,
      "HESLB": 8946,
      "Ġmku": 8947,
      "thman": 8948,
      "Ġwaandamizi": 8949,
      "ĠMse": 8950,
      "Ġ53": 8951,
      "Ġwaliofanya": 8952,
      "ĠIle": 8953,
      "zizi": 8954,
      "ĠBayern": 8955,
      "Ġfaraja": 8956,
      "Ġbaa": 8957,
      "MUZI": 8958,
      "ĠSara": 8959,
      "Ġkumshukuru": 8960,
      "hudiwa": 8961,
      "hembe": 8962,
      "ULI": 8963,
      "Ġrambi": 8964,
      "ĠDiwani": 8965,
      "ĠYemen": 8966,
      "tican": 8967,
      "Ġkuwe": 8968,
      "ĠPesa": 8969,
      "tambuliwa": 8970,
      "Ġwamefanya": 8971,
      "MBANI": 8972,
      "TL": 8973,
      "rokia": 8974,
      "ning": 8975,
      ",ÂĶ": 8976,
      "Ġakisaini": 8977,
      "ĠUlemavu": 8978,
      "Ġutambulisho": 8979,
      "ĠSeptember": 8980,
      "ĠSokoine": 8981,
      "KKT": 8982,
      "ĠMWENYEKITI": 8983,
      "Ġalili": 8984,
      "Ġyanayohusu": 8985,
      "geuza": 8986,
      "Ġwaendelee": 8987,
      "mpenda": 8988,
      "nifu": 8989,
      "TENDAJI": 8990,
      "Ġwaalikwa": 8991,
      "ĠVPL": 8992,
      "Ġpapo": 8993,
      "Ġkasoro": 8994,
      "ĠHapo": 8995,
      "Ġameongeza": 8996,
      "ĠUALIMU": 8997,
      "ĠEver": 8998,
      "asimu": 8999,
      "pala": 9000,
      "JERU": 9001,
      "Ġlika": 9002,
      "Ġ44": 9003,
      "ĠNO": 9004,
      "neta": 9005,
      "Viungo": 9006,
      "Ġnaweza": 9007,
      "Ġkuvaa": 9008,
      "fichua": 9009,
      "Ġmajanga": 9010,
      "Ġmakaburi": 9011,
      "kusudiwa": 9012,
      "bai": 9013,
      "ANGO": 9014,
      "Dr": 9015,
      "Ġkisayansi": 9016,
      "ĠReli": 9017,
      "palestina": 9018,
      "Ġkaratasi": 9019,
      "POKEA": 9020,
      "ĠRich": 9021,
      "mra": 9022,
      "Ġmijadala": 9023,
      "Ġyou": 9024,
      "227": 9025,
      "ĠWAO": 9026,
      "Ġmustakabali": 9027,
      "haha": 9028,
      "Ġtukufu": 9029,
      "ĠKodi": 9030,
      "DWA": 9031,
      "Ġmajambazi": 9032,
      "ĠKipe": 9033,
      "TS": 9034,
      "ndami": 9035,
      "Ġuhalali": 9036,
      "Au": 9037,
      "Ġutaona": 9038,
      "at": 9039,
      "ĠKatavi": 9040,
      "TAMISEMI": 9041,
      "nema": 9042,
      "Ġkidemokrasia": 9043,
      "Ġnyara": 9044,
      "ĠKami": 9045,
      "ĠACT": 9046,
      "gamba": 9047,
      "ĠWadau": 9048,
      "ĠTena": 9049,
      "Ġnyekundu": 9050,
      "/-": 9051,
      "Ġwameji": 9052,
      "Ġfacebook": 9053,
      "ĠHatu": 9054,
      "ĠBENKI": 9055,
      "Ġkukubaliana": 9056,
      "lipi": 9057,
      "Maisha": 9058,
      "Ġatawa": 9059,
      "Ġkemikali": 9060,
      "Ġtrilioni": 9061,
      "ID": 9062,
      "olewa": 9063,
      "Ġubongo": 9064,
      "Ġzilizofanyika": 9065,
      "Mkoa": 9066,
      "Taifa": 9067,
      "ĠAJI": 9068,
      "ĠPark": 9069,
      "ĠMsanii": 9070,
      "Ġkiha": 9071,
      "ĠOne": 9072,
      "Ġuanga": 9073,
      "ĠNGUVU": 9074,
      "fisha": 9075,
      "Ġwangapi": 9076,
      "Simu": 9077,
      "ĠMBELE": 9078,
      "zawa": 9079,
      "ĠAlha": 9080,
      "Ġkipimo": 9081,
      "ribution": 9082,
      "Ġzilivyo": 9083,
      "fai": 9084,
      "HAMIS": 9085,
      "ĠDemoc": 9086,
      "Ġalini": 9087,
      "Ġkutua": 9088,
      "ments": 9089,
      "Ġai": 9090,
      "ĠPakistan": 9091,
      "Ġusingi": 9092,
      "dhan": 9093,
      "Ġkusonga": 9094,
      "vuta": 9095,
      "ĠMAD": 9096,
      "hesabiwa": 9097,
      "REFU": 9098,
      "ĠRose": 9099,
      "Ġmapoke": 9100,
      "ĠUholanzi": 9101,
      "Ġkuahidi": 9102,
      "Ge": 9103,
      "Ġapp": 9104,
      "Ġmisu": 9105,
      "Ġwawa": 9106,
      "Utafiti": 9107,
      "fike": 9108,
      "Kenya": 9109,
      "tty": 9110,
      "rumeru": 9111,
      "Ġmanne": 9112,
      "Ġpost": 9113,
      "MINI": 9114,
      "laumu": 9115,
      "TM": 9116,
      "Ġkuelimisha": 9117,
      "mbezi": 9118,
      "ĠKiwanda": 9119,
      "jamzito": 9120,
      "ĠMABADILIKO": 9121,
      "Ġrununu": 9122,
      "Ġinataka": 9123,
      "Ġkirefu": 9124,
      "Ġngome": 9125,
      "Ġkunufaika": 9126,
      "Ġujinga": 9127,
      "ĠHiki": 9128,
      "songo": 9129,
      "LIZI": 9130,
      "Ġkutibu": 9131,
      "Ġsugu": 9132,
      "Ġkuitumia": 9133,
      "ĠALIYE": 9134,
      "un": 9135,
      "cent": 9136,
      "ĠSuper": 9137,
      "ĠWachezaji": 9138,
      "ĠMosi": 9139,
      "Mao": 9140,
      "Ġakiwasilisha": 9141,
      "Kamishna": 9142,
      "Ġutafanyika": 9143,
      "Ġ01": 9144,
      "Ingawa": 9145,
      "Ġramani": 9146,
      "RUDANI": 9147,
      "Mpira": 9148,
      "seka": 9149,
      "ngali": 9150,
      "ren": 9151,
      "Ġvizazi": 9152,
      "kiba": 9153,
      "Ġutunzaji": 9154,
      "650": 9155,
      "Ġhatuja": 9156,
      "Kikosi": 9157,
      "fuate": 9158,
      "Ġbendi": 9159,
      "FE": 9160,
      "Ġvyoo": 9161,
      "Tuli": 9162,
      "Ġzika": 9163,
      "kilize": 9164,
      "aliye": 9165,
      "ftari": 9166,
      "Ġkusherehekea": 9167,
      "ding": 9168,
      "ĠAdam": 9169,
      "lazimisha": 9170,
      "Ġunatakiwa": 9171,
      "Ġ08": 9172,
      "Ġzinazofanywa": 9173,
      "Ġkifahari": 9174,
      "Ġmichache": 9175,
      "Ġ46": 9176,
      "tandard": 9177,
      "ĠYoung": 9178,
      "Ġmkongwe": 9179,
      "ĠLice": 9180,
      "Ġyaka": 9181,
      "elektroniki": 9182,
      "mamu": 9183,
      "ĠTatizo": 9184,
      "Ġwaraka": 9185,
      "ĠUFA": 9186,
      "Ġposted": 9187,
      "ĠKari": 9188,
      "Ġkukimbi": 9189,
      "kosoa": 9190,
      "Ġmsukumo": 9191,
      "Ġhutokea": 9192,
      "vuka": 9193,
      "injili": 9194,
      "Ġwaliojitokeza": 9195,
      "zeki": 9196,
      "Ġmbolea": 9197,
      "ĠJaneth": 9198,
      "UTA": 9199,
      "ĠKule": 9200,
      "ĠUtumiaji": 9201,
      "kwani": 9202,
      "Ġbunduki": 9203,
      "tiki": 9204,
      "Taasisi": 9205,
      "???": 9206,
      "Ġkufunguliwa": 9207,
      "Ġvigogo": 9208,
      "ĠKIBA": 9209,
      "guru": 9210,
      "In": 9211,
      "Ġwatakapo": 9212,
      "ĠTABIA": 9213,
      "Ġshauri": 9214,
      "hongo": 9215,
      "Ġ120": 9216,
      "Kufuatia": 9217,
      "ĠIGP": 9218,
      "):": 9219,
      "Ġnambari": 9220,
      "lete": 9221,
      "',": 9222,
      "shukiwa": 9223,
      "KAYA": 9224,
      "JAMHURI": 9225,
      "48": 9226,
      "Ġkuzu": 9227,
      "Ġridhaa": 9228,
      "Ġy": 9229,
      "ĠJF": 9230,
      "Ġintaneti": 9231,
      "ĠTelevi": 9232,
      "ĠKing": 9233,
      "Ġalitangaza": 9234,
      "Ġkujaza": 9235,
      "ĠCor": 9236,
      "ĠWENGINE": 9237,
      "Ġkumpiga": 9238,
      "harib": 9239,
      "Ġkuwaji": 9240,
      "TAKIWA": 9241,
      "Ġutakaofanyika": 9242,
      "zamikoa": 9243,
      "Ġkutolea": 9244,
      "Ġ40227": 9245,
      "Ġvisiwa": 9246,
      "Ġkumtaka": 9247,
      "chelewa": 9248,
      "Ġ05": 9249,
      "Ġchaguo": 9250,
      "tch": 9251,
      "Share": 9252,
      "Ġblogzamikoa": 9253,
      "Ġkheri": 9254,
      "Ġ52": 9255,
      "Ġkupelekea": 9256,
      "chukia": 9257,
      "neza": 9258,
      "ĠHIVI": 9259,
      "Ġndizo": 9260,
      "Simba": 9261,
      "Ġtupo": 9262,
      "Hapo": 9263,
      "Ġyaliyotolewa": 9264,
      "Ġunyanyasaji": 9265,
      "ĠUswi": 9266,
      "ĠEneo": 9267,
      "ĠBURUDANI": 9268,
      "ĠGabriel": 9269,
      "Ġmilango": 9270,
      "Ġkuiba": 9271,
      "ÂĴ": 9272,
      "Ġmwanamume": 9273,
      "Ġakamwambia": 9274,
      "&#": 9275,
      "ĠTATU": 9276,
      "Ġzinapochipuka": 9277,
      "Ġtetemeko": 9278,
      "Ġwamei": 9279,
      "Ġkuulizwa": 9280,
[...]
