{
  "version": "1.0",
  "truncation": null,
  "padding": null,
  "added_tokens": [
    {
      "id": 0,
      "content": "[PAD]",
      "single_word": false,
      "lstrip": false,
      "rstrip": false,
      "normalized": false,
      "special": true
    },
    {
      "id": 1,
      "content": "[UNK]",
      "single_word": false,
      "lstrip": false,
      "rstrip": false,
      "normalized": false,
      "special": true
    },
    {
      "id": 2,
      "content": "[CLS]",
      "single_word": false,
      "lstrip": false,
      "rstrip": false,
      "normalized": false,
      "special": true
    },
    {
      "id": 3,
      "content": "[SEP]",
      "single_word": false,
      "lstrip": false,
      "rstrip": false,
      "normalized": false,
      "special": true
    },
    {
      "id": 4,
      "content": "[MASK]",
      "single_word": false,
      "lstrip": false,
      "rstrip": false,
      "normalized": false,
      "special": true
    }
  ],
  "normalizer": {
    "type": "BertNormalizer",
    "clean_text": true,
    "handle_chinese_chars": true,
    "strip_accents": null,
    "lowercase": true
  },
  "pre_tokenizer": {
    "type": "BertPreTokenizer"
  },
  "post_processor": {
    "type": "TemplateProcessing",
    "single": [
      {
        "SpecialToken": {
          "id": "[CLS]",
          "type_id": 0
        }
      },
      {
        "Sequence": {
          "id": "A",
          "type_id": 0
        }
      },
      {
        "SpecialToken": {
          "id": "[SEP]",
          "type_id": 0
        }
      }
    ],
    "pair": [
      {
        "SpecialToken": {
          "id": "[CLS]",
          "type_id": 0
        }
      },
      {
        "Sequence": {
          "id": "A",
          "type_id": 0
        }
      },
      {
        "SpecialToken": {
          "id": "[SEP]",
          "type_id": 0
        }
      },
      {
        "Sequence": {
          "id": "B",
          "type_id": 1
        }
      },
      {
        "SpecialToken": {
          "id": "[SEP]",
          "type_id": 1
        }
      }
    ],
    "special_tokens": {
      "[CLS]": {
        "id": "[CLS]",
        "ids": [
          2
        ],
        "tokens": [
          "[CLS]"
        ]
      },
      "[SEP]": {
        "id": "[SEP]",
        "ids": [
          3
        ],
        "tokens": [
          "[SEP]"
        ]
      }
    }
  },
  "decoder": {
    "type": "WordPiece",
    "prefix": "##",
    "cleanup": true
  },
  "model": {
    "type": "WordPiece",
    "unk_token": "[UNK]",
    "continuing_subword_prefix": "##",
    "max_input_chars_per_word": 100,
    "vocab": {
      "[PAD]": 0,
      "[UNK]": 1,
      "[CLS]": 2,
      "[SEP]": 3,
      "[MASK]": 4,
      "!": 5,
      "\"": 6,
      "#": 7,
      "$": 8,
      "%": 9,
      "&": 10,
      "'": 11,
      "(": 12,
      ")": 13,
      "*": 14,
      "+": 15,
      ",": 16,
      "-": 17,
      ".": 18,
      "/": 19,
      "0": 20,
      "1": 21,
      "2": 22,
      "3": 23,
      "4": 24,
      "5": 25,
      "6": 26,
      "7": 27,
      "8": 28,
      "9": 29,
      ":": 30,
      ";": 31,
      "<": 32,
      "=": 33,
      ">": 34,
      "?": 35,
      "@": 36,
      "A": 37,
      "B": 38,
      "C": 39,
      "D": 40,
      "E": 41,
      "F": 42,
      "G": 43,
      "H": 44,
      "I": 45,
      "J": 46,
      "K": 47,
      "L": 48,
      "M": 49,
      "N": 50,
      "O": 51,
      "P": 52,
      "Q": 53,
      "R": 54,
      "S": 55,
      "T": 56,
      "U": 57,
      "V": 58,
      "W": 59,
      "X": 60,
      "Y": 61,
      "Z": 62,
      "[": 63,
      "\\": 64,
      "]": 65,
      "^": 66,
      "_": 67,
      "`": 68,
      "a": 69,
      "b": 70,
      "c": 71,
      "d": 72,
      "e": 73,
      "f": 74,
      "g": 75,
      "h": 76,
      "i": 77,
      "j": 78,
      "k": 79,
      "l": 80,
      "m": 81,
      "n": 82,
      "o": 83,
      "p": 84,
      "q": 85,
      "r": 86,
      "s": 87,
      "t": 88,
      "u": 89,
      "v": 90,
      "w": 91,
      "x": 92,
      "y": 93,
      "z": 94,
      "{": 95,
      "}": 96,
      "~": 97,
      "¡": 98,
      "¢": 99,
      "£": 100,
      "¤": 101,
      "¥": 102,
      "¦": 103,
      "§": 104,
      "¨": 105,
      "©": 106,
      "ª": 107,
      "«": 108,
      "¬": 109,
      "®": 110,
      "¯": 111,
      "°": 112,
      "±": 113,
      "²": 114,
      "³": 115,
      "´": 116,
      "µ": 117,
      "¶": 118,
      "·": 119,
      "¸": 120,
      "¹": 121,
      "º": 122,
      "»": 123,
      "¼": 124,
      "½": 125,
      "¾": 126,
      "¿": 127,
      "À": 128,
      "Á": 129,
      "Â": 130,
      "Ã": 131,
      "Ä": 132,
      "Å": 133,
      "Æ": 134,
      "Ç": 135,
      "É": 136,
      "Ê": 137,
      "Í": 138,
      "Î": 139,
      "Ñ": 140,
      "Ò": 141,
      "Ó": 142,
      "Ô": 143,
      "Õ": 144,
      "Ö": 145,
      "×": 146,
      "Ø": 147,
      "Ú": 148,
      "Û": 149,
      "Ü": 150,
      "ß": 151,
      "à": 152,
      "á": 153,
      "â": 154,
      "ã": 155,
      "ä": 156,
      "å": 157,
      "æ": 158,
      "ç": 159,
      "è": 160,
      "é": 161,
      "ê": 162,
      "ë": 163,
      "ì": 164,
      "í": 165,
      "î": 166,
      "ï": 167,
      "ð": 168,
      "ñ": 169,
      "ò": 170,
      "ó": 171,
      "ô": 172,
      "õ": 173,
      "ö": 174,
      "÷": 175,
      "ø": 176,
      "ù": 177,
      "ú": 178,
      "û": 179,
      "ü": 180,
      "ý": 181,
      "ā": 182,
      "ă": 183,
      "ą": 184,
      "ć": 185,
      "Č": 186,
      "č": 187,
      "Đ": 188,
      "ē": 189,
      "Ė": 190,
      "ė": 191,
      "ę": 192,
      "ě": 193,
      "ğ": 194,
      "ĩ": 195,
      "ī": 196,
      "İ": 197,
      "ı": 198,
      "ĳ": 199,
      "ĺ": 200,
      "Ł": 201,
      "ł": 202,
      "ń": 203,
      "ŋ": 204,
      "Ō": 205,
      "ō": 206,
      "ŏ": 207,
      "ő": 208,
      "œ": 209,
      "ŕ": 210,
      "ř": 211,
      "Ś": 212,
      "ś": 213,
      "Ş": 214,
      "ş": 215,
      "Š": 216,
      "š": 217,
      "ţ": 218,
      "ũ": 219,
      "ū": 220,
      "ŭ": 221,
      "ů": 222,
      "ŵ": 223,
      "Ÿ": 224,
      "ź": 225,
      "ż": 226,
      "Ž": 227,
      "ž": 228,
      "ƙ": 229,
      "ơ": 230,
      "ư": 231,
      "ƴ": 232,
      "ǧ": 233,
      "ș": 234,
      "ɐ": 235,
      "ɑ": 236,
      "ɔ": 237,
      "ə": 238,
      "ɛ": 239,
      "ɪ": 240,
      "ɾ": 241,
      "ʁ": 242,
      "ʃ": 243,
      "ʊ": 244,
      "ʒ": 245,
      "ʹ": 246,
      "ʻ": 247,
      "ʼ": 248,
      "ʽ": 249,
      "ʿ": 250,
      "ˈ": 251,
      "ː": 252,
      "˚": 253,
      "˛": 254,
      "˜": 255,
      "́": 256,
      "̂": 257,
      "̵": 258,
      "̷": 259,
      ";": 260,
      "΄": 261,
      "Ά": 262,
      "Ή": 263,
      "Α": 264,
      "Β": 265,
      "Γ": 266,
      "Δ": 267,
      "Ε": 268,
      "Η": 269,
      "Θ": 270,
      "Ι": 271,
      "Κ": 272,
      "Λ": 273,
      "Μ": 274,
      "Ν": 275,
      "Ο": 276,
      "Π": 277,
      "Ρ": 278,
      "Σ": 279,
      "Τ": 280,
      "Υ": 281,
      "Φ": 282,
      "Χ": 283,
      "Ω": 284,
      "ά": 285,
      "έ": 286,
      "ή": 287,
      "ί": 288,
      "α": 289,
      "β": 290,
      "γ": 291,
      "δ": 292,
      "ε": 293,
      "ζ": 294,
      "η": 295,
      "θ": 296,
      "ι": 297,
      "κ": 298,
      "λ": 299,
      "μ": 300,
      "ν": 301,
      "ξ": 302,
      "ο": 303,
      "π": 304,
      "ρ": 305,
      "ς": 306,
      "σ": 307,
      "τ": 308,
      "υ": 309,
      "φ": 310,
      "χ": 311,
      "ψ": 312,
      "ω": 313,
      "ό": 314,
      "ύ": 315,
      "ώ": 316,
      "Є": 317,
      "А": 318,
      "Б": 319,
      "В": 320,
      "Г": 321,
      "Д": 322,
      "Е": 323,
      "З": 324,
      "И": 325,
      "К": 326,
      "Л": 327,
      "М": 328,
      "Н": 329,
      "О": 330,
      "П": 331,
      "Р": 332,
      "С": 333,
      "Т": 334,
      "У": 335,
      "Ф": 336,
      "Х": 337,
      "Ч": 338,
      "Э": 339,
      "Я": 340,
      "а": 341,
      "б": 342,
      "в": 343,
      "г": 344,
      "д": 345,
      "е": 346,
      "ж": 347,
      "з": 348,
      "и": 349,
      "й": 350,
      "к": 351,
      "л": 352,
      "м": 353,
      "н": 354,
      "о": 355,
      "п": 356,
      "р": 357,
      "с": 358,
      "т": 359,
      "у": 360,
      "ф": 361,
      "х": 362,
      "ц": 363,
      "ч": 364,
      "ш": 365,
      "щ": 366,
      "ъ": 367,
      "ы": 368,
      "ь": 369,
      "э": 370,
      "ю": 371,
      "я": 372,
      "ё": 373,
      "є": 374,
      "ѕ": 375,
      "і": 376,
      "ј": 377,
      "ў": 378,
      "Ա": 379,
      "Հ": 380,
      "ա": 381,
      "ե": 382,
      "թ": 383,
      "ի": 384,
      "կ": 385,
      "յ": 386,
      "ն": 387,
      "ո": 388,
      "ս": 389,
      "տ": 390,
      "ր": 391,
      "ւ": 392,
      "ְ": 393,
      "ִ": 394,
      "ֵ": 395,
      "ֶ": 396,
      "ַ": 397,
      "ָ": 398,
      "ֹ": 399,
      "ּ": 400,
      "ׁ": 401,
      "א": 402,
      "ב": 403,
      "ג": 404,
      "ד": 405,
      "ה": 406,
      "ו": 407,
      "ז": 408,
      "ח": 409,
      "י": 410,
      "כ": 411,
      "ל": 412,
      "ם": 413,
      "מ": 414,
      "ן": 415,
      "נ": 416,
      "ס": 417,
      "ע": 418,
      "ף": 419,
      "פ": 420,
      "ץ": 421,
      "צ": 422,
      "ק": 423,
      "ר": 424,
      "ש": 425,
      "ת": 426,
      "،": 427,
      "ء": 428,
      "آ": 429,
      "أ": 430,
      "ؤ": 431,
      "إ": 432,
      "ئ": 433,
      "ا": 434,
      "ب": 435,
      "ة": 436,
      "ت": 437,
      "ث": 438,
      "ج": 439,
      "ح": 440,
      "خ": 441,
      "د": 442,
      "ذ": 443,
      "ر": 444,
      "ز": 445,
      "س": 446,
      "ش": 447,
      "ص": 448,
      "ض": 449,
      "ط": 450,
      "ظ": 451,
      "ع": 452,
      "غ": 453,
      "ـ": 454,
      "ف": 455,
      "ق": 456,
      "ك": 457,
      "ل": 458,
      "م": 459,
      "ن": 460,
      "ه": 461,
      "و": 462,
      "ى": 463,
      "ي": 464,
      "ً": 465,
      "ٌ": 466,
      "ٍ": 467,
      "َ": 468,
      "ُ": 469,
      "ِ": 470,
      "ّ": 471,
      "ْ": 472,
      "ٰ": 473,
      "پ": 474,
      "ک": 475,
      "گ": 476,
      "ی": 477,
      "۩": 478,
      "ܐ": 479,
      "ܘ": 480,
      "ܝ": 481,
      "ܬ": 482,
      "ं": 483,
      "क": 484,
      "च": 485,
      "ज": 486,
      "त": 487,
      "द": 488,
      "न": 489,
      "प": 490,
      "ब": 491,
      "म": 492,
      "य": 493,
      "र": 494,
      "ल": 495,
      "व": 496,
      "स": 497,
      "ह": 498,
      "ा": 499,
      "ि": 500,
      "ी": 501,
      "ु": 502,
      "े": 503,
      "्": 504,
      "া": 505,
      "ೋ": 506,
      "ย": 507,
      "า": 508,
      "ี": 509,
      "๑": 510,
      "ა": 511,
      "ი": 512,
      "ლ": 513,
      "ს": 514,
      "ღ": 515,
      "ላ": 516,
      "ል": 517,
      "ም": 518,
      "ር": 519,
      "ሰ": 520,
      "ስ": 521,
      "ቆ": 522,
      "ት": 523,
      "ች": 524,
      "ና": 525,
      "ን": 526,
      "አ": 527,
      "ወ": 528,
      "ዎ": 529,
      "ይ": 530,
      "ደ": 531,
      "ḇ": 532,
      "Ḥ": 533,
      "ḥ": 534,
      "ṃ": 535,
      "ṅ": 536,
      "ṇ": 537,
      "Ṣ": 538,
      "ṣ": 539,
      "ṭ": 540,
      "ṯ": 541,
      "ạ": 542,
      "ả": 543,
      "ắ": 544,
      "ệ": 545,
      "ị": 546,
      "ồ": 547,
      "ἀ": 548,
      "Ἀ": 549,
      "ἐ": 550,
      "ἡ": 551,
      "ἰ": 552,
      "Ἰ": 553,
      "ὐ": 554,
      "ῖ": 555,
      "ῦ": 556,
      "ῶ": 557,
      "‐": 558,
      "‑": 559,
      "–": 560,
      "—": 561,
      "―": 562,
      "‖": 563,
      "‗": 564,
      "‘": 565,
      "’": 566,
      "‚": 567,
      "‛": 568,
      "“": 569,
      "”": 570,
      "„": 571,
      "‟": 572,
      "†": 573,
      "‡": 574,
      "•": 575,
      "․": 576,
      "…": 577,
      "′": 578,
      "″": 579,
      "‹": 580,
      "›": 581,
      "※": 582,
      "‼": 583,
      "‿": 584,
      "⁀": 585,
      "€": 586,
      "⃣": 587,
      "℃": 588,
      "ℓ": 589,
      "№": 590,
      "™": 591,
      "←": 592,
      "↑": 593,
      "→": 594,
      "↓": 595,
      "↗": 596,
      "↘": 597,
      "↠": 598,
      "↡": 599,
      "↳": 600,
      "↵": 601,
      "⇒": 602,
      "−": 603,
      "∙": 604,
      "√": 605,
      "∴": 606,
      "≈": 607,
      "≤": 608,
      "≥": 609,
      "⊱": 610,
      "⌚": 611,
      "⏩": 612,
      "⏪": 613,
      "⏬": 614,
      "ⓔ": 615,
      "─": 616,
      "│": 617,
      "═": 618,
      "║": 619,
      "╚": 620,
      "╝": 621,
      "╬": 622,
      "▀": 623,
      "▃": 624,
      "▄": 625,
      "█": 626,
      "░": 627,
      "▒": 628,
      "■": 629,
      "□": 630,
      "▪": 631,
      "▬": 632,
      "▭": 633,
      "▲": 634,
      "▶": 635,
      "▷": 636,
      "▸": 637,
      "►": 638,
      "▼": 639,
      "▾": 640,
      "◄": 641,
      "◆": 642,
      "◇": 643,
      "◊": 644,
      "○": 645,
      "●": 646,
      "◕": 647,
      "◘": 648,
      "◯": 649,
      "◻": 650,
      "◾": 651,
      "☀": 652,
      "★": 653,
      "☆": 654,
      "☉": 655,
      "☎": 656,
      "☑": 657,
      "☕": 658,
      "☝": 659,
      "☠": 660,
      "☺": 661,
      "♀": 662,
      "♂": 663,
      "♔": 664,
      "♚": 665,
      "♛": 666,
      "♠": 667,
      "♡": 668,
      "♣": 669,
      "♥": 670,
      "♦": 671,
      "♪": 672,
      "♫": 673,
      "♬": 674,
      "♰": 675,
      "⚠": 676,
      "⚡": 677,
      "⚫": 678,
      "⚽": 679,
      "⛪": 680,
      "✅": 681,
      "✈": 682,
      "✊": 683,
      "✌": 684,
      "✍": 685,
      "✏": 686,
      "✓": 687,
      "✔": 688,
      "✖": 689,
      "✙": 690,
      "✨": 691,
      "✩": 692,
      "✯": 693,
      "✳": 694,
      "✿": 695,
      "❀": 696,
      "❌": 697,
      "❓": 698,
      "❔": 699,
      "❖": 700,
      "❤": 701,
      "❥": 702,
      "➖": 703,
      "➡": 704,
      "➢": 705,
      "➤": 706,
      "➧": 707,
      "⠀": 708,
      "⤋": 709,
      "⦁": 710,
      "⬇": 711,
      "⭐": 712,
      "、": 713,
      "。": 714,
      "《": 715,
      "》": 716,
      "「": 717,
      "【": 718,
      "】": 719,
      "〰": 720,
      "い": 721,
      "く": 722,
      "こ": 723,
      "さ": 724,
      "し": 725,
      "づ": 726,
      "な": 727,
      "の": 728,
      "は": 729,
      "ま": 730,
      "り": 731,
      "る": 732,
      "れ": 733,
      "ん": 734,
      "ス": 735,
      "ッ": 736,
      "ヒ": 737,
      "リ": 738,
      "ワ": 739,
      "ン": 740,
      "・": 741,
      "ー": 742,
      "㎡": 743,
      "中": 744,
      "人": 745,
      "例": 746,
      "句": 747,
      "名": 748,
      "和": 749,
      "国": 750,
      "大": 751,
      "子": 752,
      "山": 753,
      "岡": 754,
      "島": 755,
      "州": 756,
      "市": 757,
      "希": 758,
      "恰": 759,
      "我": 760,
      "文": 761,
      "斯": 762,
      "新": 763,
      "日": 764,
      "星": 765,
      "游": 766,
      "漫": 767,
      "爱": 768,
      "玛": 769,
      "瓦": 770,
      "田": 771,
      "的": 772,
      "県": 773,
      "社": 774,
      "福": 775,
      "秋": 776,
      "节": 777,
      "語": 778,
      "路": 779,
      "透": 780,
      "里": 781,
      "际": 782,
      "국": 783,
      "날": 784,
      "대": 785,
      "름": 786,
      "리": 787,
      "문": 788,
      "부": 789,
      "사": 790,
      "수": 791,
      "스": 792,
      "아": 793,
      "어": 794,
      "여": 795,
      "와": 796,
      "원": 797,
      "이": 798,
      "인": 799,
      "지": 800,
      "힐": 801,
      "ﬁ": 802,
      "﴾": 803,
      "﴿": 804,
      "ﷺ": 805,
      "️": 806,
      "！": 807,
      "）": 808,
      "，": 809,
      "．": 810,
      "：": 811,
      "～": 812,
      "￼": 813,
      "🇦": 814,
      "🇨": 815,
      "🇩": 816,
      "🇪": 817,
      "🇬": 818,
      "🇭": 819,
      "🇮": 820,
      "🇰": 821,
      "🇱": 822,
      "🇲": 823,
      "🇳": 824,
      "🇴": 825,
      "🇷": 826,
      "🇸": 827,
      "🇹": 828,
      "🇺": 829,
      "🇿": 830,
      "🌍": 831,
      "🌟": 832,
      "🌳": 833,
      "🌴": 834,
      "🌷": 835,
      "🌽": 836,
      "🌾": 837,
      "🌿": 838,
      "🍃": 839,
      "🍅": 840,
      "🍇": 841,
      "🍈": 842,
      "🍎": 843,
      "🍓": 844,
      "🍰": 845,
      "🍴": 846,
      "🍺": 847,
      "🎁": 848,
      "🎂": 849,
      "🎄": 850,
      "🎆": 851,
      "🎇": 852,
      "🎈": 853,
      "🎉": 854,
      "🎊": 855,
      "🎡": 856,
      "🎤": 857,
      "🎥": 858,
      "🎧": 859,
      "🎬": 860,
      "🎵": 861,
      "🎶": 862,
      "🎼": 863,
      "🎾": 864,
      "🏃": 865,
      "🏆": 866,
      "🏧": 867,
      "🏻": 868,
      "🏼": 869,
      "🏽": 870,
      "🏾": 871,
      "🏿": 872,
      "🐄": 873,
      "👀": 874,
      "👂": 875,
      "👆": 876,
      "👇": 877,
      "👈": 878,
      "👉": 879,
      "👊": 880,
      "👌": 881,
      "👍": 882,
      "👏": 883,
      "👑": 884,
      "👗": 885,
      "👞": 886,
      "👠": 887,
      "👧": 888,
      "👪": 889,
      "👷": 890,
      "💃": 891,
      "💉": 892,
      "💋": 893,
      "💐": 894,
      "💓": 895,
      "💕": 896,
      "💖": 897,
      "💗": 898,
      "💘": 899,
      "💙": 900,
      "💚": 901,
      "💛": 902,
      "💜": 903,
      "💝": 904,
      "💞": 905,
      "💟": 906,
      "💣": 907,
      "💤": 908,
      "💥": 909,
      "💪": 910,
      "💬": 911,
      "💯": 912,
      "💳": 913,
      "💻": 914,
      "📋": 915,
      "📌": 916,
      "📓": 917,
      "📕": 918,
      "📖": 919,
      "📚": 920,
      "📝": 921,
      "📞": 922,
      "📢": 923,
      "📰": 924,
      "📱": 925,
      "📲": 926,
      "📶": 927,
      "📷": 928,
      "📸": 929,
      "📹": 930,
      "📺": 931,
      "📻": 932,
      "🔁": 933,
      "🔍": 934,
      "🔑": 935,
      "🔚": 936,
      "🔞": 937,
      "🔥": 938,
      "🔨": 939,
      "🔫": 940,
      "🔴": 941,
      "🔵": 942,
      "🔹": 943,
      "🔻": 944,
      "🕌": 945,
      "🕸": 946,
      "😀": 947,
      "😁": 948,
      "😂": 949,
      "😃": 950,
      "😄": 951,
      "😅": 952,
      "😆": 953,
      "😇": 954,
      "😉": 955,
      "😊": 956,
      "😋": 957,
      "😌": 958,
      "😍": 959,
      "😎": 960,
      "😏": 961,
      "😒": 962,
      "😔": 963,
      "😘": 964,
      "😚": 965,
      "😛": 966,
      "😜": 967,
      "😝": 968,
      "😞": 969,
      "😡": 970,
      "😢": 971,
      "😦": 972,
      "😨": 973,
      "😩": 974,
      "😭": 975,
      "😱": 976,
      "😲": 977,
      "😳": 978,
      "😷": 979,
      "😻": 980,
      "🙁": 981,
      "🙂": 982,
      "🙄": 983,
      "🙅": 984,
      "🙆": 985,
      "🙇": 986,
      "🙈": 987,
      "🙉": 988,
      "🙊": 989,
      "🙋": 990,
      "🙌": 991,
      "🙏": 992,
      "🚀": 993,
      "🚨": 994,
      "🚫": 995,
      "🚶": 996,
      "🤔": 997,
      "🤗": 998,
      "🤝": 999,
      "🤞": 1000,
      "🤣": 1001,
      "🤳": 1002,
      "🦁": 1003,
      "🧚": 1004,
      "##I": 1005,
      "##P": 1006,
      "##s": 1007,
      "##m": 1008,
      "##u": 1009,
      "##e": 1010,
      "##l": 1011,
      "##w": 1012,
      "##h": 1013,
      "##i": 1014,
      "##y": 1015,
      "##a": 1016,
      "##n": 1017,
      "##t": 1018,
      "##r": 1019,
      "##g": 1020,
      "##k": 1021,
      "##d": 1022,
      "##v": 1023,
      "##R": 1024,
      "##E": 1025,
      "##K": 1026,
      "##O": 1027,
      "##p": 1028,
      "##o": 1029,
      "##b": 1030,
      "##f": 1031,
      "##c": 1032,
      "##T": 1033,
      "##H": 1034,
      "##A": 1035,
      "##N": 1036,
      "##D": 1037,
      "##S": 1038,
      "##L": 1039,
      "##z": 1040,
      "##👇": 1041,
      "##0": 1042,
      "##4": 1043,
      "##9": 1044,
      "##5": 1045,
      "##ö": 1046,
      "##j": 1047,
      "##J": 1048,
      "##M": 1049,
      "##U": 1050,
      "##W": 1051,
      "##Z": 1052,
      "##1": 1053,
      "##8": 1054,
      "##Y": 1055,
      "##q": 1056,
      "##B": 1057,
      "##C": 1058,
      "##®": 1059,
      "##7": 1060,
      "##2": 1061,
      "##G": 1062,
      "##3": 1063,
      "##F": 1064,
      "##📞": 1065,
      "##V": 1066,
      "##6": 1067,
      "##x": 1068,
      "##â": 1069,
      "##€": 1070,
      "##📹": 1071,
      "##ř": 1072,
      "##œ": 1073,
      "##า": 1074,
      "##Q": 1075,
      "##→": 1076,
      "##ü": 1077,
      "##Â": 1078,
      "##X": 1079,
      "##ū": 1080,
      "##💉": 1081,
      "##ä": 1082,
      "##è": 1083,
      "##ὐ": 1084,
      "##Γ": 1085,
      "##Ε": 1086,
      "##Ν": 1087,
      "##Ή": 1088,
      "##Σ": 1089,
      "##í": 1090,
      "##ñ": 1091,
      "##😘": 1092,
      "##ł": 1093,
      "##ḥ": 1094,
      "##ʼ": 1095,
      "##ā": 1096,
      "##ḇ": 1097,
      "##ظ": 1098,
      "##ي": 1099,
      "##م": 1100,
      "##ة": 1101,
      "##¦": 1102,
      "##à": 1103,
      "##Ä": 1104,
      "##ա": 1105,
      "##ր": 1106,
      "##ի": 1107,
      "##կ": 1108,
      "##é": 1109,
      "##û": 1110,
      "##📓": 1111,
      "##ó": 1112,
      "##ل": 1113,
      "##ْ": 1114,
      "##ك": 1115,
      "##َ": 1116,
      "##ِ": 1117,
      "##ُ": 1118,
      "##ş": 1119,
      "##у": 1120,
      "##р": 1121,
      "##н": 1122,
      "##а": 1123,
      "##л": 1124,
      "##ã": 1125,
      "##❤": 1126,
      "##ύ": 1127,
      "##ρ": 1128,
      "##η": 1129,
      "##κ": 1130,
      "##α": 1131,
      "##市": 1132,
      "##î": 1133,
      "##á": 1134,
      "##χ": 1135,
      "##ά": 1136,
      "##β": 1137,
      "##г": 1138,
      "##с": 1139,
      "##å": 1140,
      "##💯": 1141,
      "##✌": 1142,
      "##️": 1143,
      "##ś": 1144,
      "##ê": 1145,
      "##و": 1146,
      "##ّ": 1147,
      "##ی": 1148,
      "##ٰ": 1149,
      "##д": 1150,
      "##е": 1151,
      "##ь": 1152,
      "##о": 1153,
      "##б": 1154,
      "##✔": 1155,
      "##É": 1156,
      "##ý": 1157,
      "##т": 1158,
      "##п": 1159,
      "##ç": 1160,
      "##ı": 1161,
      "##州": 1162,
      "##ё": 1163,
      "##´": 1164,
      "##د": 1165,
      "##خ": 1166,
      "##♥": 1167,
      "##ô": 1168,
      "##Ã": 1169,
      "##³": 1170,
      "##س": 1171,
      "##π": 1172,
      "##ί": 1173,
      "##ο": 1174,
      "##υ": 1175,
      "##ς": 1176,
      "##ن": 1177,
      "##ï": 1178,
      "##в": 1179,
      "##ă": 1180,
      "##ţ": 1181,
      "##ا": 1182,
      "##ح": 1183,
      "##ب": 1184,
      "##🍴": 1185,
      "##Ó": 1186,
      "##ы": 1187,
      "##ж": 1188,
      "##ğ": 1189,
      "##ؤ": 1190,
      "##ت": 1191,
      "##ر": 1192,
      "##ž": 1193,
      "##ف": 1194,
      "##غ": 1195,
      "##া": 1196,
      "##ط": 1197,
      "##ه": 1198,
      "##👉": 1199,
      "##😍": 1200,
      "##ə": 1201,
      "##и": 1202,
      "##μ": 1203,
      "##τ": 1204,
      "##¬": 1205,
      "##ى": 1206,
      "##΄": 1207,
      "##어": 1208,
      "##ል": 1209,
      "##™": 1210,
      "##ع": 1211,
      "##ج": 1212,
      "##ئ": 1213,
      "##🏽": 1214,
      "##×": 1215,
      "##ص": 1216,
      "##к": 1217,
      "##м": 1218,
      "##ц": 1219,
      "##🎇": 1220,
      "##👏": 1221,
      "##ė": 1222,
      "##↗": 1223,
      "##ĩ": 1224,
      "##ũ": 1225,
      "##ŕ": 1226,
      "##ق": 1227,
      "##ë": 1228,
      "##🎂": 1229,
      "##х": 1230,
      "##¤": 1231,
      "##😁": 1232,
      "##ι": 1233,
      "##δ": 1234,
      "##ή": 1235,
      "##ℓ": 1236,
      "##є": 1237,
      "##ѕ": 1238,
      "##½": 1239,
      "##ō": 1240,
      "##ì": 1241,
      "##✅": 1242,
      "##ß": 1243,
      "##🏻": 1244,
      "##♂": 1245,
      "##φ": 1246,
      "##●": 1247,
      "##○": 1248,
      "##🏾": 1249,
      "##💻": 1250,
      "##ش": 1251,
      "##σ": 1252,
      "##♡": 1253,
      "##Н": 1254,
      "##Е": 1255,
      "##С": 1256,
      "##К": 1257,
      "##О": 1258,
      "##💋": 1259,
      "##ē": 1260,
      "##ض": 1261,
      "##리": 1262,
      "##°": 1263,
      "##🏼": 1264,
      "##ш": 1265,
      "##☝": 1266,
      "##😂": 1267,
      "##ְ": 1268,
      "##ה": 1269,
      "##ו": 1270,
      "##ּ": 1271,
      "##ד": 1272,
      "##ִ": 1273,
      "##י": 1274,
      "##ם": 1275,
      "##ٌ": 1276,
      "##る": 1277,
      "##¯": 1278,
      "##ˈ": 1279,
      "##ː": 1280,
      "##ć": 1281,
      "##ð": 1282,
      "##˜": 1283,
      "##š": 1284,
      "##✩": 1285,
      "##ʁ": 1286,
      "##ɔ": 1287,
      "##ø": 1288,
      "##ח": 1289,
      "##ֶ": 1290,
      "##מ": 1291,
      "##ָ": 1292,
      "##👍": 1293,
      "##ɪ": 1294,
      "##ר": 1295,
      "##ч": 1296,
      "##µ": 1297,
      "##թ": 1298,
      "##я": 1299,
      "##💣": 1300,
      "##🔫": 1301,
      "##ў": 1302,
      "##म": 1303,
      "##ा": 1304,
      "##च": 1305,
      "##र": 1306,
      "##ε": 1307,
      "##ό": 1308,
      "##ء": 1309,
      "##≈": 1310,
      "##🏿": 1311,
      "##🚶": 1312,
      "##ṭ": 1313,
      "##😚": 1314,
      "##☉": 1315,
      "##ú": 1316,
      "##사": 1317,
      "##文": 1318,
      "##🍓": 1319,
      "##💗": 1320,
      "##😀": 1321,
      "##ʹ": 1322,
      "##́": 1323,
      "##ŋ": 1324,
      "##ʃ": 1325,
      "##ﬁ": 1326,
      "##り": 1327,
      "##し": 1328,
      "##ն": 1329,
      "##⚫": 1330,
      "##👑": 1331,
      "##✊": 1332,
      "##⃣": 1333,
      "##Ö": 1334,
      "##🌍": 1335,
      "##❌": 1336,
      "##🔥": 1337,
      "##ዎ": 1338,
      "##ች": 1339,
      "##県": 1340,
      "##õ": 1341,
      "##ù": 1342,
      "##У": 1343,
      "##ĺ": 1344,
      "##ṇ": 1345,
      "##č": 1346,
      "##λ": 1347,
      "##👌": 1348,
      "##ל": 1349,
      "##א": 1350,
      "##ב": 1351,
      "##🤣": 1352,
      "##ี": 1353,
      "##ย": 1354,
      "##Å": 1355,
      "##島": 1356,
      "##Õ": 1357,
      "##ồ": 1358,
      "##з": 1359,
      "##ک": 1360,
      "##★": 1361,
      "##ز": 1362,
      "##☆": 1363,
      "##أ": 1364,
      "##😜": 1365,
      "##إ": 1366,
      "##γ": 1367,
      "##θ": 1368,
      "##ν": 1369,
      "##⠀": 1370,
      "##Í": 1371,
      "##이": 1372,
      "##💜": 1373,
      "##💙": 1374,
      "##ー": 1375,
      "##ン": 1376,
      "##の": 1377,
      "##子": 1378,
      "##ス": 1379,
      "##名": 1380,
      "##人": 1381,
      "##～": 1382,
      "##̵": 1383,
      "##💪": 1384,
      "##👊": 1385,
      "##כ": 1386,
      "##ת": 1387,
      "##🇪": 1388,
      "##έ": 1389,
      "##ذ": 1390,
      "##👆": 1391,
      "##ξ": 1392,
      "##ò": 1393,
      "##🙏": 1394,
      "##ź": 1395,
      "##山": 1396,
      "##ር": 1397,
      "##Χ": 1398,
      "##Ι": 1399,
      "##آ": 1400,
      "##ŭ": 1401,
      "##ٍ": 1402,
      "##스": 1403,
      "##ק": 1404,
      "##щ": 1405,
      "##й": 1406,
      "##ɑ": 1407,
      "##ṣ": 1408,
      "##ω": 1409,
      "##ψ": 1410,
      "##ש": 1411,
      "##ַ": 1412,
      "##נ": 1413,
      "##ю": 1414,
      "##😊": 1415,
      "##✖": 1416,
      "##は": 1417,
      "##−": 1418,
      "##♀": 1419,
      "##←": 1420,
      "##ф": 1421,
      "##ę": 1422,
      "##Û": 1423,
      "##💘": 1424,
      "##ῶ": 1425,
      "##大": 1426,
      "##中": 1427,
      "##ह": 1428,
      "##स": 1429,
      "##◄": 1430,
      "##Г": 1431,
      "##Ω": 1432,
      "##🙌": 1433,
      "##Î": 1434,
      "##😔": 1435,
      "##🇴": 1436,
      "##🎊": 1437,
      "##💃": 1438,
      "##😆": 1439,
      "##😱": 1440,
      "##Ο": 1441,
      "##¢": 1442,
      "##💥": 1443,
      "##ո": 1444,
      "##ւ": 1445,
      "##ս": 1446,
      "##ღ": 1447,
      "##ș": 1448,
      "##²": 1449,
      "##💚": 1450,
      "##Ê": 1451,
      "##Ş": 1452,
      "##न": 1453,
      "##्": 1454,
      "##त": 1455,
      "##æ": 1456,
      "##👪": 1457,
      "##ŏ": 1458,
      "##ע": 1459,
      "##ث": 1460,
      "##░": 1461,
      "##ń": 1462,
      "##🌽": 1463,
      "##🐄": 1464,
      "##Ü": 1465,
      "##ɛ": 1466,
      "##☠": 1467,
      "##😝": 1468,
      "##い": 1469,
      "##ま": 1470,
      "##的": 1471,
      "##♫": 1472,
      "##🎥": 1473,
      "##ῖ": 1474,
      "##ώ": 1475,
      "##🤔": 1476,
      "##🇳": 1477,
      "##🇬": 1478,
      "##▄": 1479,
      "##문": 1480,
      "##💛": 1481,
      "##⌚": 1482,
      "##🎵": 1483,
      "##🎶": 1484,
      "##😛": 1485,
      "##🇮": 1486,
      "##🎆": 1487,
      "##㎡": 1488,
      "##█": 1489,
      "##║": 1490,
      "##ֵ": 1491,
      "##ׁ": 1492,
      "##😭": 1493,
      "##ī": 1494,
      "##ṯ": 1495,
      "##⚡": 1496,
      "##😢": 1497,
      "##☕": 1498,
      "##ị": 1499,
      "##і": 1500,
      "##ም": 1501,
      "##ζ": 1502,
      "##恰": 1503,
      "##ṃ": 1504,
      "##我": 1505,
      "##گ": 1506,
      "##🙋": 1507,
      "##🔁": 1508,
      "##⚽": 1509,
      "##ἰ": 1510,
      "##田": 1511,
      "##🏃": 1512,
      "##À": 1513,
      "##🇸": 1514,
      "##🇺": 1515,
      "##©": 1516,
      "##국": 1517,
      "##📺": 1518,
      "##📻": 1519,
      "##Τ": 1520,
      "##Ρ": 1521,
      "##🇹": 1522,
      "##🇿": 1523,
      "##🦁": 1524,
      "##Ž": 1525,
      "##⭐": 1526,
      "##🎼": 1527,
      "##ɾ": 1528,
      "##ż": 1529,
      "##Б": 1530,
      "##ん": 1531,
      "##부": 1532,
      "##Λ": 1533,
      "##Я": 1534,
      "##√": 1535,
      "##̂": 1536,
      "##🔑": 1537,
      "##🚨": 1538,
      "##¨": 1539,
      "##🕌": 1540,
      "##Ÿ": 1541,
      "##►": 1542,
      "##ʿ": 1543,
      "##¹": 1544,
      "##▀": 1545,
      "##🤗": 1546,
      "##ッ": 1547,
      "##И": 1548,
      "##Т": 1549,
      "##Р": 1550,
      "##Л": 1551,
      "##ं": 1552,
      "##פ": 1553,
      "##ե": 1554,
      "##ワ": 1555,
      "##ヒ": 1556,
      "##リ": 1557,
      "##語": 1558,
      "##ě": 1559,
      "##😅": 1560,
      "##🙊": 1561,
      "##Á": 1562,
      "##ֹ": 1563,
      "##日": 1564,
      "##▪": 1565,
      "##😻": 1566,
      "##ז": 1567,
      "##👞": 1568,
      "##🇱": 1569,
      "##🇷": 1570,
      "##♦": 1571,
      "##아": 1572,
      "##♣": 1573,
      "##♠": 1574,
      "##İ": 1575,
      "##❀": 1576,
      "##ạ": 1577,
      "##˚": 1578,
      "##여": 1579,
      "##ס": 1580,
      "##±": 1581,
      "##¥": 1582,
      "##Ú": 1583,
      "##💟": 1584,
      "##ג": 1585,
      "##💕": 1586,
      "##Ô": 1587,
      "##ư": 1588,
      "##ṅ": 1589,
      "##れ": 1590,
      "##대": 1591,
      "##🙅": 1592,
      "##º": 1593,
      "##爱": 1594,
      "##🎈": 1595,
      "##🌴": 1596,
      "##Κ": 1597,
      "##Α": 1598,
      "##Η": 1599,
      "##ן": 1600,
      "##瓦": 1601,
      "##希": 1602,
      "##里": 1603,
      "##Ñ": 1604,
      "##╚": 1605,
      "##🌿": 1606,
      "##🍺": 1607,
      "##😋": 1608,
      "##◇": 1609,
      "##□": 1610,
      "##↠": 1611,
      "##Ά": 1612,
      "##ً": 1613,
      "##ﷺ": 1614,
      "##¼": 1615,
      "##ـ": 1616,
      "##ა": 1617,
      "##ლ": 1618,
      "##ሰ": 1619,
      "##ን": 1620,
      "##➡": 1621,
      "##▬": 1622,
      "##ी": 1623,
      "##🎧": 1624,
      "##ल": 1625,
      "##💖": 1626,
      "##🙂": 1627,
      "##🎉": 1628,
      "##ʒ": 1629,
      "##😃": 1630,
      "##🇰": 1631,
      "##😡": 1632,
      "##🎤": 1633,
      "##ೋ": 1634,
      "##원": 1635,
      "##ት": 1636,
      "##ą": 1637,
      "##↡": 1638,
      "##Φ": 1639,
      "##🏆": 1640,
      "##👧": 1641,
      "##👗": 1642,
      "##👠": 1643,
      "##ῦ": 1644,
      "##☺": 1645,
      "##✍": 1646,
      "##ላ": 1647,
      "##ስ": 1648,
      "##ይ": 1649,
      "##տ": 1650,
      "##Ō": 1651,
      "##£": 1652,
      "##▶": 1653,
      "##℃": 1654,
      "##յ": 1655,
      "##ŵ": 1656,
      "##🌟": 1657,
      "##ј": 1658,
      "##📋": 1659,
      "##💞": 1660,
      "##新": 1661,
      "##ĳ": 1662,
      "##👷": 1663,
      "##🇨": 1664,
      "##🇭": 1665,
      "##😏": 1666,
      "##👈": 1667,
      "##ܘ": 1668,
      "##ܝ": 1669,
      "##ܬ": 1670,
      "##ܐ": 1671,
      "##🎡": 1672,
      "##✿": 1673,
      "##く": 1674,
      "##な": 1675,
      "##ả": 1676,
      "##═": 1677,
      "##╝": 1678,
      "##ʻ": 1679,
      "##پ": 1680,
      "##Д": 1681,
      "##Є": 1682,
      "##🇦": 1683,
      "##🙉": 1684,
      "##Æ": 1685,
      "##ɐ": 1686,
      "##✨": 1687,
      "##👀": 1688,
      "##国": 1689,
      "##Μ": 1690,
      "##Θ": 1691,
      "##🔚": 1692,
      "##Π": 1693,
      "##ǧ": 1694,
      "##😨": 1695,
      "##和": 1696,
      "##А": 1697,
      "##☎": 1698,
      "##🍇": 1699,
      "##岡": 1700,
      "##ʊ": 1701,
      "##Ç": 1702,
      "##📷": 1703,
      "##ि": 1704,
      "##와": 1705,
      "##힐": 1706,
      "##े": 1707,
      "##ज": 1708,
      "##￼": 1709,
      "##↓": 1710,
      "##П": 1711,
      "##Х": 1712,
      "##ơ": 1713,
      "##🙈": 1714,
      "##👂": 1715,
      "##透": 1716,
      "##社": 1717,
      "##ő": 1718,
      "##😳": 1719,
      "##╬": 1720,
      "##🔞": 1721,
      "##э": 1722,
      "##🇲": 1723,
      "##व": 1724,
      "##😉": 1725,
      "##😩": 1726,
      "##🚫": 1727,
      "##Β": 1728,
      "##こ": 1729,
      "##さ": 1730,
      "##द": 1731,
      "##ቆ": 1732,
      "##÷": 1733,
      "##♪": 1734,
      "##⬇": 1735,
      "##📚": 1736,
      "##צ": 1737,
      "##─": 1738,
      "##🔨": 1739,
      "##ů": 1740,
      "##य": 1741,
      "##¸": 1742,
      "##😞": 1743,
      "##❔": 1744,
      "##🍰": 1745,
      "##☀": 1746,
      "##😄": 1747,
      "##😎": 1748,
      "##📱": 1749,
      "##│": 1750,
      "##ệ": 1751,
      "##ु": 1752,
      "##प": 1753,
      "##🙆": 1754,
      "##📖": 1755,
      "##💓": 1756,
      "##💝": 1757,
      "##◯": 1758,
      "##▲": 1759,
      "##节": 1760,
      "##🍎": 1761,
      "##🍃": 1762,
      "##😷": 1763,
      "##🌷": 1764,
      "##🔴": 1765,
      "##수": 1766,
      "##▃": 1767,
      "##ი": 1768,
      "##ъ": 1769,
      "##❥": 1770,
      "##⊱": 1771,
      "##Υ": 1772,
      "##❓": 1773,
      "##⏬": 1774,
      "##क": 1775,
      "##ʽ": 1776,
      "##ⓔ": 1777,
      "##🍅": 1778,
      "##지": 1779,
      "##🔍": 1780,
      "##🎁": 1781,
      "##句": 1782,
      "##✓": 1783,
      "##🤝": 1784,
      "##Š": 1785,
      "##🤞": 1786,
      "##😇": 1787,
      "##М": 1788,
      "##斯": 1789,
      "##름": 1790,
      "##날": 1791,
      "##🇩": 1792,
      "##🎬": 1793,
      "##🎾": 1794,
      "##🤳": 1795,
      "##秋": 1796,
      "##ª": 1797,
      "##💤": 1798,
      "##ና": 1799,
      "##Ø": 1800,
      "##🙄": 1801,
      "##📲": 1802,
      "##😒": 1803,
      "##💬": 1804,
      "##๑": 1805,
      "##۩": 1806,
      "##≤": 1807,
      "##ף": 1808,
      "##▒": 1809,
      "##😲": 1810,
      "##▭": 1811,
      "##🌾": 1812,
      "##■": 1813,
      "##😌": 1814,
      "##ს": 1815,
      "##인": 1816,
      "##🕸": 1817,
      "##🎄": 1818,
      "##✈": 1819,
      "##玛": 1820,
      "##ắ": 1821,
      "##📸": 1822,
      "##🚀": 1823,
      "##🌳": 1824,
      "##➖": 1825,
      "##ब": 1826,
      "##◕": 1827,
      "##🙁": 1828,
      "##↑": 1829,
      "##̷": 1830,
      "##🧚": 1831,
      "##В": 1832,
      "##⛪": 1833,
      "##◆": 1834,
      "##星": 1835,
      "##ץ": 1836,
      "##˛": 1837,
      "##ደ": 1838,
      "##♚": 1839,
      "##🙇": 1840,
      "##际": 1841,
      "##漫": 1842,
      "##游": 1843,
      "##📰": 1844,
      "##Ф": 1845,
      "##💐": 1846,
      "##Δ": 1847,
      "##an": 1848,
      "##wa": 1849,
      "##li": 1850,
      "wa": 1851,
      "ya": 1852,
      "ku": 1853,
      "##ka": 1854,
      "na": 1855,
      "##ha": 1856,
      "##in": 1857,
      "##at": 1858,
      "##am": 1859,
      "##ri": 1860,
      "##en": 1861,
      "##ba": 1862,
      "##ki": 1863,
      "##zi": 1864,
      "##ku": 1865,
      "##hi": 1866,
      "ma": 1867,
      "##ia": 1868,
      "##is": 1869,
      "kwa": 1870,
      "##un": 1871,
      "##ana": 1872,
      "##ta": 1873,
      "##yo": 1874,
      "##za": 1875,
      "##ma": 1876,
      "##ati": 1877,
      "##on": 1878,
      "##ra": 1879,
      "##ji": 1880,
      "##da": 1881,
      "##la": 1882,
      "##di": 1883,
      "##si": 1884,
      "##le": 1885,
      "##um": 1886,
      "##ya": 1887,
      "##to": 1888,
      "ha": 1889,
      "##ke": 1890,
      "##ye": 1891,
      "##me": 1892,
      "##ani": 1893,
      "za": 1894,
      "##we": 1895,
      "##ch": 1896,
      "hi": 1897,
      "ki": 1898,
      "##ti": 1899,
      "##ja": 1900,
      "##mba": 1901,
      "##ini": 1902,
      "kati": 1903,
      "ni": 1904,
      "##na": 1905,
      "Ma": 1906,
      "##sa": 1907,
      "##ko": 1908,
      "la": 1909,
      "katika": 1910,
      "##gu": 1911,
      "##zo": 1912,
      "##hu": 1913,
      "##sha": 1914,
      "##fa": 1915,
      "##go": 1916,
      "##bu": 1917,
      "##tu": 1918,
      "##ga": 1919,
      "##te": 1920,
      "##po": 1921,
      "hu": 1922,
      "##mu": 1923,
      "##ili": 1924,
      "##ama": 1925,
      "##fu": 1926,
      "kuwa": 1927,
      "##enye": 1928,
      "##ata": 1929,
      "##ge": 1930,
      "ali": 1931,
      "##he": 1932,
      "##ele": 1933,
      "##ina": 1934,
      "##aa": 1935,
      "cha": 1936,
      "vi": 1937,
      "##oja": 1938,
      "##fan": 1939,
      "##se": 1940,
      "##re": 1941,
      "##mb": 1942,
      "##ua": 1943,
      "##ing": 1944,
      "amba": 1945,
      "kw": 1946,
      "ka": 1947,
      "##pi": 1948,
      "##kuwa": 1949,
      "##ano": 1950,
      "Wa": 1951,
      "##sh": 1952,
      "##lo": 1953,
      "##ru": 1954,
      "mi": 1955,
      "##shi": 1956,
      "ili": 1957,
      "##do": 1958,
      "wana": 1959,
      "##rika": 1960,
      "##AN": 1961,
      "##sema": 1962,
      "kuto": 1963,
      "##chi": 1964,
      "sa": 1965,
      "YA": 1966,
      "20": 1967,
      "##isha": 1968,
      "##cha": 1969,
      "si": 1970,
      "WA": 1971,
      "##wan": 1972,
      "##pa": 1973,
      "Ki": 1974,
      "aki": 1975,
      "##end": 1976,
      "##vyo": 1977,
      "Ku": 1978,
      "##kuu": 1979,
      "##bo": 1980,
      "##bi": 1981,
      "##eo": 1982,
      "201": 1983,
      "##fanya": 1984,
      "##dha": 1985,
      "wali": 1986,
      "kwenye": 1987,
      "##ung": 1988,
      "Ha": 1989,
      "hiyo": 1990,
      "##ania": 1991,
      "##ungu": 1992,
      "ba": 1993,
      "##su": 1994,
      "tu": 1995,
      "##fi": 1996,
      "##kati": 1997,
      "mwa": 1998,
      "##ze": 1999,
      "##dhi": 2000,
      "ame": 2001,
      "##isi": 2002,
      "kama": 2003,
      "##ro": 2004,
      "##mi": 2005,
      "##anz": 2006,
      "##anga": 2007,
      "##WA": 2008,
      "##ongo": 2009,
      "##anzania": 2010,
      "##eng": 2011,
      "mw": 2012,
      "baa": 2013,
      "##ai": 2014,
      "##che": 2015,
      "##uni": 2016,
      "##du": 2017,
      "ina": 2018,
      "MA": 2019,
      "##oni": 2020,
      "##ine": 2021,
      "##LI": 2022,
      "##ote": 2023,
      "##amu": 2024,
      "##je": 2025,
      "vya": 2026,
      "Ra": 2027,
      "mu": 2028,
      "##HA": 2029,
      "##endele": 2030,
      "##kana": 2031,
      "##idi": 2032,
      "##ho": 2033,
      "##vu": 2034,
      "Se": 2035,
      "##cho": 2036,
      "##ria": 2037,
      "##tum": 2038,
      "ana": 2039,
      "##atu": 2040,
      "##bari": 2041,
      "se": 2042,
      "##anda": 2043,
      "##kiwa": 2044,
      "yake": 2045,
      "Tanzania": 2046,
      "##rikali": 2047,
      "##bwa": 2048,
      "##lia": 2049,
      "##enda": 2050,
      "##ingi": 2051,
      "##bali": 2052,
      "ny": 2053,
      "##isa": 2054,
      "##ar": 2055,
      "watu": 2056,
      "##ishi": 2057,
      "baada": 2058,
      "##de": 2059,
      "##fun": 2060,
      "##KA": 2061,
      "##riki": 2062,
      "mwaka": 2063,
      "wan": 2064,
      "KU": 2065,
      "##kini": 2066,
      "##weza": 2067,
      "Sa": 2068,
      "Rais": 2069,
      "##ami": 2070,
      "zaidi": 2071,
      "wakati": 2072,
      "uli": 2073,
      "##chini": 2074,
      "kup": 2075,
      "##ambo": 2076,
      "kutoka": 2077,
      "##uri": 2078,
      "ta": 2079,
      "##moja": 2080,
      "##taka": 2081,
      "##ila": 2082,
      "##etu": 2083,
      "una": 2084,
      "Mkuu": 2085,
      "kwamba": 2086,
      "##be": 2087,
      "##anza": 2088,
      "##mo": 2089,
      "##sili": 2090,
      "##ziri": 2091,
      "nchini": 2092,
      "##jini": 2093,
      "##RI": 2094,
      "##eni": 2095,
      "wake": 2096,
      "Kati": 2097,
      "##ato": 2098,
      "hii": 2099,
      "##mbe": 2100,
      "##yi": 2101,
      "NA": 2102,
      "Ba": 2103,
      "ime": 2104,
      "Mw": 2105,
      "##amoja": 2106,
      "##ang": 2107,
      "Na": 2108,
      "ju": 2109,
      "Kwa": 2110,
      "moja": 2111,
      "huo": 2112,
      "Af": 2113,
      "au": 2114,
      "Mi": 2115,
      "Mu": 2116,
      "##pe": 2117,
      "Ka": 2118,
      "##vi": 2119,
      "##enzi": 2120,
      "##mbo": 2121,
      "##liwa": 2122,
      "##MA": 2123,
      "nchi": 2124,
      "ji": 2125,
      "##IN": 2126,
      "pamoja": 2127,
      "##anzi": 2128,
      "siku": 2129,
      "##ongozi": 2130,
      "##IS": 2131,
      "##husu": 2132,
      "sana": 2133,
      "##TA": 2134,
      "##unge": 2135,
      "Waziri": 2136,
      "li": 2137,
      "mbali": 2138,
      "##ume": 2139,
      "##jili": 2140,
      "##una": 2141,
      "##BA": 2142,
      "##ifa": 2143,
      "##pin": 2144,
      "##onge": 2145,
      "##ona": 2146,
      "wame": 2147,
      "ra": 2148,
      "kazi": 2149,
      "ch": 2150,
      "hilo": 2151,
      "##umi": 2152,
      "##gi": 2153,
      "##koa": 2154,
      "##ZI": 2155,
      "hivyo": 2156,
      "##angu": 2157,
      "##TO": 2158,
      "##kut": 2159,
      "##kea": 2160,
      "##kia": 2161,
      "##TI": 2162,
      "HA": 2163,
      "sasa": 2164,
      "zi": 2165,
      "##sho": 2166,
      "##YA": 2167,
      "##zung": 2168,
      "##so": 2169,
      "##and": 2170,
      "##zungum": 2171,
      "##dani": 2172,
      "##zaji": 2173,
      "weng": 2174,
      "##shin": 2175,
      "Vi": 2176,
      "Dar": 2177,
      "kila": 2178,
      "kum": 2179,
      "leo": 2180,
      "Si": 2181,
      "pia": 2182,
      "##anchi": 2183,
      "##zwa": 2184,
      "ndi": 2185,
      "##pan": 2186,
      "##ingine": 2187,
      "habari": 2188,
      "##umu": 2189,
      "mara": 2190,
      "uta": 2191,
      "huu": 2192,
      "mb": 2193,
      "##ish": 2194,
      "kuji": 2195,
      "lakini": 2196,
      "Serikali": 2197,
      "alisema": 2198,
      "ambayo": 2199,
      "juu": 2200,
      "mat": 2201,
      "##laam": 2202,
      "##EN": 2203,
      "##lin": 2204,
      "Mungu": 2205,
      "##dili": 2206,
      "kupi": 2207,
      "##endelea": 2208,
      "##dia": 2209,
      "##RA": 2210,
      "Dk": 2211,
      "##iaka": 2212,
      "##aifa": 2213,
      "es": 2214,
      "walio": 2215,
      "##uku": 2216,
      "waki": 2217,
      "##amii": 2218,
      "Mhe": 2219,
      "##KU": 2220,
      "Cha": 2221,
      "##kubwa": 2222,
      "##limu": 2223,
      "##shiriki": 2224,
      "iliyo": 2225,
      "hata": 2226,
      "##kwa": 2227,
      "##IA": 2228,
      "##pya": 2229,
      "##toa": 2230,
      "##lu": 2231,
      "##pita": 2232,
      "kufanya": 2233,
      "##jia": 2234,
      "##DA": 2235,
      "##fanyi": 2236,
      "Ni": 2237,
      "##babu": 2238,
      "##kio": 2239,
      "##HI": 2240,
      "##isho": 2241,
      "##one": 2242,
      "##UN": 2243,
      "hali": 2244,
      "##00": 2245,
      "##tumia": 2246,
      "##rifa": 2247,
      "##toto": 2248,
      "##al": 2249,
      "##tia": 2250,
      "##heria": 2251,
      "taa": 2252,
      "kam": 2253,
      "zina": 2254,
      "##ataifa": 2255,
      "##bia": 2256,
      "Afrika": 2257,
      "Ali": 2258,
      "##chezo": 2259,
      "mmoja": 2260,
      "##mbali": 2261,
      "ambao": 2262,
      "##uli": 2263,
      "##chagu": 2264,
      "##shwa": 2265,
      "hayo": 2266,
      "mtu": 2267,
      "##hidi": 2268,
      "kuhusu": 2269,
      "##mani": 2270,
      "##zuri": 2271,
      "kab": 2272,
      "##wi": 2273,
      "yao": 2274,
      "##pata": 2275,
      "kui": 2276,
      "miaka": 2277,
      "ajili": 2278,
      "Mo": 2279,
      "serikali": 2280,
      "##kon": 2281,
      "KA": 2282,
      "mbalimbali": 2283,
      "ume": 2284,
      "KI": 2285,
      "ulio": 2286,
      "##ene": 2287,
      "to": 2288,
      "wananchi": 2289,
      "##icha": 2290,
      "##ZA": 2291,
      "##ne": 2292,
      "##kuru": 2293,
      "Mwenye": 2294,
      "Hi": 2295,
      "##amo": 2296,
      "Salaam": 2297,
      "an": 2298,
      "##shara": 2299,
      "shu": 2300,
      "##KI": 2301,
      "##weli": 2302,
      "##kani": 2303,
      "##shu": 2304,
      "Wi": 2305,
      "wi": 2306,
      "Jo": 2307,
      "##kili": 2308,
      "##fanyika": 2309,
      "ndani": 2310,
      "##kam": 2311,
      "##CM": 2312,
      "##weze": 2313,
      "wao": 2314,
      "kubwa": 2315,
      "Kam": 2316,
      "##edha": 2317,
      "##engo": 2318,
      "huyo": 2319,
      "Ta": 2320,
      "Po": 2321,
      "##endeleo": 2322,
      "##bar": 2323,
      "zili": 2324,
      "kwanza": 2325,
      "hapa": 2326,
      "kut": 2327,
      "##sim": 2328,
      "KWA": 2329,
      "##kutano": 2330,
      "##mbu": 2331,
      "in": 2332,
      "yana": 2333,
      "uj": 2334,
      "##kazi": 2335,
      "sababu": 2336,
      "##hemu": 2337,
      "##husi": 2338,
      "2018": 2339,
      "CCM": 2340,
      "##KE": 2341,
      "##atua": 2342,
      "##umba": 2343,
      "##ilaya": 2344,
      "##duma": 2345,
      "##ende": 2346,
      "##kiti": 2347,
      "##ON": 2348,
      "##gha": 2349,
      "ti": 2350,
      "en": 2351,
      "##mbi": 2352,
      "wenye": 2353,
      "Habari": 2354,
      "kuna": 2355,
      "tuna": 2356,
      "ambaye": 2357,
      "mwan": 2358,
      "da": 2359,
      "##wezi": 2360,
      "muda": 2361,
      "Katika": 2362,
      "wote": 2363,
      "##zungumza": 2364,
      "##sia": 2365,
      "##taji": 2366,
      "kuli": 2367,
      "yali": 2368,
      "##ANA": 2369,
      "yako": 2370,
      "##endo": 2371,
      "##uma": 2372,
      "TA": 2373,
      "##sisi": 2374,
      "ZA": 2375,
      "kutoa": 2376,
      "hawa": 2377,
      "##TU": 2378,
      "Mwa": 2379,
      "##sta": 2380,
      "##ham": 2381,
      "##uala": 2382,
      "##chuku": 2383,
      "##PA": 2384,
      "##LA": 2385,
      "##ce": 2386,
      "wanao": 2387,
      "##st": 2388,
      "CHA": 2389,
      "pe": 2390,
      "##shauri": 2391,
      "mambo": 2392,
      "po": 2393,
      "nje": 2394,
      "aliye": 2395,
      "ambapo": 2396,
      "Je": 2397,
      "##fiki": 2398,
      "Ya": 2399,
      "##chaguzi": 2400,
      "kun": 2401,
      "mwenye": 2402,
      "maa": 2403,
      "kupata": 2404,
      "##lewa": 2405,
      "hao": 2406,
      "wata": 2407,
      "##FA": 2408,
      "##jua": 2409,
      "##uti": 2410,
      "##anzibar": 2411,
      "##lisi": 2412,
      "kitu": 2413,
      "##huri": 2414,
      "maji": 2415,
      "Taifa": 2416,
      "hizo": 2417,
      "##ungano": 2418,
      "##lama": 2419,
      "akiwa": 2420,
      "##himu": 2421,
      "maisha": 2422,
      "##SI": 2423,
      "taarifa": 2424,
      "##KO": 2425,
      "jijini": 2426,
      "wengi": 2427,
      "##MB": 2428,
      "##umo": 2429,
      "Zanzibar": 2430,
      "##ishwa": 2431,
      "bo": 2432,
      "La": 2433,
      "##DI": 2434,
      "##JI": 2435,
      "##bunge": 2436,
      "##dogo": 2437,
      "##GA": 2438,
      "##MU": 2439,
      "##swa": 2440,
      "fu": 2441,
      "##zima": 2442,
      "yetu": 2443,
      "hadi": 2444,
      "Dkt": 2445,
      "##wanja": 2446,
      "##ongeza": 2447,
      "Mwan": 2448,
      "##fasi": 2449,
      "amesema": 2450,
      "##el": 2451,
      "19": 2452,
      "kutokana": 2453,
      "##umbe": 2454,
      "2017": 2455,
      "ita": 2456,
      "##jana": 2457,
      "kupitia": 2458,
      "##yu": 2459,
      "##onye": 2460,
      "haki": 2461,
      "##zara": 2462,
      "##badili": 2463,
      "##kata": 2464,
      "##ondo": 2465,
      "Jam": 2466,
      "##funzi": 2467,
      "##om": 2468,
      "##haki": 2469,
      "##SA": 2470,
      "##ANI": 2471,
      "##wahi": 2472,
      "huduma": 2473,
      "##ribu": 2474,
      "##ate": 2475,
      "##iasa": 2476,
      "##rehe": 2477,
      "##pango": 2478,
      "uwe": 2479,
      "chini": 2480,
      "##atia": 2481,
      "##GU": 2482,
      "##tanda": 2483,
      "dhidi": 2484,
      "hatua": 2485,
      "kuu": 2486,
      "##ambu": 2487,
      "zao": 2488,
      "nafasi": 2489,
      "bila": 2490,
      "kili": 2491,
      "##unga": 2492,
      "##genzi": 2493,
      "inayo": 2494,
      "usa": 2495,
      "Mwenyekiti": 2496,
      "um": 2497,
      "mpya": 2498,
      "##puni": 2499,
      "viongozi": 2500,
      "##weka": 2501,
      "mada": 2502,
      "LA": 2503,
      "kis": 2504,
      "fedha": 2505,
      "Ji": 2506,
      "##omba": 2507,
      "ke": 2508,
      "Muungano": 2509,
      "##ilioni": 2510,
      "##ve": 2511,
      "maana": 2512,
      "baadhi": 2513,
      "Mare": 2514,
      "##fisi": 2515,
      "##miwa": 2516,
      "Magu": 2517,
      "##fuli": 2518,
      "hivi": 2519,
      "hicho": 2520,
      "wetu": 2521,
      "hili": 2522,
      "##uzi": 2523,
      "##amb": 2524,
      "##wasili": 2525,
      "##kta": 2526,
      "##rib": 2527,
      "Bara": 2528,
      "##kurugenzi": 2529,
      "##yote": 2530,
      "##jwa": 2531,
      "watoto": 2532,
      "chama": 2533,
      "##andi": 2534,
      "lili": 2535,
      "Me": 2536,
      "##gon": 2537,
      "meng": 2538,
      "##atizo": 2539,
      "##jibu": 2540,
      "un": 2541,
      "huku": 2542,
      "##or": 2543,
      "##fungu": 2544,
      "Maka": 2545,
      "##san": 2546,
      "aka": 2547,
      "Magufuli": 2548,
      "Nai": 2549,
      "eneo": 2550,
      "##hitaji": 2551,
      "##radi": 2552,
      "##enga": 2553,
      "lina": 2554,
      "##idia": 2555,
      "##wala": 2556,
      "Li": 2557,
      "##ena": 2558,
      "Jamhuri": 2559,
      "pa": 2560,
      "we": 2561,
      "##unia": 2562,
      "##kisha": 2563,
      "jambo": 2564,
      "zilizo": 2565,
      "##haka": 2566,
      "mkuu": 2567,
      "##pindi": 2568,
      "##futa": 2569,
      "Mkoa": 2570,
      "jana": 2571,
      "##it": 2572,
      "Bw": 2573,
      "njia": 2574,
      "##iashara": 2575,
      "##dhaa": 2576,
      "##fani": 2577,
      "hapo": 2578,
      "kina": 2579,
      "##ter": 2580,
      "me": 2581,
      "Bi": 2582,
      "##HU": 2583,
      "wengine": 2584,
      "zote": 2585,
      "##koani": 2586,
      "Ja": 2587,
      "##shimiwa": 2588,
      "##zu": 2589,
      "ko": 2590,
      "Ye": 2591,
      "10": 2592,
      "##ris": 2593,
      "##LE": 2594,
      "ye": 2595,
      "##wili": 2596,
      "##duzi": 2597,
      "##eno": 2598,
      "##shind": 2599,
      "##lamu": 2600,
      "##amba": 2601,
      "##ilia": 2602,
      "Umoja": 2603,
      "iki": 2604,
      "Do": 2605,
      "##ane": 2606,
      "Katibu": 2607,
      "##INI": 2608,
      "Ko": 2609,
      "Marekani": 2610,
      "ms": 2611,
      "##eneo": 2612,
      "kuku": 2613,
      "shi": 2614,
      "timu": 2615,
      "##saidia": 2616,
      "##ong": 2617,
      "kabla": 2618,
      "Wizara": 2619,
      "zake": 2620,
      "sehemu": 2621,
      "Shi": 2622,
      "##risha": 2623,
      "haku": 2624,
      "Hu": 2625,
      "kweli": 2626,
      "Joh": 2627,
      "Ken": 2628,
      "Masha": 2629,
      "Baa": 2630,
      "##inga": 2631,
      "mo": 2632,
      "##ghu": 2633,
      "##amini": 2634,
      "alikuwa": 2635,
      "map": 2636,
      "mkutano": 2637,
      "Al": 2638,
      "Kis": 2639,
      "##kele": 2640,
      "Pa": 2641,
      "##penda": 2642,
      "##andishi": 2643,
      "##yama": 2644,
      "he": 2645,
      "Bo": 2646,
      "bara": 2647,
      "kutumia": 2648,
      "##mataifa": 2649,
      "hai": 2650,
      "haya": 2651,
      "John": 2652,
      "sheria": 2653,
      "ngu": 2654,
      "uchaguzi": 2655,
      "wat": 2656,
      "ho": 2657,
      "##keo": 2658,
      "picha": 2659,
      "Mkurugenzi": 2660,
      "##atukio": 2661,
      "##pu": 2662,
      "##ghuli": 2663,
      "##mali": 2664,
      "##wani": 2665,
      "ndio": 2666,
      "##JA": 2667,
      "ut": 2668,
      "mjini": 2669,
      "##pati": 2670,
      "##hari": 2671,
      "kia": 2672,
      "##faa": 2673,
      "Mheshimiwa": 2674,
      "##damu": 2675,
      "zinazo": 2676,
      "ata": 2677,
      "##tumi": 2678,
      "maeneo": 2679,
      "uku": 2680,
      "alipo": 2681,
      "jamii": 2682,
      "yote": 2683,
      "muhimu": 2684,
      "##tandao": 2685,
      "Taa": 2686,
      "ikiwa": 2687,
      "##chumi": 2688,
      "mas": 2689,
      "kute": 2690,
      "mchezo": 2691,
      "SA": 2692,
      "fa": 2693,
      "mwana": 2694,
      "RA": 2695,
      "nyingine": 2696,
      "##TE": 2697,
      "In": 2698,
      "##kwe": 2699,
      "##HE": 2700,
      "##fisa": 2701,
      "Man": 2702,
      "##GO": 2703,
      "##ran": 2704,
      "Ho": 2705,
      "mkon": 2706,
      "##ezi": 2707,
      "maj": 2708,
      "##mbea": 2709,
      "bora": 2710,
      "Wilaya": 2711,
      "##rasa": 2712,
      "200": 2713,
      "simu": 2714,
      "##bara": 2715,
      "kuta": 2716,
      "yaliyo": 2717,
      "elimu": 2718,
      "kufu": 2719,
      "##paka": 2720,
      "asili": 2721,
      "Naibu": 2722,
      "nyingi": 2723,
      "##fsi": 2724,
      "##dai": 2725,
      "##mia": 2726,
      "Ch": 2727,
      "##FU": 2728,
      "##endaji": 2729,
      "##umb": 2730,
      "##wanda": 2731,
      "##uniani": 2732,
      "An": 2733,
      "##DE": 2734,
      "##angaza": 2735,
      "kua": 2736,
      "De": 2737,
      "Re": 2738,
      "##MI": 2739,
      "##pande": 2740,
      "mbili": 2741,
      "##inge": 2742,
      "##ingia": 2743,
      "maendeleo": 2744,
      "##yari": 2745,
      "##fauti": 2746,
      "wasi": 2747,
      "mkubwa": 2748,
      "Wana": 2749,
      "##vuti": 2750,
      "##lma": 2751,
      "masha": 2752,
      "##fumo": 2753,
      "##hani": 2754,
      "bina": 2755,
      "Mt": 2756,
      "##ywa": 2757,
      "##fya": 2758,
      "nini": 2759,
      "Bunge": 2760,
      "##va": 2761,
      "maka": 2762,
      "so": 2763,
      "pili": 2764,
      "MW": 2765,
      "BA": 2766,
      "kuka": 2767,
      "##zeti": 2768,
      "lime": 2769,
      "##gonjwa": 2770,
      "##amia": 2771,
      "Su": 2772,
      "man": 2773,
      "##huru": 2774,
      "##kun": 2775,
      "kipindi": 2776,
      "hasa": 2777,
      "##chukua": 2778,
      "##wali": 2779,
      "Tu": 2780,
      "##atokeo": 2781,
      "taifa": 2782,
      "##umizi": 2783,
      "shule": 2784,
      "wako": 2785,
      "yenye": 2786,
      "##baya": 2787,
      "kwani": 2788,
      "kita": 2789,
      "bado": 2790,
      "##sini": 2791,
      "kabisa": 2792,
      "TAN": 2793,
      "tena": 2794,
      "##ni": 2795,
      "KATI": 2796,
      "##atibu": 2797,
      "yangu": 2798,
      "##IC": 2799,
      "dha": 2800,
      "##huo": 2801,
      "##wake": 2802,
      "Ju": 2803,
      "##fikia": 2804,
      "##insi": 2805,
      "Jum": 2806,
      "Fa": 2807,
      "##onyesha": 2808,
      "##pika": 2809,
      "Kenya": 2810,
      "##wahili": 2811,
      "usi": 2812,
      "##fika": 2813,
      "##chang": 2814,
      "##kari": 2815,
      "##soma": 2816,
      "biashara": 2817,
      "kwenda": 2818,
      "##kubali": 2819,
      "##zin": 2820,
      "##dala": 2821,
      "000": 2822,
      "Da": 2823,
      "##amuzi": 2824,
      "ambazo": 2825,
      "##enge": 2826,
      "##olo": 2827,
      "##zingi": 2828,
      "kuanzi": 2829,
      "##ry": 2830,
      "##ju": 2831,
      "vile": 2832,
      "kura": 2833,
      "##bili": 2834,
      "##man": 2835,
      "up": 2836,
      "DA": 2837,
      "Chama": 2838,
      "##shoto": 2839,
      "##zazi": 2840,
      "mwisho": 2841,
      "upande": 2842,
      "vijana": 2843,
      "##keza": 2844,
      "wewe": 2845,
      "##lmashauri": 2846,
      "##YE": 2847,
      "HAPA": 2848,
      "mwezi": 2849,
      "##zia": 2850,
      "##zingira": 2851,
      "mbele": 2852,
      "##chezaji": 2853,
      "Hata": 2854,
      "uwezo": 2855,
      "wanafunzi": 2856,
      "2016": 2857,
      "12": 2858,
      "nguvu": 2859,
      "##rt": 2860,
      "mkoani": 2861,
      "##eleza": 2862,
      "je": 2863,
      "nili": 2864,
      "##amani": 2865,
      "Kuu": 2866,
      "##lozi": 2867,
      "Aki": 2868,
      "akizungumza": 2869,
      "##zani": 2870,
      "##rum": 2871,
      "##RE": 2872,
      "yanayo": 2873,
      "Ofisi": 2874,
      "nam": 2875,
      "##ME": 2876,
      "vita": 2877,
      "kusa": 2878,
      "##onekana": 2879,
      "##raka": 2880,
      "##zee": 2881,
      "kiasi": 2882,
      "wale": 2883,
      "aina": 2884,
      "##YO": 2885,
      "##yombo": 2886,
      "##elea": 2887,
      "##hakikisha": 2888,
      "So": 2889,
      "##reza": 2890,
      "##ZO": 2891,
      "zime": 2892,
      "Pro": 2893,
      "##rani": 2894,
      "uki": 2895,
      "##shindi": 2896,
      "##tolewa": 2897,
      "##yan": 2898,
      "Bu": 2899,
      "##smi": 2900,
      "mkoa": 2901,
      "VI": 2902,
      "tayari": 2903,
      "Lakini": 2904,
      "##rs": 2905,
      "ndo": 2906,
      "wakiwa": 2907,
      "##kula": 2908,
      "Jamii": 2909,
      "msi": 2910,
      "tofauti": 2911,
      "Una": 2912,
      "tarehe": 2913,
      "Nchi": 2914,
      "wiki": 2915,
      "##wai": 2916,
      "tatu": 2917,
      "kuj": 2918,
      "afya": 2919,
      "##dugu": 2920,
      "Ru": 2921,
      "##fadhi": 2922,
      "Kama": 2923,
      "Ro": 2924,
      "##pote": 2925,
      "15": 2926,
      "Alisema": 2927,
      "basi": 2928,
      "Wat": 2929,
      "##es": 2930,
      "##thi": 2931,
      "Maendeleo": 2932,
      "##lisha": 2933,
      "msingi": 2934,
      "duniani": 2935,
      "##TOKE": 2936,
      "gani": 2937,
      "##jumbe": 2938,
      "##doma": 2939,
      "MKU": 2940,
      "matumizi": 2941,
      "Polisi": 2942,
      "##amad": 2943,
      "Mashariki": 2944,
      "kushiriki": 2945,
      "ga": 2946,
      "Uta": 2947,
      "##funzo": 2948,
      "zia": 2949,
      "##kutana": 2950,
      "##tisha": 2951,
      "##angazo": 2952,
      "kuja": 2953,
      "Ti": 2954,
      "yeye": 2955,
      "Ai": 2956,
      "##wasiliano": 2957,
      "##dege": 2958,
      "Dodoma": 2959,
      "##laka": 2960,
      "##patikana": 2961,
      "saa": 2962,
      "MI": 2963,
      "##MBA": 2964,
      "##kiliza": 2965,
      "##hali": 2966,
      "##hakama": 2967,
      "namna": 2968,
      "##bisha": 2969,
      "Lu": 2970,
      "##pinduzi": 2971,
      "##ck": 2972,
      "mtoto": 2973,
      "##spita": 2974,
      "##tokea": 2975,
      "hizi": 2976,
      "wilaya": 2977,
      "##elezo": 2978,
      "##wemo": 2979,
      "mpaka": 2980,
      "##SHA": 2981,
      "##rua": 2982,
      "suala": 2983,
      "uliopita": 2984,
      "huko": 2985,
      "##kao": 2986,
      "jina": 2987,
      "kule": 2988,
      "bu": 2989,
      "##dio": 2990,
      "Pe": 2991,
      "mimi": 2992,
      "Mataifa": 2993,
      "yame": 2994,
      "kampuni": 2995,
      "##kwete": 2996,
      "##geni": 2997,
      "sha": 2998,
      "hakuna": 2999,
      "bi": 3000,
      "11": 3001,
      "##tumishi": 3002,
      "##enki": 3003,
      "##lla": 3004,
      "kan": 3005,
      "##wango": 3006,
      "##risto": 3007,
      "tume": 3008,
      "Hii": 3009,
      "##WE": 3010,
      "##fo": 3011,
      "##pokea": 3012,
      "mali": 3013,
      "msa": 3014,
      "Sh": 3015,
      "dunia": 3016,
      "##chu": 3017,
      "##umla": 3018,
      "##enu": 3019,
      "##kumbu": 3020,
      "##chana": 3021,
      "Baraza": 3022,
      "##refu": 3023,
      "##amlaka": 3024,
      "##sani": 3025,
      "Kikwete": 3026,
      "##rahi": 3027,
      "##umbani": 3028,
      "##ango": 3029,
      "Yesu": 3030,
      "##chungu": 3031,
      "##RU": 3032,
      "##fano": 3033,
      "##piga": 3034,
      "##ei": 3035,
      "##she": 3036,
      "##labu": 3037,
      "vizuri": 3038,
      "##BU": 3039,
      "kushoto": 3040,
      "##rufu": 3041,
      "kuhakikisha": 3042,
      "SI": 3043,
      "##cheza": 3044,
      "KATIKA": 3045,
      "##jiji": 3046,
      "##gombea": 3047,
      "vitu": 3048,
      "##kosa": 3049,
      "yo": 3050,
      "##TOKEO": 3051,
      "MATOKEO": 3052,
      "##waida": 3053,
      "Kan": 3054,
      "##shindwa": 3055,
      "##husiano": 3056,
      "##kee": 3057,
      "##BARI": 3058,
      "lazima": 3059,
      "milioni": 3060,
      "##MO": 3061,
      "18": 3062,
      "Picha": 3063,
      "asilimia": 3064,
      "nyumba": 3065,
      "polisi": 3066,
      "wanawake": 3067,
      "##poti": 3068,
      "anaye": 3069,
      "rasmi": 3070,
      "Matukio": 3071,
      "##ond": 3072,
      "##badiliko": 3073,
      "##fanyakazi": 3074,
      "##amoto": 3075,
      "##ILI": 3076,
      "shughuli": 3077,
      "##elekea": 3078,
      "##ribuni": 3079,
      "##th": 3080,
      "sio": 3081,
      "kusema": 3082,
      "##lani": 3083,
      "kulia": 3084,
      "##raji": 3085,
      "##toka": 3086,
      "Spika": 3087,
      "14": 3088,
      "HABARI": 3089,
      "unao": 3090,
      "Mbunge": 3091,
      "ndiyo": 3092,
      "##ANIA": 3093,
      "##kweli": 3094,
      "##er": 3095,
      "##amilia": 3096,
      "mama": 3097,
      "##lizi": 3098,
      "##mea": 3099,
      "Mambo": 3100,
      "Baada": 3101,
      "tangu": 3102,
      "##rsa": 3103,
      "Mat": 3104,
      "RAIS": 3105,
      "ambalo": 3106,
      "mujibu": 3107,
      "tatizo": 3108,
      "jinsi": 3109,
      "karibu": 3110,
      "##pinzani": 3111,
      "ujenzi": 3112,
      "##pig": 3113,
      "kawaida": 3114,
      "rais": 3115,
      "##kamili": 3116,
      "##chama": 3117,
      "Afya": 3118,
      "##amke": 3119,
      "##faha": 3120,
      "##uaji": 3121,
      "wala": 3122,
      "##ZANIA": 3123,
      "##hud": 3124,
      "Ame": 3125,
      "##rusha": 3126,
      "mengi": 3127,
      "Kusini": 3128,
      "##dadi": 3129,
      "mkono": 3130,
      "waandishi": 3131,
      "2015": 3132,
      "Makamu": 3133,
      "gha": 3134,
      "##dini": 3135,
      "vyombo": 3136,
      "##dau": 3137,
      "##spitali": 3138,
      "##taa": 3139,
      "waka": 3140,
      "##kw": 3141,
      "##wepo": 3142,
      "ilikuwa": 3143,
      "kusi": 3144,
      "##mbelea": 3145,
      "##GE": 3146,
      "##PO": 3147,
      "wazi": 3148,
      "maal": 3149,
      "matokeo": 3150,
      "vit": 3151,
      "kwake": 3152,
      "ute": 3153,
      "##goro": 3154,
      "##amua": 3155,
      "##dhali": 3156,
      "nime": 3157,
      "Halmashauri": 3158,
      "##jiri": 3159,
      "Ne": 3160,
      "##zini": 3161,
      "uka": 3162,
      "mengine": 3163,
      "mazingira": 3164,
      "##co": 3165,
      "SE": 3166,
      "com": 3167,
      "##inu": 3168,
      "Kamati": 3169,
      "kuanza": 3170,
      "##angamoto": 3171,
      "##zea": 3172,
      "##TAN": 3173,
      "kuendelea": 3174,
      "##gumu": 3175,
      "##biki": 3176,
      "Di": 3177,
      "karibuni": 3178,
      "##HO": 3179,
      "yu": 3180,
      "##ataka": 3181,
      "##ratibu": 3182,
      "lengo": 3183,
      "Simba": 3184,
      "##us": 3185,
      "##fiti": 3186,
      "kuongeza": 3187,
      "##kundi": 3188,
      "##ongoza": 3189,
      "##kataba": 3190,
      "kij": 3191,
      "##wana": 3192,
      "She": 3193,
      "##fungua": 3194,
      "##funga": 3195,
      "Mapinduzi": 3196,
      "Jeshi": 3197,
      "25": 3198,
      "##ingereza": 3199,
      "##anisha": 3200,
      "nyumbani": 3201,
      "##lim": 3202,
      "##ziki": 3203,
      "masuala": 3204,
      "##sisha": 3205,
      "mfumo": 3206,
      "##kua": 3207,
      "kin": 3208,
      "fi": 3209,
      "##kra": 3210,
      "##engene": 3211,
      "##ada": 3212,
      "##amizi": 3213,
      "##EO": 3214,
      "##toria": 3215,
      "##lii": 3216,
      "mji": 3217,
      "##ll": 3218,
      "Haki": 3219,
      "To": 3220,
      "HI": 3221,
      "kiu": 3222,
      "mechi": 3223,
      "Pombe": 3224,
      "##und": 3225,
      "maga": 3226,
      "kilicho": 3227,
      "Te": 3228,
      "su": 3229,
      "##NA": 3230,
      "amani": 3231,
      "##log": 3232,
      "##angalia": 3233,
      "sisi": 3234,
      "16": 3235,
      "wangu": 3236,
      "##laya": 3237,
      "ziara": 3238,
      "mawa": 3239,
      "usalama": 3240,
      "kimataifa": 3241,
      "##islamu": 3242,
      "##indi": 3243,
      "##ES": 3244,
      "##umia": 3245,
      "##mwa": 3246,
      "##bore": 3247,
      "##shirikiano": 3248,
      "##iliki": 3249,
      "Chuo": 3250,
      "##DO": 3251,
      "Kiswahili": 3252,
      "Kas": 3253,
      "Tume": 3254,
      "mwingine": 3255,
      "umri": 3256,
      "tuli": 3257,
      "##fung": 3258,
      "Kili": 3259,
      "re": 3260,
      "We": 3261,
      "Mwana": 3262,
      "kit": 3263,
      "Taarifa": 3264,
      "kuzi": 3265,
      "do": 3266,
      "Shirika": 3267,
      "##fuata": 3268,
      "##LO": 3269,
      "fursa": 3270,
      "13": 3271,
      "mradi": 3272,
      "lililo": 3273,
      "##deo": 3274,
      "##rumani": 3275,
      "kutu": 3276,
      "Leo": 3277,
      "Mh": 3278,
      "changamoto": 3279,
      "##jerumani": 3280,
      "Ufa": 3281,
      "mpango": 3282,
      "Maa": 3283,
      "##ongoni": 3284,
      "##bidhi": 3285,
      "##ambia": 3286,
      "NI": 3287,
      "##unda": 3288,
      "nzuri": 3289,
      "##rdhi": 3290,
      "kuona": 3291,
      "sekta": 3292,
      "##med": 3293,
      "kuanzia": 3294,
      "##biti": 3295,
      "yoyote": 3296,
      "##FUN": 3297,
      "##wezesha": 3298,
      "##ent": 3299,
      "Ga": 3300,
      "Watu": 3301,
      "Wakati": 3302,
      "##kuja": 3303,
      "his": 3304,
      "##BC": 3305,
      "##mini": 3306,
      "co": 3307,
      "##babisha": 3308,
      "##lima": 3309,
      "50": 3310,
      "##zing": 3311,
      "mafunzo": 3312,
      "sawa": 3313,
      "##staa": 3314,
      "Prof": 3315,
      "##lea": 3316,
      "##dishi": 3317,
      "makubwa": 3318,
      "##shinda": 3319,
      "unaweza": 3320,
      "##enza": 3321,
      "##IFA": 3322,
      "Wan": 3323,
      "ndege": 3324,
      "No": 3325,
      "michezo": 3326,
      "Arusha": 3327,
      "Balozi": 3328,
      "Elimu": 3329,
      "##guzi": 3330,
      "zetu": 3331,
      "##konda": 3332,
      "##shirika": 3333,
      "##paswa": 3334,
      "mfano": 3335,
      "lu": 3336,
      "tukio": 3337,
      "hiki": 3338,
      "##ling": 3339,
      "familia": 3340,
      "maoni": 3341,
      "17": 3342,
      "pale": 3343,
      "Ny": 3344,
      "Co": 3345,
      "te": 3346,
      "lake": 3347,
      "siasa": 3348,
      "salaam": 3349,
      "##umbu": 3350,
      "Bwana": 3351,
      "30": 3352,
      "Ab": 3353,
      "ru": 3354,
      "Watanzania": 3355,
      "##rd": 3356,
      "##lingi": 3357,
      "Aidha": 3358,
      "##fari": 3359,
      "##ssa": 3360,
      "##changia": 3361,
      "##gr": 3362,
      "kuliko": 3363,
      "mn": 3364,
      "umma": 3365,
      "Pia": 3366,
      "mfu": 3367,
      "mit": 3368,
      "uchumi": 3369,
      "klabu": 3370,
      "Uhuru": 3371,
      "kuondo": 3372,
      "Ap": 3373,
      "##UA": 3374,
      "##andika": 3375,
      "aja": 3376,
      "walikuwa": 3377,
      "kituo": 3378,
      "maelezo": 3379,
      "##zungumzo": 3380,
      "##fanywa": 3381,
      "##peni": 3382,
      "En": 3383,
      "##penzi": 3384,
      "MKUU": 3385,
      "##rama": 3386,
      "vina": 3387,
      "##amaduni": 3388,
      "##kezaji": 3389,
      "nao": 3390,
      "##endesha": 3391,
      "TANZANIA": 3392,
      "LEO": 3393,
      "WI": 3394,
      "##biri": 3395,
      "##ICHA": 3396,
      "uongozi": 3397,
      "mwili": 3398,
      "Yanga": 3399,
      "Sera": 3400,
      "mwanamke": 3401,
      "##ame": 3402,
      "##rusi": 3403,
      "lugha": 3404,
      "##ingwa": 3405,
      "##GI": 3406,
      "mrefu": 3407,
      "##jira": 3408,
      "kuweka": 3409,
      "##dara": 3410,
      "uwanja": 3411,
      "mabadiliko": 3412,
      "##ongea": 3413,
      "##hudi": 3414,
      "Kimataifa": 3415,
      "taasisi": 3416,
      "kundi": 3417,
      "##tangaza": 3418,
      "bali": 3419,
      "Siku": 3420,
      "##ENYE": 3421,
      "mtandao": 3422,
      "kile": 3423,
      "WAZI": 3424,
      "Za": 3425,
      "HU": 3426,
      "##reje": 3427,
      "binafsi": 3428,
      "##pewa": 3429,
      "##andaa": 3430,
      "##rajiwa": 3431,
      "##fahamu": 3432,
      "kuwasili": 3433,
      "Juma": 3434,
      "##rudi": 3435,
      "MP": 3436,
      "##elewa": 3437,
      "##firi": 3438,
      "mta": 3439,
      "##biashara": 3440,
      "##tambu": 3441,
      "Ulaya": 3442,
      "Mwaka": 3443,
      "Sheria": 3444,
      "##sanii": 3445,
      "dawa": 3446,
      "##jeshi": 3447,
      "nina": 3448,
      "kiwango": 3449,
      "##iwa": 3450,
      "JA": 3451,
      "umeme": 3452,
      "##tokana": 3453,
      "mka": 3454,
      "huru": 3455,
      "Katiba": 3456,
      "zamani": 3457,
      "Mbe": 3458,
      "kuki": 3459,
      "ile": 3460,
      "KIDA": 3461,
      "vyama": 3462,
      "##fanikio": 3463,
      "##lai": 3464,
      "##kosi": 3465,
      "##umui": 3466,
      "nne": 3467,
      "##ribi": 3468,
      "on": 3469,
      "msaada": 3470,
      "tovuti": 3471,
      "##RIKA": 3472,
      "mis": 3473,
      "##amano": 3474,
      "##ph": 3475,
      "##boresha": 3476,
      "##ca": 3477,
      "wadau": 3478,
      "WAZIRI": 3479,
      "ukweli": 3480,
      "##vun": 3481,
      "MWA": 3482,
      "cho": 3483,
      "DW": 3484,
      "##disha": 3485,
      "##ragha": 3486,
      "##anua": 3487,
      "##hisi": 3488,
      "miongoni": 3489,
      "kula": 3490,
      "huwa": 3491,
      "##il": 3492,
      "sh": 3493,
      "##DHA": 3494,
      "humo": 3495,
      "##zalisha": 3496,
      "BO": 3497,
      "##hara": 3498,
      "kumu": 3499,
      "##atilia": 3500,
      "Uchaguzi": 3501,
      "##ungo": 3502,
      "Ligi": 3503,
      "##MBO": 3504,
      "nia": 3505,
      "sita": 3506,
      "##kilishi": 3507,
      "mke": 3508,
      "VYA": 3509,
      "mbaya": 3510,
      "kijamii": 3511,
      "##amaa": 3512,
      "##zama": 3513,
      "##unguza": 3514,
      "##fanikiwa": 3515,
      "##hama": 3516,
      "PICHA": 3517,
      "moyo": 3518,
      "##FAN": 3519,
      "Yo": 3520,
      "mazungumzo": 3521,
      "namba": 3522,
      "Mta": 3523,
      "Sep": 3524,
      "matatizo": 3525,
      "Mwanza": 3526,
      "##INA": 3527,
      "usiku": 3528,
      "##undi": 3529,
      "##sisiti": 3530,
      "##hiri": 3531,
      "idadi": 3532,
      "kadhaa": 3533,
      "##pokuwa": 3534,
      "kujenga": 3535,
      "ndoa": 3536,
      "Uwanja": 3537,
      "JU": 3538,
      "##husika": 3539,
      "##shukuru": 3540,
      "kikao": 3541,
      "##ss": 3542,
      "##twa": 3543,
      "ujumbe": 3544,
      "##NE": 3545,
      "He": 3546,
      "##keleza": 3547,
      "kiongozi": 3548,
      "##pele": 3549,
      "Usa": 3550,
      "Mawasiliano": 3551,
      "barabara": 3552,
      "##MBE": 3553,
      "##dhim": 3554,
      "NC": 3555,
      "mao": 3556,
      "kinacho": 3557,
      "##anyi": 3558,
      "ofisi": 3559,
      "Tuna": 3560,
      "##staafu": 3561,
      "##zuia": 3562,
      "##sti": 3563,
      "MB": 3564,
      "kufikia": 3565,
      "kisiasa": 3566,
      "##ts": 3567,
      "##atwa": 3568,
      "##engu": 3569,
      "##TAA": 3570,
      "bidhaa": 3571,
      "Baadhi": 3572,
      "##kika": 3573,
      "##ok": 3574,
      "maba": 3575,
      "##katifu": 3576,
      "##teja": 3577,
      "al": 3578,
      "##mw": 3579,
      "##rti": 3580,
      "##atoa": 3581,
      "##gh": 3582,
      "imani": 3583,
      "ilivyo": 3584,
      "Go": 3585,
      "##ISHA": 3586,
      "chakula": 3587,
      "maneno": 3588,
      "##rais": 3589,
      "KIDATO": 3590,
      "##ibu": 3591,
      "ja": 3592,
      "naye": 3593,
      "##kazini": 3594,
      "Um": 3595,
      "shilingi": 3596,
      "matangazo": 3597,
      "ndugu": 3598,
      "vili": 3599,
      "kesi": 3600,
      "TU": 3601,
      "##maliza": 3602,
      "wawili": 3603,
      "##takiwa": 3604,
      "##eb": 3605,
      "Michezo": 3606,
      "##son": 3607,
      "uko": 3608,
      "##jo": 3609,
      "##tumika": 3610,
      "ambacho": 3611,
      "muziki": 3612,
      "vye": 3613,
      "##hihi": 3614,
      "Maga": 3615,
      "Sha": 3616,
      "kuingia": 3617,
      "isi": 3618,
      "##umuiya": 3619,
      "Nye": 3620,
      "##zungumzia": 3621,
      "##gawa": 3622,
      "##ambana": 3623,
      "Un": 3624,
      "##itwa": 3625,
      "ri": 3626,
      "2012": 3627,
      "mt": 3628,
      "##dhibiti": 3629,
      "awa": 3630,
      "##ZE": 3631,
      "MU": 3632,
      "dini": 3633,
      "Ut": 3634,
      "Mkutano": 3635,
      "##dema": 3636,
      "tuta": 3637,
      "##zingatia": 3638,
      "Mahakama": 3639,
      "wabunge": 3640,
      "am": 3641,
      "Bar": 3642,
      "##tea": 3643,
      "##husiana": 3644,
      "MO": 3645,
      "kisa": 3646,
      "awali": 3647,
      "##eneja": 3648,
      "##kwenda": 3649,
      "Kuna": 3650,
      "##yani": 3651,
      "gharama": 3652,
      "##kn": 3653,
      "##fadhali": 3654,
      "2013": 3655,
      "huyu": 3656,
      "di": 3657,
      "##olojia": 3658,
      "##kabili": 3659,
      "mauaji": 3660,
      "pi": 3661,
      "Taasisi": 3662,
      "kujua": 3663,
      "mare": 3664,
      "##ld": 3665,
      "pekee": 3666,
      "##RO": 3667,
      "##swali": 3668,
      "uja": 3669,
      "21": 3670,
      "badala": 3671,
      "##ted": 3672,
      "##PI": 3673,
      "##kulu": 3674,
      "##undo": 3675,
      "##sisitiza": 3676,
      "mwenyewe": 3677,
      "JI": 3678,
      "bei": 3679,
      "Shu": 3680,
      "chake": 3681,
      "binadamu": 3682,
      "Uingereza": 3683,
      "##kopo": 3684,
      "##HINI": 3685,
      "##pira": 3686,
      "ila": 3687,
      "##fla": 3688,
      "Kazi": 3689,
      "Mwalimu": 3690,
      "##chunguzi": 3691,
      "##raha": 3692,
      "she": 3693,
      "tha": 3694,
      "akim": 3695,
      "Fedha": 3696,
      "##mokra": 3697,
      "Mb": 3698,
      "##ly": 3699,
      "wanachama": 3700,
      "##rea": 3701,
      "##rere": 3702,
      "23": 3703,
      "wafanyakazi": 3704,
      "##poteza": 3705,
      "nyuma": 3706,
      "##zinduzi": 3707,
      "##simamia": 3708,
      "maarufu": 3709,
      "nasi": 3710,
      "##fariki": 3711,
      "ukurasa": 3712,
      "pro": 3713,
      "iliyopita": 3714,
      "##ur": 3715,
      "Is": 3716,
      "##juli": 3717,
      "WANA": 3718,
      "wo": 3719,
      "##KT": 3720,
      "##wapo": 3721,
      "chan": 3722,
      "mafanikio": 3723,
      "##alamu": 3724,
      "kidogo": 3725,
      "Kampuni": 3726,
      "Benki": 3727,
      "##zaliwa": 3728,
      "maalum": 3729,
      "##usu": 3730,
      "Kai": 3731,
      "kampeni": 3732,
      "hati": 3733,
      "Mara": 3734,
      "##ungan": 3735,
      "##insia": 3736,
      "##shindano": 3737,
      "BBC": 3738,
      "AF": 3739,
      "##uliza": 3740,
      "msimu": 3741,
      "kilimo": 3742,
      "##fua": 3743,
      "Ri": 3744,
      "haja": 3745,
      "##engwa": 3746,
      "mch": 3747,
      "kuchukua": 3748,
      "Mwenyezi": 3749,
      "##lme": 3750,
      "watumishi": 3751,
      "##kelezaji": 3752,
      "Mbeya": 3753,
      "aliyekuwa": 3754,
      "Ina": 3755,
      "KW": 3756,
      "##bora": 3757,
      "wachezaji": 3758,
      "mata": 3759,
      "##ongeze": 3760,
      "##onesha": 3761,
      "Mtendaji": 3762,
      "Nyerere": 3763,
      "at": 3764,
      "miradi": 3765,
      "as": 3766,
      "tak": 3767,
      "HAYA": 3768,
      "Dunia": 3769,
      "linalo": 3770,
      "##ganda": 3771,
      "kisheria": 3772,
      "Mama": 3773,
      "kuo": 3774,
      "Lo": 3775,
      "Ana": 3776,
      "##mika": 3777,
      "anasema": 3778,
      "##isp": 3779,
      "DAR": 3780,
      "##ilayani": 3781,
      "ule": 3782,
      "24": 3783,
      "Kuhusu": 3784,
      "##hada": 3785,
      "ardhi": 3786,
      "kauli": 3787,
      "Le": 3788,
      "##buni": 3789,
      "vifaa": 3790,
      "##gemea": 3791,
      "##jeti": 3792,
      "##dhara": 3793,
      "##funza": 3794,
      "KIS": 3795,
      "##ktari": 3796,
      "##engine": 3797,
      "Mjini": 3798,
      "Ujerumani": 3799,
      "22": 3800,
      "gari": 3801,
      "barua": 3802,
      "kime": 3803,
      "ushindi": 3804,
      "##mokrasia": 3805,
      "haraka": 3806,
      "raia": 3807,
      "##marisha": 3808,
      "China": 3809,
      "Jumat": 3810,
      "##fungwa": 3811,
      "Mis": 3812,
      "##pili": 3813,
      "##EC": 3814,
      "##gwa": 3815,
      "##blia": 3816,
      "de": 3817,
      "##biwa": 3818,
      "##mbia": 3819,
      "##ino": 3820,
      "##book": 3821,
      "waa": 3822,
      "pesa": 3823,
      "##gua": 3824,
      "##hifadhi": 3825,
      "kuti": 3826,
      "Chadema": 3827,
      "##ud": 3828,
      "##zito": 3829,
      "##goma": 3830,
      "##DEMA": 3831,
      "##sikiliza": 3832,
      "##yon": 3833,
      "##ws": 3834,
      "CHADEMA": 3835,
      "##pema": 3836,
      "##zungu": 3837,
      "##hoji": 3838,
      "##angi": 3839,
      "wenyewe": 3840,
      "##knolojia": 3841,
      "hoja": 3842,
      "##tokeza": 3843,
      "maso": 3844,
      "##cebook": 3845,
      "Kwan": 3846,
      "##kabidhi": 3847,
      "itakuwa": 3848,
      "miezi": 3849,
      "Kanisa": 3850,
      "##chaka": 3851,
      "jimbo": 3852,
      "##ation": 3853,
      "jeshi": 3854,
      "Msa": 3855,
      "waziri": 3856,
      "Janua": 3857,
      "Kristo": 3858,
      "Kikuu": 3859,
      "##takayo": 3860,
      "mafuta": 3861,
      "tano": 3862,
      "aliyo": 3863,
      "##dhani": 3864,
      "KUTO": 3865,
      "soka": 3866,
      "Has": 3867,
      "mataifa": 3868,
      "Wananchi": 3869,
      "##yansi": 3870,
      "nga": 3871,
      "Ikulu": 3872,
      "Hivi": 3873,
      "##fafan": 3874,
      "ikiwemo": 3875,
      "kuboresha": 3876,
      "Nove": 3877,
      "##miza": 3878,
      "##rodha": 3879,
      "Wato": 3880,
      "uma": 3881,
      "Kin": 3882,
      "Jijini": 3883,
      "##linda": 3884,
      "nya": 3885,
      "##fuko": 3886,
      "ushirikiano": 3887,
      "MKO": 3888,
      "##tihani": 3889,
      "fulani": 3890,
      "##JINI": 3891,
      "##kaya": 3892,
      "Watoto": 3893,
      "kima": 3894,
      "##kezo": 3895,
      "##jui": 3896,
      "##baini": 3897,
      "uamuzi": 3898,
      "Miaka": 3899,
      "amewa": 3900,
      "ama": 3901,
      "Jimbo": 3902,
      "mna": 3903,
      "uhuru": 3904,
      "jumla": 3905,
      "sahihi": 3906,
      "kamati": 3907,
      "kuweza": 3908,
      "##nzi": 3909,
      "kodi": 3910,
      "##shambu": 3911,
      "##inali": 3912,
      "2014": 3913,
      "upinzani": 3914,
      "tabia": 3915,
      "Kuwa": 3916,
      "saba": 3917,
      "##unua": 3918,
      "##hamia": 3919,
      "mamlaka": 3920,
      "Ms": 3921,
      "##simamizi": 3922,
      "##UNGU": 3923,
      "##sika": 3924,
      "##pwa": 3925,
      "Idara": 3926,
      "##lami": 3927,
      "mab": 3928,
      "##uka": 3929,
      "##inti": 3930,
      "##chwa": 3931,
      "hatari": 3932,
      "Akizungumza": 3933,
      "moto": 3934,
      "Mamlaka": 3935,
      "##kulima": 3936,
      "Septe": 3937,
      "magari": 3938,
      "asi": 3939,
      "Ok": 3940,
      "##kondari": 3941,
      "##esa": 3942,
      "##hili": 3943,
      "safari": 3944,
      "hospitali": 3945,
      "##ONGO": 3946,
      "mkataba": 3947,
      "##anya": 3948,
      "##jadili": 3949,
      "of": 3950,
      "##VU": 3951,
      "##gogoro": 3952,
      "Ir": 3953,
      "UN": 3954,
      "kikubwa": 3955,
      "Au": 3956,
      "##takao": 3957,
      "video": 3958,
      "Viongozi": 3959,
      "##ita": 3960,
      "mwanzo": 3961,
      "Home": 3962,
      "##daiwa": 3963,
      "Meneja": 3964,
      "##kuta": 3965,
      "##baki": 3966,
      "##giza": 3967,
      "utekelezaji": 3968,
      "##zidi": 3969,
      "100": 3970,
      "mdogo": 3971,
      "07": 3972,
      "ajira": 3973,
      "##pongeza": 3974,
      "Bodi": 3975,
      "kushirikiana": 3976,
      "shirika": 3977,
      "##shuhu": 3978,
      "ambavyo": 3979,
      "##tume": 3980,
      "Jose": 3981,
      "aliwa": 3982,
      "##ster": 3983,
      "kupiga": 3984,
      "##muhimu": 3985,
      "##SU": 3986,
      "##ukumu": 3987,
      "Hassan": 3988,
      "kupunguza": 3989,
      "historia": 3990,
      "Apri": 3991,
      "bilioni": 3992,
      "##ul": 3993,
      "##FANYA": 3994,
      "che": 3995,
      "Magazeti": 3996,
      "##ambano": 3997,
      "sera": 3998,
      "utawala": 3999,
      "mapenzi": 4000,
      "##HILI": 4001,
      "yeyote": 4002,
      "Jakaya": 4003,
      "katikati": 4004,
      "##atakiwa": 4005,
      "##umiwa": 4006,
      "Biblia": 4007,
      "##toba": 4008,
      "akitoa": 4009,
      "thamani": 4010,
      "Tanga": 4011,
      "Maji": 4012,
      "uzinduzi": 4013,
      "Map": 4014,
      "kubadili": 4015,
      "##engeneza": 4016,
      "##tembelea": 4017,
      "TAA": 4018,
      "ligi": 4019,
      "Maja": 4020,
      "viwanda": 4021,
      "Sasa": 4022,
      "Uni": 4023,
      "##rikisho": 4024,
      "inaweza": 4025,
      "wateja": 4026,
      "##subu": 4027,
      "viwanja": 4028,
      "Biashara": 4029,
      "##fisadi": 4030,
      "Moro": 4031,
      "##aida": 4032,
      "##fanyabiashara": 4033,
      "##sali": 4034,
      "uha": 4035,
      "matukio": 4036,
      "##tt": 4037,
      "ro": 4038,
      "utaratibu": 4039,
      "##KIO": 4040,
      "wasio": 4041,
      "Vijana": 4042,
      "NNE": 4043,
      "##jaa": 4044,
      "##kamatwa": 4045,
      "##patia": 4046,
      "baba": 4047,
      "##dua": 4048,
      "wanaume": 4049,
      "hatu": 4050,
      "MWAKA": 4051,
      "##lli": 4052,
      "kifo": 4053,
      "mawazo": 4054,
      "Novemba": 4055,
      "##shima": 4056,
      "##dri": 4057,
      "##zamo": 4058,
      "mapema": 4059,
      "##sababisha": 4060,
      "Feb": 4061,
      "##subuhi": 4062,
      "zo": 4063,
      "ukumbi": 4064,
      "ajali": 4065,
      "##lengo": 4066,
      "kucheza": 4067,
      "ujumla": 4068,
      "##DU": 4069,
      "MATU": 4070,
      "MTAA": 4071,
      "##aidi": 4072,
      "##dato": 4073,
      "##dumu": 4074,
      "##MIS": 4075,
      "kutafuta": 4076,
      "mwe": 4077,
      "kuya": 4078,
      "mzuri": 4079,
      "kuleta": 4080,
      "##husisha": 4081,
      "Uganda": 4082,
      "##olote": 4083,
      "##ishe": 4084,
      "tun": 4085,
      "##ENZI": 4086,
      "##land": 4087,
      "##ANO": 4088,
      "yale": 4089,
      "tafadhali": 4090,
      "##kala": 4091,
      "wamekuwa": 4092,
      "kim": 4093,
      "kuishi": 4094,
      "##hana": 4095,
      "##ishati": 4096,
      "Fi": 4097,
      "kijiji": 4098,
      "Facebook": 4099,
      "Mimi": 4100,
      "##endeleza": 4101,
      "lolote": 4102,
      "##ongozo": 4103,
      "uchunguzi": 4104,
      "Nje": 4105,
      "##samba": 4106,
      "##unti": 4107,
      "imekuwa": 4108,
      "Pamoja": 4109,
      "Ili": 4110,
      "##ande": 4111,
      "mikoa": 4112,
      "##CO": 4113,
      "##zoe": 4114,
      "##chache": 4115,
      "vitendo": 4116,
      "neno": 4117,
      "toka": 4118,
      "kusaidia": 4119,
      "Huduma": 4120,
      "##ransa": 4121,
      "ugonjwa": 4122,
      "dola": 4123,
      "##ema": 4124,
      "ndiye": 4125,
      "##uliwa": 4126,
      "##jijini": 4127,
      "As": 4128,
      "Kitu": 4129,
      "dakika": 4130,
      "##takuwa": 4131,
      "##ispaa": 4132,
      "Moha": 4133,
      "watanzania": 4134,
      "Mkoani": 4135,
      "Unaweza": 4136,
      "##furahi": 4137,
      "mahakama": 4138,
      "Uj": 4139,
      "kasi": 4140,
      "PA": 4141,
      "##panga": 4142,
      "##wezekana": 4143,
      "masi": 4144,
      "kiuchumi": 4145,
      "##wekwa": 4146,
      "Kata": 4147,
      "Uku": 4148,
      "kutaka": 4149,
      "kata": 4150,
      "nani": 4151,
      "Kaimu": 4152,
      "##ol": 4153,
      "kuangalia": 4154,
      "kitaifa": 4155,
      "The": 4156,
      "Oktoba": 4157,
      "##ungeni": 4158,
      "##raja": 4159,
      "##hati": 4160,
      "##zam": 4161,
      "##siri": 4162,
      "##tuba": 4163,
      "##les": 4164,
      "Kw": 4165,
      "uhusiano": 4166,
      "Kila": 4167,
      "kumi": 4168,
      "Ago": 4169,
      "siyo": 4170,
      "kiny": 4171,
      "ngazi": 4172,
      "28": 4173,
      "mashindano": 4174,
      "Hivyo": 4175,
      "juhudi": 4176,
      "utu": 4177,
      "ulinzi": 4178,
      "##id": 4179,
      "umuhimu": 4180,
      "##YU": 4181,
      "Kwanza": 4182,
      "##CHA": 4183,
      "Mka": 4184,
      "wakazi": 4185,
      "##chakato": 4186,
      "Mohamed": 4187,
      "##ongezeka": 4188,
      "##kano": 4189,
      "2011": 4190,
      "uhaki": 4191,
      "Mas": 4192,
      "Septemba": 4193,
      "ulimw": 4194,
      "##elezea": 4195,
      "kutekeleza": 4196,
      "Mar": 4197,
      "wenza": 4198,
      "##gramu": 4199,
      "alama": 4200,
      "##angazaji": 4201,
      "hau": 4202,
      "Mpango": 4203,
      "26": 4204,
      "Kombe": 4205,
      "kutosha": 4206,
      "199": 4207,
      "zisi": 4208,
      "filamu": 4209,
      "##ANDA": 4210,
      "##ad": 4211,
      "asubuhi": 4212,
      "MAKA": 4213,
      "##ANGA": 4214,
      "##AM": 4215,
      "rahisi": 4216,
      "##pate": 4217,
      "Kiongozi": 4218,
      "anaweza": 4219,
      "baadaye": 4220,
      "sifa": 4221,
      "##falme": 4222,
      "##ridhi": 4223,
      "##RASA": 4224,
      "##atarajiwa": 4225,
      "##leta": 4226,
      "##ANZA": 4227,
      "Che": 4228,
      "##fuatilia": 4229,
      "mawasiliano": 4230,
      "##yuo": 4231,
      "walimu": 4232,
      "##chuano": 4233,
      "##imba": 4234,
      "Julai": 4235,
      "wajumbe": 4236,
      "Februa": 4237,
      "Baba": 4238,
      "Tun": 4239,
      "katiba": 4240,
      "##gharibi": 4241,
      "wilayani": 4242,
      "##ath": 4243,
      "##lingana": 4244,
      "mati": 4245,
      "kisha": 4246,
      "Juni": 4247,
      "Ndani": 4248,
      "40": 4249,
      "##DHI": 4250,
      "##ambua": 4251,
      "kuwepo": 4252,
      "##lio": 4253,
      "##juma": 4254,
      "##zindua": 4255,
      "heshima": 4256,
      "Jumuiya": 4257,
      "faragha": 4258,
      "hafla": 4259,
      "utafiti": 4260,
      "blog": 4261,
      "##anne": 4262,
      "kupambana": 4263,
      "vituo": 4264,
      "Ndugu": 4265,
      "##onyeza": 4266,
      "##kan": 4267,
      "##shughuli": 4268,
      "Kaskazini": 4269,
      "mahali": 4270,
      "Profesa": 4271,
      "akili": 4272,
      "##fany": 4273,
      "##OTE": 4274,
      "##atumia": 4275,
      "##lahi": 4276,
      "Mei": 4277,
      "usha": 4278,
      "MAGU": 4279,
      "awamu": 4280,
      "zenye": 4281,
      "mitandao": 4282,
      "Iringa": 4283,
      "##RIFA": 4284,
      "Agosti": 4285,
      "TF": 4286,
      "##guu": 4287,
      "SALA": 4288,
      "##amko": 4289,
      "kwao": 4290,
      "makundi": 4291,
      "ES": 4292,
      "Majaliwa": 4293,
      "27": 4294,
      "wazazi": 4295,
      "WALI": 4296,
      "##julikana": 4297,
      "madai": 4298,
      "##amond": 4299,
      "##fundi": 4300,
      "Sta": 4301,
      "##kristo": 4302,
      "##LIWA": 4303,
      "Matokeo": 4304,
      "##zika": 4305,
      "Isra": 4306,
      "##tumwa": 4307,
      "Januari": 4308,
      "faida": 4309,
      "husika": 4310,
      "##hudhu": 4311,
      "nayo": 4312,
      "Hapa": 4313,
      "##ZAMA": 4314,
      "##tumiaji": 4315,
      "kusoma": 4316,
      "yaani": 4317,
      "kuelekea": 4318,
      "mkononi": 4319,
      "mapato": 4320,
      "Hospitali": 4321,
      "kanuni": 4322,
      "chuo": 4323,
      "##uru": 4324,
      "damu": 4325,
      "vilivyo": 4326,
      "##LU": 4327,
      "##ver": 4328,
      "kujiunga": 4329,
      "wapo": 4330,
      "##FULI": 4331,
      "##dhimisho": 4332,
      "Utalii": 4333,
      "Kit": 4334,
      "##ISI": 4335,
      "Diamond": 4336,
      "tar": 4337,
      "ndogo": 4338,
      "wakuu": 4339,
      "Shule": 4340,
      "##chagua": 4341,
      "##shika": 4342,
      "MAGUFULI": 4343,
      "##UF": 4344,
      "##anganyi": 4345,
      "##inyi": 4346,
      "MPYA": 4347,
      "Mtu": 4348,
      "##maini": 4349,
      "ataka": 4350,
      "malengo": 4351,
      "Machi": 4352,
      "##line": 4353,
      "Kwenye": 4354,
      "##pende": 4355,
      "##zalishaji": 4356,
      "uliofanyika": 4357,
      "mahitaji": 4358,
      "##rini": 4359,
      "gazeti": 4360,
      "##wekezaji": 4361,
      "##pp": 4362,
      "##UNI": 4363,
      "##sanya": 4364,
      "rafiki": 4365,
      "sherehe": 4366,
      "wapi": 4367,
      "##hudhuria": 4368,
      "Be": 4369,
      "##sheni": 4370,
      "kufanyika": 4371,
      "##ishia": 4372,
      "##shambulia": 4373,
      "##tishwa": 4374,
      "kukabili": 4375,
      "Maisha": 4376,
      "kushindwa": 4377,
      "halisi": 4378,
      "##jenga": 4379,
      "sauti": 4380,
      "zisizo": 4381,
      "mchakato": 4382,
      "##liki": 4383,
      "##ongozwa": 4384,
      "##ENI": 4385,
      "MATUKIO": 4386,
      "furaha": 4387,
      "##kumu": 4388,
      "bajeti": 4389,
      "Am": 4390,
      "##pang": 4391,
      "##chukuliwa": 4392,
      "Joseph": 4393,
      "##RIKALI": 4394,
      "maswali": 4395,
      "majina": 4396,
      "##ruhusu": 4397,
      "##hiti": 4398,
      "kuimarisha": 4399,
      "Sy": 4400,
      "Sana": 4401,
      "##inisha": 4402,
      "yenu": 4403,
      "Ufaransa": 4404,
      "ika": 4405,
      "##bika": 4406,
      "ge": 4407,
      "Umma": 4408,
      "kuhusiana": 4409,
      "Wiki": 4410,
      "##chaguliwa": 4411,
      "soko": 4412,
      "iwe": 4413,
      "makini": 4414,
      "##indo": 4415,
      "kuzingatia": 4416,
      "29": 4417,
      "##port": 4418,
      "##unganisho": 4419,
      "chanzo": 4420,
      "##WAHILI": 4421,
      "##ruhi": 4422,
      "##uawa": 4423,
      "##pia": 4424,
      "umoja": 4425,
      "wimbo": 4426,
      "##rg": 4427,
      "##lazi": 4428,
      "ziki": 4429,
      "##lalami": 4430,
      "##TOTO": 4431,
      "##kanda": 4432,
      "SERIKALI": 4433,
      "##chote": 4434,
      "Jumapili": 4435,
      "kanisa": 4436,
      "##fanye": 4437,
      "kitabu": 4438,
      "pepe": 4439,
      "##SHI": 4440,
      "it": 4441,
      "##andisi": 4442,
      "##jeruhi": 4443,
      "baina": 4444,
      "uba": 4445,
      "kesho": 4446,
      "##ty": 4447,
      "##huma": 4448,
      "madini": 4449,
      "HII": 4450,
      "macho": 4451,
      "CUF": 4452,
      "##jitokeza": 4453,
      "##wadi": 4454,
      "Dr": 4455,
      "TAARIFA": 4456,
      "##ING": 4457,
      "ub": 4458,
      "Kisiasa": 4459,
      "##MOJA": 4460,
      "wizara": 4461,
      "kisasa": 4462,
      "##vua": 4463,
      "mchezaji": 4464,
      "##rajia": 4465,
      "##inda": 4466,
      "##hadi": 4467,
      "fainali": 4468,
      "##athi": 4469,
      "Zaidi": 4470,
      "miwili": 4471,
      "##han": 4472,
      "mipango": 4473,
      "Hali": 4474,
      "##idizi": 4475,
      "mazuri": 4476,
      "##IDI": 4477,
      "uweze": 4478,
      "Morogoro": 4479,
      "kumbu": 4480,
      "maamuzi": 4481,
      "mabao": 4482,
      "kufuatia": 4483,
      "be": 4484,
      "askari": 4485,
      "wakulima": 4486,
      "##fanyia": 4487,
      "##tion": 4488,
      "##siasa": 4489,
      "Mwandishi": 4490,
      "##keti": 4491,
      "##ise": 4492,
      "United": 4493,
      "the": 4494,
      "yule": 4495,
      "matibabu": 4496,
      "MS": 4497,
      "##epu": 4498,
      "anga": 4499,
      "ne": 4500,
      "MAA": 4501,
      "##lezi": 4502,
      "wasanii": 4503,
      "hazi": 4504,
      "JIJINI": 4505,
      "mume": 4506,
      "##karib": 4507,
      "kinyume": 4508,
      "Ujenzi": 4509,
      "zita": 4510,
      "##kuwepo": 4511,
      "##ity": 4512,
      "Afisa": 4513,
      "##lenga": 4514,
      "##ONI": 4515,
      "taratibu": 4516,
      "licha": 4517,
      "##kamilika": 4518,
      "##ruki": 4519,
      "uhakika": 4520,
      "##kubaliano": 4521,
      "##shuhudia": 4522,
      "##wanga": 4523,
      "DKT": 4524,
      "KISWAHILI": 4525,
      "jioni": 4526,
      "##DHAA": 4527,
      "##wimu": 4528,
      "##eli": 4529,
      "maombi": 4530,
      "michuano": 4531,
      "waliokuwa": 4532,
      "##amosi": 4533,
      "MAGA": 4534,
      "makala": 4535,
      "vingine": 4536,
      "kusikiliza": 4537,
      "vyema": 4538,
      "nzima": 4539,
      "##sikia": 4540,
      "majukumu": 4541,
      "##chap": 4542,
      "##kofu": 4543,
      "Pili": 4544,
      "##vya": 4545,
      "Shirikisho": 4546,
      "##kataa": 4547,
      "##linzi": 4548,
      "urais": 4549,
      "Ndi": 4550,
      "##yat": 4551,
      "upendo": 4552,
      "##iny": 4553,
      "mash": 4554,
      "##gizo": 4555,
      "Kassim": 4556,
      "hawana": 4557,
      "masomo": 4558,
      "zoezi": 4559,
      "Bongo": 4560,
      "ripoti": 4561,
      "##kaa": 4562,
      "benki": 4563,
      "Kab": 4564,
      "##rejea": 4565,
      "Nime": 4566,
      "marehemu": 4567,
      "##ondoa": 4568,
      "St": 4569,
      "kikosi": 4570,
      "Amesema": 4571,
      "##simama": 4572,
      "Sehemu": 4573,
      "matu": 4574,
      "##simu": 4575,
      "kali": 4576,
      "alivyo": 4577,
      "liki": 4578,
      "wow": 4579,
      "Shein": 4580,
      "##mail": 4581,
      "##ambi": 4582,
      "TAIFA": 4583,
      "Moja": 4584,
      "##laha": 4585,
      "TFF": 4586,
      "##andaliwa": 4587,
      "makosa": 4588,
      "##taja": 4589,
      "##beba": 4590,
      "##miliki": 4591,
      "Timu": 4592,
      "Kilimo": 4593,
      "##bitisha": 4594,
      "chochote": 4595,
      "kupokea": 4596,
      "rushwa": 4597,
      "wowote": 4598,
      "Uki": 4599,
      "mgombea": 4600,
      "kupati": 4601,
      "BLO": 4602,
      "##manja": 4603,
      "mashabiki": 4604,
      "##lali": 4605,
      "Aprili": 4606,
      "##subiri": 4607,
      "SALAAM": 4608,
      "Wazee": 4609,
      "Ham": 4610,
      "mpira": 4611,
      "LI": 4612,
      "Nili": 4613,
      "kuko": 4614,
      "##kufu": 4615,
      "alim": 4616,
      "Fran": 4617,
      "Rwanda": 4618,
      "##ishoni": 4619,
      "Fu": 4620,
      "Soma": 4621,
      "Manispaa": 4622,
      "Kituo": 4623,
      "##mavu": 4624,
      "##geria": 4625,
      "##uza": 4626,
      "ushauri": 4627,
      "##jumaa": 4628,
      "##luhu": 4629,
      "wanaweza": 4630,
      "silaha": 4631,
      "PO": 4632,
      "KUWA": 4633,
      "##ZETI": 4634,
      "vyote": 4635,
      "vinavyo": 4636,
      "maslahi": 4637,
      "lenye": 4638,
      "kutokea": 4639,
      "##fuu": 4640,
      "##kina": 4641,
      "##simamo": 4642,
      "Kutoka": 4643,
      "wajibu": 4644,
      "Kar": 4645,
      "##angazwa": 4646,
      "kumaliza": 4647,
      "IDHAA": 4648,
      "Usalama": 4649,
      "kutangaza": 4650,
      "amekuwa": 4651,
      "yata": 4652,
      "tuzo": 4653,
      "##manjaro": 4654,
      "##RIA": 4655,
      "##MII": 4656,
      "Jinsi": 4657,
      "takrib": 4658,
      "salama": 4659,
      "##zoezi": 4660,
      "##fugo": 4661,
      "##ADA": 4662,
      "##fikiri": 4663,
      "uwa": 4664,
      "##WI": 4665,
      "kukabiliana": 4666,
      "Azam": 4667,
      "Usi": 4668,
      "mawili": 4669,
      "##ingida": 4670,
      "##habari": 4671,
      "31": 4672,
      "##toaji": 4673,
      "Korea": 4674,
      "##ENDE": 4675,
      "Haku": 4676,
      "##tihada": 4677,
      "hotuba": 4678,
      "##chani": 4679,
      "Mpya": 4680,
      "##bati": 4681,
      "Iran": 4682,
      "##ripoti": 4683,
      "##humiwa": 4684,
      "##SO": 4685,
      "##LIMU": 4686,
      "##inadamu": 4687,
      "kike": 4688,
      "Kilimanjaro": 4689,
      "##isasi": 4690,
      "Singida": 4691,
      "##amali": 4692,
      "miundo": 4693,
      "##halifu": 4694,
      "##BI": 4695,
      "##kie": 4696,
      "mchango": 4697,
      "kufunga": 4698,
      "bunge": 4699,
      "mbi": 4700,
      "##fsiri": 4701,
      "MWANA": 4702,
      "kusimamia": 4703,
      "Februari": 4704,
      "##fundisha": 4705,
      "vy": 4706,
      "Ste": 4707,
      "Mikoa": 4708,
      "Kita": 4709,
      "FC": 4710,
      "Mipango": 4711,
      "Kanda": 4712,
      "siri": 4713,
      "bure": 4714,
      "2010": 4715,
      "##gaji": 4716,
      "mbunge": 4717,
      "##rump": 4718,
      "kuvu": 4719,
      "##fanyiwa": 4720,
      "Juli": 4721,
      "kupe": 4722,
      "##hariri": 4723,
      "mikon": 4724,
      "##laa": 4725,
      "##hamiaji": 4726,
      "Basi": 4727,
      "Zili": 4728,
      "kuzuia": 4729,
      "Simu": 4730,
      "lita": 4731,
      "##andamano": 4732,
      "dhambi": 4733,
      "Trump": 4734,
      "Maal": 4735,
      "kwako": 4736,
      "##mbinu": 4737,
      "lin": 4738,
      "##KIWA": 4739,
      "alipokuwa": 4740,
      "majibu": 4741,
      "##ungua": 4742,
      "##miana": 4743,
      "##sea": 4744,
      "Urusi": 4745,
      "swali": 4746,
      "walipo": 4747,
      "##lala": 4748,
      "##mua": 4749,
      "ulikuwa": 4750,
      "Kig": 4751,
      "maalumu": 4752,
      "##LIA": 4753,
      "##ment": 4754,
      "kujifunza": 4755,
      "iliyopo": 4756,
      "mahusiano": 4757,
      "WATU": 4758,
      "ufisadi": 4759,
      "PILI": 4760,
      "utendaji": 4761,
      "Mn": 4762,
      "##ISA": 4763,
      "KUTOKA": 4764,
      "##if": 4765,
      "mad": 4766,
      "yaki": 4767,
      "##zao": 4768,
      "Utamaduni": 4769,
      "Mzee": 4770,
      "go": 4771,
      "##FYA": 4772,
      "ZAIDI": 4773,
      "letu": 4774,
      "KUHU": 4775,
      "makubaliano": 4776,
      "##jaribu": 4777,
      "##dhabu": 4778,
      "City": 4779,
      "NCHINI": 4780,
      "##yota": 4781,
      "jiji": 4782,
      "Abdu": 4783,
      "##gera": 4784,
      "wageni": 4785,
      "Mfumo": 4786,
      "nyi": 4787,
      "##ambamba": 4788,
      "kosa": 4789,
      "Nchini": 4790,
      "##wetu": 4791,
      "Jumamosi": 4792,
      "yasi": 4793,
      "##takapo": 4794,
      "zawadi": 4795,
      "##andalizi": 4796,
      "kidato": 4797,
      "uzalishaji": 4798,
      "##robi": 4799,
      "kamili": 4800,
      "##bada": 4801,
      "##fafanua": 4802,
      "jamaa": 4803,
      "##inyanga": 4804,
      "Zilizo": 4805,
      "ipo": 4806,
      "shaka": 4807,
      "iko": 4808,
      "Fre": 4809,
      "##ton": 4810,
      "kuonyesha": 4811,
      "##somaji": 4812,
      "malipo": 4813,
      "Afri": 4814,
      "##vunja": 4815,
      "nusu": 4816,
      "ua": 4817,
      "Ijumaa": 4818,
      "Har": 4819,
      "MAGAZETI": 4820,
      "Chi": 4821,
      "##liasili": 4822,
      "Sisi": 4823,
      "mbinu": 4824,
      "maafisa": 4825,
      "##bila": 4826,
      "itakayo": 4827,
      "kulipa": 4828,
      "kip": 4829,
      "##karibisha": 4830,
      "ambako": 4831,
      "ulimwengu": 4832,
      "##ika": 4833,
      "Nairobi": 4834,
      "mazi": 4835,
      "nita": 4836,
      "##leni": 4837,
      "##hakamani": 4838,
      "##pigwa": 4839,
      "kujadili": 4840,
      "Mtakatifu": 4841,
      "Sanaa": 4842,
      "FA": 4843,
      "##semba": 4844,
      "Mstaafu": 4845,
      "kusababisha": 4846,
      "Tabia": 4847,
      "Duniani": 4848,
      "kununua": 4849,
      "##kadi": 4850,
      "us": 4851,
      "hana": 4852,
      "##mbwa": 4853,
      "##kodi": 4854,
      "yan": 4855,
      "Maelezo": 4856,
      "##mbizi": 4857,
      "Ed": 4858,
      "mwishoni": 4859,
      "BOFYA": 4860,
      "KWENYE": 4861,
      "baraza": 4862,
      "##jadala": 4863,
      "kuwasiliana": 4864,
      "Shinyanga": 4865,
      "wito": 4866,
      "##can": 4867,
      "halmashauri": 4868,
      "Hakuna": 4869,
      "##SH": 4870,
      "vime": 4871,
      "utamaduni": 4872,
      "##men": 4873,
      "Jinsia": 4874,
      "##oteli": 4875,
      "##hutu": 4876,
      "##hakiki": 4877,
      "##mbulizi": 4878,
      "BLOG": 4879,
      "mfupi": 4880,
      "mikopo": 4881,
      "##HANI": 4882,
      "##pinga": 4883,
      "mitatu": 4884,
      "zin": 4885,
      "Ge": 4886,
      "YAKE": 4887,
      "##silimali": 4888,
      "mwandishi": 4889,
      "kukutana": 4890,
      "kulinda": 4891,
      "mazoezi": 4892,
      "kush": 4893,
      "##wasi": 4894,
      "zangu": 4895,
      "##ZIN": 4896,
      "Desemba": 4897,
      "Syria": 4898,
      "Kagera": 4899,
      "naomba": 4900,
      "##rudani": 4901,
      "Video": 4902,
      "Mbo": 4903,
      "bao": 4904,
      "Ca": 4905,
      "Jaji": 4906,
      "kushinda": 4907,
      "##andikwa": 4908,
      "kuanzisha": 4909,
      "chu": 4910,
      "kuzungumza": 4911,
      "kume": 4912,
      "kuni": 4913,
      "Ke": 4914,
      "zilizopo": 4915,
      "##ELE": 4916,
      "##shughulikia": 4917,
      "DARASA": 4918,
      "Mada": 4919,
      "alb": 4920,
      "00": 4921,
      "##pitia": 4922,
      "##shia": 4923,
      "sta": 4924,
      "wagonjwa": 4925,
      "##vuvi": 4926,
      "teknolojia": 4927,
      "kuomba": 4928,
      "##tuma": 4929,
      "kipa": 4930,
      "Pi": 4931,
      "##peleka": 4932,
      "Asili": 4933,
      "##amasha": 4934,
      "jitihada": 4935,
      "##oko": 4936,
      "##hau": 4937,
      "##semaji": 4938,
      "bahati": 4939,
      "##ght": 4940,
      "##ongamano": 4941,
      "Kamish": 4942,
      "maadili": 4943,
      "barani": 4944,
      "NEC": 4945,
      "hewa": 4946,
      "##anii": 4947,
      "Ben": 4948,
      "husu": 4949,
      "##lisho": 4950,
      "Paul": 4951,
      "##TAIFA": 4952,
      "##JU": 4953,
      "juzi": 4954,
      "magonjwa": 4955,
      "waweze": 4956,
      "##ingiza": 4957,
      "##llah": 4958,
      "##dhamini": 4959,
      "KUHUSU": 4960,
      "msimamo": 4961,
      "##onal": 4962,
      "ubora": 4963,
      "##KATI": 4964,
      "Mafunzo": 4965,
      "watatu": 4966,
      "Tawala": 4967,
      "##FI": 4968,
      "upo": 4969,
      "Kamanda": 4970,
      "makuu": 4971,
      "kuchangia": 4972,
      "##mon": 4973,
      "##ungufu": 4974,
      "##sheria": 4975,
      "##anja": 4976,
      "Kiislamu": 4977,
      "##malizika": 4978,
      "##wishi": 4979,
      "##ule": 4980,
      "##lle": 4981,
      "Vo": 4982,
      "UTA": 4983,
      "maadhimisho": 4984,
      "hatima": 4985,
      "ingawa": 4986,
      "##tumiwa": 4987,
      "##fia": 4988,
      "Samia": 4989,
      "mita": 4990,
      "huenda": 4991,
      "Char": 4992,
      "Utu": 4993,
      "##jengwa": 4994,
      "Blog": 4995,
      "##fe": 4996,
      "##kh": 4997,
      "##CH": 4998,
      "##dui": 4999,
      "wafanyabiashara": 5000,
      "##my": 5001,
      "##dan": 5002,
      "##DIO": 5003,
      "##TANO": 5004,
      "##kufa": 5005,
      "BARA": 5006,
      "nafuu": 5007,
      "Nina": 5008,
      "kuondoa": 5009,
      "##kamilisha": 5010,
      "Jumatatu": 5011,
      "utoaji": 5012,
      "kumbukumbu": 5013,
      "##sabu": 5014,
      "##diwani": 5015,
      "mwanafunzi": 5016,
      "vyuo": 5017,
      "##kwaa": 5018,
      "amem": 5019,
      "mikutano": 5020,
      "kukosa": 5021,
      "##fund": 5022,
      "madara": 5023,
      "uwekezaji": 5024,
      "##UNG": 5025,
      "##ondoka": 5026,
      "Mhandisi": 5027,
      "Mfuko": 5028,
      "mchana": 5029,
      "DO": 5030,
      "kote": 5031,
      "SIKU": 5032,
      "##kampuni": 5033,
      "chache": 5034,
      "##JE": 5035,
      "Jumanne": 5036,
      "Sam": 5037,
      "##frika": 5038,
      "##hamasisha": 5039,
      "kufika": 5040,
      "zako": 5041,
      "##ahidi": 5042,
      "##LEA": 5043,
      "Wanawake": 5044,
      "kukaa": 5045,
      "kulevya": 5046,
      "##athiri": 5047,
      "kwetu": 5048,
      "Wanafunzi": 5049,
      "kuendeleza": 5050,
      "kijana": 5051,
      "Ushirikiano": 5052,
      "##tari": 5053,
      "vipi": 5054,
      "##lele": 5055,
      "mshindi": 5056,
      "##VI": 5057,
      "Maj": 5058,
      "##misha": 5059,
      "##lezo": 5060,
      "##enal": 5061,
      "##fuasi": 5062,
      "Zilizopo": 5063,
      "MBA": 5064,
      "Yako": 5065,
      "Madini": 5066,
      "##firisha": 5067,
      "fo": 5068,
      "##ue": 5069,
      "##panda": 5070,
      "##kiza": 5071,
      "Kutokana": 5072,
      "##SE": 5073,
      "akisali": 5074,
      "##kusu": 5075,
      "##endekezo": 5076,
      "##lam": 5077,
      "Masuala": 5078,
      "kulingana": 5079,
      "ndipo": 5080,
      "Nigeria": 5081,
      "##rio": 5082,
      "Bur": 5083,
      "programu": 5084,
      "Mtume": 5085,
      "Julius": 5086,
      "madarakani": 5087,
      "utakuwa": 5088,
      "maandamano": 5089,
      "kilo": 5090,
      "Mri": 5091,
      "mahakamani": 5092,
      "##UNGE": 5093,
      "##shiki": 5094,
      "##mina": 5095,
      "Mradi": 5096,
      "##andari": 5097,
      "##pas": 5098,
      "Idhaa": 5099,
      "##gram": 5100,
      "##lili": 5101,
      "##luma": 5102,
      "ALI": 5103,
      "kutengeneza": 5104,
      "mika": 5105,
      "##wakilishi": 5106,
      "##undwa": 5107,
      "Njia": 5108,
      "jukumu": 5109,
      "Matangazo": 5110,
      "hakika": 5111,
      "kuacha": 5112,
      "Lowa": 5113,
      "Ndege": 5114,
      "mwenyekiti": 5115,
      "##anganyika": 5116,
      "01": 5117,
      "kisi": 5118,
      "Eng": 5119,
      "Suluhu": 5120,
      "##saba": 5121,
      "Geo": 5122,
      "mwenza": 5123,
      "sekondari": 5124,
      "ukiwa": 5125,
      "wataalamu": 5126,
      "Ars": 5127,
      "##his": 5128,
      "##chester": 5129,
      "##lan": 5130,
      "ametoa": 5131,
      "JAMII": 5132,
      "mingi": 5133,
      "##FUNZI": 5134,
      "##per": 5135,
      "##gana": 5136,
      "kukubali": 5137,
      "##biria": 5138,
      "##iti": 5139,
      "sambamba": 5140,
      "kambi": 5141,
      "Pwani": 5142,
      "TV": 5143,
      "jengo": 5144,
      "mwanaume": 5145,
      "orodha": 5146,
      "ngo": 5147,
      "risasi": 5148,
      "##enya": 5149,
      "iwapo": 5150,
      "vitabu": 5151,
      "Air": 5152,
      "Wabunge": 5153,
      "msanii": 5154,
      "##barani": 5155,
      "kuwan": 5156,
      "Bora": 5157,
      "##zoefu": 5158,
      "KUU": 5159,
      "##umini": 5160,
      "hifadhi": 5161,
      "##aada": 5162,
      "##elezwa": 5163,
      "Mawa": 5164,
      "Rai": 5165,
      "pichani": 5166,
      "Ser": 5167,
      "wingi": 5168,
      "##MIA": 5169,
      "##endi": 5170,
      "Maliasili": 5171,
      "ahadi": 5172,
      "kitendo": 5173,
      "BAADA": 5174,
      "kiswahili": 5175,
      "miundombinu": 5176,
      "##tolea": 5177,
      "##com": 5178,
      "kib": 5179,
      "haina": 5180,
      "##fugaji": 5181,
      "jo": 5182,
      "Manchester": 5183,
      "##ord": 5184,
      "Seif": 5185,
      "kuondoka": 5186,
      "Mazingira": 5187,
      "isiyo": 5188,
      "Mitaa": 5189,
      "##wn": 5190,
      "mpenzi": 5191,
      "##hutubia": 5192,
      "##fanuzi": 5193,
      "kuandika": 5194,
      "##lini": 5195,
      "kadi": 5196,
      "Mwi": 5197,
      "nika": 5198,
      "tuhuma": 5199,
      "##zal": 5200,
      "end": 5201,
      "mazao": 5202,
      "##lat": 5203,
      "wenzake": 5204,
      "maha": 5205,
      "Mrisho": 5206,
      "pande": 5207,
      "iliyofanyika": 5208,
      "KAMA": 5209,
      "Ufafanuzi": 5210,
      "##tegemea": 5211,
      "##endelee": 5212,
      "New": 5213,
      "Nya": 5214,
      "kukuza": 5215,
      "kufuata": 5216,
      "MKOA": 5217,
      "wanyama": 5218,
      "mgogoro": 5219,
      "WALIO": 5220,
      "rangi": 5221,
      "usajili": 5222,
      "##pend": 5223,
      "nyimbo": 5224,
      "kuwapa": 5225,
      "Fo": 5226,
      "##bda": 5227,
      "kufa": 5228,
      "Msi": 5229,
      "kutambua": 5230,
      "Masharti": 5231,
      "Sayansi": 5232,
      "kuwe": 5233,
      "Juu": 5234,
      "##patikanaji": 5235,
      "Tovuti": 5236,
      "Israel": 5237,
      "Jumatano": 5238,
      "##ifadhi": 5239,
      "##zigo": 5240,
      "##ungaji": 5241,
      "##zalendo": 5242,
      "Ime": 5243,
      "akisalimiana": 5244,
      "##20": 5245,
      "Willi": 5246,
      "##sante": 5247,
      "Mtandao": 5248,
      "##yatta": 5249,
      "##atana": 5250,
      "Misri": 5251,
      "##kelezwa": 5252,
      "nye": 5253,
      "##hanga": 5254,
      "HO": 5255,
      "Msingi": 5256,
      "ng": 5257,
      "kuru": 5258,
      "##ZARA": 5259,
      "wazee": 5260,
      "makazi": 5261,
      "BI": 5262,
      "jirani": 5263,
      "##atarajia": 5264,
      "Magharibi": 5265,
      "awe": 5266,
      "##undua": 5267,
      "mashirika": 5268,
      "kusini": 5269,
      "maandalizi": 5270,
      "##lika": 5271,
      "##ind": 5272,
      "##shambuliaji": 5273,
      "##chambu": 5274,
      "##SILI": 5275,
      "##rali": 5276,
      "Ob": 5277,
      "##mara": 5278,
      "Faragha": 5279,
      "##hamana": 5280,
      "Kenyatta": 5281,
      "##hitajika": 5282,
      "kupewa": 5283,
      "SABA": 5284,
      "##jumu": 5285,
      "usafiri": 5286,
      "Nishati": 5287,
      "##choki": 5288,
      "##ungana": 5289,
      "mba": 5290,
      "Waandishi": 5291,
      "##SS": 5292,
      "##jali": 5293,
      "Com": 5294,
      "ushahidi": 5295,
      "##KUU": 5296,
      "Kia": 5297,
      "hofu": 5298,
      "##isini": 5299,
      "##mar": 5300,
      "matumaini": 5301,
      "##anzishwa": 5302,
      "On": 5303,
      "Hatua": 5304,
      "Ilani": 5305,
      "bungeni": 5306,
      "Hifadhi": 5307,
      "##acha": 5308,
      "##aji": 5309,
      "##DANI": 5310,
      "zile": 5311,
      "adhabu": 5312,
      "##fikisha": 5313,
      "Lowassa": 5314,
      "##onya": 5315,
      "mitano": 5316,
      "kurudi": 5317,
      "yasiyo": 5318,
      "##atoliki": 5319,
      "ILI": 5320,
      "Kupata": 5321,
      "##heshi": 5322,
      "kupele": 5323,
      "##umbi": 5324,
      "##mili": 5325,
      "uwezekano": 5326,
      "TI": 5327,
      "Abdul": 5328,
      "tuki": 5329,
      "Hawa": 5330,
      "tiketi": 5331,
      "rasilimali": 5332,
      "##dhamu": 5333,
      "inavyo": 5334,
      "##dh": 5335,
      "kombe": 5336,
      "BU": 5337,
      "News": 5338,
      "Mji": 5339,
      "##DEO": 5340,
      "##unuzi": 5341,
      "##kusan": 5342,
      "##gundua": 5343,
      "mbo": 5344,
      "##ishu": 5345,
      "Ikiwa": 5346,
      "Nyumba": 5347,
      "##tter": 5348,
      "watendaji": 5349,
      "kupatikana": 5350,
      "##engi": 5351,
      "##sefu": 5352,
      "ange": 5353,
      "##kwisha": 5354,
      "maja": 5355,
      "Roho": 5356,
      "Mbali": 5357,
      "madaktari": 5358,
      "##ufa": 5359,
      "Kigoma": 5360,
      "##lipa": 5361,
      "visi": 5362,
      "Ardhi": 5363,
      "madawa": 5364,
      "muungano": 5365,
      "CH": 5366,
      "##ondoni": 5367,
      "kutembelea": 5368,
      "##wara": 5369,
      "##kumbuka": 5370,
      "bonyeza": 5371,
      "##rabu": 5372,
      "##liza": 5373,
      "yanaweza": 5374,
      "##shuka": 5375,
      "NE": 5376,
      "##ramu": 5377,
      "vingi": 5378,
      "shida": 5379,
      "makao": 5380,
      "ajabu": 5381,
      "kuv": 5382,
      "Awa": 5383,
      "atakuwa": 5384,
      "##fanikisha": 5385,
      "##rakati": 5386,
      "500": 5387,
      "Ume": 5388,
      "##lafu": 5389,
      "Charles": 5390,
      "##tandaoni": 5391,
      "##buri": 5392,
      "Redio": 5393,
      "Mke": 5394,
      "kas": 5395,
      "##unganisha": 5396,
      "##PE": 5397,
      "Bila": 5398,
      "##tambua": 5399,
      "##fanisi": 5400,
      "SO": 5401,
      "marafiki": 5402,
      "ujao": 5403,
      "kocha": 5404,
      "JUMA": 5405,
      "mgeni": 5406,
      "WE": 5407,
      "madaraka": 5408,
      "watakao": 5409,
      "mvua": 5410,
      "zingine": 5411,
      "VIDEO": 5412,
      "akam": 5413,
      "Naye": 5414,
      "kikuu": 5415,
      "vifo": 5416,
      "Tuma": 5417,
      "NCHI": 5418,
      "Moham": 5419,
      "magazeti": 5420,
      "Mabadiliko": 5421,
      "MTI": 5422,
      "Haya": 5423,
      "dhamana": 5424,
      "utalii": 5425,
      "Uturuki": 5426,
      "##hamisi": 5427,
      "##lizo": 5428,
      "akasema": 5429,
      "##keb": 5430,
      "Barua": 5431,
      "dirisha": 5432,
      "UM": 5433,
      "TO": 5434,
      "hisia": 5435,
      "##RC": 5436,
      "##ut": 5437,
      "Mtwara": 5438,
      "Wata": 5439,
      "upatikanaji": 5440,
      "kiume": 5441,
      "##jea": 5442,
      "##undu": 5443,
      "nane": 5444,
      "##tajwa": 5445,
      "waliyo": 5446,
      "196": 5447,
      "##hitimu": 5448,
      "##funguzi": 5449,
      "madhara": 5450,
      "wen": 5451,
      "##kabiliwa": 5452,
      "##up": 5453,
      "Tanganyika": 5454,
      "Sudan": 5455,
      "wafuasi": 5456,
      "##lie": 5457,
      "washiriki": 5458,
      "##tumikia": 5459,
      "masharti": 5460,
      "MSI": 5461,
      "##stahili": 5462,
      "##RIKI": 5463,
      "lako": 5464,
      "##RD": 5465,
      "Vipindi": 5466,
      "mawaziri": 5467,
      "35": 5468,
      "mno": 5469,
      "Mako": 5470,
      "wanasema": 5471,
      "##gwe": 5472,
      "##kamata": 5473,
      "60": 5474,
      "akisema": 5475,
      "##ganga": 5476,
      "hat": 5477,
      "niaba": 5478,
      "##rafiki": 5479,
      "mbe": 5480,
      "ngumu": 5481,
      "Wakuu": 5482,
      "Jiji": 5483,
      "Makonda": 5484,
      "Raila": 5485,
      "##bert": 5486,
      "Obama": 5487,
      "##taki": 5488,
      "MAKAMU": 5489,
      "WILA": 5490,
      "##piki": 5491,
      "unge": 5492,
      "wanapo": 5493,
      "Huu": 5494,
      "darasa": 5495,
      "##tel": 5496,
      "##geme": 5497,
      "##vo": 5498,
      "kutumika": 5499,
      "roho": 5500,
      "KO": 5501,
      "##ifu": 5502,
      "Mkazi": 5503,
      "##atokana": 5504,
      "miguu": 5505,
      "##siriamali": 5506,
      "Kinondoni": 5507,
      "kucho": 5508,
      "kupoteza": 5509,
      "##TOA": 5510,
      "SHE": 5511,
      "Amani": 5512,
      "Kamishna": 5513,
      "mzima": 5514,
      "Mage": 5515,
      "wadogo": 5516,
      "Urais": 5517,
      "Ita": 5518,
      "burudani": 5519,
      "Maso": 5520,
      "WAN": 5521,
      "vibaya": 5522,
      "##tro": 5523,
      "imesema": 5524,
      "##shaji": 5525,
      "MIA": 5526,
      "##rge": 5527,
      "William": 5528,
      "##py": 5529,
      "##kubaliana": 5530,
      "upya": 5531,
      "WIZARA": 5532,
      "misingi": 5533,
      "MHE": 5534,
      "##chimba": 5535,
      "ufanisi": 5536,
      "##stani": 5537,
      "uzoefu": 5538,
      "##cis": 5539,
      "##REHE": 5540,
      "Arsenal": 5541,
      "Ukurasa": 5542,
      "##ribio": 5543,
      "maele": 5544,
      "##bii": 5545,
      "Sekondari": 5546,
      "Nd": 5547,
      "kupinga": 5548,
      "##kaji": 5549,
      "03": 5550,
      "kar": 5551,
      "MKOANI": 5552,
      "wavuti": 5553,
      "njema": 5554,
      "##lah": 5555,
      "Makala": 5556,
      "##URI": 5557,
      "##jibika": 5558,
      "Ulinzi": 5559,
      "MWENYE": 5560,
      "##tafuta": 5561,
      "kimoja": 5562,
      "Mwak": 5563,
      "##letea": 5564,
      "##enerali": 5565,
      "wachache": 5566,
      "##alam": 5567,
      "##eseni": 5568,
      "##yika": 5569,
      "amri": 5570,
      "App": 5571,
      "##kiri": 5572,
      "##guja": 5573,
      "##kombo": 5574,
      "yupo": 5575,
      "kudhibiti": 5576,
      "##pedia": 5577,
      "##faka": 5578,
      "Idadi": 5579,
      "##BO": 5580,
      "##limw": 5581,
      "athari": 5582,
      "wasiwasi": 5583,
      "##kizi": 5584,
      "##her": 5585,
      "##BWA": 5586,
      "##ufaa": 5587,
      "Msanii": 5588,
      "spika": 5589,
      "##engele": 5590,
      "##atiba": 5591,
      "##leo": 5592,
      "Utawala": 5593,
      "gesi": 5594,
      "Up": 5595,
      "UNA": 5596,
      "##jenge": 5597,
      "Askofu": 5598,
      "##okoa": 5599,
      "MIAKA": 5600,
      "akawa": 5601,
      "mnamo": 5602,
      "yuko": 5603,
      "AFYA": 5604,
      "Wel": 5605,
      "##MBU": 5606,
      "##CHI": 5607,
      "kiwanda": 5608,
      "Mohammed": 5609,
      "safi": 5610,
      "##uzu": 5611,
      "Utafiti": 5612,
      "##achi": 5613,
      "Ad": 5614,
      "TE": 5615,
      "##anaji": 5616,
      "##udi": 5617,
      "##gia": 5618,
      "##reva": 5619,
      "HUU": 5620,
      "##bidi": 5621,
      "Wafanyakazi": 5622,
      "kufungua": 5623,
      "mikakati": 5624,
      "utakao": 5625,
      "##tani": 5626,
      "##gaidi": 5627,
      "##kin": 5628,
      "TAZAMA": 5629,
      "kuzaliwa": 5630,
      "Sai": 5631,
      "daraja": 5632,
      "MUNGU": 5633,
      "MTOTO": 5634,
      "##livu": 5635,
      "##kamilifu": 5636,
      "alitoa": 5637,
      "Voda": 5638,
      "kuepu": 5639,
      "And": 5640,
      "Unguja": 5641,
      "Mala": 5642,
      "Maalum": 5643,
      "wenu": 5644,
      "##chunguza": 5645,
      "Francis": 5646,
      "misaada": 5647,
      "Ah": 5648,
      "Ulimw": 5649,
      "##MBI": 5650,
      "mate": 5651,
      "##kilisha": 5652,
      "##jani": 5653,
      "##ESCO": 5654,
      "kuendesha": 5655,
      "##sse": 5656,
      "ibada": 5657,
      "##stawi": 5658,
      "kanda": 5659,
      "kuuza": 5660,
      "tas": 5661,
      "VYO": 5662,
      "wasichana": 5663,
      "##ISHI": 5664,
      "##YI": 5665,
      "ija": 5666,
      "##IBU": 5667,
      "hawaku": 5668,
      "harakati": 5669,
      "##mwi": 5670,
      "tamaa": 5671,
      "198": 5672,
      "Sal": 5673,
      "##saini": 5674,
      "kuamini": 5675,
      "##doa": 5676,
      "##geze": 5677,
      "AM": 5678,
      "##lango": 5679,
      "##pesi": 5680,
      "mimba": 5681,
      "uliopo": 5682,
      "manufaa": 5683,
      "hatimaye": 5684,
      "Mab": 5685,
      "Mku": 5686,
      "##kwazo": 5687,
      "##rura": 5688,
      "300": 5689,
      "##witter": 5690,
      "##pelekea": 5691,
      "##INE": 5692,
      "KAZI": 5693,
      "##TAKA": 5694,
      "##ENDA": 5695,
      "UKI": 5696,
      "Maana": 5697,
      "##hudumia": 5698,
      "##logu": 5699,
      "##fupi": 5700,
      "Kigwanga": 5701,
      "MTIHANI": 5702,
      "197": 5703,
      "Pemba": 5704,
      "wanasiasa": 5705,
      "Zi": 5706,
      "AN": 5707,
      "kutimiza": 5708,
      "Stars": 5709,
      "Alhamisi": 5710,
      "Mmoja": 5711,
      "abiria": 5712,
      "Mtoto": 5713,
      "Tazama": 5714,
      "ziada": 5715,
      "Insta": 5716,
      "tiba": 5717,
      "kutatua": 5718,
      "Ib": 5719,
      "##ist": 5720,
      "Tamko": 5721,
      "##bunifu": 5722,
      "ishara": 5723,
      "##ono": 5724,
      "Viwanda": 5725,
      "Hai": 5726,
      "##ven": 5727,
      "##ci": 5728,
      "##zana": 5729,
      "##fadhili": 5730,
      "makampuni": 5731,
      "ndoto": 5732,
      "chumba": 5733,
      "##mbili": 5734,
      "Vodacom": 5735,
      "32": 5736,
      "wanahabari": 5737,
      "watumiaji": 5738,
      "vijiji": 5739,
      "##ambulisho": 5740,
      "##yonge": 5741,
      "kizazi": 5742,
      "viwango": 5743,
      "##endeshaji": 5744,
      "##fikiria": 5745,
      "ufunguzi": 5746,
      "sura": 5747,
      "kuongoza": 5748,
      "barabarani": 5749,
      "kud": 5750,
      "kuwasaidia": 5751,
      "India": 5752,
      "##rembo": 5753,
      "and": 5754,
      "alio": 5755,
      "ZI": 5756,
      "Yeye": 5757,
      "misi": 5758,
      "##ct": 5759,
      "Yeho": 5760,
      "##fungo": 5761,
      "##tarajiwa": 5762,
      "##ibuka": 5763,
      "##anzisha": 5764,
      "Waa": 5765,
      "##athirika": 5766,
      "##unza": 5767,
      "mli": 5768,
      "hukumu": 5769,
      "##ber": 5770,
      "##drid": 5771,
      "uongo": 5772,
      "NYU": 5773,
      "##ANJA": 5774,
      "##siliana": 5775,
      "akaunti": 5776,
      "wakim": 5777,
      "##gezeko": 5778,
      "##lulizo": 5779,
      "albino": 5780,
      "SU": 5781,
      "usimamizi": 5782,
      "kuandaa": 5783,
      "##chafu": 5784,
      "##PATA": 5785,
      "Uongozi": 5786,
      "ham": 5787,
      "wakimbizi": 5788,
      "##onald": 5789,
      "##yembe": 5790,
      "##INGI": 5791,
      "##MP": 5792,
      "unajua": 5793,
      "##zoni": 5794,
      "kigeni": 5795,
      "Kijerumani": 5796,
      "##EZI": 5797,
      "Burundi": 5798,
      "Waislamu": 5799,
      "Kulia": 5800,
      "Mwakilishi": 5801,
      "kichwa": 5802,
      "VYOMBO": 5803,
      "Ub": 5804,
      "uhalifu": 5805,
      "takwimu": 5806,
      "##mber": 5807,
      "peke": 5808,
      "Ngu": 5809,
      "kupanda": 5810,
      "vijijini": 5811,
      "mjadala": 5812,
      "bongo": 5813,
      "waja": 5814,
      "kaskazini": 5815,
      "mashariki": 5816,
      "##gezo": 5817,
      "##uts": 5818,
      "##pana": 5819,
      "Tabora": 5820,
      "dalili": 5821,
      "nyota": 5822,
      "##ps": 5823,
      "Ar": 5824,
      "##isheni": 5825,
      "Glo": 5826,
      "Madrid": 5827,
      "lilikuwa": 5828,
      "Mpira": 5829,
      "##pekee": 5830,
      "kudumu": 5831,
      "niki": 5832,
      "##VE": 5833,
      "Lugha": 5834,
      "CHU": 5835,
      "mtazamo": 5836,
      "##uzulu": 5837,
      "Vyombo": 5838,
      "06": 5839,
      "##kezwa": 5840,
      "kulikuwa": 5841,
      "atakaye": 5842,
      "CA": 5843,
      "##simam": 5844,
      "ombe": 5845,
      "Em": 5846,
      "kijeshi": 5847,
      "##shana": 5848,
      "USA": 5849,
      "ELIMU": 5850,
      "2009": 5851,
      "##athmini": 5852,
      "##paji": 5853,
      "min": 5854,
      "##lex": 5855,
      "Maafisa": 5856,
      "##wo": 5857,
      "##inafsi": 5858,
      "##amaki": 5859,
      "Kozi": 5860,
      "usio": 5861,
      "##pangwa": 5862,
      "2007": 5863,
      "Yehova": 5864,
      "##right": 5865,
      "##ESHI": 5866,
      "##andikie": 5867,
      "George": 5868,
      "##tumie": 5869,
      "##VYO": 5870,
      "Zit": 5871,
      "Mch": 5872,
      "Mapambano": 5873,
      "Ngo": 5874,
      "##resheni": 5875,
      "uteuzi": 5876,
      "kiti": 5877,
      "##jiunga": 5878,
      "##zina": 5879,
      "Hayo": 5880,
      "##shiria": 5881,
      "Vita": 5882,
      "##stina": 5883,
      "uv": 5884,
      "UW": 5885,
      "##CHE": 5886,
      "##uel": 5887,
      "tuko": 5888,
      "mkakati": 5889,
      "Moshi": 5890,
      "Mwisho": 5891,
      "##andam": 5892,
      "Mwakyembe": 5893,
      "##ZWA": 5894,
      "fomu": 5895,
      "##vie": 5896,
      "Teknolojia": 5897,
      "Tigo": 5898,
      "Nini": 5899,
      "nishati": 5900,
      "##ssi": 5901,
      "##kali": 5902,
      "##57": 5903,
      "##KUT": 5904,
      "Utumishi": 5905,
      "Orodha": 5906,
      "##weke": 5907,
      "##unde": 5908,
      "##katili": 5909,
      "kwangu": 5910,
      "mabaya": 5911,
      "##atani": 5912,
      "##vana": 5913,
      "wagombea": 5914,
      "##wele": 5915,
      "mashambulizi": 5916,
      "mikono": 5917,
      "leseni": 5918,
      "CHINI": 5919,
      "kudai": 5920,
      "halali": 5921,
      "##zaa": 5922,
      "##usi": 5923,
      "MIKO": 5924,
      "idara": 5925,
      "Jenerali": 5926,
      "ijayo": 5927,
      "##utsche": 5928,
      "Wali": 5929,
      "wapiga": 5930,
      "hawezi": 5931,
      "magumu": 5932,
      "Mba": 5933,
      "45": 5934,
      "mtihani": 5935,
      "##ulu": 5936,
      "##shindani": 5937,
      "Aliye": 5938,
      "chombo": 5939,
      "##pyu": 5940,
      "##lalamiko": 5941,
      "##utu": 5942,
      "2019": 5943,
      "kibiashara": 5944,
      "##wawa": 5945,
      "##kebisho": 5946,
      "##jeruhiwa": 5947,
      "##UNIA": 5948,
      "##eita": 5949,
      "Injili": 5950,
      "akiongea": 5951,
      "##hoo": 5952,
      "Kijiji": 5953,
      "##pyuta": 5954,
      "##seme": 5955,
      "dada": 5956,
      "Sekta": 5957,
      "Ange": 5958,
      "Mbowe": 5959,
      "iliyotolewa": 5960,
      "##urugu": 5961,
      "##elevu": 5962,
      "##ANZI": 5963,
      "OF": 5964,
      "KUJI": 5965,
      "##rithi": 5966,
      "##poke": 5967,
      "wakubwa": 5968,
      "##jam": 5969,
      "Neno": 5970,
      "inge": 5971,
      "maelekezo": 5972,
      "WILAYA": 5973,
      "##rahisi": 5974,
      "Makao": 5975,
      "##dhari": 5976,
      "Muhi": 5977,
      "Copy": 5978,
      "haija": 5979,
      "MKUTANO": 5980,
      "Matumizi": 5981,
      "WAKE": 5982,
      "##lazimika": 5983,
      "##AND": 5984,
      "miliki": 5985,
      "##ward": 5986,
      "mbio": 5987,
      "##rufuku": 5988,
      "kuamua": 5989,
      "##takazo": 5990,
      "masiki": 5991,
      "##inguni": 5992,
      "shabiki": 5993,
      "Ujumbe": 5994,
      "pointi": 5995,
      "##DOMA": 5996,
      "##ungwa": 5997,
      "majengo": 5998,
      "Rejea": 5999,
      "##heshimiwa": 6000,
      "##swada": 6001,
      "##loni": 6002,
      "##cia": 6003,
      "vyao": 6004,
      "Maswali": 6005,
      "##hojiano": 6006,
      "tuandikie": 6007,
      "kumwa": 6008,
      "Mgombea": 6009,
      "Bra": 6010,
      "vikao": 6011,
      "Kigwangalla": 6012,
      "Copyright": 6013,
      "##agiza": 6014,
      "Mjumbe": 6015,
      "##ompyuta": 6016,
      "DODOMA": 6017,
      "walivyo": 6018,
      "masikioni": 6019,
      "##saka": 6020,
      "Hadi": 6021,
      "##wasilishwa": 6022,
      "##umbele": 6023,
      "nguo": 6024,
      "##heshimu": 6025,
      "mkewe": 6026,
      "KILI": 6027,
      "mgo": 6028,
      "##bainisha": 6029,
      "Ukumbi": 6030,
      "Deutsche": 6031,
      "Tatu": 6032,
      "Uka": 6033,
      "watakuwa": 6034,
      "Ag": 6035,
      "Demokrasia": 6036,
      "##kizo": 6037,
      "##kenya": 6038,
      "##bel": 6039,
      "MIC": 6040,
      "##shirikiana": 6041,
      "sanaa": 6042,
      "AU": 6043,
      "wanavyo": 6044,
      "Wha": 6045,
      "Muongozo": 6046,
      "##jibiki": 6047,
      "##mio": 6048,
      "lao": 6049,
      "Welle": 6050,
      "##dhimisha": 6051,
      "##suku": 6052,
      "##atiwa": 6053,
      "Geita": 6054,
      "##bishwa": 6055,
      "##aima": 6056,
      "Tak": 6057,
      "Nam": 6058,
      "33": 6059,
      "##CHAGU": 6060,
      "migogoro": 6061,
      "demokrasia": 6062,
      "nyu": 6063,
      "##rejesha": 6064,
      "##amuziki": 6065,
      "Siasa": 6066,
      "##anze": 6067,
      "##TANGA": 6068,
      "amewataka": 6069,
      "mti": 6070,
      "kuonekana": 6071,
      "90": 6072,
      "##KWE": 6073,
      "mipaka": 6074,
      "Kusikiliza": 6075,
      "##fakari": 6076,
      "37": 6077,
      "kipato": 6078,
      "hoteli": 6079,
      "matunda": 6080,
      "##hubiri": 6081,
      "WANAFUNZI": 6082,
      "##gono": 6083,
      "##ff": 6084,
      "MAP": 6085,
      "Ruvu": 6086,
      "kutolewa": 6087,
      "Kushoto": 6088,
      "##jita": 6089,
      "anapo": 6090,
      "##pasuaji": 6091,
      "wanayo": 6092,
      "bwana": 6093,
      "##ulizwa": 6094,
      "Wikipedia": 6095,
      "Wema": 6096,
      "wanam": 6097,
      "##EYA": 6098,
      "SHU": 6099,
      "for": 6100,
      "##zunguka": 6101,
      "Makofi": 6102,
      "Ajira": 6103,
      "##yanya": 6104,
      "##sara": 6105,
      "##raia": 6106,
      "Haiwa": 6107,
      "Tuko": 6108,
      "milele": 6109,
      "kucha": 6110,
      "Klabu": 6111,
      "Masa": 6112,
      "utulivu": 6113,
      "hasi": 6114,
      "mashu": 6115,
      "##ys": 6116,
      "Nakili": 6117,
      "mifugo": 6118,
      "mapambano": 6119,
      "Hili": 6120,
      "Makuu": 6121,
      "Lindi": 6122,
      "Haiwajibiki": 6123,
      "##onea": 6124,
      "kutokuwa": 6125,
      "##pendwa": 6126,
      "kiunganisho": 6127,
      "Con": 6128,
      "kuhifadhi": 6129,
      "mungu": 6130,
      "viunganisho": 6131,
      "##zimio": 6132,
      "##yanzo": 6133,
      "vitafungua": 6134,
      "##LISI": 6135,
      "Peter": 6136,
      "HE": 6137,
      "Nape": 6138,
      "##ww": 6139,
      "##chukuzi": 6140,
      "AWA": 6141,
      "Wetu": 6142,
      "hawaja": 6143,
      "##funguliwa": 6144,
      "##rn": 6145,
      "vyakula": 6146,
      "##BAR": 6147,
      "jumuiya": 6148,
      "Plat": 6149,
      "Ulimwengu": 6150,
      "Said": 6151,
      "##shirikisha": 6152,
      "Bungeni": 6153,
      "wapinzani": 6154,
      "##isai": 6155,
      "Mawaziri": 6156,
      "AS": 6157,
      "##lsea": 6158,
      "mbegu": 6159,
      "##TANZANIA": 6160,
      "Gazeti": 6161,
      "##pambana": 6162,
      "Waki": 6163,
      "Wakala": 6164,
      "Kim": 6165,
      "##azi": 6166,
      "tija": 6167,
      "MBALI": 6168,
      "##KUTANA": 6169,
      "Mali": 6170,
      "##bwe": 6171,
      "##anzia": 6172,
      "vurugu": 6173,
      "matakwa": 6174,
      "yalikuwa": 6175,
      "##jifunza": 6176,
      "Saba": 6177,
      "majira": 6178,
      "Uwekezaji": 6179,
      "##ikh": 6180,
      "##thibitisha": 6181,
      "takribani": 6182,
      "kus": 6183,
      "##vile": 6184,
      "Awamu": 6185,
      "##isaidia": 6186,
      "tisa": 6187,
      "Zitto": 6188,
      "##safiri": 6189,
      "kuzalisha": 6190,
      "binti": 6191,
      "miji": 6192,
      "ongezeko": 6193,
      "no": 6194,
      "##chukulia": 6195,
      "sare": 6196,
      "##jue": 6197,
      "##fundisho": 6198,
      "##elev": 6199,
      "lile": 6200,
      "kilichopo": 6201,
      "##dy": 6202,
      "inasema": 6203,
      "70": 6204,
      "kif": 6205,
      "ujuzi": 6206,
      "Pre": 6207,
      "Chelsea": 6208,
      "Ban": 6209,
      "##some": 6210,
      "##JILI": 6211,
      "##umbuzi": 6212,
      "dharura": 6213,
      "mkali": 6214,
      "##ence": 6215,
      "semina": 6216,
      "nyakati": 6217,
      "Wewe": 6218,
      "kiungo": 6219,
      "kuwania": 6220,
      "ubunge": 6221,
      "MAJ": 6222,
      "dw": 6223,
      "Mna": 6224,
      "wawekezaji": 6225,
      "##amiwa": 6226,
      "Aka": 6227,
      "##indano": 6228,
      "unapo": 6229,
      "kero": 6230,
      "mapya": 6231,
      "langu": 6232,
      "##potea": 6233,
      "Lis": 6234,
      "##ISH": 6235,
      "##andiko": 6236,
      "mwalimu": 6237,
      "##bile": 6238,
      "His": 6239,
      "Kumbu": 6240,
      "kupita": 6241,
      "Kabla": 6242,
      "vin": 6243,
      "England": 6244,
      "##wazi": 6245,
      "IKU": 6246,
      "wapenzi": 6247,
      "htt": 6248,
      "##umzi": 6249,
      "##nia": 6250,
      "TRA": 6251,
      "##KWA": 6252,
      "rekodi": 6253,
      "Abda": 6254,
      "##og": 6255,
      "Kib": 6256,
      "##ONGE": 6257,
      "dhati": 6258,
      "##kuza": 6259,
      "##roho": 6260,
      "bahari": 6261,
      "MAFUN": 6262,
      "marufuku": 6263,
      "mapendekezo": 6264,
      "ilitumwa": 6265,
      "##saji": 6266,
      "##jadiliano": 6267,
      "##habu": 6268,
      "Msemaji": 6269,
      "kufanikisha": 6270,
      "uhai": 6271,
      "miti": 6272,
      "wanajeshi": 6273,
      "##chezwa": 6274,
      "kuha": 6275,
      "##kusudi": 6276,
      "##ble": 6277,
      "##saidi": 6278,
      "kuam": 6279,
      "##dhalika": 6280,
      "wasomaji": 6281,
      "##shikam": 6282,
      "uzazi": 6283,
      "pasi": 6284,
      "##hamu": 6285,
      "##tikadi": 6286,
      "ndivyo": 6287,
      "Id": 6288,
      "DUNIA": 6289,
      "##chambuzi": 6290,
      "kumalizika": 6291,
      "mia": 6292,
      "misha": 6293,
      "mikataba": 6294,
      "##endeshwa": 6295,
      "##manuel": 6296,
      "##dapo": 6297,
      "kuwasilisha": 6298,
      "Tano": 6299,
      "80": 6300,
      "mahojiano": 6301,
      "Donald": 6302,
      "Inter": 6303,
      "BABA": 6304,
      "amei": 6305,
      "mwen": 6306,
      "##umbo": 6307,
      "SC": 6308,
      "Ufundi": 6309,
      "imara": 6310,
      "Kauli": 6311,
      "##TAZAMA": 6312,
      "kukagua": 6313,
      "kukabidhi": 6314,
      "##yana": 6315,
      "iliyokuwa": 6316,
      "ilipo": 6317,
      "Hati": 6318,
      "##ruhusi": 6319,
      "kujali": 6320,
      "Edward": 6321,
      "bodi": 6322,
      "MBEYA": 6323,
      "malalamiko": 6324,
      "Soka": 6325,
      "masa": 6326,
      "pole": 6327,
      "kukata": 6328,
      "##ulo": 6329,
      "Mwanamke": 6330,
      "kuunda": 6331,
      "##atumi": 6332,
      "mapinduzi": 6333,
      "Gha": 6334,
      "##umivu": 6335,
      "##pungua": 6336,
      "mfululizo": 6337,
      "uf": 6338,
      "wawe": 6339,
      "kufuatilia": 6340,
      "Mbara": 6341,
      "##WANA": 6342,
      "##gizaji": 6343,
      "IKULU": 6344,
      "36": 6345,
      "##ingilia": 6346,
      "2008": 6347,
      "Muhimbili": 6348,
      "##peresheni": 6349,
      "##furahia": 6350,
      "Karibu": 6351,
      "##gue": 6352,
      "YAKO": 6353,
      "JW": 6354,
      "##thio": 6355,
      "##pasa": 6356,
      "el": 6357,
      "NDANI": 6358,
      "##onyesho": 6359,
      "##fikiwa": 6360,
      "inawa": 6361,
      "ukaguzi": 6362,
      "##cto": 6363,
      "Africa": 6364,
      "RE": 6365,
      "mago": 6366,
      "CHUO": 6367,
      "##fahamika": 6368,
      "##imbaji": 6369,
      "uwepo": 6370,
      "##ANGO": 6371,
      "mabo": 6372,
      "INA": 6373,
      "hakuwa": 6374,
      "##unu": 6375,
      "Congo": 6376,
      "##ISHO": 6377,
      "##atoka": 6378,
      "Kocha": 6379,
      "##no": 6380,
      "God": 6381,
      "ukosefu": 6382,
      "kuibu": 6383,
      "mema": 6384,
      "##kutwa": 6385,
      "nilikuwa": 6386,
      "##hiki": 6387,
      "www": 6388,
      "Ramad": 6389,
      "##puko": 6390,
      "mashtaka": 6391,
      "JK": 6392,
      "tawala": 6393,
      "JO": 6394,
      "kueleza": 6395,
      "kujibu": 6396,
      "kufanikiwa": 6397,
      "##TIA": 6398,
      "##gar": 6399,
      "zitakazo": 6400,
      "Uchumi": 6401,
      "##ONA": 6402,
      "##baha": 6403,
      "Wajumbe": 6404,
      "##gawan": 6405,
      "wanataka": 6406,
      "##HURI": 6407,
      "##yahudi": 6408,
      "Kitengo": 6409,
      "tuka": 6410,
      "wizi": 6411,
      "II": 6412,
      "Mak": 6413,
      "Kundi": 6414,
      "Nyingine": 6415,
      "##ONGOZI": 6416,
      "##thiopia": 6417,
      "naku": 6418,
      "##haribi": 6419,
      "uzito": 6420,
      "##fafanuzi": 6421,
      "##tezi": 6422,
      "is": 6423,
      "KWANZA": 6424,
      "Ripoti": 6425,
      "##lay": 6426,
      "wanafanya": 6427,
      "asiye": 6428,
      "mwanadamu": 6429,
      "##riwa": 6430,
      "Gu": 6431,
      "labda": 6432,
      "kupigwa": 6433,
      "Hakimu": 6434,
      "Od": 6435,
      "##BIA": 6436,
      "##50": 6437,
      "##rah": 6438,
      "AP": 6439,
      "ofisini": 6440,
      "kuongezeka": 6441,
      "saini": 6442,
      "marekebisho": 6443,
      "mwi": 6444,
      "kurejea": 6445,
      "Msaidizi": 6446,
      "##pima": 6447,
      "wange": 6448,
      "kukamilisha": 6449,
      "##tini": 6450,
      "data": 6451,
      "ufafanuzi": 6452,
      "wanne": 6453,
      "02": 6454,
      "##teua": 6455,
      "##onesho": 6456,
      "##une": 6457,
      "##mbulio": 6458,
      "Hamad": 6459,
      "waumini": 6460,
      "##stari": 6461,
      "Ndu": 6462,
      "Real": 6463,
      "##zindu": 6464,
      "ukubwa": 6465,
      "mitaa": 6466,
      "##lana": 6467,
      "Kanuni": 6468,
      "Simi": 6469,
      "Vyama": 6470,
      "##od": 6471,
      "Ndio": 6472,
      "##somi": 6473,
      "Allah": 6474,
      "##chimbaji": 6475,
      "##lipwa": 6476,
      "mzazi": 6477,
      "JAM": 6478,
      "Marehemu": 6479,
      "ngozi": 6480,
      "Jambo": 6481,
      "Ber": 6482,
      "anayo": 6483,
      "##rin": 6484,
      "##ZUNGU": 6485,
      "kusamba": 6486,
      "alii": 6487,
      "##toe": 6488,
      "endelevu": 6489,
      "kwan": 6490,
      "Papa": 6491,
      "vyanzo": 6492,
      "pindi": 6493,
      "akina": 6494,
      "kuchagua": 6495,
      "##rasi": 6496,
      "Ethiopia": 6497,
      "##TC": 6498,
      "Vile": 6499,
      "mfuko": 6500,
      "##krani": 6501,
      "##demokrasia": 6502,
      "Hakika": 6503,
      "IN": 6504,
      "haramu": 6505,
      "Ziwa": 6506,
      "kipya": 6507,
      "US": 6508,
      "##lwa": 6509,
      "Maoni": 6510,
      "Kitaifa": 6511,
      "##ational": 6512,
      "##umz": 6513,
      "kutuma": 6514,
      "04": 6515,
      "baadae": 6516,
      "##elfu": 6517,
      "meli": 6518,
      "##INDI": 6519,
      "inaendelea": 6520,
      "upasuaji": 6521,
      "tunaweza": 6522,
      "Mwili": 6523,
      "kusikia": 6524,
      "Katoliki": 6525,
      "##ork": 6526,
      "Awali": 6527,
      "MAN": 6528,
      "UMOJA": 6529,
      "unavyo": 6530,
      "MAMBO": 6531,
      "IDA": 6532,
      "##cel": 6533,
      "kukusanya": 6534,
      "##elekeza": 6535,
      "upungufu": 6536,
      "kubadilisha": 6537,
      "05": 6538,
      "##der": 6539,
      "mashine": 6540,
      "mishahara": 6541,
      "2005": 6542,
      "##fuatayo": 6543,
      "##hirisha": 6544,
      "Nne": 6545,
      "matendo": 6546,
      "mam": 6547,
      "AFRIKA": 6548,
      "##balozi": 6549,
      "##ategemea": 6550,
      "##TANDA": 6551,
      "##kuzi": 6552,
      "Ndiyo": 6553,
      "Simiyu": 6554,
      "Mkapa": 6555,
      "masoko": 6556,
      "##ban": 6557,
      "##shikilia": 6558,
      "##gan": 6559,
      "##gust": 6560,
      "agizo": 6561,
      "Kufanya": 6562,
      "vema": 6563,
      "Uchukuzi": 6564,
      "##dilifu": 6565,
      "katibu": 6566,
      "##wasilisha": 6567,
      "aibu": 6568,
      "ca": 6569,
      "msha": 6570,
      "34": 6571,
      "wakiwemo": 6572,
      "WAKATI": 6573,
      "##ed": 6574,
      "##tangazwa": 6575,
      "Mtanzania": 6576,
      "##koba": 6577,
      "##fikishwa": 6578,
      "Swahili": 6579,
      "ud": 6580,
      "AC": 6581,
      "##zil": 6582,
      "##anguka": 6583,
      "tuweze": 6584,
      "Mao": 6585,
      "Filamu": 6586,
      "Kiingereza": 6587,
      "##rati": 6588,
      "mojawapo": 6589,
      "Mapato": 6590,
      "##amusi": 6591,
      "ngono": 6592,
      "CO": 6593,
      "##pisha": 6594,
      "Alex": 6595,
      "Wasi": 6596,
      "Dawa": 6597,
      "mage": 6598,
      "Milioni": 6599,
      "##vazi": 6600,
      "anataka": 6601,
      "##rey": 6602,
      "kuwekeza": 6603,
      "hadhara": 6604,
      "##LEO": 6605,
      "sijui": 6606,
      "usafi": 6607,
      "##ripotiwa": 6608,
      "NEW": 6609,
      "##rabati": 6610,
      "waasi": 6611,
      "##badilika": 6612,
      "kuunga": 6613,
      "##tam": 6614,
      "##PL": 6615,
      "##limisha": 6616,
      "##zunguko": 6617,
      "kompyuta": 6618,
      "##anishwa": 6619,
      "##ZAJI": 6620,
      "##ANZIBAR": 6621,
      "Sheikh": 6622,
      "Davi": 6623,
      "MAFUNZO": 6624,
      "mua": 6625,
      "##ir": 6626,
      "Ilala": 6627,
      "##wji": 6628,
      "##SHARA": 6629,
      "Lissu": 6630,
      "##CHU": 6631,
      "FE": 6632,
      "Par": 6633,
      "##aminifu": 6634,
      "Wengine": 6635,
      "online": 6636,
      "ZANZIBAR": 6637,
      "Huyu": 6638,
      "NAFA": 6639,
      "mstaafu": 6640,
      "##kita": 6641,
      "##atumika": 6642,
      "Somalia": 6643,
      "##ingu": 6644,
      "kwasa": 6645,
      "##cy": 6646,
      "kuthi": 6647,
      "Odinga": 6648,
      "unataka": 6649,
      "##PF": 6650,
      "##zozo": 6651,
      "mingine": 6652,
      "kwanini": 6653,
      "##jisi": 6654,
      "nafsi": 6655,
      "##sco": 6656,
      "mzee": 6657,
      "##haribifu": 6658,
      "tamasha": 6659,
      "##mira": 6660,
      "takriban": 6661,
      "kikamilifu": 6662,
      "Jina": 6663,
      "Emmanuel": 6664,
      "##tk": 6665,
      "jipya": 6666,
      "##shanga": 6667,
      "Mah": 6668,
      "##king": 6669,
      "kumpa": 6670,
      "##uzwa": 6671,
      "NAFASI": 6672,
      "##zetu": 6673,
      "Kum": 6674,
      "##inua": 6675,
      "isipokuwa": 6676,
      "majadiliano": 6677,
      "##amaha": 6678,
      "wanaoishi": 6679,
      "##ANCHI": 6680,
      "Mchezo": 6681,
      "Bajeti": 6682,
      "##chapisha": 6683,
      "kukamilika": 6684,
      "Slaa": 6685,
      "Airtel": 6686,
      "msichana": 6687,
      "Mwe": 6688,
      "##enguni": 6689,
      "ada": 6690,
      "Kweli": 6691,
      "##iza": 6692,
      "##use": 6693,
      "kure": 6694,
      "##yasema": 6695,
      "Ally": 6696,
      "ME": 6697,
      "##pigano": 6698,
      "wahusika": 6699,
      "maumivu": 6700,
      "Hiyo": 6701,
      "vyake": 6702,
      "##lestina": 6703,
      "sina": 6704,
      "SIMU": 6705,
      "MAMA": 6706,
      "Radio": 6707,
      "Zimba": 6708,
      "##CC": 6709,
      "##wanjani": 6710,
      "##fisha": 6711,
      "##ufaika": 6712,
      "##cke": 6713,
      "##fikapo": 6714,
      "##puka": 6715,
      "##imarisha": 6716,
      "##ard": 6717,
      "hususan": 6718,
      "##tetea": 6719,
      "kupo": 6720,
      "kikundi": 6721,
      "##CHO": 6722,
      "##koni": 6723,
      "kushika": 6724,
      "##uzo": 6725,
      "##sc": 6726,
      "uto": 6727,
      "09": 6728,
      "DUNI": 6729,
      "pengine": 6730,
      "kubaini": 6731,
      "JAMHURI": 6732,
      "mbinguni": 6733,
      "##DC": 6734,
      "##kima": 6735,
      "dhana": 6736,
      "##onda": 6737,
      "vikundi": 6738,
      "Zimbabwe": 6739,
      "Ummy": 6740,
      "##rekani": 6741,
      "shamba": 6742,
      "MUUNG": 6743,
      "Tuzo": 6744,
      "Magereza": 6745,
      "##mad": 6746,
      "##mbeni": 6747,
      "##22": 6748,
      "kugombea": 6749,
      "Mifugo": 6750,
      "##elevisheni": 6751,
      "mitihani": 6752,
      "##jika": 6753,
      "vigumu": 6754,
      "endapo": 6755,
      "likiwa": 6756,
      "2006": 6757,
      "##TEMBE": 6758,
      "kifungu": 6759,
      "Lib": 6760,
      "Kisha": 6761,
      "##hia": 6762,
      "mifumo": 6763,
      "##uro": 6764,
      "##oo": 6765,
      "MUUNGANO": 6766,
      "Programu": 6767,
      "##choche": 6768,
      "jela": 6769,
      "Mkataba": 6770,
      "chenye": 6771,
      "James": 6772,
      "nami": 6773,
      "joto": 6774,
      "Wenye": 6775,
      "DUNIANI": 6776,
      "magharibi": 6777,
      "kifungo": 6778,
      "napenda": 6779,
      "##riri": 6780,
      "kilele": 6781,
      "08": 6782,
      "wam": 6783,
      "##gai": 6784,
      "KUKA": 6785,
      "##ondon": 6786,
      "##load": 6787,
      "Mha": 6788,
      "ubingwa": 6789,
      "kuelewa": 6790,
      "mtandaoni": 6791,
      "MWANZA": 6792,
      "jua": 6793,
      "Ubungo": 6794,
      "kuvi": 6795,
      "uji": 6796,
      "WATOTO": 6797,
      "August": 6798,
      "umekuwa": 6799,
      "ktk": 6800,
      "##fara": 6801,
      "May": 6802,
      "##hamisha": 6803,
      "zilikuwa": 6804,
      "vikwazo": 6805,
      "##endera": 6806,
      "##gusa": 6807,
      "uso": 6808,
      "kufungwa": 6809,
      "LIGI": 6810,
      "##cco": 6811,
      "Ibrahi": 6812,
      "kipi": 6813,
      "kaunti": 6814,
      "SASA": 6815,
      "##hifadhiwa": 6816,
      "hasara": 6817,
      "##angwa": 6818,
      "Mer": 6819,
      "kuch": 6820,
      "##DILI": 6821,
      "##pelekwa": 6822,
      "kutetea": 6823,
      "mkopo": 6824,
      "kimya": 6825,
      "ukuaji": 6826,
      "##waa": 6827,
      "##luhi": 6828,
      "Muda": 6829,
      "wapya": 6830,
      "London": 6831,
      "##klia": 6832,
      "##celona": 6833,
      "##KUWA": 6834,
      "##MISE": 6835,
      "##TUKO": 6836,
      "wate": 6837,
      "yenyewe": 6838,
      "samaki": 6839,
      "##ficha": 6840,
      "##ifanya": 6841,
      "TUKO": 6842,
      "##OND": 6843,
      "##hakikishia": 6844,
      "itaendelea": 6845,
      "Mwezi": 6846,
      "matatu": 6847,
      "Dewji": 6848,
      "##tta": 6849,
      "##RIS": 6850,
      "##zwe": 6851,
      "##firishaji": 6852,
      "##rick": 6853,
      "##gopa": 6854,
      "mwenzake": 6855,
      "##ANG": 6856,
      "kifedha": 6857,
      "##zoea": 6858,
      "Kiu": 6859,
      "Paulo": 6860,
      "Twitter": 6861,
      "##DUA": 6862,
      "##ambiwa": 6863,
      "Tiba": 6864,
      "MKA": 6865,
      "kusu": 6866,
      "SIMBA": 6867,
      "##jengea": 6868,
      "Ukweli": 6869,
      "busara": 6870,
      "Rasmi": 6871,
      "nk": 6872,
      "Maneno": 6873,
      "Ara": 6874,
      "Barcelona": 6875,
      "##zinduliwa": 6876,
      "##tambulisha": 6877,
      "##skini": 6878,
      "uendeshaji": 6879,
      "##linganisha": 6880,
      "hatia": 6881,
      "##TATU": 6882,
      "fupi": 6883,
      "elfu": 6884,
      "##singi": 6885,
      "wenyeji": 6886,
      "pembe": 6887,
      "JESHI": 6888,
      "##VA": 6889,
      "ulemavu": 6890,
      "enzi": 6891,
      "##loud": 6892,
      "##tiwa": 6893,
      "##leza": 6894,
      "kupa": 6895,
      "Binadamu": 6896,
      "##ongezea": 6897,
      "mazishi": 6898,
      "David": 6899,
      "##kipiki": 6900,
      "mstari": 6901,
      "##MANI": 6902,
      "##tiki": 6903,
      "tete": 6904,
      "POLISI": 6905,
      "nawa": 6906,
      "NAIBU": 6907,
      "kikazi": 6908,
      "##rison": 6909,
      "42": 6910,
      "Mechi": 6911,
      "##lau": 6912,
      "ushindani": 6913,
      "##huku": 6914,
      "##engenezwa": 6915,
      "##et": 6916,
      "kidini": 6917,
      "##jumuisha": 6918,
      "##historia": 6919,
      "##onde": 6920,
      "Sababu": 6921,
      "majeshi": 6922,
      "ifikapo": 6923,
      "MAJI": 6924,
      "wanan": 6925,
      "tamko": 6926,
      "TANESCO": 6927,
      "sakata": 6928,
      "kujaribu": 6929,
      "mkazi": 6930,
      "kupanga": 6931,
      "##faulu": 6932,
      "##TWA": 6933,
      "Petro": 6934,
      "##pigia": 6935,
      "Italia": 6936,
      "##plo": 6937,
      "rufaa": 6938,
      "Dola": 6939,
      "##takavyo": 6940,
      "##ridi": 6941,
      "viungo": 6942,
      "##stan": 6943,
      "##ambatana": 6944,
      "##inishwa": 6945,
      "Upinzani": 6946,
      "##shuru": 6947,
      "##wekea": 6948,
      "##ger": 6949,
      "kiko": 6950,
      "Njo": 6951,
      "Mabingwa": 6952,
      "##KON": 6953,
      "##jamii": 6954,
      "yaliyofanyika": 6955,
      "##yara": 6956,
      "##fuatia": 6957,
      "##shawishi": 6958,
      "##pendekeza": 6959,
      "##shikamano": 6960,
      "##chango": 6961,
      "##hus": 6962,
      "Pinda": 6963,
      "##vutia": 6964,
      "TAMISE": 6965,
      "##ilio": 6966,
      "##tangu": 6967,
      "hasira": 6968,
      "kuongea": 6969,
      "MAISHA": 6970,
      "##ID": 6971,
      "mvu": 6972,
      "akimkabidhi": 6973,
      "vyenye": 6974,
      "Mratibu": 6975,
      "##fanana": 6976,
      "##atokea": 6977,
      "##kundu": 6978,
      "Mwananchi": 6979,
      "mtaa": 6980,
      "##amehe": 6981,
      "##sihi": 6982,
      "TAMISEMI": 6983,
      "##ambukizi": 6984,
      "nazo": 6985,
      "Bibi": 6986,
      "##engeti": 6987,
      "japo": 6988,
      "##39": 6989,
      "kuzindua": 6990,
      "##gani": 6991,
      "Takwimu": 6992,
      "##ZINDUA": 6993,
      "alieleza": 6994,
      "Sport": 6995,
      "hisa": 6996,
      "Abdallah": 6997,
      "Uislamu": 6998,
      "kipekee": 6999,
      "halafu": 7000,
      "hadhi": 7001,
      "mabingwa": 7002,
      "Jubile": 7003,
      "400": 7004,
      "CRD": 7005,
      "kazini": 7006,
      "UMMA": 7007,
      "Mata": 7008,
      "MAJINA": 7009,
      "Anga": 7010,
      "##MWI": 7011,
      "CRDB": 7012,
      "##punguza": 7013,
      "##wnload": 7014,
      "##rudisha": 7015,
      "Sir": 7016,
      "inakuwa": 7017,
      "##ombe": 7018,
      "jinsia": 7019,
      "##numz": 7020,
      "ufumbuzi": 7021,
      "SHI": 7022,
      "##ance": 7023,
      "OFISI": 7024,
      "PAMOJA": 7025,
      "Tarehe": 7026,
      "dhahabu": 7027,
      "##vin": 7028,
      "Free": 7029,
      "Kidato": 7030,
      "##yesha": 7031,
      "BONGO": 7032,
      "kuhamasisha": 7033,
      "##ZUNGUM": 7034,
      "SH": 7035,
      "Ng": 7036,
      "##ub": 7037,
      "kujitokeza": 7038,
      "##laika": 7039,
      "Wengi": 7040,
      "##UNGA": 7041,
      "msiba": 7042,
      "huwezi": 7043,
      "yatakayo": 7044,
      "DRC": 7045,
      "Kambi": 7046,
      "##RT": 7047,
      "JIN": 7048,
      "mbadala": 7049,
      "Isa": 7050,
      "Ira": 7051,
      "##hui": 7052,
      "aliongeza": 7053,
      "##yoo": 7054,
      "jukwaa": 7055,
      "##endea": 7056,
      "##KANA": 7057,
      "AKUTANA": 7058,
      "##patiwa": 7059,
      "UJ": 7060,
      "MABA": 7061,
      "NEWS": 7062,
      "zipo": 7063,
      "Mtazamo": 7064,
      "Soko": 7065,
      "JKT": 7066,
      "mah": 7067,
      "hawapo": 7068,
      "kuvunja": 7069,
      "zima": 7070,
      "##elewe": 7071,
      "hazina": 7072,
      "utajiri": 7073,
      "Zambia": 7074,
      "UKIMWI": 7075,
      "##ishio": 7076,
      "vikuu": 7077,
      "BEN": 7078,
      "njaa": 7079,
      "majimbo": 7080,
      "##lishwa": 7081,
      "HALI": 7082,
      "kongamano": 7083,
      "kamwe": 7084,
      "NDO": 7085,
      "anam": 7086,
      "chuki": 7087,
      "##sababishwa": 7088,
      "##meke": 7089,
      "kiroho": 7090,
      "neema": 7091,
      "jibu": 7092,
      "uharibifu": 7093,
      "usawa": 7094,
      "Mwanasheria": 7095,
      "majaribio": 7096,
      "##kane": 7097,
      "##semwa": 7098,
      "##erikali": 7099,
      "##kagua": 7100,
      "##vaa": 7101,
      "Brazil": 7102,
      "Hamisi": 7103,
      "ninge": 7104,
      "Ibrahim": 7105,
      "Israeli": 7106,
      "YOTE": 7107,
      "##ghari": 7108,
      "ukatili": 7109,
      "##kumbusha": 7110,
      "maziwa": 7111,
      "Ofisa": 7112,
      "mwingi": 7113,
      "Kikosi": 7114,
      "Serengeti": 7115,
      "June": 7116,
      "WEN": 7117,
      "sho": 7118,
      "Kongo": 7119,
      "TANGA": 7120,
      "Mtaa": 7121,
      "##pool": 7122,
      "Kura": 7123,
      "Mwinyi": 7124,
      "##GUA": 7125,
      "ZIA": 7126,
      "WANANCHI": 7127,
      "Liver": 7128,
      "##wapa": 7129,
      "st": 7130,
      "Imani": 7131,
      "##MBALI": 7132,
      "Nga": 7133,
      "##gilia": 7134,
      "San": 7135,
      "swala": 7136,
      "Uvuvi": 7137,
      "Tha": 7138,
      "YE": 7139,
      "urahisi": 7140,
      "uelewa": 7141,
      "upate": 7142,
      "uwanjani": 7143,
      "##ony": 7144,
      "kutokaTUKO": 7145,
      "Karume": 7146,
      "maarifa": 7147,
      "maofisa": 7148,
      "##chezea": 7149,
      "##islam": 7150,
      "maskini": 7151,
      "Tuli": 7152,
      "38": 7153,
      "##heri": 7154,
      "Wachezaji": 7155,
      "haiku": 7156,
      "email": 7157,
      "JUU": 7158,
      "kika": 7159,
      "Uhusiano": 7160,
      "KIMA": 7161,
      "kaka": 7162,
      "Mal": 7163,
      "bandari": 7164,
      "Platnumz": 7165,
      "kuhudhuria": 7166,
      "##hema": 7167,
      "kuwezesha": 7168,
      "juma": 7169,
      "kamusi": 7170,
      "wema": 7171,
      "inawezekana": 7172,
      "JANA": 7173,
      "##chia": 7174,
      "##bas": 7175,
      "##dharani": 7176,
      "mtindo": 7177,
      "##pishwa": 7178,
      "alifanya": 7179,
      "Mary": 7180,
      "MBALIMBALI": 7181,
      "##furi": 7182,
      "##umisha": 7183,
      "kingine": 7184,
      "Cloud": 7185,
      "Wilayani": 7186,
      "##red": 7187,
      "##res": 7188,
      "Tatizo": 7189,
      "viti": 7190,
      "##andikisha": 7191,
      "##tenga": 7192,
      "Manyara": 7193,
      "##KITI": 7194,
      "lo": 7195,
      "kuepuka": 7196,
      "Liverpool": 7197,
      "MAHA": 7198,
      "##jipanga": 7199,
      "wawakilishi": 7200,
      "April": 7201,
      "Lengo": 7202,
      "nyama": 7203,
      "mapigano": 7204,
      "sija": 7205,
      "NDIO": 7206,
      "##wira": 7207,
      "SHULE": 7208,
      "##hudhuri": 7209,
      "Wako": 7210,
      "Instagram": 7211,
      "Temeke": 7212,
      "KIKWE": 7213,
      "##yiko": 7214,
      "hadharani": 7215,
      "Amba": 7216,
      "kipaumbele": 7217,
      "##funguka": 7218,
      "Mart": 7219,
      "vikosi": 7220,
      "ninyi": 7221,
      "amefariki": 7222,
      "Bandari": 7223,
      "Mag": 7224,
      "##duka": 7225,
      "##TEMBELEA": 7226,
      "##harakati": 7227,
      "kupeleka": 7228,
      "Meya": 7229,
      "KIKWETE": 7230,
      "shuleni": 7231,
      "##udhui": 7232,
      "watano": 7233,
      "daima": 7234,
      "##mita": 7235,
      "##shtakiwa": 7236,
      "imetoa": 7237,
      "Kampeni": 7238,
      "##KIA": 7239,
      "##ombea": 7240,
      "##idii": 7241,
      "kuzungumzia": 7242,
      "KUTU": 7243,
      "RU": 7244,
      "##hubu": 7245,
      "wanapaswa": 7246,
      "Maria": 7247,
      "##cm": 7248,
      "kukamatwa": 7249,
      "madiwani": 7250,
      "Moyo": 7251,
      "zilizopita": 7252,
      "##kebisha": 7253,
      "##ambe": 7254,
      "kusafiri": 7255,
      "Mwanzo": 7256,
      "fikra": 7257,
      "Masoko": 7258,
      "##ishani": 7259,
      "makali": 7260,
      "sayansi": 7261,
      "Maalim": 7262,
      "dhahiri": 7263,
      "wamesema": 7264,
      "GA": 7265,
      "ngoma": 7266,
      "salamu": 7267,
      "##tua": 7268,
      "##bit": 7269,
      "shukrani": 7270,
      "kubeba": 7271,
      "Wakristo": 7272,
      "MAS": 7273,
      "##ongezi": 7274,
      "##bariki": 7275,
      "##piganaji": 7276,
      "##leva": 7277,
      "nidhamu": 7278,
      "##ron": 7279,
      "KATIBU": 7280,
      "maradhi": 7281,
      "##fiwa": 7282,
      "Upendo": 7283,
      "Tukio": 7284,
      "##gogo": 7285,
      "##ogle": 7286,
      "##sherehe": 7287,
      "Miss": 7288,
      "Ama": 7289,
      "umaskini": 7290,
      "##twe": 7291,
      "##jiandaa": 7292,
      "##lly": 7293,
      "##mbani": 7294,
      "##jikuta": 7295,
      "Mgeni": 7296,
      "##baka": 7297,
      "Us": 7298,
      "Sikiliza": 7299,
      "##SHAURI": 7300,
      "##tawala": 7301,
      "2000": 7302,
      "RAS": 7303,
      "##zozi": 7304,
      "ushiriki": 7305,
      "##jabu": 7306,
      "##dhiri": 7307,
      "##gambo": 7308,
      "PS": 7309,
      "Zia": 7310,
      "ungependa": 7311,
      "popote": 7312,
      "zenu": 7313,
      "hamu": 7314,
      "##zangu": 7315,
      "pikipiki": 7316,
      "071": 7317,
      "YALI": 7318,
      "huruma": 7319,
      "kuua": 7320,
      "Ufalme": 7321,
      "WOTE": 7322,
      "##CCM": 7323,
      "AL": 7324,
      "nyaraka": 7325,
      "maelfu": 7326,
      "nakala": 7327,
      "Wote": 7328,
      "##rwa": 7329,
      "Kisa": 7330,
      "gmail": 7331,
      "##likwa": 7332,
      "##shfa": 7333,
      "kufanyiwa": 7334,
      "48": 7335,
      "mfalme": 7336,
      "minne": 7337,
      "Tangu": 7338,
      "EA": 7339,
      "##KTA": 7340,
      "##elimisha": 7341,
      "##toni": 7342,
      "hususani": 7343,
      "ZIARA": 7344,
      "##arufu": 7345,
      "kuvutia": 7346,
      "kwasababu": 7347,
      "Barabara": 7348,
      "Wakenya": 7349,
      "##vutio": 7350,
      "kuwawezesha": 7351,
      "82": 7352,
      "NGU": 7353,
      "chao": 7354,
      "##pengele": 7355,
      "mafundisho": 7356,
      "mshahara": 7357,
      "Chan": 7358,
      "##hukumiwa": 7359,
      "ilivyokuwa": 7360,
      "Maeneo": 7361,
      "##dhifa": 7362,
      "anavyo": 7363,
      "robo": 7364,
      "bidii": 7365,
      "NYUMBA": 7366,
      "##hawa": 7367,
      "##weni": 7368,
      "mwanachama": 7369,
      "mawe": 7370,
      "Du": 7371,
      "Sauti": 7372,
      "inapo": 7373,
      "Aliongeza": 7374,
      "Clouds": 7375,
      "mwao": 7376,
      "taha": 7377,
      "Vya": 7378,
      "kuf": 7379,
      "Umeme": 7380,
      "Kuji": 7381,
      "##iko": 7382,
      "mwanga": 7383,
      "##mari": 7384,
      "kukua": 7385,
      "##sari": 7386,
      "anafanya": 7387,
      "Usimamizi": 7388,
      "##hojiwa": 7389,
      "kufahamu": 7390,
      "maambukizi": 7391,
      "##umishi": 7392,
      "anawa": 7393,
      "Salum": 7394,
      "Robert": 7395,
      "##SHIRIKI": 7396,
      "unayo": 7397,
      "Wale": 7398,
      "wastani": 7399,
      "NDI": 7400,
      "Sita": 7401,
      "Mana": 7402,
      "nadhani": 7403,
      "Jubilee": 7404,
      "ombi": 7405,
      "##angazia": 7406,
      "mwele": 7407,
      "##mas": 7408,
      "mkurugenzi": 7409,
      "End": 7410,
      "MJINI": 7411,
      "At": 7412,
      "African": 7413,
      "##roni": 7414,
      "kufurahi": 7415,
      "KUPI": 7416,
      "##kizwa": 7417,
      "##ENDELEO": 7418,
      "wanaishi": 7419,
      "hauna": 7420,
      "##RS": 7421,
      "##for": 7422,
      "##chael": 7423,
      "Mashindano": 7424,
      "##rida": 7425,
      "mp": 7426,
      "##angilia": 7427,
      "kihistoria": 7428,
      "##KILI": 7429,
      "##liko": 7430,
      "kitengo": 7431,
      "HAPO": 7432,
      "##enea": 7433,
      "##fuatavyo": 7434,
      "##MKE": 7435,
      "##ruhusiwa": 7436,
      "muundo": 7437,
      "kuifanya": 7438,
      "mto": 7439,
      "kuanzishwa": 7440,
      "Tsh": 7441,
      "mili": 7442,
      "##bakia": 7443,
      "44": 7444,
      "mme": 7445,
      "##UME": 7446,
      "amefanya": 7447,
      "##teuliwa": 7448,
      "Muhimu": 7449,
      "ubunifu": 7450,
      "OK": 7451,
      "lini": 7452,
      "Kima": 7453,
      "Mp": 7454,
      "uzima": 7455,
      "FIFA": 7456,
      "##sumbu": 7457,
      "##TEN": 7458,
      "##shirini": 7459,
      "##rosho": 7460,
      "##risti": 7461,
      "##simamisha": 7462,
      "##bao": 7463,
      "UWANJA": 7464,
      "PE": 7465,
      "##atolewa": 7466,
      "Makamba": 7467,
      "KAMP": 7468,
      "Kupitia": 7469,
      "You": 7470,
      "##kel": 7471,
      "serikalini": 7472,
      "41": 7473,
      "##56": 7474,
      "dhamira": 7475,
      "War": 7476,
      "Makazi": 7477,
      "urefu": 7478,
      "DC": 7479,
      "eti": 7480,
      "michango": 7481,
      "##miri": 7482,
      "##kabidhiwa": 7483,
      "AKA": 7484,
      "ratiba": 7485,
      "ambae": 7486,
      "MWANAMKE": 7487,
      "Nna": 7488,
      "Bukoba": 7489,
      "##KAZI": 7490,
      "##uye": 7491,
      "Mashirika": 7492,
      "##GON": 7493,
      "##ingizi": 7494,
      "##CA": 7495,
      "Vyuo": 7496,
      "Naomba": 7497,
      "MAENDELEO": 7498,
      "vyeti": 7499,
      "wamiliki": 7500,
      "wakifuatilia": 7501,
      "mavazi": 7502,
      "##ast": 7503,
      "wenzetu": 7504,
      "vigezo": 7505,
      "tusi": 7506,
      "zikiwa": 7507,
      "Viwanja": 7508,
      "wasa": 7509,
      "kiki": 7510,
      "tendo": 7511,
      "walisema": 7512,
      "karne": 7513,
      "Ute": 7514,
      "kunywa": 7515,
      "39": 7516,
      "mshambuliaji": 7517,
      "Qur": 7518,
      "ubaguzi": 7519,
      "##sale": 7520,
      "kuzu": 7521,
      "##onekano": 7522,
      "alipata": 7523,
      "Japan": 7524,
      "##DUMA": 7525,
      "##vulana": 7526,
      "naona": 7527,
      "Hapo": 7528,
      "ulivyo": 7529,
      "Wadau": 7530,
      "ULI": 7531,
      "elezo": 7532,
      "kuwataka": 7533,
      "Nawa": 7534,
      "USI": 7535,
      "##55": 7536,
      "MASHA": 7537,
      "alipotembelea": 7538,
      "##FO": 7539,
      "Ila": 7540,
      "Michael": 7541,
      "kulipwa": 7542,
      "Rukwa": 7543,
      "Mikopo": 7544,
      "RASMI": 7545,
      "mzigo": 7546,
      "##shuhuda": 7547,
      "##ongwe": 7548,
      "##usha": 7549,
      "inapatikana": 7550,
      "akipokea": 7551,
      "MICHE": 7552,
      "Sepetu": 7553,
      "Kitabu": 7554,
      "January": 7555,
      "##hamini": 7556,
      "##sasi": 7557,
      "ARU": 7558,
      "hekima": 7559,
      "MASO": 7560,
      "vipaji": 7561,
      "##KEA": 7562,
      "##era": 7563,
      "##liwe": 7564,
      "Gro": 7565,
      "##patie": 7566,
      "SANA": 7567,
      "shindano": 7568,
      "Ndugai": 7569,
      "##giliaji": 7570,
      "hayu": 7571,
      "mbu": 7572,
      "##lojia": 7573,
      "Akizungumzia": 7574,
      "wenzao": 7575,
      "mikononi": 7576,
      "##EL": 7577,
      "ulimwenguni": 7578,
      "##HIDI": 7579,
      "##siki": 7580,
      "Chakula": 7581,
      "KUS": 7582,
      "UKA": 7583,
      "mizigo": 7584,
      "Jana": 7585,
      "##ploma": 7586,
      "Tafadhali": 7587,
      "##LOZI": 7588,
      "##tumbu": 7589,
      "For": 7590,
      "Watumishi": 7591,
      "AME": 7592,
      "Mad": 7593,
      "hadithi": 7594,
      "AMBA": 7595,
      "##TZ": 7596,
      "Job": 7597,
      "UJENZI": 7598,
      "##lub": 7599,
      "Muh": 7600,
      "##ssein": 7601,
      "wanapata": 7602,
      "Safari": 7603,
      "Kilo": 7604,
      "##ans": 7605,
      "Sura": 7606,
      "MICHEZO": 7607,
      "mteja": 7608,
      "Asia": 7609,
      "lisi": 7610,
      "reli": 7611,
      "Muham": 7612,
      "##JIA": 7613,
      "##shangaa": 7614,
      "##ANDISHI": 7615,
      "miili": 7616,
      "Ukimwi": 7617,
      "##30": 7618,
      "##romo": 7619,
      "kashfa": 7620,
      "##changanyi": 7621,
      "##kusanya": 7622,
      "kuchunguza": 7623,
      "##isemba": 7624,
      "##ywaji": 7625,
      "Nnauye": 7626,
      "El": 7627,
      "budi": 7628,
      "Vitu": 7629,
      "Lea": 7630,
      "uhaba": 7631,
      "Bonyeza": 7632,
      "JE": 7633,
      "Wate": 7634,
      "le": 7635,
      "kutakuwa": 7636,
      "KUI": 7637,
      "Anasema": 7638,
      "operesheni": 7639,
      "##uo": 7640,
      "mte": 7641,
      "##gulu": 7642,
      "AKIWA": 7643,
      "##bani": 7644,
      "##menti": 7645,
      "kulala": 7646,
      "kushughulikia": 7647,
      "##atambua": 7648,
      "Ingawa": 7649,
      "Mfano": 7650,
      "##ews": 7651,
      "##TOBA": 7652,
      "Mpe": 7653,
      "Hatu": 7654,
      "Kumi": 7655,
      "taaluma": 7656,
      "msamaha": 7657,
      "via": 7658,
      "ufundi": 7659,
      "Walimu": 7660,
      "sar": 7661,
      "KAMATI": 7662,
      "Miongoni": 7663,
      "haita": 7664,
      "wazo": 7665,
      "##eneza": 7666,
      "mitambo": 7667,
      "WIKI": 7668,
      "Yohana": 7669,
      "##iliwa": 7670,
      "KUTOA": 7671,
      "EN": 7672,
      "##ress": 7673,
      "Mbu": 7674,
      "##tengeneza": 7675,
      "##teni": 7676,
      "##tekeleza": 7677,
      "##inikizo": 7678,
      "2557": 7679,
      "unahitaji": 7680,
      "mwenendo": 7681,
      "Sele": 7682,
      "UV": 7683,
      "mgonjwa": 7684,
      "Tamasha": 7685,
      "HUDUMA": 7686,
      "##gen": 7687,
      "##TV": 7688,
      "Hussein": 7689,
      "##sambazaji": 7690,
      "sikukuu": 7691,
      "##RUG": 7692,
      "banda": 7693,
      "virusi": 7694,
      "KUP": 7695,
      "##bainika": 7696,
      "##himiza": 7697,
      "kwenu": 7698,
      "KAB": 7699,
      "watuhumiwa": 7700,
      "im": 7701,
      "##fali": 7702,
      "##sikini": 7703,
      "Hizi": 7704,
      "mzozo": 7705,
      "OKTOBA": 7706,
      "kupima": 7707,
      "kuokoa": 7708,
      "faini": 7709,
      "Gre": 7710,
      "yafuatayo": 7711,
      "##jiriwa": 7712,
      "##gamo": 7713,
      "goli": 7714,
      "##endana": 7715,
      "Mwenge": 7716,
      "mabasi": 7717,
      "saratani": 7718,
      "Historia": 7719,
      "Msaada": 7720,
      "zinaweza": 7721,
      "mwendo": 7722,
      "##uzaji": 7723,
      "yapo": 7724,
      "BWANA": 7725,
      "Mkon": 7726,
      "##anzibari": 7727,
      "TANO": 7728,
      "##gharimu": 7729,
      "YANGA": 7730,
      "##RUGENZI": 7731,
      "Anna": 7732,
      "angalau": 7733,
      "Ziara": 7734,
      "WATA": 7735,
      "##semekana": 7736,
      "Phili": 7737,
      "Bei": 7738,
      "fe": 7739,
      "##tosha": 7740,
      "##iari": 7741,
      "tawi": 7742,
      "##ction": 7743,
      "kushangaza": 7744,
      "Ruvuma": 7745,
      "mlango": 7746,
      "akihutubia": 7747,
      "Mfalme": 7748,
      "hatuna": 7749,
      "SOMA": 7750,
      "kuonesha": 7751,
      "wanadamu": 7752,
      "bingwa": 7753,
      "##ziwa": 7754,
      "viwili": 7755,
      "kutoku": 7756,
      "mwelekeo": 7757,
      "mtumishi": 7758,
      "humu": 7759,
      "huja": 7760,
      "##hehe": 7761,
      "imewa": 7762,
      "pombe": 7763,
      "##kanisa": 7764,
      "mgumu": 7765,
      "naamini": 7766,
      "inaonyesha": 7767,
      "DAWA": 7768,
      "##HN": 7769,
      "BORA": 7770,
      "Licha": 7771,
      "Wawakilishi": 7772,
      "Disemba": 7773,
      "washindi": 7774,
      "nj": 7775,
      "##yata": 7776,
      "WAFANYA": 7777,
      "laki": 7778,
      "##iso": 7779,
      "wapata": 7780,
      "udha": 7781,
      "TAREHE": 7782,
      "Iraq": 7783,
      "##budu": 7784,
      "walim": 7785,
      "##bal": 7786,
      "wach": 7787,
      "KIMATAIFA": 7788,
      "chako": 7789,
      "kuchukuliwa": 7790,
      "Vijijini": 7791,
      "##MILI": 7792,
      "aweze": 7793,
      "##xi": 7794,
      "maagizo": 7795,
      "run": 7796,
      "##jitahidi": 7797,
      "aliwahi": 7798,
      "##DP": 7799,
      "##ingo": 7800,
      "anatarajiwa": 7801,
      "ulipo": 7802,
      "Nguvu": 7803,
      "##gamoyo": 7804,
      "Mola": 7805,
      "kuachana": 7806,
      "Kahama": 7807,
      "Ghana": 7808,
      "zimekuwa": 7809,
      "Arabia": 7810,
      "##roid": 7811,
      "MWENYEKITI": 7812,
      "##DS": 7813,
      "##karibia": 7814,
      "maonyesho": 7815,
      "aji": 7816,
      "Chu": 7817,
      "##den": 7818,
      "kuingilia": 7819,
      "MSA": 7820,
      "aj": 7821,
      "upe": 7822,
      "NASA": 7823,
      "Mtangazaji": 7824,
      "Google": 7825,
      "nae": 7826,
      "hawajui": 7827,
      "MV": 7828,
      "Dini": 7829,
      "KUM": 7830,
      "47": 7831,
      "daktari": 7832,
      "Simon": 7833,
      "akiwasili": 7834,
      "WATANZANIA": 7835,
      "##mishwa": 7836,
      "##JANA": 7837,
      "Kina": 7838,
      "TP": 7839,
      "##YIKA": 7840,
      "##tazama": 7841,
      "Mwigulu": 7842,
      "wataalam": 7843,
      "Asante": 7844,
      "Wimbo": 7845,
      "Sugar": 7846,
      "uliyo": 7847,
      "shirikisho": 7848,
      "harusi": 7849,
      "##tii": 7850,
      "haiwezi": 7851,
      "KUFANYA": 7852,
      "##sherehekea": 7853,
      "##ista": 7854,
      "muafaka": 7855,
      "Tho": 7856,
      "tunayo": 7857,
      "##enezi": 7858,
      "wafugaji": 7859,
      "Libya": 7860,
      "AJA": 7861,
      "tunaomba": 7862,
      "Kisi": 7863,
      "Wakurugenzi": 7864,
      "##DM": 7865,
      "masaa": 7866,
      "kibinadamu": 7867,
      "Uli": 7868,
      "##kumbwa": 7869,
      "kiele": 7870,
      "##JUMBE": 7871,
      "Dha": 7872,
      "##ls": 7873,
      "##BE": 7874,
      "Mahi": 7875,
      "##hudumu": 7876,
      "kuibuka": 7877,
      "by": 7878,
      "KILA": 7879,
      "Tundu": 7880,
      "mwanzoni": 7881,
      "ANA": 7882,
      "Ramadhani": 7883,
      "Akiwa": 7884,
      "##rajio": 7885,
      "tani": 7886,
      "maandishi": 7887,
      "##ambazi": 7888,
      "MASOMO": 7889,
      "##waji": 7890,
      "Es": 7891,
      "Darasa": 7892,
      "redio": 7893,
      "mwema": 7894,
      "##moni": 7895,
      "##pori": 7896,
      "waji": 7897,
      "inatoa": 7898,
      "52": 7899,
      "kibali": 7900,
      "mako": 7901,
      "Familia": 7902,
      "kutenda": 7903,
      "taka": 7904,
      "##dereva": 7905,
      "televisheni": 7906,
      "Tra": 7907,
      "##geuka": 7908,
      "##TANDAO": 7909,
      "##zanzibari": 7910,
      "aliwataka": 7911,
      "##shwe": 7912,
      "##hanati": 7913,
      "Kulingana": 7914,
      "SITA": 7915,
      "Bagamoyo": 7916,
      "York": 7917,
      "2020": 7918,
      "Eneo": 7919,
      "jiwe": 7920,
      "ilio": 7921,
      "ufu": 7922,
      "Dani": 7923,
      "##pand": 7924,
      "##wambia": 7925,
      "mwananchi": 7926,
      "UA": 7927,
      "lingine": 7928,
      "##sahau": 7929,
      "mumewe": 7930,
      "##MISHI": 7931,
      "##ANGU": 7932,
      "JOHN": 7933,
      "##tho": 7934,
      "Kikao": 7935,
      "##TCL": 7936,
      "chetu": 7937,
      "##umili": 7938,
      "##pport": 7939,
      "Im": 7940,
      "ani": 7941,
      "nikiwa": 7942,
      "##ridhisha": 7943,
      "tasnia": 7944,
      "kigaidi": 7945,
      "Lip": 7946,
      "##mbana": 7947,
      "Haji": 7948,
      "Shilingi": 7949,
      "uvuvi": 7950,
      "mashamba": 7951,
      "kujiuzulu": 7952,
      "KITU": 7953,
      "Amerika": 7954,
      "MADA": 7955,
      "##pasavyo": 7956,
      "KUPATA": 7957,
      "##hudhuriwa": 7958,
      "kumekuwa": 7959,
      "ukanda": 7960,
      "Swali": 7961,
      "Kinana": 7962,
      "##rusale": 7963,
      "MTU": 7964,
      "UVCCM": 7965,
      "Njombe": 7966,
      "ifuatavyo": 7967,
      "kusimama": 7968,
      "ccm": 7969,
      "##amka": 7970,
      "Mchungaji": 7971,
      "##bri": 7972,
      "Abu": 7973,
      "Gi": 7974,
      "Mchezaji": 7975,
      "##badilisha": 7976,
      "alicho": 7977,
      "##REA": 7978,
      "kushuhudia": 7979,
      "iweze": 7980,
      "##yongeza": 7981,
      "Zo": 7982,
      "##anganya": 7983,
      "makusudi": 7984,
      "##ative": 7985,
      "##upe": 7986,
      "mzunguko": 7987,
      "mtangazaji": 7988,
      "Cana": 7989,
      "##elele": 7990,
      "waliopo": 7991,
      "Saudi": 7992,
      "kuruhusu": 7993,
      "umaarufu": 7994,
      "maudhui": 7995,
      "madogo": 7996,
      "##toke": 7997,
      "utumishi": 7998,
      "##ovu": 7999,
      "udhibiti": 8000,
      "kujitoa": 8001,
      "ziwa": 8002,
      "havi": 8003,
      "##WEZA": 8004,
      "sukari": 8005,
      "##uguzi": 8006,
      "MOJA": 8007,
      "kwaa": 8008,
      "WADA": 8009,
      "chi": 8010,
      "TB": 8011,
      "HIYO": 8012,
      "54": 8013,
      "taji": 8014,
      "kijinsia": 8015,
      "adui": 8016,
      "mashi": 8017,
      "Euro": 8018,
      "tanzania": 8019,
      "##ny": 8020,
      "kando": 8021,
      "limekuwa": 8022,
      "inaonekana": 8023,
      "ghafla": 8024,
      "Gavana": 8025,
      "##kuzwa": 8026,
      "##tengenezwa": 8027,
      "washirika": 8028,
      "mjumbe": 8029,
      "afisa": 8030,
      "kufuzu": 8031,
      "itikadi": 8032,
      "88": 8033,
      "Ua": 8034,
      "uwazi": 8035,
      "##zua": 8036,
      "##ungi": 8037,
      "##chemba": 8038,
      "SEHE": 8039,
      "##wezo": 8040,
      "##ingizwa": 8041,
      "ipasavyo": 8042,
      "Ruto": 8043,
      "Musa": 8044,
      "##pindu": 8045,
      "magoli": 8046,
      "##ENDELEA": 8047,
      "Kale": 8048,
      "##tenda": 8049,
      "ai": 8050,
      "Ule": 8051,
      "ula": 8052,
      "##funze": 8053,
      "##kanusha": 8054,
      "madarasa": 8055,
      "alidai": 8056,
      "##soge": 8057,
      "tuwe": 8058,
      "##ces": 8059,
      "fani": 8060,
      "kub": 8061,
      "SEHEMU": 8062,
      "kadhalika": 8063,
      "nyuklia": 8064,
      "Kongamano": 8065,
      "Ushirika": 8066,
      "##dali": 8067,
      "##kome": 8068,
      "##hesa": 8069,
      "Nafasi": 8070,
      "Saa": 8071,
      "kuwapatia": 8072,
      "##yce": 8073,
      "Jane": 8074,
      "Mti": 8075,
      "##kimbia": 8076,
      "##fungia": 8077,
      "ushawishi": 8078,
      "##igizaji": 8079,
      "##JWA": 8080,
      "##ongoro": 8081,
      "##cial": 8082,
      "##RADI": 8083,
      "##songa": 8084,
      "##eneji": 8085,
      "Mon": 8086,
      "misitu": 8087,
      "##chapishwa": 8088,
      "ustawi": 8089,
      "Miguu": 8090,
      "kutembea": 8091,
      "##reni": 8092,
      "zinasema": 8093,
      "mfanyakazi": 8094,
      "##inho": 8095,
      "##husishwa": 8096,
      "##GP": 8097,
      "ARUSHA": 8098,
      "##uzito": 8099,
      "somo": 8100,
      "Yusu": 8101,
      "Kham": 8102,
      "Yu": 8103,
      "mateso": 8104,
      "43": 8105,
      "Wasiliana": 8106,
      "kiafya": 8107,
      "Kijamii": 8108,
      "baridi": 8109,
      "##pitisha": 8110,
      "waliohudhuria": 8111,
      "##ube": 8112,
      "Mte": 8113,
      "STA": 8114,
      "kuthibitisha": 8115,
      "tz": 8116,
      "##ISHWA": 8117,
      "MWISHO": 8118,
      "maonesho": 8119,
      "##zembe": 8120,
      "wapiganaji": 8121,
      "wanaendelea": 8122,
      "alisisitiza": 8123,
      "imeanza": 8124,
      "##xt": 8125,
      "##MIWA": 8126,
      "##jaji": 8127,
      "##ANII": 8128,
      "##gom": 8129,
      "##ongezwa": 8130,
      "ununuzi": 8131,
      "mwake": 8132,
      "##chukue": 8133,
      "KAN": 8134,
      "Uzinduzi": 8135,
      "Mbarawa": 8136,
      "Kwani": 8137,
      "wanatakiwa": 8138,
      "Bri": 8139,
      "Hoteli": 8140,
      "yamekuwa": 8141,
      "55": 8142,
      "NMB": 8143,
      "##tano": 8144,
      "##jihusisha": 8145,
      "Mafanikio": 8146,
      "##himili": 8147,
      "JWTZ": 8148,
      "##dhihirisha": 8149,
      "UKU": 8150,
      "kwaajili": 8151,
      "hawawezi": 8152,
      "tafsiri": 8153,
      "##lic": 8154,
      "viki": 8155,
      "Kag": 8156,
      "FI": 8157,
      "hospita": 8158,
      "KUT": 8159,
      "##sibu": 8160,
      "BUNGE": 8161,
      "nde": 8162,
      "tuliyo": 8163,
      "nataka": 8164,
      "kabila": 8165,
      "Rashi": 8166,
      "Malawi": 8167,
      "UP": 8168,
      "Nchemba": 8169,
      "haikuwa": 8170,
      "##atafuta": 8171,
      "Aust": 8172,
      "Muhammad": 8173,
      "Uhamiaji": 8174,
      "Bro": 8175,
      "ii": 8176,
      "tathmini": 8177,
      "kilomita": 8178,
      "##App": 8179,
      "kuungana": 8180,
      "kumw": 8181,
      "Maalumu": 8182,
      "##turi": 8183,
      "baraka": 8184,
      "##ZALIWA": 8185,
      "wahamiaji": 8186,
      "Alikuwa": 8187,
      "Muziki": 8188,
      "##HAMA": 8189,
      "##jibikaji": 8190,
      "kuhusika": 8191,
      "inam": 8192,
      "kiserikali": 8193,
      "aku": 8194,
      "##ongera": 8195,
      "##kre": 8196,
      "##iri": 8197,
      "Jukwaa": 8198,
      "ikawa": 8199,
      "##hodha": 8200,
      "46": 8201,
      "##unt": 8202,
      "Membe": 8203,
      "##td": 8204,
      "kurejesha": 8205,
      "vikali": 8206,
      "Nor": 8207,
      "##TAJI": 8208,
      "maswa": 8209,
      "Of": 8210,
      "kijijini": 8211,
      "jum": 8212,
      "KUBWA": 8213,
      "KUTAZAMA": 8214,
      "FU": 8215,
      "Maadhimisho": 8216,
      "##angalie": 8217,
      "##sekana": 8218,
      "Mande": 8219,
      "mwongozo": 8220,
      "madeni": 8221,
      "BENKI": 8222,
      "uliofanywa": 8223,
      "##ste": 8224,
      "##andamana": 8225,
      "##pha": 8226,
      "Ndg": 8227,
      "mda": 8228,
      "##ree": 8229,
      "HIS": 8230,
      "zinazoendelea": 8231,
      "Fursa": 8232,
      "Sitta": 8233,
      "Aliyekuwa": 8234,
      "##kandarasi": 8235,
      "53": 8236,
      "King": 8237,
      "##amiza": 8238,
      "wapatao": 8239,
      "Pakua": 8240,
      "##fanyike": 8241,
      "##amshi": 8242,
      "Online": 8243,
      "##enejimenti": 8244,
      "##ley": 8245,
      "mj": 8246,
      "##LMA": 8247,
      "Hisp": 8248,
      "##sanyaji": 8249,
      "Group": 8250,
      "##PITA": 8251,
      "##takacho": 8252,
      "UHU": 8253,
      "Whats": 8254,
      "kusambaza": 8255,
      "UCHAGU": 8256,
      "vipindi": 8257,
      "##ral": 8258,
      "mwakilishi": 8259,
      "##mbilia": 8260,
      "kuadhimisha": 8261,
      "##fautiana": 8262,
      "UCHAGUZI": 8263,
      "##teta": 8264,
      "sala": 8265,
      "##KARI": 8266,
      "inafanya": 8267,
      "umbali": 8268,
      "wenzangu": 8269,
      "Maandishi": 8270,
      "https": 8271,
      "PI": 8272,
      "Mto": 8273,
      "Kisutu": 8274,
      "hayupo": 8275,
      "unaendelea": 8276,
      "FEDHA": 8277,
      "CHAMA": 8278,
      "kifupi": 8279,
      "mgomo": 8280,
      "ufahamu": 8281,
      "##isani": 8282,
      "Mari": 8283,
      "ufugaji": 8284,
      "kuisaidia": 8285,
      "##meta": 8286,
      "##national": 8287,
      "56": 8288,
      "umakini": 8289,
      "kivi": 8290,
      "##oyo": 8291,
      "##zma": 8292,
      "Hispania": 8293,
      "##sela": 8294,
      "##soa": 8295,
      "##win": 8296,
      "Daudi": 8297,
      "BODI": 8298,
      "Uchunguzi": 8299,
      "##ington": 8300,
      "live": 8301,
      "Yule": 8302,
      "con": 8303,
      "49": 8304,
      "Raia": 8305,
      "MEC": 8306,
      "sote": 8307,
      "manispaa": 8308,
      "##CE": 8309,
      "ujauzito": 8310,
      "##daka": 8311,
      "kuwapo": 8312,
      "##hol": 8313,
      "tajiri": 8314,
      "alizo": 8315,
      "HUYU": 8316,
      "Philip": 8317,
      "Wazazi": 8318,
      "Sene": 8319,
      "fidia": 8320,
      "utata": 8321,
      "ushuru": 8322,
      "KIKUU": 8323,
      "##bitishwa": 8324,
      "##LII": 8325,
      "Kidemokrasia": 8326,
      "th": 8327,
      "Walio": 8328,
      "uchimbaji": 8329,
      "WhatsApp": 8330,
      "Upate": 8331,
      "SM": 8332,
      "ugaidi": 8333,
      "Namba": 8334,
      "Vic": 8335,
      "##lei": 8336,
      "##hukumu": 8337,
      "##RODHA": 8338,
      "600": 8339,
      "##rod": 8340,
      "Merkel": 8341,
      "NJE": 8342,
      "MARA": 8343,
      "visa": 8344,
      "##cheke": 8345,
      "FM": 8346,
      "KIN": 8347,
      "shambulio": 8348,
      "Momba": 8349,
      "##plomasia": 8350,
      "##isajili": 8351,
      "Harrison": 8352,
      "##furiko": 8353,
      "usafirishaji": 8354,
      "mageuzi": 8355,
      "##ENE": 8356,
      "Muse": 8357,
      "##fri": 8358,
      "nilivyo": 8359,
      "Makame": 8360,
      "maduka": 8361,
      "VVU": 8362,
      "kelele": 8363,
      "mamilioni": 8364,
      "AKI": 8365,
      "niliyo": 8366,
      "##sted": 8367,
      "raha": 8368,
      "Yake": 8369,
      "##kretari": 8370,
      "matarajio": 8371,
      "##hesabu": 8372,
      "Amina": 8373,
      "##ONGOZA": 8374,
      "kudumisha": 8375,
      "kirafiki": 8376,
      "deni": 8377,
      "vyumba": 8378,
      "kutunza": 8379,
      "ORODHA": 8380,
      "Hatima": 8381,
      "##linganishwa": 8382,
      "ajenda": 8383,
      "##by": 8384,
      "##fupa": 8385,
      "Kucheza": 8386,
      "macha": 8387,
      "mauzo": 8388,
      "Daraja": 8389,
      "Kagame": 8390,
      "sumu": 8391,
      "Mati": 8392,
      "Askari": 8393,
      "MECHI": 8394,
      "akifanya": 8395,
      "Tari": 8396,
      "##the": 8397,
      "cheti": 8398,
      "##giwa": 8399,
      "movie": 8400,
      "##rema": 8401,
      "##pungu": 8402,
      "hawata": 8403,
      "##ZEE": 8404,
      "VIJANA": 8405,
      "##ONYE": 8406,
      "Mwenyewe": 8407,
      "##yati": 8408,
      "wanawa": 8409,
      "kushuka": 8410,
      "Iv": 8411,
      "##damizi": 8412,
      "moyoni": 8413,
      "LIN": 8414,
      "##changiaji": 8415,
      "Salim": 8416,
      "Muga": 8417,
      "anajua": 8418,
      "kukataa": 8419,
      "kuwekwa": 8420,
      "RO": 8421,
      "##pishe": 8422,
      "Mr": 8423,
      "meza": 8424,
      "wavulana": 8425,
      "akifungua": 8426,
      "##oa": 8427,
      "##dirio": 8428,
      "JINSI": 8429,
      "mhariri": 8430,
      "kupatiwa": 8431,
      "Chini": 8432,
      "LU": 8433,
      "##tembea": 8434,
      "RI": 8435,
      "##ongoji": 8436,
      "Binafsi": 8437,
      "Mahiga": 8438,
      "kufikiri": 8439,
      "kusisitiza": 8440,
      "##fuatiliaji": 8441,
      "balozi": 8442,
      "##int": 8443,
      "Wash": 8444,
      "Mwanadamu": 8445,
      "##saha": 8446,
      "Mua": 8447,
      "Mbili": 8448,
      "maandiko": 8449,
      "wasomi": 8450,
      "zit": 8451,
      "MFU": 8452,
      "UFA": 8453,
      "mabomu": 8454,
      "tuma": 8455,
      "150": 8456,
      "Mussa": 8457,
      "##onga": 8458,
      "75": 8459,
      "##zingatiwa": 8460,
      "HIVI": 8461,
      "LIVE": 8462,
      "mwanam": 8463,
      "##ses": 8464,
      "Miradi": 8465,
      "##net": 8466,
      "Cre": 8467,
      "kusitisha": 8468,
      "##amboni": 8469,
      "##shikiliwa": 8470,
      "uadilifu": 8471,
      "MAO": 8472,
      "##rezani": 8473,
      "##ishiwa": 8474,
      "##nayo": 8475,
      "Songea": 8476,
      "Ndoa": 8477,
      "masikini": 8478,
      "##undation": 8479,
      "lililopo": 8480,
      "Kabwe": 8481,
      "##jamin": 8482,
      "IGP": 8483,
      "posho": 8484,
      "shinikizo": 8485,
      "mfanyabiashara": 8486,
      "alianza": 8487,
      "IDADI": 8488,
      "inter": 8489,
      "Rufaa": 8490,
      "inahitaji": 8491,
      "MAPENZI": 8492,
      "##oney": 8493,
      "AFUN": 8494,
      "vipimo": 8495,
      "mifuko": 8496,
      "WADAU": 8497,
      "##spe": 8498,
      "##kupa": 8499,
      "Media": 8500,
      "Mapenzi": 8501,
      "akiwemo": 8502,
      "vinginevyo": 8503,
      "MAWA": 8504,
      "Car": 8505,
      "TZ": 8506,
      "atu": 8507,
      "##haba": 8508,
      "ametangaza": 8509,
      "kada": 8510,
      "Benjamin": 8511,
      "ghasia": 8512,
      "kuunganisha": 8513,
      "tujadili": 8514,
      "##katibu": 8515,
      "umasikini": 8516,
      "Moto": 8517,
      "##andamizi": 8518,
      "pasipo": 8519,
      "tahadhari": 8520,
      "##lishi": 8521,
      "##ondoo": 8522,
      "Freeman": 8523,
      "Nyama": 8524,
      "##kutanisha": 8525,
      "jingine": 8526,
      "wapate": 8527,
      "##guri": 8528,
      "Majina": 8529,
      "wakimsikiliza": 8530,
      "SHA": 8531,
      "wamesha": 8532,
      "Pat": 8533,
      "mioyo": 8534,
      "Angalia": 8535,
      "Ltd": 8536,
      "##gano": 8537,
      "##susi": 8538,
      "##gola": 8539,
      "mwenyeji": 8540,
      "kufanywa": 8541,
      "##skofu": 8542,
      "kufuta": 8543,
      "##ENDO": 8544,
      "zinapo": 8545,
      "##unuliwa": 8546,
      "MWILI": 8547,
      "DIA": 8548,
      "NGO": 8549,
      "Jafo": 8550,
      "Mpekuzi": 8551,
      "##24": 8552,
      "wanazo": 8553,
      "Ubalozi": 8554,
      "##eti": 8555,
      "Wame": 8556,
      "mshikamano": 8557,
      "##ange": 8558,
      "Tofauti": 8559,
      "nyo": 8560,
      "##CR": 8561,
      "tunapo": 8562,
      "des": 8563,
      "kumbe": 8564,
      "##ifaa": 8565,
      "DR": 8566,
      "##adamu": 8567,
      "Kiarabu": 8568,
      "kuelezea": 8569,
      "wasiliana": 8570,
      "##sajili": 8571,
      "MIKOA": 8572,
      "Mshambuliaji": 8573,
      "Zetu": 8574,
      "uchafu": 8575,
      "mana": 8576,
      "wakam": 8577,
      "udhaifu": 8578,
      "##KONDA": 8579,
      "Maadili": 8580,
      "##takalo": 8581,
      "bima": 8582,
      "Pesa": 8583,
      "war": 8584,
      "##engenezaji": 8585,
      "DK": 8586,
      "##dishwa": 8587,
      "##sion": 8588,
      "kuchaguliwa": 8589,
      "##kinga": 8590,
      "##badilishwa": 8591,
      "hariri": 8592,
      "##MOND": 8593,
      "AG": 8594,
      "cheo": 8595,
      "##zote": 8596,
      "ushirika": 8597,
      "##pitwe": 8598,
      "watalii": 8599,
      "##istan": 8600,
      "##wakilisha": 8601,
      "dogo": 8602,
      "Globu": 8603,
      "UTALII": 8604,
      "radhi": 8605,
      "##ondolewa": 8606,
      "##itaka": 8607,
      "sen": 8608,
      "MBUNGE": 8609,
      "##rudia": 8610,
      "##ckson": 8611,
      "NECTA": 8612,
      "nawe": 8613,
      "##mpa": 8614,
      "Zari": 8615,
      "kuhamia": 8616,
      "##raguri": 8617,
      "Yoyote": 8618,
      "Mandela": 8619,
      "##MIZI": 8620,
      "Madaktari": 8621,
      "mko": 8622,
      "2002": 8623,
      "##chawi": 8624,
      "Sala": 8625,
      "##ADHI": 8626,
      "##ichapishe": 8627,
      "WANAWA": 8628,
      "Tangazo": 8629,
      "mwangi": 8630,
      "##dge": 8631,
      "##onaldo": 8632,
      "kufundisha": 8633,
      "IE": 8634,
      "muraguri": 8635,
      "tuichapishe": 8636,
      "##luhisho": 8637,
      "kimapenzi": 8638,
      "Jipatie": 8639,
      "##TORIA": 8640,
      "##vunia": 8641,
      "##MLA": 8642,
      "hawakuwa": 8643,
      "Mugabe": 8644,
      "##gongo": 8645,
      "##umziko": 8646,
      "##amaanisha": 8647,
      "##KAMA": 8648,
      "duka": 8649,
      "iP": 8650,
      "##kt": 8651,
      "maafa": 8652,
      "bendera": 8653,
      "Baraka": 8654,
      "##china": 8655,
      "Mtihani": 8656,
      "kuchang": 8657,
      "##ulize": 8658,
      "##ghan": 8659,
      "Ronaldo": 8660,
      "Tuta": 8661,
      "Washington": 8662,
      "amesha": 8663,
      "Global": 8664,
      "Ratiba": 8665,
      "linaweza": 8666,
      "##spo": 8667,
      "##ongelea": 8668,
      "maswala": 8669,
      "mikubwa": 8670,
      "##aga": 8671,
      "Msajili": 8672,
      "##AA": 8673,
      "##umuni": 8674,
      "Lema": 8675,
      "Madiwani": 8676,
      "toleo": 8677,
      "##angalizi": 8678,
      "Tuku": 8679,
      "IP": 8680,
      "ad": 8681,
      "ukarabati": 8682,
      "##wezekani": 8683,
      "Rashid": 8684,
      "kusubiri": 8685,
      "kuamkia": 8686,
      "ukusanyaji": 8687,
      "##hehebu": 8688,
      "Waka": 8689,
      "##tus": 8690,
      "kujitolea": 8691,
      "kubaki": 8692,
      "nyongeza": 8693,
      "##ms": 8694,
      "naibu": 8695,
      "##MERA": 8696,
      "Bahari": 8697,
      "walioko": 8698,
      "##diliwa": 8699,
      "Tayari": 8700,
      "WANAWAKE": 8701,
      "ujasiri": 8702,
      "MAJA": 8703,
      "##ates": 8704,
      "BILA": 8705,
      "MAKU": 8706,
      "kusaini": 8707,
      "Blogu": 8708,
      "Eli": 8709,
      "##tane": 8710,
      "##meko": 8711,
      "Allaa": 8712,
      "Uko": 8713,
      "##FUA": 8714,
      "Richa": 8715,
      "##yarisha": 8716,
      "Sherehe": 8717,
      "TC": 8718,
      "AJALI": 8719,
      "##okoaji": 8720,
      "wazima": 8721,
      "KILIMO": 8722,
      "Miz": 8723,
      "majeruhi": 8724,
      "mmiliki": 8725,
      "##haribika": 8726,
      "kutazama": 8727,
      "kutwaa": 8728,
      "Wil": 8729,
      "##dudu": 8730,
      "kinga": 8731,
      "##as": 8732,
      "Foundation": 8733,
      "mtaji": 8734,
      "MATAIFA": 8735,
      "##LAMU": 8736,
      "Matha": 8737,
      "mamia": 8738,
      "##SSF": 8739,
      "alipowasili": 8740,
      "Pen": 8741,
      "##wakabili": 8742,
      "kurasa": 8743,
      "beki": 8744,
      "##takia": 8745,
      "##RIN": 8746,
      "MIKOPO": 8747,
      "RADIO": 8748,
      "Salma": 8749,
      "February": 8750,
      "Lipumba": 8751,
      "chaguzi": 8752,
      "Pata": 8753,
      "huna": 8754,
      "##tangulia": 8755,
      "MIFU": 8756,
      "##tic": 8757,
      "Abe": 8758,
      "Ole": 8759,
      "VPL": 8760,
      "maru": 8761,
      "Mpaka": 8762,
      "##lazwa": 8763,
      "##ESU": 8764,
      "MUDA": 8765,
      "DIAMOND": 8766,
      "kuvun": 8767,
      "kuharibu": 8768,
      "##amuru": 8769,
      "Usajili": 8770,
      "##DUZI": 8771,
      "mwakani": 8772,
      "machache": 8773,
      "##mond": 8774,
      "##MAN": 8775,
      "kulazi": 8776,
      "##PIGA": 8777,
      "##futwa": 8778,
      "mafisadi": 8779,
      "##mbozi": 8780,
      "mitaani": 8781,
      "KAMERA": 8782,
      "##TOKEA": 8783,
      "msemaji": 8784,
      "##FAA": 8785,
      "Steph": 8786,
      "vilevile": 8787,
      "##pigania": 8788,
      "Jumla": 8789,
      "mwilini": 8790,
      "Richard": 8791,
      "Viti": 8792,
      "One": 8793,
      "Ustawi": 8794,
      "##mes": 8795,
      "##INGINE": 8796,
      "vidogo": 8797,
      "Lulu": 8798,
      "Labda": 8799,
      "shahada": 8800,
      "WENYE": 8801,
      "viumbe": 8802,
      "##News": 8803,
      "Visi": 8804,
      "aliyoi": 8805,
      "Hebu": 8806,
      "##handisi": 8807,
      "##DIA": 8808,
      "ndilo": 8809,
      "kuingiza": 8810,
      "utukufu": 8811,
      "akutana": 8812,
      "wivu": 8813,
      "nji": 8814,
      "Usipitwe": 8815,
      "heri": 8816,
      "kivu": 8817,
      "Kikristo": 8818,
      "##kiuka": 8819,
      "##chapisho": 8820,
      "Yetu": 8821,
      "##shambuliwa": 8822,
      "##zami": 8823,
      "wanahitaji": 8824,
      "Wayahudi": 8825,
      "HALMA": 8826,
      "kujiandaa": 8827,
      "mafuriko": 8828,
      "##UTI": 8829,
      "azma": 8830,
      "hapana": 8831,
      "UHA": 8832,
      "##simamiwa": 8833,
      "Vifaa": 8834,
      "kale": 8835,
      "##hitimisha": 8836,
      "##achia": 8837,
      "BE": 8838,
      "What": 8839,
      "IS": 8840,
      "##zuku": 8841,
      "##wezeshaji": 8842,
      "duni": 8843,
      "viunga": 8844,
      "mbwa": 8845,
      "##SOMA": 8846,
      "nalo": 8847,
      "wafu": 8848,
      "VIONGOZI": 8849,
      "ameeleza": 8850,
      "tujadiliane": 8851,
      "##kuli": 8852,
      "##gita": 8853,
      "##unganishi": 8854,
      "kilikuwa": 8855,
      "TIMU": 8856,
      "akifafanua": 8857,
      "kilichofanyika": 8858,
      "SHIN": 8859,
      "International": 8860,
      "Ur": 8861,
      "##ruka": 8862,
      "zilizokuwa": 8863,
      "hesabu": 8864,
      "99": 8865,
      "##pitishwa": 8866,
      "tunawa": 8867,
      "Kha": 8868,
      "madawati": 8869,
      "ILIYO": 8870,
      "Android": 8871,
      "zikiwemo": 8872,
      "katoliki": 8873,
      "kushu": 8874,
      "TUME": 8875,
      "Mac": 8876,
      "##amuhuri": 8877,
      "##ishwe": 8878,
      "Issa": 8879,
      "TUN": 8880,
      "msaidizi": 8881,
      "Palestina": 8882,
      "Mafuta": 8883,
      "kung": 8884,
      "Mwanafunzi": 8885,
      "##sajiliwa": 8886,
      "Ajili": 8887,
      "##mir": 8888,
      "Bilioni": 8889,
      "##rahman": 8890,
      "##jiuliza": 8891,
      "##ugu": 8892,
      "ndefu": 8893,
      "org": 8894,
      "##ach": 8895,
      "##pokelewa": 8896,
      "##onana": 8897,
      "##pendi": 8898,
      "##likuwa": 8899,
      "MTA": 8900,
      "uwajibikaji": 8901,
      "##gara": 8902,
      "Diwani": 8903,
      "##marika": 8904,
      "##zuni": 8905,
      "maishani": 8906,
      "##tego": 8907,
      "Plu": 8908,
      "ameji": 8909,
      "##SHIN": 8910,
      "meneja": 8911,
      "kutakiwa": 8912,
      "UME": 8913,
      "Wanao": 8914,
      "##fuatazo": 8915,
      "Mombasa": 8916,
      "Flo": 8917,
      "KITAIFA": 8918,
      "Ibada": 8919,
      "kisiwa": 8920,
      "##rili": 8921,
      "Canada": 8922,
      "LINK": 8923,
      "wafanya": 8924,
      "Bima": 8925,
      "HALMASHAURI": 8926,
      "kufikiria": 8927,
      "KUKU": 8928,
      "waj": 8929,
      "##wafanya": 8930,
      "51": 8931,
      "lipo": 8932,
      "##bianchi": 8933,
      "##ee": 8934,
      "kadha": 8935,
      "##dhalilisha": 8936,
      "Star": 8937,
      "##ramia": 8938,
      "BIA": 8939,
      "ukombozi": 8940,
      "##ishughuli": 8941,
      "72": 8942,
      "Afghan": 8943,
      "kupelekwa": 8944,
      "MAELE": 8945,
      "##kwepa": 8946,
      "Kudumu": 8947,
      "2004": 8948,
      "zuri": 8949,
      "##amasa": 8950,
      "HOS": 8951,
      "ufalme": 8952,
      "inatarajiwa": 8953,
      "Mkakati": 8954,
      "##ENO": 8955,
      "##taneti": 8956,
      "Fahamu": 8957,
      "##zui": 8958,
      "SHERIA": 8959,
      "usambazaji": 8960,
      "##haribu": 8961,
      "##uwa": 8962,
      "kupitisha": 8963,
      "##umilivu": 8964,
      "Baye": 8965,
      "ZOTE": 8966,
      "lililofanyika": 8967,
      "Kigamboni": 8968,
      "aliji": 8969,
      "##WANI": 8970,
      "mbiu": 8971,
      "Omar": 8972,
      "support": 8973,
      "##anganyifu": 8974,
      "pana": 8975,
      "kifa": 8976,
      "ipi": 8977,
      "##dee": 8978,
      "hospitalini": 8979,
      "kuinua": 8980,
      "imeendelea": 8981,
      "##gundu": 8982,
      "##ram": 8983,
      "wanatumia": 8984,
      "##aluma": 8985,
      "AJI": 8986,
      "##giji": 8987,
      "tumbo": 8988,
      "WAKO": 8989,
      "kupenda": 8990,
      "##ONE": 8991,
      "##gonga": 8992,
      "Mour": 8993,
      "##KING": 8994,
      "##barage": 8995,
      "##tengwa": 8996,
      "KWE": 8997,
      "akitokea": 8998,
      "##chua": 8999,
      "NDE": 9000,
      "PRO": 9001,
      "Hiki": 9002,
      "##giriki": 9003,
      "wajasiriamali": 9004,
      "##shiri": 9005,
      "Ushauri": 9006,
      "##kasi": 9007,
      "mga": 9008,
      "bomba": 9009,
      "mahindi": 9010,
      "Ray": 9011,
      "imetangaza": 9012,
      "walizo": 9013,
      "tangazo": 9014,
      "sto": 9015,
      "Endelea": 9016,
      "Rose": 9017,
      "unam": 9018,
      "safu": 9019,
      "##ctober": 9020,
      "Mourinho": 9021,
      "BURE": 9022,
      "uchungu": 9023,
      "##unzi": 9024,
      "IME": 9025,
      "hela": 9026,
      "##kosea": 9027,
      "makamu": 9028,
      "Kiuchumi": 9029,
      "pwani": 9030,
      "dereva": 9031,
      "AJILI": 9032,
      "uhifadhi": 9033,
      "Bingwa": 9034,
      "mapa": 9035,
      "##KURU": 9036,
      "##hiyo": 9037,
      "Kipindi": 9038,
      "##atasi": 9039,
      "wanaofanya": 9040,
      "watawala": 9041,
      "Cho": 9042,
      "zilizotolewa": 9043,
      "anaamini": 9044,
      "Fainali": 9045,
      "##saidie": 9046,
      "Club": 9047,
      "##tawa": 9048,
      "machafuko": 9049,
      "kuchu": 9050,
      "mwanasiasa": 9051,
      "##umiza": 9052,
      "machozi": 9053,
      "kufanyia": 9054,
      "kupungua": 9055,
      "BARAZA": 9056,
      "##vert": 9057,
      "kutekelezwa": 9058,
      "Fm": 9059,
      "injili": 9060,
      "Makinda": 9061,
      "Daniel": 9062,
      "Wapo": 9063,
      "kuwafanya": 9064,
      "kisu": 9065,
      "kukumbu": 9066,
      "kutangazwa": 9067,
      "##atta": 9068,
      "Zoezi": 9069,
      "##katiba": 9070,
      "upele": 9071,
      "Jen": 9072,
      "##chea": 9073,
      "##duku": 9074,
      "MN": 9075,
      "##lar": 9076,
      "Hesabu": 9077,
      "VIW": 9078,
      "MSIBA": 9079,
      "##sapp": 9080,
      "##bomo": 9081,
      "##kretarieti": 9082,
      "Kambarage": 9083,
      "limesema": 9084,
      "nilipo": 9085,
      "Nani": 9086,
      "ziko": 9087,
      "Mizengo": 9088,
      "meno": 9089,
      "##ktaba": 9090,
      "Brea": 9091,
      "inat": 9092,
      "mail": 9093,
      "wanaamini": 9094,
      "kimsingi": 9095,
      "Lazima": 9096,
      "MWEZI": 9097,
      "##min": 9098,
      "##sukuma": 9099,
      "##OMBA": 9100,
      "YESU": 9101,
      "watoa": 9102,
      "Wakili": 9103,
      "UHURU": 9104,
      "kufikisha": 9105,
      "kusahau": 9106,
      "##stine": 9107,
      "kipengele": 9108,
      "Ukaguzi": 9109,
      "unatukio": 9110,
      "Sto": 9111,
      "Download": 9112,
      "kidi": 9113,
      "zozote": 9114,
      "desturi": 9115,
      "blogu": 9116,
      "##tarajia": 9117,
      "##mage": 9118,
      "Wakimbizi": 9119,
      "##qu": 9120,
      "uw": 9121,
      "unga": 9122,
      "##pewe": 9123,
      "Kujenga": 9124,
      "##ukwa": 9125,
      "maabara": 9126,
      "LE": 9127,
      "##ssia": 9128,
      "Sar": 9129,
      "anao": 9130,
      "pembeni": 9131,
      "Gold": 9132,
      "##SHO": 9133,
      "MIS": 9134,
      "Ubunge": 9135,
      "kuondolewa": 9136,
      "AUA": 9137,
      "Wasanii": 9138,
      "mtendaji": 9139,
      "anapaswa": 9140,
      "##umwa": 9141,
      "Bado": 9142,
      "mifano": 9143,
      "##fungaji": 9144,
      "Afghanistan": 9145,
      "tunao": 9146,
      "lisilo": 9147,
      "was": 9148,
      "ACT": 9149,
      "##ukuu": 9150,
      "HOSPITA": 9151,
      "Ahmed": 9152,
      "Gra": 9153,
      "##ZAZI": 9154,
      "kilio": 9155,
      "##GWA": 9156,
      "##roniki": 9157,
      "Barack": 9158,
      "Chanzo": 9159,
      "wakifanya": 9160,
      "##nda": 9161,
      "mag": 9162,
      "pato": 9163,
      "##veni": 9164,
      "October": 9165,
      "tuu": 9166,
      "##kadiriwa": 9167,
      "mtuhumiwa": 9168,
      "wahitimu": 9169,
      "warsha": 9170,
      "KEN": 9171,
      "##kusudia": 9172,
      "yanayoendelea": 9173,
      "Napenda": 9174,
      "##jage": 9175,
      "kuuawa": 9176,
      "madereva": 9177,
      "West": 9178,
      "Mli": 9179,
      "##kawa": 9180,
      "##LS": 9181,
      "vichwa": 9182,
      "BREA": 9183,
      "##cheze": 9184,
      "##pangilio": 9185,
      "RC": 9186,
      "Wake": 9187,
      "##ambie": 9188,
      "wak": 9189,
      "malaika": 9190,
      "Utangazaji": 9191,
      "uana": 9192,
      "##laani": 9193,
      "Mganga": 9194,
      "MKURUGENZI": 9195,
      "AZINDUA": 9196,
      "##LB": 9197,
      "akimkaribisha": 9198,
      "Ishara": 9199,
      "wanga": 9200,
      "Wasichana": 9201,
      "##pendekezwa": 9202,
      "BIASHARA": 9203,
      "hufanya": 9204,
      "Vilevile": 9205,
      "##mp": 9206,
      "##hamisho": 9207,
      "kujifungua": 9208,
      "wafungwa": 9209,
      "hiari": 9210,
      "mboga": 9211,
      "vitambulisho": 9212,
      "##ridhika": 9213,
      "mapumziko": 9214,
      "KK": 9215,
      "Suala": 9216,
      "##tima": 9217,
      "##komboa": 9218,
      "wadhifa": 9219,
      "Rushwa": 9220,
      "imesha": 9221,
      "##endelezo": 9222,
      "san": 9223,
      "Pole": 9224,
      "nguzo": 9225,
      "jinai": 9226,
      "##UZI": 9227,
      "hatuwezi": 9228,
      "##enger": 9229,
      "Mlima": 9230,
      "##uji": 9231,
      "##yang": 9232,
      "Iddi": 9233,
      "##tasari": 9234,
      "Roma": 9235,
      "MAELEZO": 9236,
      "##ando": 9237,
      "BREAKING": 9238,
      "tulio": 9239,
      "kurekebisha": 9240,
      "Msu": 9241,
      "kumsaidia": 9242,
      "##pole": 9243,
      "##soro": 9244,
      "Jamuhuri": 9245,
      "##funi": 9246,
      "kutia": 9247,
      "Anth": 9248,
      "##atar": 9249,
      "kuuliza": 9250,
      "Sio": 9251,
      "tunataka": 9252,
      "##wer": 9253,
      "Kiba": 9254,
      "Kumbuka": 9255,
      "##jazo": 9256,
      "tokea": 9257,
      "kusafirisha": 9258,
      "Abdulrahman": 9259,
      "tulikuwa": 9260,
      "Kal": 9261,
      "wakili": 9262,
      "jamani": 9263,
      "KULI": 9264,
      "Sulei": 9265,
      "Ngor": 9266,
      "Luku": 9267,
      "mbona": 9268,
      "kutegemea": 9269,
      "Kitanzania": 9270,
      "Mashahidi": 9271,
      "litakalo": 9272,
      "UTU": 9273,
      "##kand": 9274,
      "##dada": 9275,
      "suluhisho": 9276,
      "yaliyopo": 9277,
      "akiba": 9278,
      "mlipuko": 9279,
      "Mlezi": 9280,
      "##kete": 9281,
      "kujipatia": 9282,
      "uchambuzi": 9283,
      "##SISI": 9284,
      "akisisitiza": 9285,
      "mashaka": 9286,
      "57": 9287,
      "lishe": 9288,
      "muswada": 9289,
      "##muzi": 9290,
      "##VUTI": 9291,
      "KUONA": 9292,
      "kifaa": 9293,
      "Zote": 9294,
      "##mited": 9295,
      "inabidi": 9296,
      "##MAA": 9297,
      "##twaa": 9298,
      "kusiki": 9299,
      "##piti": 9300,
      "uaminifu": 9301,
      "yalio": 9302,
      "##ums": 9303,
      "wameanza": 9304,
      "kipo": 9305,
      "endelea": 9306,
      "##VIE": 9307,
      "Assa": 9308,
      "mila": 9309,
      "HOSPITALI": 9310,
      "tunavyo": 9311,
      "EU": 9312,
      "kukidhi": 9313,
      "Maombi": 9314,
      "TANGAZO": 9315,
      "##hone": 9316,
      "ufadhili": 9317,
      "Fe": 9318,
      "##rai": 9319,
      "##UAJI": 9320,
      "Mhariri": 9321,
      "kubuni": 9322,
      "NDEGE": 9323,
      "Huku": 9324,
      "Angela": 9325,
      "##tudio": 9326,
      "HAI": 9327,
      "kuolewa": 9328,
      "MWANAFUNZI": 9329,
      "##gama": 9330,
      "##onyeshwa": 9331,
      "imem": 9332,
      "##RY": 9333,
      "Macha": 9334,
      "imetolewa": 9335,
      "ubalozi": 9336,
      "KANDA": 9337,
      "##lt": 9338,
      "kukimbia": 9339,
      "maje": 9340,
      "akijibu": 9341,
      "Mazungumzo": 9342,
      "##shangilia": 9343,
      "Changamoto": 9344,
      "##pania": 9345,
      "##tumu": 9346,
      "njama": 9347,
      "##ongwa": 9348,
      "Katikati": 9349,
      "kitakacho": 9350,
      "http": 9351,
      "MH": 9352,
      "mapungufu": 9353,
      "pongezi": 9354,
      "bin": 9355,
      "Mahusiano": 9356,
      "##tunza": 9357,
      "Menejimenti": 9358,
      "##hini": 9359,
      "##PU": 9360,
      "niwa": 9361,
      "##mko": 9362,
      "ALIYE": 9363,
      "KUJIUNGA": 9364,
      "##tupa": 9365,
      "kumiliki": 9366,
      "Install": 9367,
      "Wateja": 9368,
      "akipata": 9369,
      "mchanga": 9370,
      "anakuwa": 9371,
      "##salia": 9372,
      "Wepesi": 9373,
      "Bilal": 9374,
      "WANAO": 9375,
      "Namna": 9376,
      "##hujumu": 9377,
      "waku": 9378,
      "Alipo": 9379,
      "Rich": 9380,
      "MTANDAO": 9381,
      "##MWA": 9382,
      "mwako": 9383,
      "##umbiji": 9384,
      "Asha": 9385,
      "nyanja": 9386,
      "ang": 9387,
      "yanapatikana": 9388,
      "##BORA": 9389,
      "uzalendo": 9390,
      "Tena": 9391,
      "Stephen": 9392,
      "HATA": 9393,
      "MAOMBI": 9394,
      "shambulizi": 9395,
      "Kutoa": 9396,
      "##rilioni": 9397,
      "ulaya": 9398,
      "faili": 9399,
      "##malizia": 9400,
      "iliyoko": 9401,
      "Museveni": 9402,
      "##fumu": 9403,
      "##eleweka": 9404,
      "Mkaguzi": 9405,
      "mwanamuziki": 9406,
      "##UNGO": 9407,
      "kulipia": 9408,
      "Qu": 9409,
      "uliokuwa": 9410,
      "Anne": 9411,
      "ikilinganishwa": 9412,
      "kimwili": 9413,
      "sadaka": 9414,
      "kufariki": 9415,
      "##SIA": 9416,
      "Shetani": 9417,
      "ujio": 9418,
      "niku": 9419,
      "inapaswa": 9420,
      "KATIBA": 9421,
      "Anthony": 9422,
      "##godi": 9423,
      "Nyi": 9424,
      "##gala": 9425,
      "Kuto": 9426,
      "kutaja": 9427,
      "##letwa": 9428,
      "Amo": 9429,
      "Aina": 9430,
      "##rushi": 9431,
      "Ngorongoro": 9432,
      "NSSF": 9433,
      "##FANI": 9434,
      "Bayern": 9435,
      "Sho": 9436,
      "##FANYIKA": 9437,
      "asema": 9438,
      "##BISHA": 9439,
      "Ilikuwa": 9440,
      "tutakuwa": 9441,
      "##tambulisho": 9442,
      "##11": 9443,
      "##sin": 9444,
      "wanakuwa": 9445,
[...]
