[PAD]
[UNK]
[CLS]
[SEP]
[MASK]
!
"
#
$
%
&
'
(
)
*
+
,
-
.
/
0
1
2
3
4
5
6
7
8
9
:
;
<
=
>
?
@
A
B
C
D
E
F
G
H
I
J
K
L
M
N
O
P
Q
R
S
T
U
V
W
X
Y
Z
[
\
]
^
_
`
a
b
c
d
e
f
g
h
i
j
k
l
m
n
o
p
q
r
s
t
u
v
w
x
y
z
{
}
~
¡
¢
£
¤
¥
¦
§
¨
©
ª
«
¬
®
¯
°
±
²
³
´
µ
¶
·
¸
¹
º
»
¼
½
¾
¿
À
Á
Â
Ã
Ä
Å
Æ
Ç
É
Ê
Í
Î
Ñ
Ò
Ó
Ô
Õ
Ö
×
Ø
Ú
Û
Ü
ß
à
á
â
ã
ä
å
æ
ç
è
é
ê
ë
ì
í
î
ï
ð
ñ
ò
ó
ô
õ
ö
÷
ø
ù
ú
û
ü
ý
ā
ă
ą
ć
Č
č
Đ
ē
Ė
ė
ę
ě
ğ
ĩ
ī
İ
ı
ĳ
ĺ
Ł
ł
ń
ŋ
Ō
ō
ŏ
ő
œ
ŕ
ř
Ś
ś
Ş
ş
Š
š
ţ
ũ
ū
ŭ
ů
ŵ
Ÿ
ź
ż
Ž
ž
ƙ
ơ
ư
ƴ
ǧ
ș
ɐ
ɑ
ɔ
ə
ɛ
ɪ
ɾ
ʁ
ʃ
ʊ
ʒ
ʹ
ʻ
ʼ
ʽ
ʿ
ˈ
ː
˚
˛
˜
́
̂
̵
̷
;
΄
Ά
Ή
Α
Β
Γ
Δ
Ε
Η
Θ
Ι
Κ
Λ
Μ
Ν
Ο
Π
Ρ
Σ
Τ
Υ
Φ
Χ
Ω
ά
έ
ή
ί
α
β
γ
δ
ε
ζ
η
θ
ι
κ
λ
μ
ν
ξ
ο
π
ρ
ς
σ
τ
υ
φ
χ
ψ
ω
ό
ύ
ώ
Є
А
Б
В
Г
Д
Е
З
И
К
Л
М
Н
О
П
Р
С
Т
У
Ф
Х
Ч
Э
Я
а
б
в
г
д
е
ж
з
и
й
к
л
м
н
о
п
р
с
т
у
ф
х
ц
ч
ш
щ
ъ
ы
ь
э
ю
я
ё
є
ѕ
і
ј
ў
Ա
Հ
ա
ե
թ
ի
կ
յ
ն
ո
ս
տ
ր
ւ
ְ
ִ
ֵ
ֶ
ַ
ָ
ֹ
ּ
ׁ
א
ב
ג
ד
ה
ו
ז
ח
י
כ
ל
ם
מ
ן
נ
ס
ע
ף
פ
ץ
צ
ק
ר
ש
ת
،
ء
آ
أ
ؤ
إ
ئ
ا
ب
ة
ت
ث
ج
ح
خ
د
ذ
ر
ز
س
ش
ص
ض
ط
ظ
ع
غ
ـ
ف
ق
ك
ل
م
ن
ه
و
ى
ي
ً
ٌ
ٍ
َ
ُ
ِ
ّ
ْ
ٰ
پ
ک
گ
ی
۩
ܐ
ܘ
ܝ
ܬ
ं
क
च
ज
त
द
न
प
ब
म
य
र
ल
व
स
ह
ा
ि
ी
ु
े
्
া
ೋ
ย
า
ี
๑
ა
ი
ლ
ს
ღ
ላ
ል
ም
ር
ሰ
ስ
ቆ
ት
ች
ና
ን
አ
ወ
ዎ
ይ
ደ
ḇ
Ḥ
ḥ
ṃ
ṅ
ṇ
Ṣ
ṣ
ṭ
ṯ
ạ
ả
ắ
ệ
ị
ồ
ἀ
Ἀ
ἐ
ἡ
ἰ
Ἰ
ὐ
ῖ
ῦ
ῶ
‐
‑
–
—
―
‖
‗
‘
’
‚
‛
“
”
„
‟
†
‡
•
․
…
′
″
‹
›
※
‼
‿
⁀
€
⃣
℃
ℓ
№
™
←
↑
→
↓
↗
↘
↠
↡
↳
↵
⇒
−
∙
√
∴
≈
≤
≥
⊱
⌚
⏩
⏪
⏬
ⓔ
─
│
═
║
╚
╝
╬
▀
▃
▄
█
░
▒
■
□
▪
▬
▭
▲
▶
▷
▸
►
▼
▾
◄
◆
◇
◊
○
●
◕
◘
◯
◻
◾
☀
★
☆
☉
☎
☑
☕
☝
☠
☺
♀
♂
♔
♚
♛
♠
♡
♣
♥
♦
♪
♫
♬
♰
⚠
⚡
⚫
⚽
⛪
✅
✈
✊
✌
✍
✏
✓
✔
✖
✙
✨
✩
✯
✳
✿
❀
❌
❓
❔
❖
❤
❥
➖
➡
➢
➤
➧
⠀
⤋
⦁
⬇
⭐
、
。
《
》
「
【
】
〰
い
く
こ
さ
し
づ
な
の
は
ま
り
る
れ
ん
ス
ッ
ヒ
リ
ワ
ン
・
ー
㎡
中
人
例
句
名
和
国
大
子
山
岡
島
州
市
希
恰
我
文
斯
新
日
星
游
漫
爱
玛
瓦
田
的
県
社
福
秋
节
語
路
透
里
际
국
날
대
름
리
문
부
사
수
스
아
어
여
와
원
이
인
지
힐
ﬁ
﴾
﴿
ﷺ
️
！
）
，
．
：
～
￼
🇦
🇨
🇩
🇪
🇬
🇭
🇮
🇰
🇱
🇲
🇳
🇴
🇷
🇸
🇹
🇺
🇿
🌍
🌟
🌳
🌴
🌷
🌽
🌾
🌿
🍃
🍅
🍇
🍈
🍎
🍓
🍰
🍴
🍺
🎁
🎂
🎄
🎆
🎇
🎈
🎉
🎊
🎡
🎤
🎥
🎧
🎬
🎵
🎶
🎼
🎾
🏃
🏆
🏧
🏻
🏼
🏽
🏾
🏿
🐄
👀
👂
👆
👇
👈
👉
👊
👌
👍
👏
👑
👗
👞
👠
👧
👪
👷
💃
💉
💋
💐
💓
💕
💖
💗
💘
💙
💚
💛
💜
💝
💞
💟
💣
💤
💥
💪
💬
💯
💳
💻
📋
📌
📓
📕
📖
📚
📝
📞
📢
📰
📱
📲
📶
📷
📸
📹
📺
📻
🔁
🔍
🔑
🔚
🔞
🔥
🔨
🔫
🔴
🔵
🔹
🔻
🕌
🕸
😀
😁
😂
😃
😄
😅
😆
😇
😉
😊
😋
😌
😍
😎
😏
😒
😔
😘
😚
😛
😜
😝
😞
😡
😢
😦
😨
😩
😭
😱
😲
😳
😷
😻
🙁
🙂
🙄
🙅
🙆
🙇
🙈
🙉
🙊
🙋
🙌
🙏
🚀
🚨
🚫
🚶
🤔
🤗
🤝
🤞
🤣
🤳
🦁
🧚
##I
##P
##s
##m
##u
##e
##l
##w
##h
##i
##y
##a
##n
##t
##r
##g
##k
##d
##v
##R
##E
##K
##O
##p
##o
##b
##f
##c
##T
##H
##A
##N
##D
##S
##L
##z
##👇
##0
##4
##9
##5
##ö
##j
##J
##M
##U
##W
##Z
##1
##8
##Y
##q
##B
##C
##®
##7
##2
##G
##3
##F
##📞
##V
##6
##x
##â
##€
##📹
##ř
##œ
##า
##Q
##→
##ü
##Â
##X
##ū
##💉
##ä
##è
##ὐ
##Γ
##Ε
##Ν
##Ή
##Σ
##í
##ñ
##😘
##ł
##ḥ
##ʼ
##ā
##ḇ
##ظ
##ي
##م
##ة
##¦
##à
##Ä
##ա
##ր
##ի
##կ
##é
##û
##📓
##ó
##ل
##ْ
##ك
##َ
##ِ
##ُ
##ş
##у
##р
##н
##а
##л
##ã
##❤
##ύ
##ρ
##η
##κ
##α
##市
##î
##á
##χ
##ά
##β
##г
##с
##å
##💯
##✌
##️
##ś
##ê
##و
##ّ
##ی
##ٰ
##д
##е
##ь
##о
##б
##✔
##É
##ý
##т
##п
##ç
##ı
##州
##ё
##´
##د
##خ
##♥
##ô
##Ã
##³
##س
##π
##ί
##ο
##υ
##ς
##ن
##ï
##в
##ă
##ţ
##ا
##ح
##ب
##🍴
##Ó
##ы
##ж
##ğ
##ؤ
##ت
##ر
##ž
##ف
##غ
##া
##ط
##ه
##👉
##😍
##ə
##и
##μ
##τ
##¬
##ى
##΄
##어
##ል
##™
##ع
##ج
##ئ
##🏽
##×
##ص
##к
##м
##ц
##🎇
##👏
##ė
##↗
##ĩ
##ũ
##ŕ
##ق
##ë
##🎂
##х
##¤
##😁
##ι
##δ
##ή
##ℓ
##є
##ѕ
##½
##ō
##ì
##✅
##ß
##🏻
##♂
##φ
##●
##○
##🏾
##💻
##ش
##σ
##♡
##Н
##Е
##С
##К
##О
##💋
##ē
##ض
##리
##°
##🏼
##ш
##☝
##😂
##ְ
##ה
##ו
##ּ
##ד
##ִ
##י
##ם
##ٌ
##る
##¯
##ˈ
##ː
##ć
##ð
##˜
##š
##✩
##ʁ
##ɔ
##ø
##ח
##ֶ
##מ
##ָ
##👍
##ɪ
##ר
##ч
##µ
##թ
##я
##💣
##🔫
##ў
##म
##ा
##च
##र
##ε
##ό
##ء
##≈
##🏿
##🚶
##ṭ
##😚
##☉
##ú
##사
##文
##🍓
##💗
##😀
##ʹ
##́
##ŋ
##ʃ
##ﬁ
##り
##し
##ն
##⚫
##👑
##✊
##⃣
##Ö
##🌍
##❌
##🔥
##ዎ
##ች
##県
##õ
##ù
##У
##ĺ
##ṇ
##č
##λ
##👌
##ל
##א
##ב
##🤣
##ี
##ย
##Å
##島
##Õ
##ồ
##з
##ک
##★
##ز
##☆
##أ
##😜
##إ
##γ
##θ
##ν
##⠀
##Í
##이
##💜
##💙
##ー
##ン
##の
##子
##ス
##名
##人
##～
##̵
##💪
##👊
##כ
##ת
##🇪
##έ
##ذ
##👆
##ξ
##ò
##🙏
##ź
##山
##ር
##Χ
##Ι
##آ
##ŭ
##ٍ
##스
##ק
##щ
##й
##ɑ
##ṣ
##ω
##ψ
##ש
##ַ
##נ
##ю
##😊
##✖
##は
##−
##♀
##←
##ф
##ę
##Û
##💘
##ῶ
##大
##中
##ह
##स
##◄
##Г
##Ω
##🙌
##Î
##😔
##🇴
##🎊
##💃
##😆
##😱
##Ο
##¢
##💥
##ո
##ւ
##ս
##ღ
##ș
##²
##💚
##Ê
##Ş
##न
##्
##त
##æ
##👪
##ŏ
##ע
##ث
##░
##ń
##🌽
##🐄
##Ü
##ɛ
##☠
##😝
##い
##ま
##的
##♫
##🎥
##ῖ
##ώ
##🤔
##🇳
##🇬
##▄
##문
##💛
##⌚
##🎵
##🎶
##😛
##🇮
##🎆
##㎡
##█
##║
##ֵ
##ׁ
##😭
##ī
##ṯ
##⚡
##😢
##☕
##ị
##і
##ም
##ζ
##恰
##ṃ
##我
##گ
##🙋
##🔁
##⚽
##ἰ
##田
##🏃
##À
##🇸
##🇺
##©
##국
##📺
##📻
##Τ
##Ρ
##🇹
##🇿
##🦁
##Ž
##⭐
##🎼
##ɾ
##ż
##Б
##ん
##부
##Λ
##Я
##√
##̂
##🔑
##🚨
##¨
##🕌
##Ÿ
##►
##ʿ
##¹
##▀
##🤗
##ッ
##И
##Т
##Р
##Л
##ं
##פ
##ե
##ワ
##ヒ
##リ
##語
##ě
##😅
##🙊
##Á
##ֹ
##日
##▪
##😻
##ז
##👞
##🇱
##🇷
##♦
##아
##♣
##♠
##İ
##❀
##ạ
##˚
##여
##ס
##±
##¥
##Ú
##💟
##ג
##💕
##Ô
##ư
##ṅ
##れ
##대
##🙅
##º
##爱
##🎈
##🌴
##Κ
##Α
##Η
##ן
##瓦
##希
##里
##Ñ
##╚
##🌿
##🍺
##😋
##◇
##□
##↠
##Ά
##ً
##ﷺ
##¼
##ـ
##ა
##ლ
##ሰ
##ን
##➡
##▬
##ी
##🎧
##ल
##💖
##🙂
##🎉
##ʒ
##😃
##🇰
##😡
##🎤
##ೋ
##원
##ት
##ą
##↡
##Φ
##🏆
##👧
##👗
##👠
##ῦ
##☺
##✍
##ላ
##ስ
##ይ
##տ
##Ō
##£
##▶
##℃
##յ
##ŵ
##🌟
##ј
##📋
##💞
##新
##ĳ
##👷
##🇨
##🇭
##😏
##👈
##ܘ
##ܝ
##ܬ
##ܐ
##🎡
##✿
##く
##な
##ả
##═
##╝
##ʻ
##پ
##Д
##Є
##🇦
##🙉
##Æ
##ɐ
##✨
##👀
##国
##Μ
##Θ
##🔚
##Π
##ǧ
##😨
##和
##А
##☎
##🍇
##岡
##ʊ
##Ç
##📷
##ि
##와
##힐
##े
##ज
##￼
##↓
##П
##Х
##ơ
##🙈
##👂
##透
##社
##ő
##😳
##╬
##🔞
##э
##🇲
##व
##😉
##😩
##🚫
##Β
##こ
##さ
##द
##ቆ
##÷
##♪
##⬇
##📚
##צ
##─
##🔨
##ů
##य
##¸
##😞
##❔
##🍰
##☀
##😄
##😎
##📱
##│
##ệ
##ु
##प
##🙆
##📖
##💓
##💝
##◯
##▲
##节
##🍎
##🍃
##😷
##🌷
##🔴
##수
##▃
##ი
##ъ
##❥
##⊱
##Υ
##❓
##⏬
##क
##ʽ
##ⓔ
##🍅
##지
##🔍
##🎁
##句
##✓
##🤝
##Š
##🤞
##😇
##М
##斯
##름
##날
##🇩
##🎬
##🎾
##🤳
##秋
##ª
##💤
##ና
##Ø
##🙄
##📲
##😒
##💬
##๑
##۩
##≤
##ף
##▒
##😲
##▭
##🌾
##■
##😌
##ს
##인
##🕸
##🎄
##✈
##玛
##ắ
##📸
##🚀
##🌳
##➖
##ब
##◕
##🙁
##↑
##̷
##🧚
##В
##⛪
##◆
##星
##ץ
##˛
##ደ
##♚
##🙇
##际
##漫
##游
##📰
##Ф
##💐
##Δ
##an
##wa
##li
wa
ya
ku
##ka
na
##ha
##in
##at
##am
##ri
##en
##ba
##ki
##zi
##ku
##hi
ma
##ia
##is
kwa
##un
##ana
##ta
##yo
##za
##ma
##ati
##on
##ra
##ji
##da
##la
##di
##si
##le
##um
##ya
##to
ha
##ke
##ye
##me
##ani
za
##we
##ch
hi
ki
##ti
##ja
##mba
##ini
kati
ni
##na
Ma
##sa
##ko
la
katika
##gu
##zo
##hu
##sha
##fa
##go
##bu
##tu
##ga
##te
##po
hu
##mu
##ili
##ama
##fu
kuwa
##enye
##ata
##ge
ali
##he
##ele
##ina
##aa
cha
vi
##oja
##fan
##se
##re
##mb
##ua
##ing
amba
kw
ka
##pi
##kuwa
##ano
Wa
##sh
##lo
##ru
mi
##shi
ili
##do
wana
##rika
##AN
##sema
kuto
##chi
sa
YA
20
##isha
##cha
si
WA
##wan
##pa
Ki
aki
##end
##vyo
Ku
##kuu
##bo
##bi
##eo
201
##fanya
##dha
wali
kwenye
##ung
Ha
hiyo
##ania
##ungu
ba
##su
tu
##fi
##kati
mwa
##ze
##dhi
ame
##isi
kama
##ro
##mi
##anz
##anga
##WA
##ongo
##anzania
##eng
mw
baa
##ai
##che
##uni
##du
ina
MA
##oni
##ine
##LI
##ote
##amu
##je
vya
Ra
mu
##HA
##endele
##kana
##idi
##ho
##vu
Se
##cho
##ria
##tum
ana
##atu
##bari
se
##anda
##kiwa
yake
Tanzania
##rikali
##bwa
##lia
##enda
##ingi
##bali
ny
##isa
##ar
watu
##ishi
baada
##de
##fun
##KA
##riki
mwaka
wan
KU
##kini
##weza
Sa
Rais
##ami
zaidi
wakati
uli
##chini
kup
##ambo
kutoka
##uri
ta
##moja
##taka
##ila
##etu
una
Mkuu
kwamba
##be
##anza
##mo
##sili
##ziri
nchini
##jini
##RI
##eni
wake
Kati
##ato
hii
##mbe
##yi
NA
Ba
ime
Mw
##amoja
##ang
Na
ju
Kwa
moja
huo
Af
au
Mi
Mu
##pe
Ka
##vi
##enzi
##mbo
##liwa
##MA
nchi
ji
##IN
pamoja
##anzi
siku
##ongozi
##IS
##husu
sana
##TA
##unge
Waziri
li
mbali
##ume
##jili
##una
##BA
##ifa
##pin
##onge
##ona
wame
ra
kazi
ch
hilo
##umi
##gi
##koa
##ZI
hivyo
##angu
##TO
##kut
##kea
##kia
##TI
HA
sasa
zi
##sho
##YA
##zung
##so
##and
##zungum
##dani
##zaji
weng
##shin
Vi
Dar
kila
kum
leo
Si
pia
##anchi
##zwa
ndi
##pan
##ingine
habari
##umu
mara
uta
huu
mb
##ish
kuji
lakini
Serikali
alisema
ambayo
juu
mat
##laam
##EN
##lin
Mungu
##dili
kupi
##endelea
##dia
##RA
Dk
##iaka
##aifa
es
walio
##uku
waki
##amii
Mhe
##KU
Cha
##kubwa
##limu
##shiriki
iliyo
hata
##kwa
##IA
##pya
##toa
##lu
##pita
kufanya
##jia
##DA
##fanyi
Ni
##babu
##kio
##HI
##isho
##one
##UN
hali
##00
##tumia
##rifa
##toto
##al
##tia
##heria
taa
kam
zina
##ataifa
##bia
Afrika
Ali
##chezo
mmoja
##mbali
ambao
##uli
##chagu
##shwa
hayo
mtu
##hidi
kuhusu
##mani
##zuri
kab
##wi
yao
##pata
kui
miaka
ajili
Mo
serikali
##kon
KA
mbalimbali
ume
KI
ulio
##ene
to
wananchi
##icha
##ZA
##ne
##kuru
Mwenye
Hi
##amo
Salaam
an
##shara
shu
##KI
##weli
##kani
##shu
Wi
wi
Jo
##kili
##fanyika
ndani
##kam
##CM
##weze
wao
kubwa
Kam
##edha
##engo
huyo
Ta
Po
##endeleo
##bar
zili
kwanza
hapa
kut
##sim
KWA
##kutano
##mbu
in
yana
uj
##kazi
sababu
##hemu
##husi
2018
CCM
##KE
##atua
##umba
##ilaya
##duma
##ende
##kiti
##ON
##gha
ti
en
##mbi
wenye
Habari
kuna
tuna
ambaye
mwan
da
##wezi
muda
Katika
wote
##zungumza
##sia
##taji
kuli
yali
##ANA
yako
##endo
##uma
TA
##sisi
ZA
kutoa
hawa
##TU
Mwa
##sta
##ham
##uala
##chuku
##PA
##LA
##ce
wanao
##st
CHA
pe
##shauri
mambo
po
nje
aliye
ambapo
Je
##fiki
Ya
##chaguzi
kun
mwenye
maa
kupata
##lewa
hao
wata
##FA
##jua
##uti
##anzibar
##lisi
kitu
##huri
maji
Taifa
hizo
##ungano
##lama
akiwa
##himu
maisha
##SI
taarifa
##KO
jijini
wengi
##MB
##umo
Zanzibar
##ishwa
bo
La
##DI
##JI
##bunge
##dogo
##GA
##MU
##swa
fu
##zima
yetu
hadi
Dkt
##wanja
##ongeza
Mwan
##fasi
amesema
##el
19
kutokana
##umbe
2017
ita
##jana
kupitia
##yu
##onye
haki
##zara
##badili
##kata
##ondo
Jam
##funzi
##om
##haki
##SA
##ANI
##wahi
huduma
##ribu
##ate
##iasa
##rehe
##pango
uwe
chini
##atia
##GU
##tanda
dhidi
hatua
kuu
##ambu
zao
nafasi
bila
kili
##unga
##genzi
inayo
usa
Mwenyekiti
um
mpya
##puni
viongozi
##weka
mada
LA
kis
fedha
Ji
##omba
ke
Muungano
##ilioni
##ve
maana
baadhi
Mare
##fisi
##miwa
Magu
##fuli
hivi
hicho
wetu
hili
##uzi
##amb
##wasili
##kta
##rib
Bara
##kurugenzi
##yote
##jwa
watoto
chama
##andi
lili
Me
##gon
meng
##atizo
##jibu
un
huku
##or
##fungu
Maka
##san
aka
Magufuli
Nai
eneo
##hitaji
##radi
##enga
lina
##idia
##wala
Li
##ena
Jamhuri
pa
we
##unia
##kisha
jambo
zilizo
##haka
mkuu
##pindi
##futa
Mkoa
jana
##it
Bw
njia
##iashara
##dhaa
##fani
hapo
kina
##ter
me
Bi
##HU
wengine
zote
##koani
Ja
##shimiwa
##zu
ko
Ye
10
##ris
##LE
ye
##wili
##duzi
##eno
##shind
##lamu
##amba
##ilia
Umoja
iki
Do
##ane
Katibu
##INI
Ko
Marekani
ms
##eneo
kuku
shi
timu
##saidia
##ong
kabla
Wizara
zake
sehemu
Shi
##risha
haku
Hu
kweli
Joh
Ken
Masha
Baa
##inga
mo
##ghu
##amini
alikuwa
map
mkutano
Al
Kis
##kele
Pa
##penda
##andishi
##yama
he
Bo
bara
kutumia
##mataifa
hai
haya
John
sheria
ngu
uchaguzi
wat
ho
##keo
picha
Mkurugenzi
##atukio
##pu
##ghuli
##mali
##wani
ndio
##JA
ut
mjini
##pati
##hari
kia
##faa
Mheshimiwa
##damu
zinazo
ata
##tumi
maeneo
uku
alipo
jamii
yote
muhimu
##tandao
Taa
ikiwa
##chumi
mas
kute
mchezo
SA
fa
mwana
RA
nyingine
##TE
In
##kwe
##HE
##fisa
Man
##GO
##ran
Ho
mkon
##ezi
maj
##mbea
bora
Wilaya
##rasa
200
simu
##bara
kuta
yaliyo
elimu
kufu
##paka
asili
Naibu
nyingi
##fsi
##dai
##mia
Ch
##FU
##endaji
##umb
##wanda
##uniani
An
##DE
##angaza
kua
De
Re
##MI
##pande
mbili
##inge
##ingia
maendeleo
##yari
##fauti
wasi
mkubwa
Wana
##vuti
##lma
masha
##fumo
##hani
bina
Mt
##ywa
##fya
nini
Bunge
##va
maka
so
pili
MW
BA
kuka
##zeti
lime
##gonjwa
##amia
Su
man
##huru
##kun
kipindi
hasa
##chukua
##wali
Tu
##atokeo
taifa
##umizi
shule
wako
yenye
##baya
kwani
kita
bado
##sini
kabisa
TAN
tena
##ni
KATI
##atibu
yangu
##IC
dha
##huo
##wake
Ju
##fikia
##insi
Jum
Fa
##onyesha
##pika
Kenya
##wahili
usi
##fika
##chang
##kari
##soma
biashara
kwenda
##kubali
##zin
##dala
000
Da
##amuzi
ambazo
##enge
##olo
##zingi
kuanzi
##ry
##ju
vile
kura
##bili
##man
up
DA
Chama
##shoto
##zazi
mwisho
upande
vijana
##keza
wewe
##lmashauri
##YE
HAPA
mwezi
##zia
##zingira
mbele
##chezaji
Hata
uwezo
wanafunzi
2016
12
nguvu
##rt
mkoani
##eleza
je
nili
##amani
Kuu
##lozi
Aki
akizungumza
##zani
##rum
##RE
yanayo
Ofisi
nam
##ME
vita
kusa
##onekana
##raka
##zee
kiasi
wale
aina
##YO
##yombo
##elea
##hakikisha
So
##reza
##ZO
zime
Pro
##rani
uki
##shindi
##tolewa
##yan
Bu
##smi
mkoa
VI
tayari
Lakini
##rs
ndo
wakiwa
##kula
Jamii
msi
tofauti
Una
tarehe
Nchi
wiki
##wai
tatu
kuj
afya
##dugu
Ru
##fadhi
Kama
Ro
##pote
15
Alisema
basi
Wat
##es
##thi
Maendeleo
##lisha
msingi
duniani
##TOKE
gani
##jumbe
##doma
MKU
matumizi
Polisi
##amad
Mashariki
kushiriki
ga
Uta
##funzo
zia
##kutana
##tisha
##angazo
kuja
Ti
yeye
Ai
##wasiliano
##dege
Dodoma
##laka
##patikana
saa
MI
##MBA
##kiliza
##hali
##hakama
namna
##bisha
Lu
##pinduzi
##ck
mtoto
##spita
##tokea
hizi
wilaya
##elezo
##wemo
mpaka
##SHA
##rua
suala
uliopita
huko
##kao
jina
kule
bu
##dio
Pe
mimi
Mataifa
yame
kampuni
##kwete
##geni
sha
hakuna
bi
11
##tumishi
##enki
##lla
kan
##wango
##risto
tume
Hii
##WE
##fo
##pokea
mali
msa
Sh
dunia
##chu
##umla
##enu
##kumbu
##chana
Baraza
##refu
##amlaka
##sani
Kikwete
##rahi
##umbani
##ango
Yesu
##chungu
##RU
##fano
##piga
##ei
##she
##labu
vizuri
##BU
kushoto
##rufu
kuhakikisha
SI
##cheza
KATIKA
##jiji
##gombea
vitu
##kosa
yo
##TOKEO
MATOKEO
##waida
Kan
##shindwa
##husiano
##kee
##BARI
lazima
milioni
##MO
18
Picha
asilimia
nyumba
polisi
wanawake
##poti
anaye
rasmi
Matukio
##ond
##badiliko
##fanyakazi
##amoto
##ILI
shughuli
##elekea
##ribuni
##th
sio
kusema
##lani
kulia
##raji
##toka
Spika
14
HABARI
unao
Mbunge
ndiyo
##ANIA
##kweli
##er
##amilia
mama
##lizi
##mea
Mambo
Baada
tangu
##rsa
Mat
RAIS
ambalo
mujibu
tatizo
jinsi
karibu
##pinzani
ujenzi
##pig
kawaida
rais
##kamili
##chama
Afya
##amke
##faha
##uaji
wala
##ZANIA
##hud
Ame
##rusha
mengi
Kusini
##dadi
mkono
waandishi
2015
Makamu
gha
##dini
vyombo
##dau
##spitali
##taa
waka
##kw
##wepo
ilikuwa
kusi
##mbelea
##GE
##PO
wazi
maal
matokeo
vit
kwake
ute
##goro
##amua
##dhali
nime
Halmashauri
##jiri
Ne
##zini
uka
mengine
mazingira
##co
SE
com
##inu
Kamati
kuanza
##angamoto
##zea
##TAN
kuendelea
##gumu
##biki
Di
karibuni
##HO
yu
##ataka
##ratibu
lengo
Simba
##us
##fiti
kuongeza
##kundi
##ongoza
##kataba
kij
##wana
She
##fungua
##funga
Mapinduzi
Jeshi
25
##ingereza
##anisha
nyumbani
##lim
##ziki
masuala
##sisha
mfumo
##kua
kin
fi
##kra
##engene
##ada
##amizi
##EO
##toria
##lii
mji
##ll
Haki
To
HI
kiu
mechi
Pombe
##und
maga
kilicho
Te
su
##NA
amani
##log
##angalia
sisi
16
wangu
##laya
ziara
mawa
usalama
kimataifa
##islamu
##indi
##ES
##umia
##mwa
##bore
##shirikiano
##iliki
Chuo
##DO
Kiswahili
Kas
Tume
mwingine
umri
tuli
##fung
Kili
re
We
Mwana
kit
Taarifa
kuzi
do
Shirika
##fuata
##LO
fursa
13
mradi
lililo
##deo
##rumani
kutu
Leo
Mh
changamoto
##jerumani
Ufa
mpango
Maa
##ongoni
##bidhi
##ambia
NI
##unda
nzuri
##rdhi
kuona
sekta
##med
kuanzia
##biti
yoyote
##FUN
##wezesha
##ent
Ga
Watu
Wakati
##kuja
his
##BC
##mini
co
##babisha
##lima
50
##zing
mafunzo
sawa
##staa
Prof
##lea
##dishi
makubwa
##shinda
unaweza
##enza
##IFA
Wan
ndege
No
michezo
Arusha
Balozi
Elimu
##guzi
zetu
##konda
##shirika
##paswa
mfano
lu
tukio
hiki
##ling
familia
maoni
17
pale
Ny
Co
te
lake
siasa
salaam
##umbu
Bwana
30
Ab
ru
Watanzania
##rd
##lingi
Aidha
##fari
##ssa
##changia
##gr
kuliko
mn
umma
Pia
mfu
mit
uchumi
klabu
Uhuru
kuondo
Ap
##UA
##andika
aja
walikuwa
kituo
maelezo
##zungumzo
##fanywa
##peni
En
##penzi
MKUU
##rama
vina
##amaduni
##kezaji
nao
##endesha
TANZANIA
LEO
WI
##biri
##ICHA
uongozi
mwili
Yanga
Sera
mwanamke
##ame
##rusi
lugha
##ingwa
##GI
mrefu
##jira
kuweka
##dara
uwanja
mabadiliko
##ongea
##hudi
Kimataifa
taasisi
kundi
##tangaza
bali
Siku
##ENYE
mtandao
kile
WAZI
Za
HU
##reje
binafsi
##pewa
##andaa
##rajiwa
##fahamu
kuwasili
Juma
##rudi
MP
##elewa
##firi
mta
##biashara
##tambu
Ulaya
Mwaka
Sheria
##sanii
dawa
##jeshi
nina
kiwango
##iwa
JA
umeme
##tokana
mka
huru
Katiba
zamani
Mbe
kuki
ile
KIDA
vyama
##fanikio
##lai
##kosi
##umui
nne
##ribi
on
msaada
tovuti
##RIKA
mis
##amano
##ph
##boresha
##ca
wadau
WAZIRI
ukweli
##vun
MWA
cho
DW
##disha
##ragha
##anua
##hisi
miongoni
kula
huwa
##il
sh
##DHA
humo
##zalisha
BO
##hara
kumu
##atilia
Uchaguzi
##ungo
Ligi
##MBO
nia
sita
##kilishi
mke
VYA
mbaya
kijamii
##amaa
##zama
##unguza
##fanikiwa
##hama
PICHA
moyo
##FAN
Yo
mazungumzo
namba
Mta
Sep
matatizo
Mwanza
##INA
usiku
##undi
##sisiti
##hiri
idadi
kadhaa
##pokuwa
kujenga
ndoa
Uwanja
JU
##husika
##shukuru
kikao
##ss
##twa
ujumbe
##NE
He
##keleza
kiongozi
##pele
Usa
Mawasiliano
barabara
##MBE
##dhim
NC
mao
kinacho
##anyi
ofisi
Tuna
##staafu
##zuia
##sti
MB
kufikia
kisiasa
##ts
##atwa
##engu
##TAA
bidhaa
Baadhi
##kika
##ok
maba
##katifu
##teja
al
##mw
##rti
##atoa
##gh
imani
ilivyo
Go
##ISHA
chakula
maneno
##rais
KIDATO
##ibu
ja
naye
##kazini
Um
shilingi
matangazo
ndugu
vili
kesi
TU
##maliza
wawili
##takiwa
##eb
Michezo
##son
uko
##jo
##tumika
ambacho
muziki
vye
##hihi
Maga
Sha
kuingia
isi
##umuiya
Nye
##zungumzia
##gawa
##ambana
Un
##itwa
ri
2012
mt
##dhibiti
awa
##ZE
MU
dini
Ut
Mkutano
##dema
tuta
##zingatia
Mahakama
wabunge
am
Bar
##tea
##husiana
MO
kisa
awali
##eneja
##kwenda
Kuna
##yani
gharama
##kn
##fadhali
2013
huyu
di
##olojia
##kabili
mauaji
pi
Taasisi
kujua
mare
##ld
pekee
##RO
##swali
uja
21
badala
##ted
##PI
##kulu
##undo
##sisitiza
mwenyewe
JI
bei
Shu
chake
binadamu
Uingereza
##kopo
##HINI
##pira
ila
##fla
Kazi
Mwalimu
##chunguzi
##raha
she
tha
akim
Fedha
##mokra
Mb
##ly
wanachama
##rea
##rere
23
wafanyakazi
##poteza
nyuma
##zinduzi
##simamia
maarufu
nasi
##fariki
ukurasa
pro
iliyopita
##ur
Is
##juli
WANA
wo
##KT
##wapo
chan
mafanikio
##alamu
kidogo
Kampuni
Benki
##zaliwa
maalum
##usu
Kai
kampeni
hati
Mara
##ungan
##insia
##shindano
BBC
AF
##uliza
msimu
kilimo
##fua
Ri
haja
##engwa
mch
kuchukua
Mwenyezi
##lme
watumishi
##kelezaji
Mbeya
aliyekuwa
Ina
KW
##bora
wachezaji
mata
##ongeze
##onesha
Mtendaji
Nyerere
at
miradi
as
tak
HAYA
Dunia
linalo
##ganda
kisheria
Mama
kuo
Lo
Ana
##mika
anasema
##isp
DAR
##ilayani
ule
24
Kuhusu
##hada
ardhi
kauli
Le
##buni
vifaa
##gemea
##jeti
##dhara
##funza
KIS
##ktari
##engine
Mjini
Ujerumani
22
gari
barua
kime
ushindi
##mokrasia
haraka
raia
##marisha
China
Jumat
##fungwa
Mis
##pili
##EC
##gwa
##blia
de
##biwa
##mbia
##ino
##book
waa
pesa
##gua
##hifadhi
kuti
Chadema
##ud
##zito
##goma
##DEMA
##sikiliza
##yon
##ws
CHADEMA
##pema
##zungu
##hoji
##angi
wenyewe
##knolojia
hoja
##tokeza
maso
##cebook
Kwan
##kabidhi
itakuwa
miezi
Kanisa
##chaka
jimbo
##ation
jeshi
Msa
waziri
Janua
Kristo
Kikuu
##takayo
mafuta
tano
aliyo
##dhani
KUTO
soka
Has
mataifa
Wananchi
##yansi
nga
Ikulu
Hivi
##fafan
ikiwemo
kuboresha
Nove
##miza
##rodha
Wato
uma
Kin
Jijini
##linda
nya
##fuko
ushirikiano
MKO
##tihani
fulani
##JINI
##kaya
Watoto
kima
##kezo
##jui
##baini
uamuzi
Miaka
amewa
ama
Jimbo
mna
uhuru
jumla
sahihi
kamati
kuweza
##nzi
kodi
##shambu
##inali
2014
upinzani
tabia
Kuwa
saba
##unua
##hamia
mamlaka
Ms
##simamizi
##UNGU
##sika
##pwa
Idara
##lami
mab
##uka
##inti
##chwa
hatari
Akizungumza
moto
Mamlaka
##kulima
Septe
magari
asi
Ok
##kondari
##esa
##hili
safari
hospitali
##ONGO
mkataba
##anya
##jadili
of
##VU
##gogoro
Ir
UN
kikubwa
Au
##takao
video
Viongozi
##ita
mwanzo
Home
##daiwa
Meneja
##kuta
##baki
##giza
utekelezaji
##zidi
100
mdogo
07
ajira
##pongeza
Bodi
kushirikiana
shirika
##shuhu
ambavyo
##tume
Jose
aliwa
##ster
kupiga
##muhimu
##SU
##ukumu
Hassan
kupunguza
historia
Apri
bilioni
##ul
##FANYA
che
Magazeti
##ambano
sera
utawala
mapenzi
##HILI
yeyote
Jakaya
katikati
##atakiwa
##umiwa
Biblia
##toba
akitoa
thamani
Tanga
Maji
uzinduzi
Map
kubadili
##engeneza
##tembelea
TAA
ligi
Maja
viwanda
Sasa
Uni
##rikisho
inaweza
wateja
##subu
viwanja
Biashara
##fisadi
Moro
##aida
##fanyabiashara
##sali
uha
matukio
##tt
ro
utaratibu
##KIO
wasio
Vijana
NNE
##jaa
##kamatwa
##patia
baba
##dua
wanaume
hatu
MWAKA
##lli
kifo
mawazo
Novemba
##shima
##dri
##zamo
mapema
##sababisha
Feb
##subuhi
zo
ukumbi
ajali
##lengo
kucheza
ujumla
##DU
MATU
MTAA
##aidi
##dato
##dumu
##MIS
kutafuta
mwe
kuya
mzuri
kuleta
##husisha
Uganda
##olote
##ishe
tun
##ENZI
##land
##ANO
yale
tafadhali
##kala
wamekuwa
kim
kuishi
##hana
##ishati
Fi
kijiji
Facebook
Mimi
##endeleza
lolote
##ongozo
uchunguzi
Nje
##samba
##unti
imekuwa
Pamoja
Ili
##ande
mikoa
##CO
##zoe
##chache
vitendo
neno
toka
kusaidia
Huduma
##ransa
ugonjwa
dola
##ema
ndiye
##uliwa
##jijini
As
Kitu
dakika
##takuwa
##ispaa
Moha
watanzania
Mkoani
Unaweza
##furahi
mahakama
Uj
kasi
PA
##panga
##wezekana
masi
kiuchumi
##wekwa
Kata
Uku
kutaka
kata
nani
Kaimu
##ol
kuangalia
kitaifa
The
Oktoba
##ungeni
##raja
##hati
##zam
##siri
##tuba
##les
Kw
uhusiano
Kila
kumi
Ago
siyo
kiny
ngazi
28
mashindano
Hivyo
juhudi
utu
ulinzi
##id
umuhimu
##YU
Kwanza
##CHA
Mka
wakazi
##chakato
Mohamed
##ongezeka
##kano
2011
uhaki
Mas
Septemba
ulimw
##elezea
kutekeleza
Mar
wenza
##gramu
alama
##angazaji
hau
Mpango
26
Kombe
kutosha
199
zisi
filamu
##ANDA
##ad
asubuhi
MAKA
##ANGA
##AM
rahisi
##pate
Kiongozi
anaweza
baadaye
sifa
##falme
##ridhi
##RASA
##atarajiwa
##leta
##ANZA
Che
##fuatilia
mawasiliano
##yuo
walimu
##chuano
##imba
Julai
wajumbe
Februa
Baba
Tun
katiba
##gharibi
wilayani
##ath
##lingana
mati
kisha
Juni
Ndani
40
##DHI
##ambua
kuwepo
##lio
##juma
##zindua
heshima
Jumuiya
faragha
hafla
utafiti
blog
##anne
kupambana
vituo
Ndugu
##onyeza
##kan
##shughuli
Kaskazini
mahali
Profesa
akili
##fany
##OTE
##atumia
##lahi
Mei
usha
MAGU
awamu
zenye
mitandao
Iringa
##RIFA
Agosti
TF
##guu
SALA
##amko
kwao
makundi
ES
Majaliwa
27
wazazi
WALI
##julikana
madai
##amond
##fundi
Sta
##kristo
##LIWA
Matokeo
##zika
Isra
##tumwa
Januari
faida
husika
##hudhu
nayo
Hapa
##ZAMA
##tumiaji
kusoma
yaani
kuelekea
mkononi
mapato
Hospitali
kanuni
chuo
##uru
damu
vilivyo
##LU
##ver
kujiunga
wapo
##FULI
##dhimisho
Utalii
Kit
##ISI
Diamond
tar
ndogo
wakuu
Shule
##chagua
##shika
MAGUFULI
##UF
##anganyi
##inyi
MPYA
Mtu
##maini
ataka
malengo
Machi
##line
Kwenye
##pende
##zalishaji
uliofanyika
mahitaji
##rini
gazeti
##wekezaji
##pp
##UNI
##sanya
rafiki
sherehe
wapi
##hudhuria
Be
##sheni
kufanyika
##ishia
##shambulia
##tishwa
kukabili
Maisha
kushindwa
halisi
##jenga
sauti
zisizo
mchakato
##liki
##ongozwa
##ENI
MATUKIO
furaha
##kumu
bajeti
Am
##pang
##chukuliwa
Joseph
##RIKALI
maswali
majina
##ruhusu
##hiti
kuimarisha
Sy
Sana
##inisha
yenu
Ufaransa
ika
##bika
ge
Umma
kuhusiana
Wiki
##chaguliwa
soko
iwe
makini
##indo
kuzingatia
29
##port
##unganisho
chanzo
##WAHILI
##ruhi
##uawa
##pia
umoja
wimbo
##rg
##lazi
ziki
##lalami
##TOTO
##kanda
SERIKALI
##chote
Jumapili
kanisa
##fanye
kitabu
pepe
##SHI
it
##andisi
##jeruhi
baina
uba
kesho
##ty
##huma
madini
HII
macho
CUF
##jitokeza
##wadi
Dr
TAARIFA
##ING
ub
Kisiasa
##MOJA
wizara
kisasa
##vua
mchezaji
##rajia
##inda
##hadi
fainali
##athi
Zaidi
miwili
##han
mipango
Hali
##idizi
mazuri
##IDI
uweze
Morogoro
kumbu
maamuzi
mabao
kufuatia
be
askari
wakulima
##fanyia
##tion
##siasa
Mwandishi
##keti
##ise
United
the
yule
matibabu
MS
##epu
anga
ne
MAA
##lezi
wasanii
hazi
JIJINI
mume
##karib
kinyume
Ujenzi
zita
##kuwepo
##ity
Afisa
##lenga
##ONI
taratibu
licha
##kamilika
##ruki
uhakika
##kubaliano
##shuhudia
##wanga
DKT
KISWAHILI
jioni
##DHAA
##wimu
##eli
maombi
michuano
waliokuwa
##amosi
MAGA
makala
vingine
kusikiliza
vyema
nzima
##sikia
majukumu
##chap
##kofu
Pili
##vya
Shirikisho
##kataa
##linzi
urais
Ndi
##yat
upendo
##iny
mash
##gizo
Kassim
hawana
masomo
zoezi
Bongo
ripoti
##kaa
benki
Kab
##rejea
Nime
marehemu
##ondoa
St
kikosi
Amesema
##simama
Sehemu
matu
##simu
kali
alivyo
liki
wow
Shein
##mail
##ambi
TAIFA
Moja
##laha
TFF
##andaliwa
makosa
##taja
##beba
##miliki
Timu
Kilimo
##bitisha
chochote
kupokea
rushwa
wowote
Uki
mgombea
kupati
BLO
##manja
mashabiki
##lali
Aprili
##subiri
SALAAM
Wazee
Ham
mpira
LI
Nili
kuko
##kufu
alim
Fran
Rwanda
##ishoni
Fu
Soma
Manispaa
Kituo
##mavu
##geria
##uza
ushauri
##jumaa
##luhu
wanaweza
silaha
PO
KUWA
##ZETI
vyote
vinavyo
maslahi
lenye
kutokea
##fuu
##kina
##simamo
Kutoka
wajibu
Kar
##angazwa
kumaliza
IDHAA
Usalama
kutangaza
amekuwa
yata
tuzo
##manjaro
##RIA
##MII
Jinsi
takrib
salama
##zoezi
##fugo
##ADA
##fikiri
uwa
##WI
kukabiliana
Azam
Usi
mawili
##ingida
##habari
31
##toaji
Korea
##ENDE
Haku
##tihada
hotuba
##chani
Mpya
##bati
Iran
##ripoti
##humiwa
##SO
##LIMU
##inadamu
kike
Kilimanjaro
##isasi
Singida
##amali
miundo
##halifu
##BI
##kie
mchango
kufunga
bunge
mbi
##fsiri
MWANA
kusimamia
Februari
##fundisha
vy
Ste
Mikoa
Kita
FC
Mipango
Kanda
siri
bure
2010
##gaji
mbunge
##rump
kuvu
##fanyiwa
Juli
kupe
##hariri
mikon
##laa
##hamiaji
Basi
Zili
kuzuia
Simu
lita
##andamano
dhambi
Trump
Maal
kwako
##mbinu
lin
##KIWA
alipokuwa
majibu
##ungua
##miana
##sea
Urusi
swali
walipo
##lala
##mua
ulikuwa
Kig
maalumu
##LIA
##ment
kujifunza
iliyopo
mahusiano
WATU
ufisadi
PILI
utendaji
Mn
##ISA
KUTOKA
##if
mad
yaki
##zao
Utamaduni
Mzee
go
##FYA
ZAIDI
letu
KUHU
makubaliano
##jaribu
##dhabu
City
NCHINI
##yota
jiji
Abdu
##gera
wageni
Mfumo
nyi
##ambamba
kosa
Nchini
##wetu
Jumamosi
yasi
##takapo
zawadi
##andalizi
kidato
uzalishaji
##robi
kamili
##bada
##fafanua
jamaa
##inyanga
Zilizo
ipo
shaka
iko
Fre
##ton
kuonyesha
##somaji
malipo
Afri
##vunja
nusu
ua
Ijumaa
Har
MAGAZETI
Chi
##liasili
Sisi
mbinu
maafisa
##bila
itakayo
kulipa
kip
##karibisha
ambako
ulimwengu
##ika
Nairobi
mazi
nita
##leni
##hakamani
##pigwa
kujadili
Mtakatifu
Sanaa
FA
##semba
Mstaafu
kusababisha
Tabia
Duniani
kununua
##kadi
us
hana
##mbwa
##kodi
yan
Maelezo
##mbizi
Ed
mwishoni
BOFYA
KWENYE
baraza
##jadala
kuwasiliana
Shinyanga
wito
##can
halmashauri
Hakuna
##SH
vime
utamaduni
##men
Jinsia
##oteli
##hutu
##hakiki
##mbulizi
BLOG
mfupi
mikopo
##HANI
##pinga
mitatu
zin
Ge
YAKE
##silimali
mwandishi
kukutana
kulinda
mazoezi
kush
##wasi
zangu
##ZIN
Desemba
Syria
Kagera
naomba
##rudani
Video
Mbo
bao
Ca
Jaji
kushinda
##andikwa
kuanzisha
chu
kuzungumza
kume
kuni
Ke
zilizopo
##ELE
##shughulikia
DARASA
Mada
alb
00
##pitia
##shia
sta
wagonjwa
##vuvi
teknolojia
kuomba
##tuma
kipa
Pi
##peleka
Asili
##amasha
jitihada
##oko
##hau
##semaji
bahati
##ght
##ongamano
Kamish
maadili
barani
NEC
hewa
##anii
Ben
husu
##lisho
Paul
##TAIFA
##JU
juzi
magonjwa
waweze
##ingiza
##llah
##dhamini
KUHUSU
msimamo
##onal
ubora
##KATI
Mafunzo
watatu
Tawala
##FI
upo
Kamanda
makuu
kuchangia
##mon
##ungufu
##sheria
##anja
Kiislamu
##malizika
##wishi
##ule
##lle
Vo
UTA
maadhimisho
hatima
ingawa
##tumiwa
##fia
Samia
mita
huenda
Char
Utu
##jengwa
Blog
##fe
##kh
##CH
##dui
wafanyabiashara
##my
##dan
##DIO
##TANO
##kufa
BARA
nafuu
Nina
kuondoa
##kamilisha
Jumatatu
utoaji
kumbukumbu
##sabu
##diwani
mwanafunzi
vyuo
##kwaa
amem
mikutano
kukosa
##fund
madara
uwekezaji
##UNG
##ondoka
Mhandisi
Mfuko
mchana
DO
kote
SIKU
##kampuni
chache
##JE
Jumanne
Sam
##frika
##hamasisha
kufika
zako
##ahidi
##LEA
Wanawake
kukaa
kulevya
##athiri
kwetu
Wanafunzi
kuendeleza
kijana
Ushirikiano
##tari
vipi
##lele
mshindi
##VI
Maj
##misha
##lezo
##enal
##fuasi
Zilizopo
MBA
Yako
Madini
##firisha
fo
##ue
##panda
##kiza
Kutokana
##SE
akisali
##kusu
##endekezo
##lam
Masuala
kulingana
ndipo
Nigeria
##rio
Bur
programu
Mtume
Julius
madarakani
utakuwa
maandamano
kilo
Mri
mahakamani
##UNGE
##shiki
##mina
Mradi
##andari
##pas
Idhaa
##gram
##lili
##luma
ALI
kutengeneza
mika
##wakilishi
##undwa
Njia
jukumu
Matangazo
hakika
kuacha
Lowa
Ndege
mwenyekiti
##anganyika
01
kisi
Eng
Suluhu
##saba
Geo
mwenza
sekondari
ukiwa
wataalamu
Ars
##his
##chester
##lan
ametoa
JAMII
mingi
##FUNZI
##per
##gana
kukubali
##biria
##iti
sambamba
kambi
Pwani
TV
jengo
mwanaume
orodha
ngo
risasi
##enya
iwapo
vitabu
Air
Wabunge
msanii
##barani
kuwan
Bora
##zoefu
KUU
##umini
hifadhi
##aada
##elezwa
Mawa
Rai
pichani
Ser
wingi
##MIA
##endi
Maliasili
ahadi
kitendo
BAADA
kiswahili
miundombinu
##tolea
##com
kib
haina
##fugaji
jo
Manchester
##ord
Seif
kuondoka
Mazingira
isiyo
Mitaa
##wn
mpenzi
##hutubia
##fanuzi
kuandika
##lini
kadi
Mwi
nika
tuhuma
##zal
end
mazao
##lat
wenzake
maha
Mrisho
pande
iliyofanyika
KAMA
Ufafanuzi
##tegemea
##endelee
New
Nya
kukuza
kufuata
MKOA
wanyama
mgogoro
WALIO
rangi
usajili
##pend
nyimbo
kuwapa
Fo
##bda
kufa
Msi
kutambua
Masharti
Sayansi
kuwe
Juu
##patikanaji
Tovuti
Israel
Jumatano
##ifadhi
##zigo
##ungaji
##zalendo
Ime
akisalimiana
##20
Willi
##sante
Mtandao
##yatta
##atana
Misri
##kelezwa
nye
##hanga
HO
Msingi
ng
kuru
##ZARA
wazee
makazi
BI
jirani
##atarajia
Magharibi
awe
##undua
mashirika
kusini
maandalizi
##lika
##ind
##shambuliaji
##chambu
##SILI
##rali
Ob
##mara
Faragha
##hamana
Kenyatta
##hitajika
kupewa
SABA
##jumu
usafiri
Nishati
##choki
##ungana
mba
Waandishi
##SS
##jali
Com
ushahidi
##KUU
Kia
hofu
##isini
##mar
matumaini
##anzishwa
On
Hatua
Ilani
bungeni
Hifadhi
##acha
##aji
##DANI
zile
adhabu
##fikisha
Lowassa
##onya
mitano
kurudi
yasiyo
##atoliki
ILI
Kupata
##heshi
kupele
##umbi
##mili
uwezekano
TI
Abdul
tuki
Hawa
tiketi
rasilimali
##dhamu
inavyo
##dh
kombe
BU
News
Mji
##DEO
##unuzi
##kusan
##gundua
mbo
##ishu
Ikiwa
Nyumba
##tter
watendaji
kupatikana
##engi
##sefu
ange
##kwisha
maja
Roho
Mbali
madaktari
##ufa
Kigoma
##lipa
visi
Ardhi
madawa
muungano
CH
##ondoni
kutembelea
##wara
##kumbuka
bonyeza
##rabu
##liza
yanaweza
##shuka
NE
##ramu
vingi
shida
makao
ajabu
kuv
Awa
atakuwa
##fanikisha
##rakati
500
Ume
##lafu
Charles
##tandaoni
##buri
Redio
Mke
kas
##unganisha
##PE
Bila
##tambua
##fanisi
SO
marafiki
ujao
kocha
JUMA
mgeni
WE
madaraka
watakao
mvua
zingine
VIDEO
akam
Naye
kikuu
vifo
Tuma
NCHI
Moham
magazeti
Mabadiliko
MTI
Haya
dhamana
utalii
Uturuki
##hamisi
##lizo
akasema
##keb
Barua
dirisha
UM
TO
hisia
##RC
##ut
Mtwara
Wata
upatikanaji
kiume
##jea
##undu
nane
##tajwa
waliyo
196
##hitimu
##funguzi
madhara
wen
##kabiliwa
##up
Tanganyika
Sudan
wafuasi
##lie
washiriki
##tumikia
masharti
MSI
##stahili
##RIKI
lako
##RD
Vipindi
mawaziri
35
mno
Mako
wanasema
##gwe
##kamata
60
akisema
##ganga
hat
niaba
##rafiki
mbe
ngumu
Wakuu
Jiji
Makonda
Raila
##bert
Obama
##taki
MAKAMU
WILA
##piki
unge
wanapo
Huu
darasa
##tel
##geme
##vo
kutumika
roho
KO
##ifu
Mkazi
##atokana
miguu
##siriamali
Kinondoni
kucho
kupoteza
##TOA
SHE
Amani
Kamishna
mzima
Mage
wadogo
Urais
Ita
burudani
Maso
WAN
vibaya
##tro
imesema
##shaji
MIA
##rge
William
##py
##kubaliana
upya
WIZARA
misingi
MHE
##chimba
ufanisi
##stani
uzoefu
##cis
##REHE
Arsenal
Ukurasa
##ribio
maele
##bii
Sekondari
Nd
kupinga
##kaji
03
kar
MKOANI
wavuti
njema
##lah
Makala
##URI
##jibika
Ulinzi
MWENYE
##tafuta
kimoja
Mwak
##letea
##enerali
wachache
##alam
##eseni
##yika
amri
App
##kiri
##guja
##kombo
yupo
kudhibiti
##pedia
##faka
Idadi
##BO
##limw
athari
wasiwasi
##kizi
##her
##BWA
##ufaa
Msanii
spika
##engele
##atiba
##leo
Utawala
gesi
Up
UNA
##jenge
Askofu
##okoa
MIAKA
akawa
mnamo
yuko
AFYA
Wel
##MBU
##CHI
kiwanda
Mohammed
safi
##uzu
Utafiti
##achi
Ad
TE
##anaji
##udi
##gia
##reva
HUU
##bidi
Wafanyakazi
kufungua
mikakati
utakao
##tani
##gaidi
##kin
TAZAMA
kuzaliwa
Sai
daraja
MUNGU
MTOTO
##livu
##kamilifu
alitoa
Voda
kuepu
And
Unguja
Mala
Maalum
wenu
##chunguza
Francis
misaada
Ah
Ulimw
##MBI
mate
##kilisha
##jani
##ESCO
kuendesha
##sse
ibada
##stawi
kanda
kuuza
tas
VYO
wasichana
##ISHI
##YI
ija
##IBU
hawaku
harakati
##mwi
tamaa
198
Sal
##saini
kuamini
##doa
##geze
AM
##lango
##pesi
mimba
uliopo
manufaa
hatimaye
Mab
Mku
##kwazo
##rura
300
##witter
##pelekea
##INE
KAZI
##TAKA
##ENDA
UKI
Maana
##hudumia
##logu
##fupi
Kigwanga
MTIHANI
197
Pemba
wanasiasa
Zi
AN
kutimiza
Stars
Alhamisi
Mmoja
abiria
Mtoto
Tazama
ziada
Insta
tiba
kutatua
Ib
##ist
Tamko
##bunifu
ishara
##ono
Viwanda
Hai
##ven
##ci
##zana
##fadhili
makampuni
ndoto
chumba
##mbili
Vodacom
32
wanahabari
watumiaji
vijiji
##ambulisho
##yonge
kizazi
viwango
##endeshaji
##fikiria
ufunguzi
sura
kuongoza
barabarani
kud
kuwasaidia
India
##rembo
and
alio
ZI
Yeye
misi
##ct
Yeho
##fungo
##tarajiwa
##ibuka
##anzisha
Waa
##athirika
##unza
mli
hukumu
##ber
##drid
uongo
NYU
##ANJA
##siliana
akaunti
wakim
##gezeko
##lulizo
albino
SU
usimamizi
kuandaa
##chafu
##PATA
Uongozi
ham
wakimbizi
##onald
##yembe
##INGI
##MP
unajua
##zoni
kigeni
Kijerumani
##EZI
Burundi
Waislamu
Kulia
Mwakilishi
kichwa
VYOMBO
Ub
uhalifu
takwimu
##mber
peke
Ngu
kupanda
vijijini
mjadala
bongo
waja
kaskazini
mashariki
##gezo
##uts
##pana
Tabora
dalili
nyota
##ps
Ar
##isheni
Glo
Madrid
lilikuwa
Mpira
##pekee
kudumu
niki
##VE
Lugha
CHU
mtazamo
##uzulu
Vyombo
06
##kezwa
kulikuwa
atakaye
CA
##simam
ombe
Em
kijeshi
##shana
USA
ELIMU
2009
##athmini
##paji
min
##lex
Maafisa
##wo
##inafsi
##amaki
Kozi
usio
##pangwa
2007
Yehova
##right
##ESHI
##andikie
George
##tumie
##VYO
Zit
Mch
Mapambano
Ngo
##resheni
uteuzi
kiti
##jiunga
##zina
Hayo
##shiria
Vita
##stina
uv
UW
##CHE
##uel
tuko
mkakati
Moshi
Mwisho
##andam
Mwakyembe
##ZWA
fomu
##vie
Teknolojia
Tigo
Nini
nishati
##ssi
##kali
##57
##KUT
Utumishi
Orodha
##weke
##unde
##katili
kwangu
mabaya
##atani
##vana
wagombea
##wele
mashambulizi
mikono
leseni
CHINI
kudai
halali
##zaa
##usi
MIKO
idara
Jenerali
ijayo
##utsche
Wali
wapiga
hawezi
magumu
Mba
45
mtihani
##ulu
##shindani
Aliye
chombo
##pyu
##lalamiko
##utu
2019
kibiashara
##wawa
##kebisho
##jeruhiwa
##UNIA
##eita
Injili
akiongea
##hoo
Kijiji
##pyuta
##seme
dada
Sekta
Ange
Mbowe
iliyotolewa
##urugu
##elevu
##ANZI
OF
KUJI
##rithi
##poke
wakubwa
##jam
Neno
inge
maelekezo
WILAYA
##rahisi
Makao
##dhari
Muhi
Copy
haija
MKUTANO
Matumizi
WAKE
##lazimika
##AND
miliki
##ward
mbio
##rufuku
kuamua
##takazo
masiki
##inguni
shabiki
Ujumbe
pointi
##DOMA
##ungwa
majengo
Rejea
##heshimiwa
##swada
##loni
##cia
vyao
Maswali
##hojiano
tuandikie
kumwa
Mgombea
Bra
vikao
Kigwangalla
Copyright
##agiza
Mjumbe
##ompyuta
DODOMA
walivyo
masikioni
##saka
Hadi
##wasilishwa
##umbele
nguo
##heshimu
mkewe
KILI
mgo
##bainisha
Ukumbi
Deutsche
Tatu
Uka
watakuwa
Ag
Demokrasia
##kizo
##kenya
##bel
MIC
##shirikiana
sanaa
AU
wanavyo
Wha
Muongozo
##jibiki
##mio
lao
Welle
##dhimisha
##suku
##atiwa
Geita
##bishwa
##aima
Tak
Nam
33
##CHAGU
migogoro
demokrasia
nyu
##rejesha
##amuziki
Siasa
##anze
##TANGA
amewataka
mti
kuonekana
90
##KWE
mipaka
Kusikiliza
##fakari
37
kipato
hoteli
matunda
##hubiri
WANAFUNZI
##gono
##ff
MAP
Ruvu
kutolewa
Kushoto
##jita
anapo
##pasuaji
wanayo
bwana
##ulizwa
Wikipedia
Wema
wanam
##EYA
SHU
for
##zunguka
Makofi
Ajira
##yanya
##sara
##raia
Haiwa
Tuko
milele
kucha
Klabu
Masa
utulivu
hasi
mashu
##ys
Nakili
mifugo
mapambano
Hili
Makuu
Lindi
Haiwajibiki
##onea
kutokuwa
##pendwa
kiunganisho
Con
kuhifadhi
mungu
viunganisho
##zimio
##yanzo
vitafungua
##LISI
Peter
HE
Nape
##ww
##chukuzi
AWA
Wetu
hawaja
##funguliwa
##rn
vyakula
##BAR
jumuiya
Plat
Ulimwengu
Said
##shirikisha
Bungeni
wapinzani
##isai
Mawaziri
AS
##lsea
mbegu
##TANZANIA
Gazeti
##pambana
Waki
Wakala
Kim
##azi
tija
MBALI
##KUTANA
Mali
##bwe
##anzia
vurugu
matakwa
yalikuwa
##jifunza
Saba
majira
Uwekezaji
##ikh
##thibitisha
takribani
kus
##vile
Awamu
##isaidia
tisa
Zitto
##safiri
kuzalisha
binti
miji
ongezeko
no
##chukulia
sare
##jue
##fundisho
##elev
lile
kilichopo
##dy
inasema
70
kif
ujuzi
Pre
Chelsea
Ban
##some
##JILI
##umbuzi
dharura
mkali
##ence
semina
nyakati
Wewe
kiungo
kuwania
ubunge
MAJ
dw
Mna
wawekezaji
##amiwa
Aka
##indano
unapo
kero
mapya
langu
##potea
Lis
##ISH
##andiko
mwalimu
##bile
His
Kumbu
kupita
Kabla
vin
England
##wazi
IKU
wapenzi
htt
##umzi
##nia
TRA
##KWA
rekodi
Abda
##og
Kib
##ONGE
dhati
##kuza
##roho
bahari
MAFUN
marufuku
mapendekezo
ilitumwa
##saji
##jadiliano
##habu
Msemaji
kufanikisha
uhai
miti
wanajeshi
##chezwa
kuha
##kusudi
##ble
##saidi
kuam
##dhalika
wasomaji
##shikam
uzazi
pasi
##hamu
##tikadi
ndivyo
Id
DUNIA
##chambuzi
kumalizika
mia
misha
mikataba
##endeshwa
##manuel
##dapo
kuwasilisha
Tano
80
mahojiano
Donald
Inter
BABA
amei
mwen
##umbo
SC
Ufundi
imara
Kauli
##TAZAMA
kukagua
kukabidhi
##yana
iliyokuwa
ilipo
Hati
##ruhusi
kujali
Edward
bodi
MBEYA
malalamiko
Soka
masa
pole
kukata
##ulo
Mwanamke
kuunda
##atumi
mapinduzi
Gha
##umivu
##pungua
mfululizo
uf
wawe
kufuatilia
Mbara
##WANA
##gizaji
IKULU
36
##ingilia
2008
Muhimbili
##peresheni
##furahia
Karibu
##gue
YAKO
JW
##thio
##pasa
el
NDANI
##onyesho
##fikiwa
inawa
ukaguzi
##cto
Africa
RE
mago
CHUO
##fahamika
##imbaji
uwepo
##ANGO
mabo
INA
hakuwa
##unu
Congo
##ISHO
##atoka
Kocha
##no
God
ukosefu
kuibu
mema
##kutwa
nilikuwa
##hiki
www
Ramad
##puko
mashtaka
JK
tawala
JO
kueleza
kujibu
kufanikiwa
##TIA
##gar
zitakazo
Uchumi
##ONA
##baha
Wajumbe
##gawan
wanataka
##HURI
##yahudi
Kitengo
tuka
wizi
II
Mak
Kundi
Nyingine
##ONGOZI
##thiopia
naku
##haribi
uzito
##fafanuzi
##tezi
is
KWANZA
Ripoti
##lay
wanafanya
asiye
mwanadamu
##riwa
Gu
labda
kupigwa
Hakimu
Od
##BIA
##50
##rah
AP
ofisini
kuongezeka
saini
marekebisho
mwi
kurejea
Msaidizi
##pima
wange
kukamilisha
##tini
data
ufafanuzi
wanne
02
##teua
##onesho
##une
##mbulio
Hamad
waumini
##stari
Ndu
Real
##zindu
ukubwa
mitaa
##lana
Kanuni
Simi
Vyama
##od
Ndio
##somi
Allah
##chimbaji
##lipwa
mzazi
JAM
Marehemu
ngozi
Jambo
Ber
anayo
##rin
##ZUNGU
kusamba
alii
##toe
endelevu
kwan
Papa
vyanzo
pindi
akina
kuchagua
##rasi
Ethiopia
##TC
Vile
mfuko
##krani
##demokrasia
Hakika
IN
haramu
Ziwa
kipya
US
##lwa
Maoni
Kitaifa
##ational
##umz
kutuma
04
baadae
##elfu
meli
##INDI
inaendelea
upasuaji
tunaweza
Mwili
kusikia
Katoliki
##ork
Awali
MAN
UMOJA
unavyo
MAMBO
IDA
##cel
kukusanya
##elekeza
upungufu
kubadilisha
05
##der
mashine
mishahara
2005
##fuatayo
##hirisha
Nne
matendo
mam
AFRIKA
##balozi
##ategemea
##TANDA
##kuzi
Ndiyo
Simiyu
Mkapa
masoko
##ban
##shikilia
##gan
##gust
agizo
Kufanya
vema
Uchukuzi
##dilifu
katibu
##wasilisha
aibu
ca
msha
34
wakiwemo
WAKATI
##ed
##tangazwa
Mtanzania
##koba
##fikishwa
Swahili
ud
AC
##zil
##anguka
tuweze
Mao
Filamu
Kiingereza
##rati
mojawapo
Mapato
##amusi
ngono
CO
##pisha
Alex
Wasi
Dawa
mage
Milioni
##vazi
anataka
##rey
kuwekeza
hadhara
##LEO
sijui
usafi
##ripotiwa
NEW
##rabati
waasi
##badilika
kuunga
##tam
##PL
##limisha
##zunguko
kompyuta
##anishwa
##ZAJI
##ANZIBAR
Sheikh
Davi
MAFUNZO
mua
##ir
Ilala
##wji
##SHARA
Lissu
##CHU
FE
Par
##aminifu
Wengine
online
ZANZIBAR
Huyu
NAFA
mstaafu
##kita
##atumika
Somalia
##ingu
kwasa
##cy
kuthi
Odinga
unataka
##PF
##zozo
mingine
kwanini
##jisi
nafsi
##sco
mzee
##haribifu
tamasha
##mira
takriban
kikamilifu
Jina
Emmanuel
##tk
jipya
##shanga
Mah
##king
kumpa
##uzwa
NAFASI
##zetu
Kum
##inua
isipokuwa
majadiliano
##amaha
wanaoishi
##ANCHI
Mchezo
Bajeti
##chapisha
kukamilika
Slaa
Airtel
msichana
Mwe
##enguni
ada
Kweli
##iza
##use
kure
##yasema
Ally
ME
##pigano
wahusika
maumivu
Hiyo
vyake
##lestina
sina
SIMU
MAMA
Radio
Zimba
##CC
##wanjani
##fisha
##ufaika
##cke
##fikapo
##puka
##imarisha
##ard
hususan
##tetea
kupo
kikundi
##CHO
##koni
kushika
##uzo
##sc
uto
09
DUNI
pengine
kubaini
JAMHURI
mbinguni
##DC
##kima
dhana
##onda
vikundi
Zimbabwe
Ummy
##rekani
shamba
MUUNG
Tuzo
Magereza
##mad
##mbeni
##22
kugombea
Mifugo
##elevisheni
mitihani
##jika
vigumu
endapo
likiwa
2006
##TEMBE
kifungu
Lib
Kisha
##hia
mifumo
##uro
##oo
MUUNGANO
Programu
##choche
jela
Mkataba
chenye
James
nami
joto
Wenye
DUNIANI
magharibi
kifungo
napenda
##riri
kilele
08
wam
##gai
KUKA
##ondon
##load
Mha
ubingwa
kuelewa
mtandaoni
MWANZA
jua
Ubungo
kuvi
uji
WATOTO
August
umekuwa
ktk
##fara
May
##hamisha
zilikuwa
vikwazo
##endera
##gusa
uso
kufungwa
LIGI
##cco
Ibrahi
kipi
kaunti
SASA
##hifadhiwa
hasara
##angwa
Mer
kuch
##DILI
##pelekwa
kutetea
mkopo
kimya
ukuaji
##waa
##luhi
Muda
wapya
London
##klia
##celona
##KUWA
##MISE
##TUKO
wate
yenyewe
samaki
##ficha
##ifanya
TUKO
##OND
##hakikishia
itaendelea
Mwezi
matatu
Dewji
##tta
##RIS
##zwe
##firishaji
##rick
##gopa
mwenzake
##ANG
kifedha
##zoea
Kiu
Paulo
Twitter
##DUA
##ambiwa
Tiba
MKA
kusu
SIMBA
##jengea
Ukweli
busara
Rasmi
nk
Maneno
Ara
Barcelona
##zinduliwa
##tambulisha
##skini
uendeshaji
##linganisha
hatia
##TATU
fupi
elfu
##singi
wenyeji
pembe
JESHI
##VA
ulemavu
enzi
##loud
##tiwa
##leza
kupa
Binadamu
##ongezea
mazishi
David
##kipiki
mstari
##MANI
##tiki
tete
POLISI
nawa
NAIBU
kikazi
##rison
42
Mechi
##lau
ushindani
##huku
##engenezwa
##et
kidini
##jumuisha
##historia
##onde
Sababu
majeshi
ifikapo
MAJI
wanan
tamko
TANESCO
sakata
kujaribu
mkazi
kupanga
##faulu
##TWA
Petro
##pigia
Italia
##plo
rufaa
Dola
##takavyo
##ridi
viungo
##stan
##ambatana
##inishwa
Upinzani
##shuru
##wekea
##ger
kiko
Njo
Mabingwa
##KON
##jamii
yaliyofanyika
##yara
##fuatia
##shawishi
##pendekeza
##shikamano
##chango
##hus
Pinda
##vutia
TAMISE
##ilio
##tangu
hasira
kuongea
MAISHA
##ID
mvu
akimkabidhi
vyenye
Mratibu
##fanana
##atokea
##kundu
Mwananchi
mtaa
##amehe
##sihi
TAMISEMI
##ambukizi
nazo
Bibi
##engeti
japo
##39
kuzindua
##gani
Takwimu
##ZINDUA
alieleza
Sport
hisa
Abdallah
Uislamu
kipekee
halafu
hadhi
mabingwa
Jubile
400
CRD
kazini
UMMA
Mata
MAJINA
Anga
##MWI
CRDB
##punguza
##wnload
##rudisha
Sir
inakuwa
##ombe
jinsia
##numz
ufumbuzi
SHI
##ance
OFISI
PAMOJA
Tarehe
dhahabu
##vin
Free
Kidato
##yesha
BONGO
kuhamasisha
##ZUNGUM
SH
Ng
##ub
kujitokeza
##laika
Wengi
##UNGA
msiba
huwezi
yatakayo
DRC
Kambi
##RT
JIN
mbadala
Isa
Ira
##hui
aliongeza
##yoo
jukwaa
##endea
##KANA
AKUTANA
##patiwa
UJ
MABA
NEWS
zipo
Mtazamo
Soko
JKT
mah
hawapo
kuvunja
zima
##elewe
hazina
utajiri
Zambia
UKIMWI
##ishio
vikuu
BEN
njaa
majimbo
##lishwa
HALI
kongamano
kamwe
NDO
anam
chuki
##sababishwa
##meke
kiroho
neema
jibu
uharibifu
usawa
Mwanasheria
majaribio
##kane
##semwa
##erikali
##kagua
##vaa
Brazil
Hamisi
ninge
Ibrahim
Israeli
YOTE
##ghari
ukatili
##kumbusha
maziwa
Ofisa
mwingi
Kikosi
Serengeti
June
WEN
sho
Kongo
TANGA
Mtaa
##pool
Kura
Mwinyi
##GUA
ZIA
WANANCHI
Liver
##wapa
st
Imani
##MBALI
Nga
##gilia
San
swala
Uvuvi
Tha
YE
urahisi
uelewa
upate
uwanjani
##ony
kutokaTUKO
Karume
maarifa
maofisa
##chezea
##islam
maskini
Tuli
38
##heri
Wachezaji
haiku
email
JUU
kika
Uhusiano
KIMA
kaka
Mal
bandari
Platnumz
kuhudhuria
##hema
kuwezesha
juma
kamusi
wema
inawezekana
JANA
##chia
##bas
##dharani
mtindo
##pishwa
alifanya
Mary
MBALIMBALI
##furi
##umisha
kingine
Cloud
Wilayani
##red
##res
Tatizo
viti
##andikisha
##tenga
Manyara
##KITI
lo
kuepuka
Liverpool
MAHA
##jipanga
wawakilishi
April
Lengo
nyama
mapigano
sija
NDIO
##wira
SHULE
##hudhuri
Wako
Instagram
Temeke
KIKWE
##yiko
hadharani
Amba
kipaumbele
##funguka
Mart
vikosi
ninyi
amefariki
Bandari
Mag
##duka
##TEMBELEA
##harakati
kupeleka
Meya
KIKWETE
shuleni
##udhui
watano
daima
##mita
##shtakiwa
imetoa
Kampeni
##KIA
##ombea
##idii
kuzungumzia
KUTU
RU
##hubu
wanapaswa
Maria
##cm
kukamatwa
madiwani
Moyo
zilizopita
##kebisha
##ambe
kusafiri
Mwanzo
fikra
Masoko
##ishani
makali
sayansi
Maalim
dhahiri
wamesema
GA
ngoma
salamu
##tua
##bit
shukrani
kubeba
Wakristo
MAS
##ongezi
##bariki
##piganaji
##leva
nidhamu
##ron
KATIBU
maradhi
##fiwa
Upendo
Tukio
##gogo
##ogle
##sherehe
Miss
Ama
umaskini
##twe
##jiandaa
##lly
##mbani
##jikuta
Mgeni
##baka
Us
Sikiliza
##SHAURI
##tawala
2000
RAS
##zozi
ushiriki
##jabu
##dhiri
##gambo
PS
Zia
ungependa
popote
zenu
hamu
##zangu
pikipiki
071
YALI
huruma
kuua
Ufalme
WOTE
##CCM
AL
nyaraka
maelfu
nakala
Wote
##rwa
Kisa
gmail
##likwa
##shfa
kufanyiwa
48
mfalme
minne
Tangu
EA
##KTA
##elimisha
##toni
hususani
ZIARA
##arufu
kuvutia
kwasababu
Barabara
Wakenya
##vutio
kuwawezesha
82
NGU
chao
##pengele
mafundisho
mshahara
Chan
##hukumiwa
ilivyokuwa
Maeneo
##dhifa
anavyo
robo
bidii
NYUMBA
##hawa
##weni
mwanachama
mawe
Du
Sauti
inapo
Aliongeza
Clouds
mwao
taha
Vya
kuf
Umeme
Kuji
##iko
mwanga
##mari
kukua
##sari
anafanya
Usimamizi
##hojiwa
kufahamu
maambukizi
##umishi
anawa
Salum
Robert
##SHIRIKI
unayo
Wale
wastani
NDI
Sita
Mana
nadhani
Jubilee
ombi
##angazia
mwele
##mas
mkurugenzi
End
MJINI
At
African
##roni
kufurahi
KUPI
##kizwa
##ENDELEO
wanaishi
hauna
##RS
##for
##chael
Mashindano
##rida
mp
##angilia
kihistoria
##KILI
##liko
kitengo
HAPO
##enea
##fuatavyo
##MKE
##ruhusiwa
muundo
kuifanya
mto
kuanzishwa
Tsh
mili
##bakia
44
mme
##UME
amefanya
##teuliwa
Muhimu
ubunifu
OK
lini
Kima
Mp
uzima
FIFA
##sumbu
##TEN
##shirini
##rosho
##risti
##simamisha
##bao
UWANJA
PE
##atolewa
Makamba
KAMP
Kupitia
You
##kel
serikalini
41
##56
dhamira
War
Makazi
urefu
DC
eti
michango
##miri
##kabidhiwa
AKA
ratiba
ambae
MWANAMKE
Nna
Bukoba
##KAZI
##uye
Mashirika
##GON
##ingizi
##CA
Vyuo
Naomba
MAENDELEO
vyeti
wamiliki
wakifuatilia
mavazi
##ast
wenzetu
vigezo
tusi
zikiwa
Viwanja
wasa
kiki
tendo
walisema
karne
Ute
kunywa
39
mshambuliaji
Qur
ubaguzi
##sale
kuzu
##onekano
alipata
Japan
##DUMA
##vulana
naona
Hapo
ulivyo
Wadau
ULI
elezo
kuwataka
Nawa
USI
##55
MASHA
alipotembelea
##FO
Ila
Michael
kulipwa
Rukwa
Mikopo
RASMI
mzigo
##shuhuda
##ongwe
##usha
inapatikana
akipokea
MICHE
Sepetu
Kitabu
January
##hamini
##sasi
ARU
hekima
MASO
vipaji
##KEA
##era
##liwe
Gro
##patie
SANA
shindano
Ndugai
##giliaji
hayu
mbu
##lojia
Akizungumzia
wenzao
mikononi
##EL
ulimwenguni
##HIDI
##siki
Chakula
KUS
UKA
mizigo
Jana
##ploma
Tafadhali
##LOZI
##tumbu
For
Watumishi
AME
Mad
hadithi
AMBA
##TZ
Job
UJENZI
##lub
Muh
##ssein
wanapata
Safari
Kilo
##ans
Sura
MICHEZO
mteja
Asia
lisi
reli
Muham
##JIA
##shangaa
##ANDISHI
miili
Ukimwi
##30
##romo
kashfa
##changanyi
##kusanya
kuchunguza
##isemba
##ywaji
Nnauye
El
budi
Vitu
Lea
uhaba
Bonyeza
JE
Wate
le
kutakuwa
KUI
Anasema
operesheni
##uo
mte
##gulu
AKIWA
##bani
##menti
kulala
kushughulikia
##atambua
Ingawa
Mfano
##ews
##TOBA
Mpe
Hatu
Kumi
taaluma
msamaha
via
ufundi
Walimu
sar
KAMATI
Miongoni
haita
wazo
##eneza
mitambo
WIKI
Yohana
##iliwa
KUTOA
EN
##ress
Mbu
##tengeneza
##teni
##tekeleza
##inikizo
2557
unahitaji
mwenendo
Sele
UV
mgonjwa
Tamasha
HUDUMA
##gen
##TV
Hussein
##sambazaji
sikukuu
##RUG
banda
virusi
KUP
##bainika
##himiza
kwenu
KAB
watuhumiwa
im
##fali
##sikini
Hizi
mzozo
OKTOBA
kupima
kuokoa
faini
Gre
yafuatayo
##jiriwa
##gamo
goli
##endana
Mwenge
mabasi
saratani
Historia
Msaada
zinaweza
mwendo
##uzaji
yapo
BWANA
Mkon
##anzibari
TANO
##gharimu
YANGA
##RUGENZI
Anna
angalau
Ziara
WATA
##semekana
Phili
Bei
fe
##tosha
##iari
tawi
##ction
kushangaza
Ruvuma
mlango
akihutubia
Mfalme
hatuna
SOMA
kuonesha
wanadamu
bingwa
##ziwa
viwili
kutoku
mwelekeo
mtumishi
humu
huja
##hehe
imewa
pombe
##kanisa
mgumu
naamini
inaonyesha
DAWA
##HN
BORA
Licha
Wawakilishi
Disemba
washindi
nj
##yata
WAFANYA
laki
##iso
wapata
udha
TAREHE
Iraq
##budu
walim
##bal
wach
KIMATAIFA
chako
kuchukuliwa
Vijijini
##MILI
aweze
##xi
maagizo
run
##jitahidi
aliwahi
##DP
##ingo
anatarajiwa
ulipo
Nguvu
##gamoyo
Mola
kuachana
Kahama
Ghana
zimekuwa
Arabia
##roid
MWENYEKITI
##DS
##karibia
maonyesho
aji
Chu
##den
kuingilia
MSA
aj
upe
NASA
Mtangazaji
Google
nae
hawajui
MV
Dini
KUM
47
daktari
Simon
akiwasili
WATANZANIA
##mishwa
##JANA
Kina
TP
##YIKA
##tazama
Mwigulu
wataalam
Asante
Wimbo
Sugar
uliyo
shirikisho
harusi
##tii
haiwezi
KUFANYA
##sherehekea
##ista
muafaka
Tho
tunayo
##enezi
wafugaji
Libya
AJA
tunaomba
Kisi
Wakurugenzi
##DM
masaa
kibinadamu
Uli
##kumbwa
kiele
##JUMBE
Dha
##ls
##BE
Mahi
##hudumu
kuibuka
by
KILA
Tundu
mwanzoni
ANA
Ramadhani
Akiwa
##rajio
tani
maandishi
##ambazi
MASOMO
##waji
Es
Darasa
redio
mwema
##moni
##pori
waji
inatoa
52
kibali
mako
Familia
kutenda
taka
##dereva
televisheni
Tra
##geuka
##TANDAO
##zanzibari
aliwataka
##shwe
##hanati
Kulingana
SITA
Bagamoyo
York
2020
Eneo
jiwe
ilio
ufu
Dani
##pand
##wambia
mwananchi
UA
lingine
##sahau
mumewe
##MISHI
##ANGU
JOHN
##tho
Kikao
##TCL
chetu
##umili
##pport
Im
ani
nikiwa
##ridhisha
tasnia
kigaidi
Lip
##mbana
Haji
Shilingi
uvuvi
mashamba
kujiuzulu
KITU
Amerika
MADA
##pasavyo
KUPATA
##hudhuriwa
kumekuwa
ukanda
Swali
Kinana
##rusale
MTU
UVCCM
Njombe
ifuatavyo
kusimama
ccm
##amka
Mchungaji
##bri
Abu
Gi
Mchezaji
##badilisha
alicho
##REA
kushuhudia
iweze
##yongeza
Zo
##anganya
makusudi
##ative
##upe
mzunguko
mtangazaji
Cana
##elele
waliopo
Saudi
kuruhusu
umaarufu
maudhui
madogo
##toke
utumishi
##ovu
udhibiti
kujitoa
ziwa
havi
##WEZA
sukari
##uguzi
MOJA
kwaa
WADA
chi
TB
HIYO
54
taji
kijinsia
adui
mashi
Euro
tanzania
##ny
kando
limekuwa
inaonekana
ghafla
Gavana
##kuzwa
##tengenezwa
washirika
mjumbe
afisa
kufuzu
itikadi
88
Ua
uwazi
##zua
##ungi
##chemba
SEHE
##wezo
##ingizwa
ipasavyo
Ruto
Musa
##pindu
magoli
##ENDELEA
Kale
##tenda
ai
Ule
ula
##funze
##kanusha
madarasa
alidai
##soge
tuwe
##ces
fani
kub
SEHEMU
kadhalika
nyuklia
Kongamano
Ushirika
##dali
##kome
##hesa
Nafasi
Saa
kuwapatia
##yce
Jane
Mti
##kimbia
##fungia
ushawishi
##igizaji
##JWA
##ongoro
##cial
##RADI
##songa
##eneji
Mon
misitu
##chapishwa
ustawi
Miguu
kutembea
##reni
zinasema
mfanyakazi
##inho
##husishwa
##GP
ARUSHA
##uzito
somo
Yusu
Kham
Yu
mateso
43
Wasiliana
kiafya
Kijamii
baridi
##pitisha
waliohudhuria
##ube
Mte
STA
kuthibitisha
tz
##ISHWA
MWISHO
maonesho
##zembe
wapiganaji
wanaendelea
alisisitiza
imeanza
##xt
##MIWA
##jaji
##ANII
##gom
##ongezwa
ununuzi
mwake
##chukue
KAN
Uzinduzi
Mbarawa
Kwani
wanatakiwa
Bri
Hoteli
yamekuwa
55
NMB
##tano
##jihusisha
Mafanikio
##himili
JWTZ
##dhihirisha
UKU
kwaajili
hawawezi
tafsiri
##lic
viki
Kag
FI
hospita
KUT
##sibu
BUNGE
nde
tuliyo
nataka
kabila
Rashi
Malawi
UP
Nchemba
haikuwa
##atafuta
Aust
Muhammad
Uhamiaji
Bro
ii
tathmini
kilomita
##App
kuungana
kumw
Maalumu
##turi
baraka
##ZALIWA
wahamiaji
Alikuwa
Muziki
##HAMA
##jibikaji
kuhusika
inam
kiserikali
aku
##ongera
##kre
##iri
Jukwaa
ikawa
##hodha
46
##unt
Membe
##td
kurejesha
vikali
Nor
##TAJI
maswa
Of
kijijini
jum
KUBWA
KUTAZAMA
FU
Maadhimisho
##angalie
##sekana
Mande
mwongozo
madeni
BENKI
uliofanywa
##ste
##andamana
##pha
Ndg
mda
##ree
HIS
zinazoendelea
Fursa
Sitta
Aliyekuwa
##kandarasi
53
King
##amiza
wapatao
Pakua
##fanyike
##amshi
Online
##enejimenti
##ley
mj
##LMA
Hisp
##sanyaji
Group
##PITA
##takacho
UHU
Whats
kusambaza
UCHAGU
vipindi
##ral
mwakilishi
##mbilia
kuadhimisha
##fautiana
UCHAGUZI
##teta
sala
##KARI
inafanya
umbali
wenzangu
Maandishi
https
PI
Mto
Kisutu
hayupo
unaendelea
FEDHA
CHAMA
kifupi
mgomo
ufahamu
##isani
Mari
ufugaji
kuisaidia
##meta
##national
56
umakini
kivi
##oyo
##zma
Hispania
##sela
##soa
##win
Daudi
BODI
Uchunguzi
##ington
live
Yule
con
49
Raia
MEC
sote
manispaa
##CE
ujauzito
##daka
kuwapo
##hol
tajiri
alizo
HUYU
Philip
Wazazi
Sene
fidia
utata
ushuru
KIKUU
##bitishwa
##LII
Kidemokrasia
th
Walio
uchimbaji
WhatsApp
Upate
SM
ugaidi
Namba
Vic
##lei
##hukumu
##RODHA
600
##rod
Merkel
NJE
MARA
visa
##cheke
FM
KIN
shambulio
Momba
##plomasia
##isajili
Harrison
##furiko
usafirishaji
mageuzi
##ENE
Muse
##fri
nilivyo
Makame
maduka
VVU
kelele
mamilioni
AKI
niliyo
##sted
raha
Yake
##kretari
matarajio
##hesabu
Amina
##ONGOZA
kudumisha
kirafiki
deni
vyumba
kutunza
ORODHA
Hatima
##linganishwa
ajenda
##by
##fupa
Kucheza
macha
mauzo
Daraja
Kagame
sumu
Mati
Askari
MECHI
akifanya
Tari
##the
cheti
##giwa
movie
##rema
##pungu
hawata
##ZEE
VIJANA
##ONYE
Mwenyewe
##yati
wanawa
kushuka
Iv
##damizi
moyoni
LIN
##changiaji
Salim
Muga
anajua
kukataa
kuwekwa
RO
##pishe
Mr
meza
wavulana
akifungua
##oa
##dirio
JINSI
mhariri
kupatiwa
Chini
LU
##tembea
RI
##ongoji
Binafsi
Mahiga
kufikiri
kusisitiza
##fuatiliaji
balozi
##int
Wash
Mwanadamu
##saha
Mua
Mbili
maandiko
wasomi
zit
MFU
UFA
mabomu
tuma
150
Mussa
##onga
75
##zingatiwa
HIVI
LIVE
mwanam
##ses
Miradi
##net
Cre
kusitisha
##amboni
##shikiliwa
uadilifu
MAO
##rezani
##ishiwa
##nayo
Songea
Ndoa
masikini
##undation
lililopo
Kabwe
##jamin
IGP
posho
shinikizo
mfanyabiashara
alianza
IDADI
inter
Rufaa
inahitaji
MAPENZI
##oney
AFUN
vipimo
mifuko
WADAU
##spe
##kupa
Media
Mapenzi
akiwemo
vinginevyo
MAWA
Car
TZ
atu
##haba
ametangaza
kada
Benjamin
ghasia
kuunganisha
tujadili
##katibu
umasikini
Moto
##andamizi
pasipo
tahadhari
##lishi
##ondoo
Freeman
Nyama
##kutanisha
jingine
wapate
##guri
Majina
wakimsikiliza
SHA
wamesha
Pat
mioyo
Angalia
Ltd
##gano
##susi
##gola
mwenyeji
kufanywa
##skofu
kufuta
##ENDO
zinapo
##unuliwa
MWILI
DIA
NGO
Jafo
Mpekuzi
##24
wanazo
Ubalozi
##eti
Wame
mshikamano
##ange
Tofauti
nyo
##CR
tunapo
des
kumbe
##ifaa
DR
##adamu
Kiarabu
kuelezea
wasiliana
##sajili
MIKOA
Mshambuliaji
Zetu
uchafu
mana
wakam
udhaifu
##KONDA
Maadili
##takalo
bima
Pesa
war
##engenezaji
DK
##dishwa
##sion
kuchaguliwa
##kinga
##badilishwa
hariri
##MOND
AG
cheo
##zote
ushirika
##pitwe
watalii
##istan
##wakilisha
dogo
Globu
UTALII
radhi
##ondolewa
##itaka
sen
MBUNGE
##rudia
##ckson
NECTA
nawe
##mpa
Zari
kuhamia
##raguri
Yoyote
Mandela
##MIZI
Madaktari
mko
2002
##chawi
Sala
##ADHI
##ichapishe
WANAWA
Tangazo
mwangi
##dge
##onaldo
kufundisha
IE
muraguri
tuichapishe
##luhisho
kimapenzi
Jipatie
##TORIA
##vunia
##MLA
hawakuwa
Mugabe
##gongo
##umziko
##amaanisha
##KAMA
duka
iP
##kt
maafa
bendera
Baraka
##china
Mtihani
kuchang
##ulize
##ghan
Ronaldo
Tuta
Washington
amesha
Global
Ratiba
linaweza
##spo
##ongelea
maswala
mikubwa
##aga
Msajili
##AA
##umuni
Lema
Madiwani
toleo
##angalizi
Tuku
IP
ad
ukarabati
##wezekani
Rashid
kusubiri
kuamkia
ukusanyaji
##hehebu
Waka
##tus
kujitolea
kubaki
nyongeza
##ms
naibu
##MERA
Bahari
walioko
##diliwa
Tayari
WANAWAKE
ujasiri
MAJA
##ates
BILA
MAKU
kusaini
Blogu
Eli
##tane
##meko
Allaa
Uko
##FUA
Richa
##yarisha
Sherehe
TC
AJALI
##okoaji
wazima
KILIMO
Miz
majeruhi
mmiliki
##haribika
kutazama
kutwaa
Wil
##dudu
kinga
##as
Foundation
mtaji
MATAIFA
##LAMU
Matha
mamia
##SSF
alipowasili
Pen
##wakabili
kurasa
beki
##takia
##RIN
MIKOPO
RADIO
Salma
February
Lipumba
chaguzi
Pata
huna
##tangulia
MIFU
##tic
Abe
Ole
VPL
maru
Mpaka
##lazwa
##ESU
MUDA
DIAMOND
kuvun
kuharibu
##amuru
Usajili
##DUZI
mwakani
machache
##mond
##MAN
kulazi
##PIGA
##futwa
mafisadi
##mbozi
mitaani
KAMERA
##TOKEA
msemaji
##FAA
Steph
vilevile
##pigania
Jumla
mwilini
Richard
Viti
One
Ustawi
##mes
##INGINE
vidogo
Lulu
Labda
shahada
WENYE
viumbe
##News
Visi
aliyoi
Hebu
##handisi
##DIA
ndilo
kuingiza
utukufu
akutana
wivu
nji
Usipitwe
heri
kivu
Kikristo
##kiuka
##chapisho
Yetu
##shambuliwa
##zami
wanahitaji
Wayahudi
HALMA
kujiandaa
mafuriko
##UTI
azma
hapana
UHA
##simamiwa
Vifaa
kale
##hitimisha
##achia
BE
What
IS
##zuku
##wezeshaji
duni
viunga
mbwa
##SOMA
nalo
wafu
VIONGOZI
ameeleza
tujadiliane
##kuli
##gita
##unganishi
kilikuwa
TIMU
akifafanua
kilichofanyika
SHIN
International
Ur
##ruka
zilizokuwa
hesabu
99
##pitishwa
tunawa
Kha
madawati
ILIYO
Android
zikiwemo
katoliki
kushu
TUME
Mac
##amuhuri
##ishwe
Issa
TUN
msaidizi
Palestina
Mafuta
kung
Mwanafunzi
##sajiliwa
Ajili
##mir
Bilioni
##rahman
##jiuliza
##ugu
ndefu
org
##ach
##pokelewa
##onana
##pendi
##likuwa
MTA
uwajibikaji
##gara
Diwani
##marika
##zuni
maishani
##tego
Plu
ameji
##SHIN
meneja
kutakiwa
UME
Wanao
##fuatazo
Mombasa
Flo
KITAIFA
Ibada
kisiwa
##rili
Canada
LINK
wafanya
Bima
HALMASHAURI
kufikiria
KUKU
waj
##wafanya
51
lipo
##bianchi
##ee
kadha
##dhalilisha
Star
##ramia
BIA
ukombozi
##ishughuli
72
Afghan
kupelekwa
MAELE
##kwepa
Kudumu
2004
zuri
##amasa
HOS
ufalme
inatarajiwa
Mkakati
##ENO
##taneti
Fahamu
##zui
SHERIA
usambazaji
##haribu
##uwa
kupitisha
##umilivu
Baye
ZOTE
lililofanyika
Kigamboni
aliji
##WANI
mbiu
Omar
support
##anganyifu
pana
kifa
ipi
##dee
hospitalini
kuinua
imeendelea
##gundu
##ram
wanatumia
##aluma
AJI
##giji
tumbo
WAKO
kupenda
##ONE
##gonga
Mour
##KING
##barage
##tengwa
KWE
akitokea
##chua
NDE
PRO
Hiki
##giriki
wajasiriamali
##shiri
Ushauri
##kasi
mga
bomba
mahindi
Ray
imetangaza
walizo
tangazo
sto
Endelea
Rose
unam
safu
##ctober
Mourinho
BURE
uchungu
##unzi
IME
hela
##kosea
makamu
Kiuchumi
pwani
dereva
AJILI
uhifadhi
Bingwa
mapa
##KURU
##hiyo
Kipindi
##atasi
wanaofanya
watawala
Cho
zilizotolewa
anaamini
Fainali
##saidie
Club
##tawa
machafuko
kuchu
mwanasiasa
##umiza
machozi
kufanyia
kupungua
BARAZA
##vert
kutekelezwa
Fm
injili
Makinda
Daniel
Wapo
kuwafanya
kisu
kukumbu
kutangazwa
##atta
Zoezi
##katiba
upele
Jen
##chea
##duku
MN
##lar
Hesabu
VIW
MSIBA
##sapp
##bomo
##kretarieti
Kambarage
limesema
nilipo
Nani
ziko
Mizengo
meno
##ktaba
Brea
inat
mail
wanaamini
kimsingi
Lazima
MWEZI
##min
##sukuma
##OMBA
YESU
watoa
Wakili
UHURU
kufikisha
kusahau
##stine
kipengele
Ukaguzi
unatukio
Sto
Download
kidi
zozote
desturi
blogu
##tarajia
##mage
Wakimbizi
##qu
uw
unga
##pewe
Kujenga
##ukwa
maabara
LE
##ssia
Sar
anao
pembeni
Gold
##SHO
MIS
Ubunge
kuondolewa
AUA
Wasanii
mtendaji
anapaswa
##umwa
Bado
mifano
##fungaji
Afghanistan
tunao
lisilo
was
ACT
##ukuu
HOSPITA
Ahmed
Gra
##ZAZI
kilio
##GWA
##roniki
Barack
Chanzo
wakifanya
##nda
mag
pato
##veni
October
tuu
##kadiriwa
mtuhumiwa
wahitimu
warsha
KEN
##kusudia
yanayoendelea
Napenda
##jage
kuuawa
madereva
West
Mli
##kawa
##LS
vichwa
BREA
##cheze
##pangilio
RC
Wake
##ambie
wak
malaika
Utangazaji
uana
##laani
Mganga
MKURUGENZI
AZINDUA
##LB
akimkaribisha
Ishara
wanga
Wasichana
##pendekezwa
BIASHARA
hufanya
Vilevile
##mp
##hamisho
kujifungua
wafungwa
hiari
mboga
vitambulisho
##ridhika
mapumziko
KK
Suala
##tima
##komboa
wadhifa
Rushwa
imesha
##endelezo
san
Pole
nguzo
jinai
##UZI
hatuwezi
##enger
Mlima
##uji
##yang
Iddi
##tasari
Roma
MAELEZO
##ando
BREAKING
tulio
kurekebisha
Msu
kumsaidia
##pole
##soro
Jamuhuri
##funi
kutia
Anth
##atar
kuuliza
Sio
tunataka
##wer
Kiba
Kumbuka
##jazo
tokea
kusafirisha
Abdulrahman
tulikuwa
Kal
wakili
jamani
KULI
Sulei
Ngor
Luku
mbona
kutegemea
Kitanzania
Mashahidi
litakalo
UTU
##kand
##dada
suluhisho
yaliyopo
akiba
mlipuko
Mlezi
##kete
kujipatia
uchambuzi
##SISI
akisisitiza
mashaka
57
lishe
muswada
##muzi
##VUTI
KUONA
kifaa
Zote
##mited
inabidi
##MAA
##twaa
kusiki
##piti
uaminifu
yalio
##ums
wameanza
kipo
endelea
##VIE
Assa
mila
HOSPITALI
tunavyo
EU
kukidhi
Maombi
TANGAZO
##hone
ufadhili
Fe
##rai
##UAJI
Mhariri
kubuni
NDEGE
Huku
Angela
##tudio
HAI
kuolewa
MWANAFUNZI
##gama
##onyeshwa
imem
##RY
Macha
imetolewa
ubalozi
KANDA
##lt
kukimbia
maje
akijibu
Mazungumzo
##shangilia
Changamoto
##pania
##tumu
njama
##ongwa
Katikati
kitakacho
http
MH
mapungufu
pongezi
bin
Mahusiano
##tunza
Menejimenti
##hini
##PU
niwa
##mko
ALIYE
KUJIUNGA
##tupa
kumiliki
Install
Wateja
akipata
mchanga
anakuwa
##salia
Wepesi
Bilal
WANAO
Namna
##hujumu
waku
Alipo
Rich
MTANDAO
##MWA
mwako
##umbiji
Asha
nyanja
ang
yanapatikana
##BORA
uzalendo
Tena
Stephen
HATA
MAOMBI
shambulizi
Kutoa
##rilioni
ulaya
faili
##malizia
iliyoko
Museveni
##fumu
##eleweka
Mkaguzi
mwanamuziki
##UNGO
kulipia
Qu
uliokuwa
Anne
ikilinganishwa
kimwili
sadaka
kufariki
##SIA
Shetani
ujio
niku
inapaswa
KATIBA
Anthony
##godi
Nyi
##gala
Kuto
kutaja
##letwa
Amo
Aina
##rushi
Ngorongoro
NSSF
##FANI
Bayern
Sho
##FANYIKA
asema
##BISHA
Ilikuwa
tutakuwa
##tambulisho
##11
##sin
wanakuwa
nzito
##KANI
zijazo
MSINGI
Er
KIA
##anishi
##shangaza
##changanyiko
NY
Uamuzi
Vit
Victoria
Tam
##vel
##ONGEZA
Mtukufu
##pendeza
janga
urafiki
itawa
##unganishwa
58
##sisimua
##vamia
NO
Kanumba
##sy
KARI
aya
##maanisha
##pito
anatakiwa
##MAMO
HAWA
APP
chote
##uwawa
kutumiwa
nywele
##umilia
Steven
Common
TBC
##eledi
Allaah
Tanz
Joyce
Aliwa
##zuka
##otel
mtumiaji
##unzaji
##ONT
UKAWA
##ZURI
kich
kuundwa
Kuzuia
##tere
Songwe
##belgiji
Wazanzibari
ujasiriamali
##timiza
Msimu
##kilizwa
radio
Msumbiji
Kana
tafiti
wakitoa
facebook
kitanzania
##CHUKU
##sto
Berna
65
uzuri
Cup
##ense
ikiwamo
Austra
kujihusisha
##atekeleza
mtakatifu
##que
##ric
##futaji
Min
Breaking
bia
Kufuatia
##pimaji
mlo
UJUMBE
2001
##AD
##idh
##holanzi
atakapo
HES
Umwa
ndicho
##lengwa
pre
chanjo
##HIMU
unaona
Shiriki
Vitabu
MOVIE
##ser
Viunganishi
KENYA
##isahau
NYE
##ft
CHINA
Kumbukumbu
##humuni
ukilinganisha
##jikita
Sirro
vitisho
anacho
yaliyokuwa
Zuma
##eleze
kivita
HESLB
Uwezo
##orld
asilia
litakuwa
CAG
Demo
##wama
wanajua
POMBE
Morocco
Khamis
##safa
yatakuwa
zahanati
hauja
##ENGO
udanganyifu
utakapo
##yafanya
Suleiman
##MALI
mrembo
uandishi
##like
YATOA
imewasilishwa
MPANGO
##kewa
Mil
Swe
wakala
##andamanaji
umwa
makanisa
aliko
##ZU
##des
##idika
msafara
##shitakiwa
waliochaguliwa
kujengwa
##ping
maadui
##angili
##jisikia
alilo
DE
##kovu
alie
Yerusale
korosho
##TANGAZWA
##rafu
##ranga
##KAO
##rifu
asasi
##RUFU
##TANGAZA
Wala
##chapa
##airo
vyetu
##TEKE
kugundua
##kombozi
ele
##GUZI
Paki
ingekuwa
##jeo
alizaliwa
wokovu
KWAKE
Hotuba
##ANE
hutumia
akikagua
kuwajengea
zifuatazo
Sports
zinazotolewa
MRADI
nanyi
Unajua
##ters
mgodi
app
kurudisha
siwezi
amefunguka
##andia
kupende
mki
Mk
Shaba
Whatsapp
kupigia
Abbas
Sun
##dole
vibali
##sifu
##PYA
##guo
Rodri
Ze
amepata
##DB
##changi
kuzitumia
Majeshi
Umwagiliaji
Ubelgiji
tumekuwa
##tekelezwa
800
Laza
Kesi
Jaco
Waafrika
akielezea
hum
kadiri
vivutio
##wania
DI
HAKI
itasaidia
uda
upepo
akia
Mitihani
##anesco
Scho
Messi
kubadilishana
unyanya
##HAMU
Ig
kiraia
##komeza
HISTORIA
Super
##umbufu
##oki
yakiwa
mdau
jam
##wia
##gali
giza
Kiti
Fleva
aliamua
Karia
##fukuza
mashuhuri
anatu
upelelezi
alitumia
AJIRA
##toliki
kiwanja
Ndo
suluhu
##ONDO
Mate
mpa
zana
alifariki
##itwacho
KUPITIA
##Ma
shetani
mse
##samehe
##kur
NDOA
kuathiri
iliyoandaliwa
Hamis
utapata
Yaani
TABIA
kilometa
##kwama
jadi
##duli
##AJI
kiji
Nane
##kusanyiko
##kumba
##funuo
##ruga
Kodi
Hilo
Young
kutisha
Wakazi
##lalamika
kiitwacho
MPENZI
##kum
##takabali
MOI
liko
NAM
kukabidhiwa
Martin
MAJALIWA
waliwa
najua
##ST
Limited
hamasa
##fai
Abeid
Ile
mlima
##ingie
##25
##fili
July
kukiwa
March
mwenzi
Paris
Viungo
Mitandao
##ishukuru
kaya
nimeona
kona
mach
ukuta
Shari
DHIDI
##GINE
##ks
##ishughulisha
Yali
Ex
Hum
Thomas
ameli
UNESCO
Jacob
chanya
stahiki
waathirika
mato
BALOZI
YALIYO
##atus
Kibaha
##TER
##16
##laba
##tarisha
tulivyo
2003
##toshe
##umzika
Uenezi
SINGI
##ther
Nadhani
Mitego
Ecke
59
MCHE
alimu
##BIDHI
##ksi
Wanyama
Or
Maha
##ujiza
##elekezwa
wakawa
##ries
Mhagama
##gal
kuy
Akiongea
##YANGA
Lazaro
Mengi
tabianchi
mbovu
visiwani
onyo
uhamiaji
kujionea
unakuwa
Kun
UWE
##ons
tunge
kuhama
##injili
##kira
VYU
kubadilika
Wenger
HEWA
SINGIDA
kiapo
mtaalamu
Share
Yerusalemu
FO
##rip
##guswa
Daktari
kukupa
##lifu
kuondokana
zinaonyesha
##kumbusho
undani
BUNG
Ukra
##umuia
##TUBA
MAHAKAMA
Commons
uanachama
Salama
##frey
Qatar
Kivu
##kubalika
FONT
##mwambia
ugumu
nyengine
##mikali
Creative
walipata
WAKU
KIJA
94
Kairuki
Itikadi
anaendelea
matawi
walifanya
Australia
##bola
Eliza
KUPA
VITA
##UM
##LIONI
ufaulu
AR
##mfanya
kutafsiri
mafa
##tegeme
wadhamini
MPA
BUNGENI
wanandoa
67
amesisitiza
kikatiba
##TENDA
##beth
##wari
Jibu
WETU
##jasiriamali
##cal
ST
##mbie
Sekretarieti
##bira
CAF
ruzuku
Mikutano
kutafakari
##ongozana
##dwa
##athini
kuteuliwa
kibao
kumpata
##llo
##LEWA
bibi
Jengo
WC
watapata
angalia
uraia
Kiwango
hutoa
Cor
HOTUBA
malezi
fol
ilianza
##futia
kupotea
##10
##domo
Kupambana
anyi
kuapishwa
Lukuvi
itakapo
mala
uhakiki
kutambu
aa
Utendaji
Washiriki
##somwa
IBA
Nami
kujeruhiwa
##simamishwa
post
Wanachama
Mbi
yat
##INGA
##day
SHINYANGA
kukosekana
##hubuti
Mathayo
##33
mashitaka
Ugonjwa
Muni
League
Wazalendo
nyinyi
Masauni
Tanesco
Sina
unacho
nimekuwa
##lathini
##limpiki
Wao
CC
##sikika
##baba
##PC
Luka
MAUAJI
anwani
ameamua
##BIASHARA
Tafsiri
120
wanamgambo
Mapema
kufurahia
##rugenzi
Kiwanda
##angulizi
##kose
kadri
Waheshimiwa
inatu
Kiafrika
mus
Alha
##boreshaji
Hatimaye
matusi
kujiuliza
kuachi
##bato
Binti
##TAAFU
KITUO
68
kuisha
##hula
##zetini
##iseme
##okies
##ashiria
njiani
UFUN
##humu
##danganya
##bini
Sale
##masi
Wam
kuoa
Cu
wahalifu
matajiri
ukawa
ZILI
ukimwi
##ENA
yatima
Ath
Hoja
kuzaa
##inikiza
unaoendelea
wakurugenzi
MKE
##mboni
##viti
##enyeji
##OO
baha
##choka
##horo
vipo
Burudani
KIJAMII
Majibu
Cent
Frank
##chochezi
mazoea
BAADHI
wafanye
Tarime
Siri
##fadhiliwa
Ramani
Vati
Pasaka
iPhone
wameamua
kizuri
Nita
kupanua
tara
Ibara
##tm
punde
anae
MAD
##choro
usumbufu
##wataka
kozi
wakisema
IBADA
inatakiwa
##69
kuheshimu
##engenezo
##keli
umiliki
##achwa
watetezi
##fundishwa
jaribio
majeraha
Sin
alili
Mwijage
##bibu
jicho
haito
mpinzani
gerezani
Den
##zalishwa
##wazito
kujitegemea
##pisho
##maji
WAFANYAKAZI
matamshi
MITI
64
KISA
NJIA
kuchochea
##pigaji
IDARA
kuashiria
walinzi
vipa
cookies
fan
Gabri
##lasi
huzuni
Mwongozo
MZEE
Karibuni
Mai
##WALA
tishio
Alb
Kabila
##puuzi
Ukraine
ishirini
kipaji
akikabidhi
##ng
tukiwa
##moto
Sen
##tamani
##TIBA
kukiuka
inatokana
Badala
Misi
##ner
##INGWA
##lewe
Inawezekana
Mosi
Read
##isemi
wanaotaka
kuhudumia
Muf
##shauriwa
##hirishwa
maovu
Wataalamu
Nan
kiislamu
KUN
##ridhia
Usiku
kuanguka
##ridhishwa
kumfanya
kitambulisho
VYUO
##roka
UNDP
##ker
##koo
TAASISI
##somea
unatarajiwa
waislamu
##ture
mahala
NAMNA
ilisema
##ZIKI
##unduki
YETU
Muadhamu
huweza
kulalami
wamem
Serikalini
September
##chambua
##DILIKO
msomaji
##shua
##JABU
alitaka
##wezekanavyo
##TENDAJI
TTCL
Mwandamizi
Makampuni
##TEKELE
Adam
kitaaluma
uch
KUA
Azimio
Muswada
maiti
Nay
link
WEMA
##kemea
ZINA
MABADILIKO
##chipuka
unapaswa
mauti
##isti
wataka
ex
KUFA
NGUVU
##cheni
mawakala
##GONJWA
##row
tunahitaji
UWT
waliofika
wanaharakati
Isi
##tangazia
akisoma
##mpi
Kwamba
##ishana
##tekwa
pen
##gomvi
walioshiriki
Munich
waliote
kuaminika
kuimba
Hukumu
UB
##lack
##wiano
inatarajia
lami
weledi
umati
SADC
##bai
##fumuko
hayana
aliandika
vipengele
Babu
kaburi
##burg
chafu
dhaifu
##PP
kimaendeleo
azimio
##wel
##ek
##Sh
bomu
##atajwa
MAALU
##sukumo
##chochea
##FUTA
uti
##sli
GE
Yemen
JUMU
uhamisho
MARE
AFUNGUA
JF
##halo
##CHAGULIWA
iwezekanavyo
WATUMISHI
Kule
Mpo
##YAN
##ory
Uholanzi
wanaji
NYA
Pakistan
Samu
upan
##rodhe
MSIMAMO
kuitwa
##ingili
Jamani
MIMI
##SEMA
##SABA
mguu
##BARA
kiut
ucho
kuba
nacho
##ler
Kijana
Reli
kunipa
zama
##zz
mashauri
pamba
##mesha
Maandiko
INAYO
##KINI
KUYA
WAKUU
DS
Elizabeth
wakiongozwa
wamepata
naweza
##angwe
kumshukuru
Andre
sw
##teka
wazuri
ameongeza
##LIO
Uandishi
Makundi
##TY
zitakuwa
Sokoine
kisicho
##sama
##angwani
wajawazito
kuvaa
##bidhiano
MAAJABU
##dd
Ulemavu
##zizi
madhubuti
Ver
##husa
MWAN
Democ
Yote
##endeka
##kisi
##site
Hapana
##rson
##dharau
##KILIZA
Next
waandamizi
akisaini
waliofanya
Watendaji
##angazi
faraja
Katavi
Moses
wamefanya
##yai
World
rambi
Posta
66
kasoro
Kari
utambulisho
##amama
kuzidi
Gabriel
##rushwa
##ous
##andikia
lika
##ktroniki
##hudiwa
##pala
##vuta
ujinga
##tandard
yanayohusu
waendelee
utaona
aliu
majambazi
Fau
##MBANI
Utumiaji
##ONGA
##LAMA
##wekeza
WAO
fanya
majanga
zilizofanyika
##fungiwa
waalikwa
##gn
##inema
##HARI
papo
Madawa
##yenye
mijadala
kisayansi
SHIRIKA
##mbezi
walioji
Jay
kipimo
tuji
Amri
KKKT
UALIMU
trilioni
##JUA
kidemokrasia
##keni
mustakabali
##hembe
##endwa
tukufu
Kume
##kosoa
##fuatiwa
##fichua
Bahati
Rehema
wanaki
##sumbua
Bofya
##geuza
Mus
##WALI
posted
kemikali
##palestina
##kusudiwa
Vatican
wangapi
MBELE
NINI
du
uhalali
karatasi
##paswi
zika
##iness
nyekundu
kukubaliana
nyara
Sifa
Bali
SEKTA
MILIONI
##bon
##POKEA
Rasimu
aliyem
Unapo
##zawa
Majimbo
25576
Fer
bendi
Eze
KIBA
Semina
Majengo
utunzaji
ngome
##verton
##THI
##roo
wanai
zilivyo
##thman
ramani
##DWA
BURU
inataka
sugu
##bebe
Kir
unatakiwa
##LIZI
shauri
##milikiwa
vyoo
MMOJA
##27
##ribution
TATU
##athiriwa
##koma
vigogo
wanat
##rokia
Everton
kuahidi
Reg
##umeru
akiwasilisha
##JERU
Gene
##yem
manne
##tto
##ctor
##fufu
tupo
##zingati
ubongo
KAMPUNI
##hesabiwa
Th
rununu
Mnyika
kutibu
hebu
waraka
kunufaika
Mse
kuitumia
TABORA
##jamzito
##BILI
##fike
utafanyika
##vunji
yaka
Mwai
Janeth
Fal
vizazi
##fute
Mbwana
Park
Val
kirefu
chaguo
Kut
Meja
kusonga
##las
##227
##EMA
kusherehekea
mnyama
msukumo
kifua
##KAYA
1995
Lic
##seka
78
Maonesho
##del
Nao
BURUDANI
KAMPENI
WAS
wigo
mkongwe
zinazofanywa
ZILIZO
kifahari
Nyimbo
ilim
ukim
mbolea
##ftari
hutokea
##lazimisha
##sindi
bunduki
waliojitokeza
TUZO
Kujua
Mtibwa
##suko
intaneti
bayana
##NZI
nambari
##atumaini
##kabiliana
unyanyasaji
##ren
kid
PSPF
mchanganyiko
##atekelezwa
mwanamume
##23
nin
nabii
##jin
##vuka
MATUMIZI
##umbile
##gin
wafadhili
alitangaza
michache
Kubwa
kufunguliwa
ridhaa
Rafiki
House
PATA
##FADHI
kujaza
Huru
##PATI
Bon
utakaofanyika
Kinga
##sai
WENGINE
kheri
Kija
##shukiwa
Ak
##bitisho
wanacho
Agano
KOMBE
Tunatumia
kumpiga
Mnamo
##TUA
visiwa
##IASA
IEBC
Mkubwa
watakapo
Tex
alin
kutolea
madhehebu
kumtaka
##amp
##doro
Nas
twitter
##sadi
40227
akamwambia
KURASA
ndizo
kitaalamu
##zamikoa
##katika
kupelekea
ODM
Mabalozi
##TAKIWA
mantiki
##faransa
blogzamikoa
TOVUTI
##PM
hatuja
Matakwa
Nyota
yaliyotolewa
##chukia
riba
lango
##rat
##ption
tetemeko
Maghembe
##ufaisha
AA
Sweden
inayoendelea
Gharib
##kiba
kisukari
##ments
##onzi
zinapochipuka
mkondo
viatu
akimu
##hubutu
kuulizwa
##usuru
Raisi
Wito
##TON
Uha
##poni
##ONG
Mdee
##RERE
Att
Mit
##dari
atawa
##ah
##imu
SHEREHE
yalivyo
anat
##stahiki
##shindana
##cky
km
umebadilishwa
##rioba
Lina
udongo
##too
Image
kanisani
State
PIA
##shtu
##jari
##cro
##shwaji
atoa
##uani
walipokuwa
manunuzi
Coast
Augustine
##ford
mil
ulianza
Mnazi
License
##dola
##bsite
Matendo
KSh
ilani
Maaskofu
III
##pokezi
ikulu
ingia
##ting
Tawi
IRIN
youtu
umefika
marudio
Wambu
uone
wawa
kilichotokea
700
Mur
##ingizio
Kaka
194
##enti
##leti
KUTUMIA
##andiki
##vutiwa
Musoma
Kat
##DF
##US
Ayo
##sayansi
imefanya
chadema
uvumilivu
##lete
VIC
MSAADA
mjamzito
AONGOZA
kuwafikia
Arumeru
hauku
NYERERE
Jamaa
bandia
##andaaji
##konga
afu
JUMATATU
ruhusa
##IYA
##tuhumiwa
IRINGA
kusudi
inayom
WAANDISHI
Mshindi
fungu
ugomvi
##MISHA
##MISHO
chachu
##indu
##399
85
##laumu
Huko
##ZUNGUMZO
kupand
hiti
Mkwa
lililokuwa
UNI
Mpina
fal
waishio
ngapi
waandamanaji
##hispania
BINA
##cent
Samuel
milango
Najua
wamei
Weka
Magonjwa
kuchapika
##hami
Ushindi
##dhami
MAZUNGUMZO
##furahisha
wakiendelea
anahitaji
thabiti
Whi
likizo
kondoo
HADI
Miundo
Attribution
##pendelea
##REFU
rasimu
utaka
uovu
Warioba
KUSINI
Christo
Bashi
CHAN
##chelewa
KWELI
upimaji
chuma
kurahi
kimaisha
viungavyo
ShareA
treni
Bay
kinachohusiana
mkulima
yawe
UKITAKA
##5056
##mbwe
ShareAlike
mgongo
Heri
Udhibiti
kuwahudumia
mal
hundi
255765056
mpito
uwiano
SAUTI
NH
lawama
##18
Nchimbi
Akitoa
Harusi
wastaafu
msimamizi
##kate
inaku
Naamini
alipofika
Ebola
baharini
CHE
kumpongeza
Texas
##kidhi
Nyumbani
Gaza
madhumuni
usoni
kupigana
Colo
OR
##haribiwa
##HINIWA
Bidhaa
changu
##ruji
Siha
JAKAYA
WALIOCHAGULIWA
Algeria
urithi
##peli
##dis
alini
simba
255765056399
WATAHINIWA
mwengine
zinavyo
##way
ulifanyika
##mer
kichwani
Kabu
##ston
##mamoto
ENEO
KIFO
##tty
##ZUNGUMZA
##halisia
##cation
##TH
kustaafu
limetangaza
##julisha
kuchapisha
Maonyesho
Clin
##ingekuwa
haswa
akifuatilia
##mbolezo
mtanzania
Mifupa
TCRA
Tuki
mchungaji
walianza
Shughuli
uzembe
Jap
##boresho
Samatta
##17
mijini
##chika
Utekelezaji
TUNA
##ogo
##tofu
EAC
##ab
LO
mbingu
JUMUIYA
##onao
##uzia
Shahada
##epusha
National
Manji
Wanaume
Came
##gania
Malaika
##genini
Mor
majani
Pichani
wameji
yatoa
mk
Baadaye
dara
##ULI
alipofanya
##kusanyika
Ishirini
Alikiba
Olimpiki
Kris
Gari
WALIOFANYA
yaliyomo
##GERE
boda
##linze
##llion
77
##lindwa
sharti
##MLAKA
sc
unawa
##For
maua
AI
##entina
AFANYA
##dhamiria
##dharia
Dia
YO
Usw
MAMLAKA
Bank
makabila
Daima
kigezo
More
taswira
WHO
##tishia
TAKU
albamu
##pta
you
Post
##varo
##dhu
##roon
KITA
majirani
Nyo
ala
##BS
Mbele
milima
kuagiza
uchochezi
TAKUKURU
kienyeji
##pepe
alionekana
dua
tazama
MCH
ah
Mga
kusali
Ramadhan
Hongera
unaonyesha
kuiba
##pangiwa
##HAMIS
wanaotumia
##ship
##dishia
raisi
mashahidi
##ukwaji
##fahamisha
Pepe
utafutaji
##ishaji
UBA
kuwahi
ufuatiliaji
##tun
ameahidi
##kwamisha
MSTAAFU
##HADA
mvuto
##cle
ICC
AFP
Mwl
Jipya
kurahisisha
mpendwa
Boko
MWALIMU
KUYATAZAMA
BoT
ATOA
##changanya
king
Nel
alikiri
Selemani
waliuawa
Boys
Makatibu
utetezi
uokoaji
waamini
##iskeli
AWAMU
##pher
##ibua
##SHAJI
Mbona
nyeti
##patwa
mm
##ESHO
Ivory
##rejeshwa
##bli
##DHU
kusaka
hisani
##moud
kuelimisha
Bernard
UZIN
dhi
76
Ata
MSANII
ningependa
sarafu
watawa
##RAJA
Net
Dada
Jisajili
Mwema
##dad
walemavu
MORO
bustani
kumuua
Mash
ZIWA
##ridhiano
vilabu
ibara
##TIBU
kusikitisha
Russia
Isaya
UKURASA
##boda
Yana
mgawan
kupigania
##MUA
Lou
##umuika
ben
umesha
##thiri
Imam
MPAKA
##furahishwa
makaburi
aliwaambia
feki
ugenini
##GORO
andi
##tambulika
##WEKA
Kimarekani
kumuona
Maandalizi
Kuanzia
wasaidizi
##RAKA
##ongi
##riadi
DADA
Prin
69
uuzaji
watangazaji
1000
##busu
Operesheni
usu
##dra
niko
##okovu
Bel
zinaendelea
##kolojia
Yusuf
##NGI
##basi
##shea
kutekwa
mfumuko
mimea
##pigana
##yima
Berlin
Miche
Kariakoo
##ukuliwa
##minifu
##mosheni
jema
kutunga
uthi
Son
##angamiza
##tumike
##MINI
##tuhumu
Ve
alichoki
##isikia
##TN
akiagana
Jama
kamanda
anaji
yaliyotokea
Ezeki
mahafali
mabalozi
Kipekee
##PILI
PPF
Bariadi
##TL
Hayati
##adhimisha
##umbwa
wametoa
wimbi
mwanawe
##38
##TIZO
Her
anaishi
kamera
waajiri
Andrew
Chalinze
##sic
Happ
Tar
Kui
MTANZANIA
aliendelea
Chato
Gua
malaria
##teko
Voi
duru
fujo
Gor
waaminifu
##kubaliwa
MFANYA
##kumbukwe
BARABARA
##chekesho
##ii
inaonesha
Tas
utepe
MICHU
KE
matengenezo
Mko
tumaini
imefanikiwa
udhamini
##wita
usingizi
##fajiri
##kilizaji
Sharif
##ghai
alifunga
apate
##wasaidia
Clinton
##LENI
##rans
ukiukwaji
250
wameuawa
##pigiwa
rehema
Kua
kahawa
staa
mkazo
anyiro
Bendera
kutua
##sambaa
##hofia
KOCHA
Hazina
##julikani
uboreshaji
##pelelezi
Stella
##cas
Hel
upanuzi
Hen
wanaona
Kwanini
##kimu
Asilimia
Ukawa
ziwe
tunajua
##umvi
Ngoma
Chapisha
vipya
##ICE
##kitiko
##fungulia
##GEREZA
MAB
il
itatoa
TEHAMA
##isia
umeanza
amezi
madha
Muhongo
alikamatwa
tum
##kilize
kuchelewa
##ure
##tha
anatarajia
##gy
nipo
gavana
Put
Jenista
KARIBU
DHA
kibinafsi
##iwaya
Usafiri
UZINDUZI
##tahidi
Wo
##zeni
ZAKE
##aminika
kinywa
WENGI
UE
Kip
aliweza
##mmy
tulipo
##yaona
TAHA
haiwezekani
MBILI
utatu
##fikie
JamiiFor
##iadha
##zungumzwa
##salimia
Mwanga
Dece
Wama
ago
vyo
##jishughulisha
upendeleo
Mafundisho
wanyonge
yamesemwa
mwetu
##bay
##timi
Wambura
pambano
KAS
##hakikishe
Ukanda
Wokovu
##hangaika
1964
##romoka
Ukiwa
imei
##vuno
Wakulima
##okozi
Buti
Furaha
VE
yanaendelea
wataweza
JamiiForums
##hamishwa
Kisheria
Makubwa
utengenezaji
MALI
UK
Tafuta
YENYE
Aca
URA
one
ANGA
sigara
kumwambia
##van
Iwapo
Malengo
Nabii
##indows
hazija
ameagiza
Mexi
Tulia
##ENGE
##KULA
Takatifu
##RF
inapenda
##kuaji
vilivyopo
##horofa
kuwashukuru
##boreshwa
tunaamini
##ders
Mbinu
##ege
Mashabiki
##rambi
##STA
##dre
WAME
kumudu
WALIMU
Ukubwa
Makadirio
yakini
liwe
kuipa
##karimu
utaalamu
USALAMA
wanakabiliwa
kusaidi
Assad
Chri
mastaa
Dor
kuibua
Ugiriki
##con
ufupi
##elewi
mvutano
##MF
Monduli
Vituo
muonekano
Barabarani
##yapata
Igunga
vikubwa
sokoni
Damu
RISA
kija
raundi
##ambee
Amiri
MAONI
Suma
wahanga
ameyasema
mwanasheria
MLI
ujue
JUMAPILI
##umbaku
Mwanamuziki
##rgentina
JPM
bar
kuachia
Rangi
##geu
Wafanyabiashara
unaofanywa
##zon
mlio
Saleh
##sambaza
CHO
kuwaambia
mahiri
ubaya
Richmond
Banda
utotoni
Uma
##dam
Usha
##hadha
tamaduni
upigaji
##phia
wanau
##dda
kisasi
Wasa
Putin
NYI
Anaye
Kiungo
Kampala
##gizwa
tam
##FE
Mkono
Neema
Abo
Miundombinu
63
Christopher
Yuda
wakipata
wodi
Ameongeza
machapisho
atam
##tte
tuwa
NASI
kuratibu
Kika
195
husababisha
##DOGO
mzito
SHILI
##tovu
kikwazo
##sita
##chako
MAADHI
kinyang
##muona
##bishia
Zanzi
##ONGEA
Phi
kuhoji
##vyote
Francisko
Fin
wanatarajia
##TS
UONGOZI
Mbagala
SHILINGI
kutawala
NHC
##sua
##pon
wauguzi
kushauri
##emason
show
##SHE
mbuzi
KUTISHA
##weri
##ura
anai
KIKAO
Kansela
##kusaidia
##fer
anatoa
kigumu
Hafla
##FARIKI
##jukuu
wasifu
November
Tanzani
Cameroon
##yeti
Ndali
alikwenda
Haraka
##kumbana
bega
akimsikiliza
##SILIANO
Mitume
KUFUN
##UALA
kuwaa
likiendelea
Cuba
##Tube
hayata
chuoni
##POTI
ASILI
MSD
makocha
akichangia
darasani
##tambuliwa
alicheza
aidha
December
##hususi
HATUA
##gharamia
Standard
sinema
RAIA
tunai
MASHARIKI
ukame
tunam
Ajali
kufikishwa
Fomu
afanya
UEFA
wanatarajiwa
##sikitisha
Bus
wataendelea
rai
wametakiwa
##nes
Nelson
##fuatana
##yatu
IC
##dhini
kwakuwa
anapata
majaji
pendekezo
MAADHIMISHO
anapenda
##weleza
Nyamagana
##boko
maombolezo
Ndalichako
lilitokea
##MT
##mei
Mexico
Deo
##zilishi
##wasiliana
##tilia
Nahodha
MAWASILIANO
chai
halina
jumapili
hila
##ZIKA
Bru
utangazaji
kuwakamata
waliom
##engua
YouTube
Jan
kukutwa
kifu
##potevu
Awe
babu
kuuzwa
kitakuwa
##onekane
vyeo
alizi
makabidhiano
##rie
Manara
##haha
71
Tamisemi
MAREKANI
##inea
kumbuka
husaidia
MAKALIO
##ration
##wandani
kinaweza
1999
##badilishana
wachangiaji
sivyo
akiongoza
ZO
##sburg
Mahmoud
JUMATANO
##enzo
SURA
MPYAAA
majini
Hadithi
Raja
##ristian
Union
Golden
lote
said
tunaona
kukomesha
##fukuzwa
##achiwa
Mlimani
masikitiko
MBO
BASA
##lalamikia
kal
##TAWI
waha
##changan
tufanye
tunapaswa
unafanya
jamhuri
kuripoti
Bush
Dai
pata
##IDIA
RISASI
Yakobo
ARDHI
##unguu
mku
73
Bill
##MBEA
angani
hawataki
##tal
Sadi
##HITAJI
##TM
BASATA
injini
Oman
kusisimua
mtaani
Khali
wap
Maofisa
KUKABILI
tupate
##bahatisha
##mun
##lled
acha
ilitoa
visivyo
##KTARI
wanapenda
AMBAO
##ogopa
mpangilio
maju
figo
mabango
##LME
##atego
Boni
KABISA
Argentina
##gundulika
##kevu
sim
makombo
Hero
Rasilimali
foleni
##erre
kukusaidia
##riadha
itaanza
Huo
##amichezo
TANA
huohuo
lilipo
##zamaji
kuoko
##okoka
nasema
##kimbilia
ameu
##SAF
ukaribu
vipande
dhu
dar
linapo
mr
jezi
Ninge
TOKA
Van
##gba
##face
REA
##jiita
##lti
95
kat
amedai
imekuja
MALIA
##lela
##rawe
kipigo
##RAN
74
##bana
nenda
ari
##zeba
kunyesha
THE
Alli
ushuhuda
##fariji
##kiria
MALIASILI
mlinzi
ITV
Misitu
Hotel
Bakari
Vipengele
Mshauri
Maarifa
zabuni
Asi
##shitu
kutenga
fadhi
muhula
kie
baya
NDU
##rutu
mikoani
inayotolewa
mashambulio
Sahara
Tukufu
WO
Waumini
tuchangi
vitatu
##LLA
majumbani
Leon
nyuki
61
93
##21
mahususi
Wahariri
##PIKI
##umbaji
##HUMIWA
fahamu
wasimamizi
##gosi
Kinacho
amewahi
##PATIKANA
##jivunia
##nest
TANAPA
##kers
usahihi
sema
KUKABILIANA
Jiunge
mabilioni
waliopata
86
kulima
##tten
KUMI
Sakata
mabe
1994
Ufunuo
Zina
##umbawanga
MWANDISHI
KABLA
##kumbukwa
woga
uni
Bin
HATI
##salama
##FANIKIO
kuwajibika
##vugu
Jackson
yakiwemo
##sumbuliwa
mar
##onesia
AMANI
NCCR
KANISA
Msimamo
sensa
soma
##ZINGI
ulaji
kana
kinachoendelea
##enendo
##REY
##DAMU
jopo
Ukuaji
uk
##attoo
hutumika
Sams
ura
##zania
##SHWA
tembo
Kifo
miongozo
mwamba
SIKILIZA
Guinea
##sis
MFANYABIASHARA
##ingamizi
nuru
wakristo
kusafisha
Kuweka
kuimarika
##df
##wene
##shoga
Godfrey
##atosha
KIP
##scar
Hand
##via
Maandamano
MAALUM
Tele
MCHEZO
KULE
waomba
haliku
pigo
##stal
Pengine
kuaga
1990
##gitali
aliyasema
kiufundi
utabiri
hamsini
##resa
MIEZI
##longo
##TABA
kukumbuka
KISHA
Play
yahoo
Yoh
mwekezaji
White
MAFANIKIO
##kara
utambu
##yosisi
PLA
##uth
##zinga
MBAYA
##hindi
##endelezaji
##labe
Mau
##mela
mawakili
##gie
Freemason
kivuko
##landu
Zube
ilifanyika
##dor
unafanyika
Green
biblia
akin
##SABABISHA
alikutana
Kilwa
kujiamini
##puuza
##ventus
Mshikamano
ilitolewa
KUPANDA
ameanza
Ureno
hedhi
PIC
Kipa
kinavyo
##lina
##harakisha
USTAWI
##umani
walezi
Nze
Mageuzi
internet
WAKA
##umzo
marekani
Sijui
kusindi
Tz
##ingeweza
Risasi
##liti
maridhiano
USIKU
##waki
##gele
##LL
Kadhalika
Mbalimbali
vipaumbele
##ENGA
magaidi
##ZINGIRA
vumbi
Pan
##atma
aliahidi
Repu
jarida
Dan
mafao
wanamuziki
runinga
Juventus
nitumie
Sumbawanga
aitwa
maazimio
##baraza
##ristiano
uthibitisho
Wol
kutupa
Meru
##atano
KIUNGO
Pekee
makombora
mtukufu
Usafi
##ui
news
##CHUNGU
Mv
nyoka
Kaunti
##hh
##HARA
uchi
alisha
iliwa
maku
##rekebisha
uwakilishi
mitazamo
Makosa
Tizeba
dimba
kulalamika
##ulikana
84
wasiokuwa
Elia
kukwepa
Plugin
hajui
wamewa
ALHAMIS
Faida
Sambamba
Kiasi
KILICHO
shauku
uzi
##atwe
62
Wanasheria
##kusanywa
Mkewe
bangi
kutoweka
KUJA
##JERUHI
##teng
utashi
wanyamapori
Matatizo
Kurasa
MAZINGIRA
kuepusha
UREFU
SEKONDA
WASANII
afanye
Dalili
studio
mapo
imepata
hewani
atafanya
par
##mbelewa
rambirambi
maono
Mwanam
East
##yenyekevu
##pri
Nyalandu
matiti
maboresho
Gambo
ovyo
##fau
waume
Chake
kukiri
##pelekee
##ky
ameweka
Safi
##okolewa
##atuma
wanata
##fufua
HILO
##DSM
ninayo
amekutana
##jadiliana
alitu
Meli
shiriki
Umuhimu
uhalisia
##RISTO
oa
Massa
aliyefariki
mahabusu
##lile
imeamua
Ndipo
mwajiri
Sanga
##RISHO
TG
uo
##GAN
kikiwa
Macron
HIZI
Yaliyo
##sulu
HIFADHI
##mbari
Kutumia
Unlabe
Unlabelled
##HWA
Ndogo
##guez
kuwalinda
Halima
msikiti
Msigwa
KC
takatifu
Barani
Yoweri
tati
##kwamua
##wawezesha
UNICE
Ukonga
YANA
waliohusika
##umbua
Hewa
ofa
SEKONDARI
Viwango
KATA
mshauri
uvunji
##semi
NGON
baiskeli
Koro
Sophia
Windows
##chukuliwe
UNICEF
Ph
##kunde
Great
asante
kupumzika
Enzi
matano
umwagiliaji
Mkuranga
riziki
kuwaomba
VIWANDA
MAANA
upanga
kutumikia
##lf
##faniki
Mfu
KAM
benchi
AFC
Miji
kukamata
kish
##kakati
Kalemani
ui
##YANSI
1980
##kalu
Sema
aliyeji
##ishna
AUAWA
Qa
##rand
##kungi
Sukari
maliasili
##rafia
Yangu
wameshindwa
linavyo
Tunisia
SMZ
Ofisini
kiha
##sambazwa
akionyesha
nyinginezo
##sikitishwa
MAU
##mart
MAKONDA
ataendelea
subira
anayeweza
Nu
Beach
##MKO
kiini
Muhtasari
TBL
##bovu
##ipata
akieleza
KUFUA
Vijiji
Moi
CM
kufun
##toweka
YAWA
##sor
Mtaka
##JETI
Uswisi
kiba
UDSM
##yeni
##NO
kupu
Sham
##isra
imeji
Ind
##ander
Nzega
BAJETI
alfajiri
wanaowa
Alhaj
ladha
MRISHO
alifafanua
KITABU
##shughulika
uhitaji
Kuwait
vyovyote
Aya
##thibitishwa
##zona
imeongezeka
kalenda
mpiga
pembejeo
##dhia
Majeruhi
Yah
##len
WASI
Zimamoto
VIFAA
YANGU
mheshimiwa
anaku
hauta
##wende
Jifunze
Old
##RANI
marefu
RATIBA
wamefariki
linasema
Day
Gharama
Ger
pla
kunaweza
Huwezi
kumuunga
kuidh
##ambaa
vinywaji
pdf
Mushi
tetesi
wachimbaji
Mazi
kuenea
Lin
yesu
##kusanyo
Saratani
MC
kide
##velo
msongamano
ufa
nahodha
wezi
##msha
Hao
KIASI
kulinganisha
mapokezi
mazito
##geza
##HINDI
Nilikuwa
wai
Toleo
misuli
Que
akiteta
##lip
uvamizi
##mbole
Korosho
kusikilizwa
Patrick
Prince
##JIRI
Angola
kuvuka
CDM
tozo
##tokanayo
Guar
KIW
Ezekiel
ATEMBELEA
hayaja
Lugola
MAARUFU
Mark
Mtandaoni
ag
inayodaiwa
kusajili
96
homa
##dhimishwa
##CK
ZOEZI
kujili
MUHIMU
nd
##tafutia
##tie
wahariri
Kulevya
ZanziNews
##shangazwa
Ikungi
Mauzo
kwingine
Wahamiaji
inazidi
kuvuta
##isaidi
kushambuliwa
Chris
Han
utume
##UNE
utani
binaadamu
##INU
Nyan
wanadai
pauni
JUNI
##MED
##kezi
chembe
nim
niseme
##pop
##onacho
1998
kuruka
##erry
Voices
Rodriguez
Gani
##unzo
Kikundi
lit
hovyo
tumb
hongera
##zushi
##rence
##isim
Samsung
CSS
##andanda
##MW
chumvi
Ce
##zer
kisiwani
kutowa
##barikiwa
##monize
Msimamizi
amethibitisha
Ubunifu
##mamu
tunda
##fuzu
##hogo
Cristiano
Vipi
##angani
kufafanua
makon
kumsajili
98
Kawaida
##atangaza
##safirisha
##ors
SIASA
##cta
mitaji
wapili
##dhirifu
VITU
##tesa
##mary
zinazowakabili
Godwin
Bia
MADAKTARI
##tena
Asasi
SWALI
Nyuma
zamu
Mig
MNA
Mauaji
vid
WANGU
Kanali
KUSI
##karibishwa
ujangili
THA
staili
##pitio
harufu
Swala
NGONO
urembo
bofya
Vin
Akaunti
Karim
Tan
##pen
##guliwa
Kilu
anaonekana
##jadiliwa
kupitishwa
program
##shughulikiwa
##REHEMU
sidhani
anaandika
##ratic
Ipo
##loli
aliou
##spot
##ZIMA
##ttenham
kuonana
##RIK
Vikuu
##wiga
Othman
##eld
##pukizi
##liana
##yonya
Faustine
unai
afrika
watafiti
##CHUMI
msitu
EPA
upotevu
anatumia
tut
mshirika
##ladala
akiweka
kuziba
hauwezi
Per
walicho
kuhamisha
Nobel
Idd
Takrib
kuiga
##sen
kujia
wanatoa
unasema
uvunjifu
YAO
waliweza
mitandaoni
##shuhudiwa
ukomo
TAS
mwafaka
Haram
##lue
Reu
##CI
hamna
MAKUBWA
JUNE
##wabu
kimi
##BLIA
Shirikiana
##ANZ
akiangalia
Tisa
##rania
Mume
VIJI
Luha
Fire
##ew
Sau
##LAI
Msuya
LIS
##RAH
hataki
maumbile
MITATU
uwekaji
mtizamo
kileleni
mwito
aliyewahi
##hadharisha
MGO
kutokomeza
kudaiwa
##ondoke
inayoongozwa
Zaina
hakukuwa
Adamu
Upande
##rice
Iti
##fiji
Mike
VA
Indonesia
SP
mle
kugawa
##ENT
hatma
makadirio
##PENDA
87
kusha
kujikita
##ristu
Tor
laini
##ated
##lishe
ATCL
Bun
Tunawa
##marishwa
mitume
##MINA
KUSOMA
##gemezi
NYIMBO
ghorofa
##sawa
##robaini
Senegal
falsafa
##tele
Kara
Kijazi
##PAA
haziku
kuambu
Law
##chokifanya
kielimu
akizungumzia
ametu
##athon
nyenzo
nembo
Jumuia
##yuni
mpana
MOTO
##pindupindu
##paa
Lili
##enyekiti
Halafu
Kwako
Irene
kumwaga
MEI
choo
##athimini
Swa
Tottenham
inakuja
walitoa
##yumba
##rit
hakikisha
ULINZI
uke
aliyokuwa
iwa
ngumi
Mbio
KUENDELEA
nyadhifa
Cape
kujipanga
##pendana
Quran
Makumbusho
pembezoni
mitindo
89
1992
MG
##mamo
##pigo
Uratibu
##oneshwa
##santeni
Ukristo
ZE
mina
marais
inayofuata
##tri
mwaliko
wamejeruhiwa
##waita
Mpelekee
akila
Mtaalamu
yaku
akizindua
GO
##zie
##olewa
##dhibu
Huyo
Ushuhuda
Mdhibiti
sikuwa
BLOGU
mwaminifu
79
anata
idhini
kushirikisha
amemteua
Feli
##asi
##cheka
##PORT
promosheni
uliotolewa
mashujaa
IV
##ombaji
jukwa
Kamu
are
Makubaliano
##rom
##WILI
Maku
YATANGAZWA
##FISA
Nyam
walipa
Mwita
Magari
SAMA
Tumaini
##shutumu
umefanyika
amini
##safirishwa
Nkur
mchumba
pori
##potembelea
##lon
kijani
UCHA
##MANJA
tosha
Ayoub
##82
medali
##gawaji
ara
##gamba
dira
##kteta
##fred
Male
pepo
wachanga
spe
hatarini
Kie
##blican
vs
##kukuru
zinapatikana
kukicha
Mwanaume
ZAO
Dubai
kuhubiri
Sila
##HIF
kuwashirikisha
MISS
##MANJARO
##cs
##gomo
Reuters
SAA
##andaji
##keleze
bwawa
MARU
Ney
Fla
VYE
wapendwa
nauli
har
##faidika
##eleka
Maziwa
Fred
Grace
kicha
##ret
KIKE
##gawanyika
JAN
asisitiza
##MAD
##RUA
kuficha
##Pesa
kue
KULIKO
MICHUZI
wanasheria
inaitwa
akiwamo
mbao
KILIMANJARO
##shiwa
Pal
Shabaab
Kange
NHIF
##umila
mengineyo
##familia
##rus
##orodhe
huta
##basamu
Norway
UDA
##hiniwa
Butiama
##ac
kiutendaji
Sikukuu
##ating
##kulia
kuwatumikia
##kombe
##kama
Maktaba
wanaom
yaliyofanywa
motomoto
PIKI
##dhibitiwa
diwani
##JO
Good
DV
ufungaji
kupona
KALI
##SHU
hio
##inde
inafaa
zimehifadhiwa
##tendea
stadi
##huni
Regina
Musta
halija
97
mabenki
misa
alipewa
utasaidia
Kye
nu
Rufiji
imeshindwa
Mabu
##atanisha
Kifungu
Live
078
##turisha
##ZIA
Tunaweza
Shoo
##ds
##RL
##meji
##amas
Malaria
inayoweza
Kusimamia
Zaburi
##letico
##vious
kikapu
nafikiri
Lum
alikuja
kuhojiwa
##raba
83
##radhi
Handeni
##shujaa
ANGALIA
Mpanda
nashukuru
MADINI
mito
MAPA
akani
amea
##paganda
kujieleza
MANIS
japokuwa
##vinjari
wav
Maswa
Joshua
UFUNDI
anadaiwa
MKAKATI
Sabasaba
hakimu
linaendelea
PIKIPIKI
umbo
##kandami
Cy
akii
##vunjika
uwongo
ania
WIVU
ukiangalia
my
##lee
Pierre
Naku
##kamanda
kipande
##dea
hato
kumn
Mrema
##YANI
Democratic
kuhu
MAREHEMU
##muni
##54
Bwa
Iliyo
Televisheni
gi
mchu
Bao
##yonga
VETA
Email
Nataka
##poli
migodi
MANISPAA
kisingizio
##jaza
MIFUGO
Tembelea
Mangu
zanzibar
Wageni
Mawazo
Eti
Mago
Party
ESRF
Gesi
Vane
nai
mhusika
Madai
##ruwe
Janne
linawa
MKUBWA
wachungaji
##uare
mayai
wasiojulikana
##Mara
MOHA
fleva
##MANO
SAMIA
My
fla
wakitumia
machi
kirahisi
##Kila
kumchagua
Simbacha
caption
##ant
##tom
yamefanyika
##IMA
##hat
AMKA
manabii
waombaji
bati
nyeusi
inadaiwa
##atimiza
##ishipa
##ebrania
Lei
##tenge
Wapalestina
maan
Jangwani
Ndanda
ste
##kurani
miujiza
kunako
##nam
hatuta
blogspot
akikata
##amaliza
1977
##heza
masikio
jumamosi
##mbolezaji
Jua
##mark
##rutub
Champi
##julia
kuvunjika
##mka
ziweze
kuibwa
##saidiwa
Nde
mwendelezo
wasikilizaji
Atletico
kufi
##chin
sin
JINSIA
JIJI
Samwel
##zuizi
##mbini
##tle
kidunia
Oy
##zza
PAPO
chupa
##570
Kiji
waliokufa
kukimbilia
##kongwe
bosi
walifika
Malkia
kielelezo
aliweka
Chapisho
shujaa
UPA
##hamishiwa
kushtu
kamba
Mfa
navyo
##wekewa
##itisha
kumpigia
wadudu
##pandishwa
Prison
Luhaga
Mc
HUKO
##rau
Premi
##vumilia
##zuru
Wanahabari
starehe
pengo
washtakiwa
Hospita
watumwa
##liniki
FILAMU
hajawahi
ameendelea
Daily
wakidai
##49
atapata
tutaendelea
Monge
##ice
##aikolojia
ndiko
mdomo
##DANO
Kawe
Yus
##ffi
Mgha
KUKAMILI
##laus
##fuati
kuwaondoa
inasemekana
ULA
kuzima
##pandisha
wanatu
iliyoundwa
Tru
Msha
Sinza
##sm
##reen
##ambar
lipi
KISASA
Milele
tunaku
saruji
inamaanisha
##hamasishaji
Janneth
tumbaku
Zamani
##kiki
Kibinadamu
wazalendo
inakabiliwa
nadharia
hiiKila
MaoniMara
kuzo
Wapenzi
Vanessa
Uhispania
ON
##jee
AZALIWA
Kijaji
kutafsiriwa
##zimu
Kitendo
##ilikiwa
##gelea
##pimwa
mtambo
##15
kuugua
##ratibiwa
Matumaini
##STI
Simbachawene
##ansi
##funzia
##anon
Kawa
MWI
##ilima
Dayosisi
utambuzi
PICHANI
jumba
sekunde
jaribu
##sainiwa
aitwaye
jukwaani
Mghamba
sham
kuajiri
Kide
##suf
##uno
##inyu
Black
##pment
miongo
##gusia
##beria
##ghafi
upeo
kilichokuwa
tupu
wameweza
Gen
afariki
hujuma
##ANYA
Airline
NATO
Villa
kufutwa
Kimsingi
ameibuka
imezindua
unaotarajiwa
##pona
TIBA
##esta
##tibu
kutiwa
Micro
ahsante
tuchangiane
Addis
MIFUKO
##fford
Ikumbukwe
Leb
akidai
jimboni
hayaku
Mkuurugenzi
Mbezi
##wisha
Takukuru
YAKU
Previous
##tafsiri
Huenda
akiendelea
kuifunga
Nk
Kadi
zipi
Mole
kiusalama
##TANI
##bainishwa
##MOSI
AK
BILI
Alvaro
AB
##sitisha
##isu
##ensi
mdahalo
walengwa
Road
Korogwe
UG
TANU
kielektroniki
Nasi
kuhakiki
##ather
anazo
Jer
Muta
##bomoa
alishinda
Muonekano
mpakani
kikomo
##ness
JUA
##umbavu
##SAIDIA
Kamisheni
Madola
##sterbay
nyie
Nin
ilipata
imeweka
yalifanyika
kiafrika
madaraja
gereza
Henry
mwimbaji
utumwa
Wagombea
potofu
Wanyamapori
VO
1961
Pub
alifika
washa
hupenda
ubadhirifu
KIPINDI
Kasi
##tumbuiza
##CHUKULIWA
ukoo
Africans
akiingia
##ot
utaweza
yange
##isiti
JUMAMOSI
MASUALA
kwahiyo
##rekea
Bomba
##dhaminiwa
##wezeshwa
anayeshughulikia
SISI
utumiaji
viji
KUBO
inategemea
##changiwa
##gemewa
Mteja
fit
##mokrasi
##TISHA
Mkumbo
kishindo
dume
##ainishwa
inatumia
##angusha
##zen
Hisa
##elelezo
anaona
WILAYANI
kidiplomasia
kuzunguka
Naam
vilikuwa
mrengo
##pesha
alipom
##PIA
255
mbuga
kuharakisha
keki
Kumekuwa
##kataza
Money
##athibitisha
Ee
kuzama
ubakaji
SportPesa
Mich
tumboni
##angan
Toa
kueneza
Sawa
##unulia
uangalizi
##ingilio
##baroni
##wakil
##2570
mabinti
kujadiliana
##israeli
bon
this
DVD
kusamehe
BEI
ASI
Scholar
Republican
Miguna
penal
##gongano
Christian
wakaazi
JN
wahi
##buru
##mbero
wakiji
kutajwa
Utaratibu
Ridhi
##uguvugu
Wal
##low
nisi
Jokate
kuchimba
Kumbe
##sogezea
Michuano
##unya
##ZANI
Malinzi
wavuvi
kikatili
Kiume
mganga
##LABU
##LOJIA
Comp
##TTA
Jac
##rudiano
aliingia
mteule
dis
##shahada
Miko
##rth
Shaka
kumalizia
Music
##UNDI
KAULI
##kumbuke
##isoma
##mbuzi
kuhitimisha
0755
not
Warri
kaimu
Akasema
##cker
##mpo
USHIRIKI
KUANZA
##tofautiana
huji
Rwe
Zu
Muheza
##angukia
taabu
Abdulwakil
asali
jeneza
Ire
##uali
watazamaji
##chez
maktaba
Apple
Krismasi
KUIBA
unat
hufanyika
akipiga
kuigwa
##zuiwa
uasi
imefikia
MARUDIO
Moon
twa
##unukiwa
##velopment
Enter
##tamka
MFUKO
##shindikana
##amala
Sabato
##UNZA
Harmonize
stori
##zonazo
Ababa
KUIBU
##itwayo
UTUMISHI
##vunde
AMEZALIWA
##ishauri
##shifu
##TION
udiwani
##MBUZI
kusambaa
Queen
Mbao
JINA
##jeli
Alexander
kinara
walikamatwa
Karatu
droo
msu
kusome
Mdogo
mkusanyiko
kuhimiza
##ELEKEA
##ruhusiwi
JANUA
utawa
kuendana
kutokuwepo
WAKI
Wanajeshi
##wano
##fur
##rial
ANC
Nyu
##jwe
kofia
Hatari
vitakavyo
sioni
Pale
##husiwa
misimamo
##firia
kujiondoa
zinaonesha
tunafanya
alipokutana
Uteuzi
Ewe
kiumbe
ZEC
malighafi
WANAUME
nyeupe
##fuate
mtoa
pingamizi
ALHAMISI
yanapo
NGA
yatokanayo
Thamani
TPA
hel
VYAMA
hutolewa
Akili
Bonde
kuhutubia
UMEME
Thin
Jitihada
kuhifadhia
Sensa
##tete
##hangaiko
All
##FIKI
Warriors
waliamua
##ajiriwa
kushawishi
##ring
Tito
Molel
##jing
##kitika
##cti
marudiano
##FITI
WAB
Nyasa
##val
wenzi
inalenga
kufukuzwa
##KWELI
zito
angekuwa
##kufanya
Visiwani
##enter
Mauri
umesema
itam
visima
Mavunde
##stin
Kisarawe
fanpop
CI
ukamilifu
##pto
taslimu
Maf
wanashindwa
linam
itaka
##uona
##ikabili
##zame
##uai
##yam
##chafua
rika
yanayofanyika
Afisi
##ografia
Ireland
bonde
kandanda
sp
##vunjwa
JIMBO
##hitimishwa
yataendelea
Bad
##soaji
Mbinguni
##arch
kujikuta
mchujo
Word
CHAKULA
mshtakiwa
YALE
Arsene
kutathmini
maajabu
Pasi
##ipa
kimarekani
daladala
upana
nitakuwa
Heshima
warembo
kiwe
Story
Khan
tattoo
##lipia
##ney
time
##tika
Msichana
kuachiwa
hatarishi
KM
kuili
##swahili
medani
##ONGWE
##peana
Kap
TASAF
Usafirishaji
##llioni
usipo
hupata
Makini
##ungwana
Yussuf
kiingereza
Wiza
JAJI
##hatika
Mufindi
##goni
sawasawa
WIMBO
##UNDO
Hisani
bodaboda
limetoa
##peleke
##vina
nyoyo
##lalamikiwa
Sco
aende
itafanya
##engenezea
iii
Ukombozi
Agnes
##widhi
##ANGI
Pensheni
Ahadi
##53
zinazoweza
mavuno
Coca
HILI
kisaikolojia
##rutubisho
##umua
##INGEREZA
mkaa
PESA
Jong
mizizi
BASI
Gera
THAMANI
##yn
##OK
imeweza
Ngowi
kimekuwa
kuchoma
Eva
##batizwa
uchawi
seli
limewa
yanayoweza
Ahsante
NYUMA
laana
Kesho
amemtaka
watafanya
MNH
##FSI
##kar
majuzi
Same
Zan
##ddafi
Centre
ATA
##iona
##tyle
Kali
##ONYESHA
alishindwa
ukizingatia
afuturisha
##VYA
##katwa
##thamini
kuwalipa
KULA
##maa
vidole
##KUMBU
##onel
Mchango
##rds
##wans
##choma
Timo
##tswana
kurusha
KUNA
##ville
tele
##rufi
tunaendelea
zinazofaa
##epuka
##RUSI
propaganda
##ANDI
Bikira
msongo
JAMAA
Sugu
kurudia
UJI
kuwaletea
ILA
kuingizwa
ameandika
SAYANSI
limetokea
kushindana
Chali
kiarabu
kuvuruga
amb
kufikiwa
kupisha
##ript
Sumaye
Uwezeshaji
makaa
##MZIKA
MAANDA
##kilishwa
Ngara
mifupa
##rou
##rintho
Prisons
kutupwa
SABABU
yanavyo
ULAYA
kumvutia
kuwapeleka
mseto
mwanae
##fautisha
Uda
aliomba
Tara
wahudumu
##jiliwa
##rekodi
Milan
kiakili
kuwaona
makusanyo
wanaote
SEPE
kavu
BILIONI
Boniface
NDUGU
talaka
##kwambia
Bre
vifungu
akawaambia
KUIBUA
NANI
NBC
fund
SEPETU
HIV
MOROGORO
KINGINE
##wasiliane
MAARIFA
shamra
waweza
kukopa
Mahali
wamefanikiwa
kufufua
MABINGWA
NDIVYO
Rom
or
like
NDIYO
DINI
Poland
Times
##adhimishwa
##Blog
kumkamata
kubainisha
SEBU
1996
WEI
##yarishaji
##pingana
kuwafundisha
##valia
Coa
Abdalla
Game
##lm
kupindu
WASABABISHA
kinavyoonekana
Majaji
##gital
kumtafuta
Siyo
KUMBU
ORG
##65
amehukumiwa
ujanja
kuabudu
alikufa
amemu
Msikiti
paka
uvi
##langa
##ywe
thelu
USAFI
Mbarak
kitongoji
JULAI
##NP
sanamu
hitilafu
Nusu
##anika
##wanya
WCF
##seke
##gra
##ator
Dira
SMS
kujituma
##RESHA
tua
Ubora
kuhitimu
imejipanga
##keteza
##rary
##vuna
SEBULENI
##TUN
boti
##anzishwaji
Cam
Alieleza
ikiendelea
msako
USAJILI
Gaddafi
##towa
##ulid
inayowa
Keb
ukoloni
KUTUHUMIWA
kumkaribisha
MKIA
Machapisho
vitendea
##GERA
aliyoitoa
BIBLIA
Hindi
##forde
mbaroni
##angalifu
STARS
jaji
wapenda
WAA
kumuomba
##ller
##tafakari
unapata
AJERUHI
upi
mau
kuwapongeza
##dewa
wanate
KUTUNZA
Mapendekezo
Saudia
Nae
ulioko
KUJIPIGA
##uko
Oysterbay
ukarimu
msalaba
kuiwezesha
shingo
kuhatarisha
balaa
##dhihi
kumradhi
##ghushi
##IAO
Ndugulile
Eckern
Leonard
kifi
ilifanya
HOFU
umei
Kilombero
##wajima
Azi
mai
##ves
Shumila
Eid
KLABU
##shar
##dhimu
AGREY
Eckernforde
##xy
waliouawa
mnada
XIAO
akitangaza
##harage
kuhisi
IMF
Mj
##IDA
Saint
kivuli
##atatu
KAGERA
Thelathini
##diola
jasho
Uendeshaji
Poleni
KUTA
##tambue
sijawahi
It
Utambulisho
##mewa
Dogo
alikua
ALICHUKULIWA
Kuku
##ungwe
mandhari
##kere
MANENO
##liondo
kuthamini
peponi
Boss
umewa
AKAMZIKA
Mkristo
SONGWE
##gas
##SIANO
VITEN
wakitaka
weusi
TAHAR
SD
##iacha
umetolewa
##indaji
akitaka
Unam
magereza
penalti
EF
##hou
Jack
HESHI
mwenge
magu
2022
Magazetini
what
haij
Warumi
kupendekeza
AHU
weka
kitalii
##idhinisha
upa
##mbele
Huwa
##unue
##dhaniwa
Abi
kusimamisha
##ream
HUO
##CHAMA
Malay
900
YAZINDUA
Kilicho
ekari
waziwazi
makada
Yosefu
##PH
kukuta
ataku
RUFAA
##dhalilishaji
Ayu
haukuwa
alizungumza
unaofanyika
vinaweza
Yahya
hitaji
Movie
kutii
vazi
ubia
##zamiwa
##din
##roro
HESHIMA
##ghts
ubinafsi
Kawambwa
##jio
mishipa
##JIBU
##scow
Gwajima
kioo
##stiki
wanapokuwa
shahidi
##ingizia
imefanyika
Liberia
Pangani
wamepoteza
huanza
##nyi
##waambia
presha
##chilia
##ANGIA
Fatma
##CCO
KUO
BINADAMU
waliofariki
UJA
##bless
##ONDONI
TS
zinazohusu
doria
kii
kulipi
##kunga
NENO
##OS
kansa
##kivu
Stand
##ZAMO
Red
##slimali
Mazoezi
##sino
ameshindwa
mkandarasi
UFU
kuhesabu
##ondolea
MOYO
akiji
umahiri
kuogopa
Jamal
inata
ZETU
##urs
Win
KINONDONI
yakinifu
wenyeviti
##llel
Zime
##12
##rdan
utatuzi
Acha
ameshinda
Beki
kujiridhisha
Kisasa
kuyafanya
92
##rome
kujikinga
Dakika
Unapaswa
kushangilia
##gg
MATA
waganga
##amkia
##uu
kiburi
Zahanati
POLE
arobaini
alijiunga
##lori
tuendelee
lililotokea
ug
ukia
Lionel
yam
##hatarisha
Maelfu
kujiweka
##sity
net
Platin
akiwahutubia
Misa
nafaka
USHIRIKIANO
mistari
Makanisa
##YWA
##tabiri
##isala
kuteng
##muagiza
##kimbi
Kifaransa
##gomeni
Lebanon
riadha
Kulikuwa
Buse
##sasa
##geta
amezungumza
##kwaju
Moscow
uhasama
wabunifu
##endelezwa
utam
dansi
Masomo
Kebwe
Malaysia
kurithi
kuungwa
Botswana
makaazi
1997
Rahisi
##blog
kuwachukulia
Dowans
##inuka
##elewesha
Ivan
KURA
Tab
akimpongeza
ameni
##frican
wakisikiliza
Magomeni
##BALI
Haule
zilizoko
##andae
##ISHIA
High
0713
##mwona
##INDUZI
kimaa
iitwayo
kuchambua
##bahatika
MIUNDO
SHIRIK
##ombwa
kugonga
niweze
Mabasi
AGO
Asubuhi
By
##HCR
hafi
Kibaki
kujiandikisha
Kwetu
Sija
Seneta
##shirikina
##phi
akifurahia
kuke
amekiri
kibaya
wakiwamo
Brusse
##apishwa
KUPATWA
Mahakamani
Malunde
Saidi
mwigizaji
Mfanyabiashara
##RISHA
Idris
Bunda
IPTL
ikitokea
MTENDAJI
Mwadui
adha
kuitisha
Ghu
##anyama
##kithiri
##tulia
Polepole
wataji
Babati
##yne
##ungwi
##bea
Kudhibiti
kutwa
ukumbini
##owa
##mbazi
##aneli
kufufu
##simulia
Uzima
wanaonekana
MAZ
Serena
##isimamia
Mwenza
Mollel
waombolezaji
##angia
vitongoji
Masoud
safa
##MISH
##KWAA
##UMZ
Uja
##NI
DAMU
amuzi
bili
##patikani
Gala
KINA
##angaliwa
MAPINDUZI
ITA
##Wa
vichekesho
Wamarekani
haj
mie
Kompyuta
WALE
KUFUATIA
AINA
Macho
Offi
Ningependa
Lumumba
kujadiliwa
NYUMBANI
Mlo
##WATA
MEDIA
Mso
Ngon
Marais
umebaini
Shaa
Somo
kubahatisha
##kaza
##TED
DewjiBlog
KILICHOPO
kupimwa
Ibra
##ruma
akishiriki
kambini
mwanangu
Antoni
Brussels
Sama
190
##zuiliwa
Enyi
ukiendelea
MOSHI
Ridhiwani
TADB
JUMAN
euro
##rate
UNHCR
htm
upandaji
##dal
Kiislam
kushambulia
kizi
##MUZI
Development
##fidh
##onekani
wakali
JUMANNE
kugon
MSHINDI
##DOM
Ulimwenguni
DewjiBlogNews
BANDA
##mwamini
ugawaji
Jordan
wepesi
##atan
more
KULEVYA
lenyewe
Forum
chipukizi
kwingineko
kujiajiri
daftari
yanayohusiana
Mbegu
KWENDA
Biteko
waalimu
##view
##vent
##TB
##ongezewa
Hat
##vis
amen
##jumuika
niliwa
kujitenga
##SHINDI
Lady
##CHEZWA
##14
##rudishwa
##umbano
MPE
MTAZAMO
TENDO
##ire
Dua
jangwa
unaonekana
sms
Malipo
kurekodi
##zy
agano
Utoaji
Madhara
WAZAZI
##FARI
msemo
amelazwa
##mn
Nika
##phone
Unge
kufundishia
##70
Kujiunga
panya
Jecha
Ludewa
kuharibika
##amsha
utaendelea
##zun
##chunguzwa
yanayowa
##chapishaji
##vuli
Shukrani
Okwi
caro
##oza
Johnson
kikombe
nafanya
Jerusale
Beijing
##khe
Liga
tumeona
Simulizi
##lalisha
mwizi
waliko
kukarabati
Godbless
NILI
Amos
kuzinduliwa
##jiwekea
shukurani
##kanwa
waache
Mathia
JKCI
Kil
NANE
##likana
Mariam
##nel
Kufanikiwa
MAJU
SHEIN
##ppe
Tathmini
insta
wikipedia
kuvuna
kugharamia
SS
UINGEREZA
kuvamia
vinara
UCHUMI
tuone
mashuleni
Erdo
##pilia
##zipata
Sc
##orry
Maafa
IJU
Nzuri
PH
##pamba
WAPYA
kibenki
1500
##ingiliwa
##iba
DOW
Data
##theri
inasaidia
ikizingatiwa
Don
uendelezaji
kuwahamasisha
Alipokuwa
##idhinishwa
##tain
Cro
##upata
Shukuru
utamu
##work
waamuzi
##SIM
Makamo
Tshs
AZA
##cer
##dinali
##SCO
mipya
SEN
Usomaji
Maju
back
##fuatwa
##ONYEZA
Wawili
hakutaka
Ukosefu
sitaki
##alikwa
Marathon
udaku
ilianzishwa
JUKWAA
Jin
##bitika
kisima
kuthibitishwa
Posted
##llar
##stle
html
kuwaweka
ualimu
wanaoji
SEP
ofisa
Waisraeli
petro
Tunataka
machafu
Badili
masilahi
##mboka
##news
haijawahi
amepokea
##TEGO
##luhishi
Mikocheni
Tumia
##GH
Waraka
MASHIN
##ela
##NDI
Power
yalipo
waimbaji
PLATN
inaanza
Amaan
Akijibu
waje
imeeleza
##cester
thelathini
##phat
TH
Sil
waende
KIKO
Raha
anasa
SOKA
##l2
aliona
unabii
tunapenda
moshi
MVUA
mapitio
Loliondo
##zamili
Gabon
MAZISHI
UKWELI
utaanza
Uokoaji
Kirumba
##yah
futari
kitita
uzushi
kuisa
##muapisha
aendelee
muigizaji
kuajiriwa
##agizwa
Cola
##ations
kikabila
UTEKELE
kubakia
Chande
Cla
hujui
virutubisho
##barua
Big
Mz
Rua
##saliti
##RSA
##pho
Mathias
akaenda
MWANZO
Rama
##juni
vuguvugu
waliji
Mir
iliyoanzishwa
##woya
##andani
##sisitizo
1984
penati
walitaka
amepewa
iliyotokea
##omoni
Lai
##muliwa
Del
kupakua
wanatoka
##chukuwa
Est
Kike
##pokewa
UTEKELEZAJI
##jiro
simulizi
ataji
MBOWE
ALIYEKUWA
kaa
kinyama
Fulani
kivutio
vitanda
Tupo
malazi
2025
Ten
muendelezo
##tamba
kumpokea
ujazo
Fili
Kangi
wama
Vitambulisho
ninapo
##atisha
Viet
Aga
BONYEZA
anau
##kunywa
Tali
##lazimishwa
MASHINDANO
##onza
##PEWA
alichukua
matembezi
Mikataba
wakisubiri
watam
Jinai
GARI
Kid
Complex
Tunashukuru
Zainab
Mtumishi
mraba
kushusha
Karimjee
kivinjari
ghali
##tana
ilikua
##rticle
carouse
##DULIWA
##waride
PLATNUMZ
waliohitimu
TIC
mezani
##GHA
Wajibu
inatambua
unatokana
##gawi
##asa
raslimali
safarini
Komba
uanzishwaji
##funika
uume
Zawadi
UGONJWA
##tmund
AFCON
Ufugaji
Kigali
mbwe
##tegemee
##dayo
Kabisa
WEWE
ASAN
##spora
8230
Alliance
carousel2
mosi
Antonio
##kuletea
itafanyika
lori
Sim
tunacho
kuwatumia
ameitaka
MFUMO
WAP
##eleke
with
Leicester
YATAKIWA
##banwa
Senge
##tahadharisha
##mbed
sayari
Waislam
angeweza
club
##MOTO
Medi
Matamshi
itakavyo
uga
kuwaelimisha
ataweza
TENA
tv
##yatua
##MG
alikataa
watani
AFRI
##hoofisha
gumu
##gaa
INJILI
Twa
vikiwemo
##yere
##furika
Guardiola
Kuongeza
fasihi
Ismail
mlezi
wanafamilia
##mbuko
tunazo
MITEGO
Bashir
kipindupindu
muweze
Bul
Yohane
Citi
kuandamana
Kiko
Fanya
##ision
kuitaka
Pogba
KASSIM
TAMA
##pua
Dortmund
vimekuwa
##tende
KUSHIRIKI
Mongella
##sababishia
mizuri
TATIZO
lilivyo
hatuku
##19
KUJ
##atanishi
##angoni
Nikiwa
shemeji
aweza
dhiki
Tanzanite
##ple
ijumaa
kuiweka
hayawezi
mipira
Brown
yameanza
wenzako
Fes
##lumu
mafupi
##het
tui
MK
ucha
##ball
Maua
tumia
##PANGO
kara
alithibitisha
SEMINA
mahsusi
alivyokuwa
Pla
##kura
##yoka
yanafanyika
Kasulu
kujiingiza
mkasa
uvumi
Champions
Alisisitiza
Ajabu
Uwa
##diplomasia
Washindi
mwangu
Juhudi
##PIKA
##SEE
DARAJA
##POTE
Nyanda
haitoshi
Bene
et
##cc
##enia
##faki
Majukumu
EPL
Kujifunza
aliyepo
RAHA
Top
##ZINDULIWA
##list
Wanadamu
Adhabu
Mpiga
pema
fahari
Mwanasiasa
njano
##pumzi
##gemeo
kuchapishwa
kasema
##staarabu
hakuweza
##pitwa
##SIMU
kusajiliwa
FURSA
Pato
kujulikana
Nov
Mifumo
##zingatie
##moa
Mule
KUKAMILISHA
kutibiwa
0715
##isaidie
Sanchez
Uba
##ota
wajue
##endayo
##yesho
Maganga
KITEN
Kimei
walionekana
Ernest
Univer
Skuli
##katisha
Mrembo
kuju
Kub
NIT
Frede
Telegram
anuani
Cairo
inaeleza
haitakuwa
mabaki
##tembelewa
Andi
nimepata
Mhadhiri
##kanya
##ving
Denmark
all
kuridhisha
##sadikiwa
Ash
Wanasiasa
Kel
kulazwa
##HOVA
miche
PhD
MITANDAO
Sing
Maamuzi
##eda
Edwin
uchafuzi
##SON
Josephat
Kisiwa
Inapatikana
Zinazo
wazalishaji
wazawa
##mizwa
shaba
Anaweza
Jerusalem
Ommy
ASKARI
##tandawazi
##40
waliopoteza
kuitangaza
##KOSA
ilhali
##download
aliyezaliwa
miungu
watakatifu
##taarifu
##gur
##shie
##MBILI
website
mkojo
Omary
ve
ninavyo
vo
Stan
Internet
mgao
Fidia
Ruge
Getty
Mwimbaji
kini
kuwaeleza
hait
##ketea
##lls
dosari
wanane
Vikosi
ninacho
kidole
Mwaki
Mkufunzi
kunyon
##itumia
##tatua
michoro
mapana
Twiga
usta
waendesha
ser
img
watahiniwa
Kwi
##dit
wanasayansi
##KUMU
WAKAZI
##yun
##onzo
aliuawa
Muigizaji
mkate
Thinkers
alibainisha
amefanikiwa
##gawati
Mstahiki
##tuku
Wadhamini
Virusi
TFDA
Mahia
amefunga
##moro
##tukana
Tunapo
Kikapu
mja
wazungu
##elekeo
##reji
kuchomwa
Chenge
Mbwa
mza
AWASILI
kinywaji
MISA
##tungwa
akifunga
##ANGALIA
##rab
ulipaji
kujikwamua
Meda
mtume
##ipenda
Mavazi
per
##athan
Hasa
##DHURIA
WABUNGE
ASA
nis
kitovu
chati
VIP
##kanisani
akitumia
kujitambulisha
Sengerema
Studio
viwandani
HARAKA
Mbatia
##inia
anayetaka
##kandamiza
Die
Mwangi
Library
mswada
Kichina
##now
kujivunia
wanaohusika
##sanifu
kuzikwa
Taratibu
udhalilishaji
##atumiwa
tutaweza
Riwaya
TAMKO
mum
##mwe
##RATIBU
##gine
hutumiwa
##mbunga
##soft
##SHIRIKA
##punguzia
shoo
Muundo
Itakuwa
##ribia
Kuandaa
Sospe
Uwoya
Lucas
WANACHAMA
Steve
WAK
fika
##ungia
kupungu
South
Busega
kuwaua
Sonko
harambee
##amie
HASS
MUME
tra
udini
walikutana
##ships
##BITI
##tukuza
plastiki
Kuingia
MSIMU
##gori
Ametoa
Felix
Sospeter
omba
Ndiye
Coastal
Ml
Bunde
Embed
kuhitaji
anadai
##fulila
Doto
Ang
Unc
MOHAMED
Ele
Mvua
##mega
##gea
wanaohitaji
zinazohusika
yanayofanywa
Social
##MALIZA
ATU
style
YATANGAZA
zilipo
RAH
Mabula
##WAS
inachukua
KAMBI
mshiriki
vivyo
kupika
##LOAD
Wakizungumza
##ZITO
Il
niwe
Ale
##ula
Kiinjili
kutangu
##mbatia
##KABIDHI
TANGU
yanayotokana
##MILIA
Misaada
Ulimboka
hafifu
KESHO
ao
askofu
kusafirishwa
mwanya
Ayubu
akilini
Kiserikali
##ten
usaidizi
yanayotokea
DJ
##dom
##FIKIA
##WANGA
kitanda
isiwe
##inya
##zikwa
mafundi
Masasi
YEHOVA
UTAFITI
Chukua
##em
kadhia
ukali
unyenyekevu
Uncatego
SPIKA
Ilemela
AGOSTI
##rekali
isiyokuwa
Mchakato
Tusi
Waarabu
Ackson
##wazisha
##yen
##fananisha
anakabiliwa
Gerald
Muumba
kukubalika
kituoni
Ndivyo
HASSAN
Hip
ukimya
kimbari
Wapiga
zimeanza
GAZETI
Trafford
##ripuko
Akiba
##gawana
Luteni
inaongoza
fadhila
##media
wamepewa
##lazimu
SHIRIKISHO
kite
##TONGO
##KNO
majonzi
##shini
Parokia
KIG
INAYOCHEZWA
alijibu
read
Onyesha
Center
Jon
##wea
karama
iliyowekwa
Jean
dharau
kulea
##izi
Kwenda
##IWA
kupigiwa
yanahitaji
msomi
inayoongoza
##hita
##husiki
alitembelea
UCHAMBUZI
UDOM
wauzaji
##shinikiza
Mwokozi
STE
##zan
##remia
anapokuwa
##andalia
Kaya
Kafulila
##hazi
##bwawa
ZINAZO
KING
##DD
kuhusishwa
kuwapata
unaji
ufanyike
##form
Hatuwezi
Chang
##INGIA
Vietnam
4G
Janja
vifu
amana
##andikishaji
Wafuasi
mgawo
Cle
Wazi
##ISLAMU
chungu
##dhihirika
Hilla
##bs
akitoka
Namibia
##had
wameendelea
##KATIFU
kupandisha
Ala
kikanda
pete
haipo
##SHAHADA
AGPA
zilianza
kuporomoka
akionesha
##pepo
maaskofu
MIRADI
Mgogoro
HAKU
HAWANA
Singa
wamekamatwa
KIJI
kulifanya
Juzi
AGPAHI
Wang
##GRA
##stam
##lizika
##ccount
fundisho
Muleba
Kayombo
Pep
kulazimisha
PWANI
zinge
vija
Salva
Ngonyani
Elias
wahisani
##bazi
Iki
##jano
##onari
Dimpo
Fiesta
MAEN
imea
mtumwa
kuchezea
Haro
nguruwe
##patikane
NOVE
Nda
MKON
##jitali
MKAPA
Aboud
##ket
kuwaacha
##aaaa
Uzalishaji
Upelelezi
kuwatia
ulioandaliwa
HURU
kujiepusha
alipozungumza
Mgodi
##vuni
##tumbo
Anwani
MUHI
Tai
##wood
TAMASHA
##dokeza
Ruangwa
Wataalam
ph
##gers
kuteua
nyote
makatibu
##silisha
Mazishi
nimeamua
kuvunjwa
Medard
ameomba
kuvumilia
kuelekeza
tuangalie
##ifahamu
##subiriwa
Nia
##pany
MAENEO
##tokeze
BILAL
##bebwa
Msimbazi
Tanda
##elewana
Michuzi
##pakana
kumua
aliyopewa
Ibrahimu
gumzo
zinaeleza
kutoroka
##zamwa
##BIKI
malumbano
##jeni
kupeana
UMU
walipotembelea
Miti
Doha
dhuluma
NU
anastahili
hekta
kupendeza
tabaka
##qa
##rekeb
##rdnews
kusukuma
Mwangosi
##gawanywa
Vitendo
kukatwa
Ruaha
kukemea
zimetolewa
Pete
Yanayo
##tra
pazia
AZUNGUMZA
kuidhinisha
maili
##muuliza
Produ
##amana
Alifafanua
zinazohusiana
SAFARI
MAKALA
##shikamana
nit
walitumia
inap
kinidhamu
Mbaya
Trans
##chn
WATE
umekamilika
Nenda
Uchina
kliniki
##atofautiana
imetokea
##hadhari
073
##jema
wanamichezo
ukabila
Madam
##pari
kutishia
kuruhusiwa
kuongozwa
KUONGEA
Visiwa
mahasimu
nakushukuru
Ev
Mjadala
Sunda
kutofautiana
kuigiza
Jumia
##SF
kufung
kuwapiga
akibadilishana
anaeleza
3D
iendelee
iOS
##anifu
vielelezo
##anzu
##KEZAJI
Yusuph
kimaadili
anaitwa
kulaani
VICHWA
##itoa
tarafa
ametembelea
Boda
##imarishaji
##mis
##yatoa
##fesa
##MIAJI
Pri
tata
##aniko
Kase
Tete
MAGARI
itakayofanyika
##TEKELEZA
itabidi
Martha
Miezi
Chad
vitengo
NIDA
wapewe
##bala
Kiraia
##geukia
HTM
##YAMA
##onyeshe
Mzi
uumbaji
##INDO
msisitizo
Athari
Albert
ulevi
Mashaka
shangwe
muh
waangalizi
nadra
mwandamizi
##rdhini
Tabata
kumpatia
Wenyeviti
##kos
kumpeleka
##vic
##MIKA
KIONGOZI
Kuli
SIRI
anayefanya
lililopita
kuhudhuriwa
Vla
shirikishi
NGAZI
MDOGO
vikiwa
mchele
kimesema
yatafanyika
91
##ep
##bra
##HATI
##sogeza
USHAURI
wauawa
Happiness
mha
KASI
##diwa
##mbikizo
piga
##TOLEWA
kusta
chapa
ameweza
Ann
Nuru
North
##Na
Mbilinyi
mwanzilishi
kufua
wakasema
##pt
##67
unafiki
##ira
Brige
##misho
Mimba
tunasema
Kalonzo
##Press
MALA
Louis
kuish
##gange
##kandamizaji
##tindo
unaanza
NEY
##kashifu
kuiongoza
Cheti
Ahmad
##dhuru
Nashukuru
##bin
nasaha
##yajua
##GAJI
Hillary
kabambe
kinaendelea
##STE
WATOA
##ambwa
Shilo
Marko
##tosheleza
akinamama
##geleja
Yan
##vuruga
Ghasia
RASIMU
##ukaji
Mbozi
machoni
##suka
MWAK
MUZIKI
##TENI
wanaotoa
Unataka
Fund
buti
wafalme
##enane
kicho
waliowa
##jan
imeingia
UMUHIMU
MAY
SPD
kushi
Mam
mianya
Rufani
Nimekuwa
Vyakula
WCB
Mla
##alth
Dimpoz
MJI
Moga
Amin
##road
viashiria
Microsoft
Mzunguko
upoto
anakuja
Sunday
Jumbe
##shusha
hakutakuwa
KUTOKANA
Cali
Msangi
Jangwa
kuwashawishi
##chel
Darfur
kubadilishwa
##690
##FF
##yakua
##tofahamu
kuwasilishwa
Kilutheri
Kuishi
Endelevu
##kram
JENGO
Program
Benedi
Wangu
nianze
alielezea
kinachoitwa
1993
##reet
midogo
Sarah
uliopangwa
Luis
KIBAO
UBALOZI
Kes
MIKA
Town
alma
##brod
KIGO
shimo
VIKUU
mbwembwe
UKO
##dumisha
##Ti
parokia
Bohari
IJUMAA
NYO
aje
WAZEE
ndie
TLS
##ITA
vituko
SERA
kulazimishwa
##barak
##usurika
##phon
TUKIO
ROHO
UHAKI
##gunduliwa
anayem
MAPYA
aliyepata
Samweli
##jalishi
##frica
WATEMBELEA
Maabara
##golo
Joho
KAMANDA
Dom
Alitoa
wanakijiji
##mm
##MY
flash
##sifia
upd
ubinadamu
Fai
then
Kiroho
Wakorintho
Lyon
Lishe
##vy
##pigie
hatiani
dia
manane
##ghe
AKABIDHI
ardhini
##amalizika
Human
##umbia
UJIO
MUHIMBILI
vis
##chane
kwasasa
##zwi
##shindwe
usaili
MASHAHIDI
##MC
##tem
head
Zaka
Mnara
##TWARA
##tics
mgawanyiko
wanazozi
unatumia
##mbamba
anate
##MBULI
##vamiwa
##uninga
motisha
##rejesho
ametumia
waliopewa
kuishia
maw
##enei
##ririko
##romoko
##muunga
sanduku
Shindano
Kilolo
Ufuatiliaji
KUTOKEA
imeandikwa
mweusi
##rgy
##HANA
kuiona
kuichezea
itachukua
Inno
Kaa
Mche
upuuzi
##LAH
ULIO
Japhet
##yerezi
81
##itaja
Mpenzi
mak
##engwe
##kutane
vip
walishindwa
##ONO
Hofu
Falme
majukwaa
sabuni
msisi
##iagiza
BOT
instagram
Ngeleja
vifa
KAMISH
##MUZIKI
Wilson
School
Taswira
Uncategories
##lka
ml
##reth
akisikiliza
mnayo
washauri
akiomba
kutusaidia
mwenzako
walisha
URAIS
Can
##rst
Pius
##press
##jelwa
Inayo
maanani
aliyesimama
game
##Tanzania
amewasili
kupatwa
##iland
Usikubali
SULU
kuitumikia
ukitaka
muongozo
andiko
yawa
##thibit
Fikra
##anzilishi
DPP
kenya
Imeandikwa
##2482
##dozi
##juwe
##ghaibuni
##amuliwa
Salah
Vuai
Nakumbuka
Website
WordPress
kukumbwa
0732482
0732482690
##bobea
MTWARA
mapigo
ghafi
Mufti
##sishwa
kushikilia
mnara
kishi
##LAND
##tembe
zinaa
##62
kughushi
Mifuko
shwari
mwitu
8216
Hami
##bikwa
##read
MKATABA
##wei
walii
utayari
kutamka
akaanza
Nat
##rubaini
##bilisi
##kosekana
ishu
##RAHA
##YARI
##pwe
##ges
##mboleza
walau
milipuko
Kyela
husema
Zantel
##kramenti
##yoni
kiso
##ANGILI
MEN
Tur
##ingiliano
YU
CHRIS
BADO
##shehe
Masan
shutuma
ajiuzulu
Hamas
zimesha
##dwali
amekamatwa
kuuaga
kushtukiza
Tarafa
Malin
mabweni
##cie
Neymar
##kerewe
PENZI
##tz
##itishwa
Mbulu
ifuatayo
##blogu
kurejeshwa
ndoo
PSG
anza
ambo
##kii
alifanikiwa
amezindua
Tunaamini
##anyahu
##laamu
zinapaswa
Va
##oga
usiwe
nyepesi
Athumani
Scholarships
Kon
Tembo
Mfawidhi
ulin
Gereza
##wale
##angagwa
##luu
ini
##GIZA
Citizen
uanze
##UP
##futiwa
##chague
##SAKA
Colombia
Gir
imewekwa
kitisho
Beat
##pesa
##pangaji
alivyosema
sindano
akimuapisha
kutawa
Kibiti
##funua
Kurugenzi
KUELEKEA
china
1960
kusaidiana
Umri
Amana
iliyon
msh
##ungane
##KOFU
uenezi
kifalme
##soka
alasiri
Xi
kuwakilisha
wanakwenda
##vest
##zungukwa
Fit
majuma
Mjema
##car
waadilifu
Ukerewe
aliondoka
Omari
anayeishi
##44
zim
##ishin
MIPANGO
Juliana
##ruku
##ktadha
Geneva
Tunahitaji
wakifurahia
##yongo
WAKURUGENZI
kimo
##isadi
Netanyahu
Pamba
malimbikizo
##waga
##lelewa
nifanye
alich
hawako
Best
Mashujaa
alihoji
wanaodaiwa
##yanmar
Rooney
bandarini
##REMBO
utupu
AZAM
ul
##ning
viko
farasi
Hila
suti
hutegemea
Mnangagwa
##umizwa
unatoa
mjane
RIWA
Shooting
kuwakumbusha
##KUZI
Mona
wakishiriki
kutun
##HALISI
tunapata
kunusuru
kuumia
Kite
##funa
Nico
SEO
##mwino
Zijue
Tv
samp
tabu
unalenga
FEB
senti
ASILIMIA
NOVEMBA
Kuanza
##unguzo
Kor
uchangiaji
Mustafa
##ECA
Ujuzi
##WU
##berg
fukwe
TEKNO
##tawaliwa
Lawrence
##ras
Mazembe
WAKIWA
##bihu
Audio
risala
usemi
BAHATI
line
##ffe
Applic
##ile
##ords
##likopta
##hamishia
Flora
##zamia
Hakimiliki
kulazimika
Blue
utii
##ANU
wanaoweza
##TEMBA
UNITED
kingono
kate
wakia
hakina
nilio
kumekuwepo
Japani
dili
maongezi
##pota
Taaluma
SEPTEMBA
jumuia
Joel
Barna
##theo
Frederick
trafiki
##dishu
Inaweza
##set
Mwanjelwa
Ghuba
##kuliwa
kufuatana
Thailand
##zinzi
mpunga
FAHAMU
##yataja
##RM
kuambiwa
Ashatu
KAI
Lake
kutofanya
Raza
##unziza
atoe
##PISHA
##yato
##wanza
##tajiri
##inufa
Ol
ufanye
##ingiwa
papa
DAWASA
Kessy
Dau
##phrey
Servi
form
mh
Ambao
##pper
##tokee
wakiingia
BARAKA
Rah
maelewano
chumbani
##chezesha
walijeruhiwa
rasi
Kenne
alipoulizwa
JOSE
vib
utangulizi
##TONGOZA
ilishinda
##onica
##amanio
misimu
##chuma
mashe
Watch
##WIRA
Oct
waasisi
uwezeshaji
##timia
alimwambia
##yimwa
kupikia
Reso
KUMTONGOZA
RIWAYA
kugo
Hashi
inakwenda
Tunduma
CHANGA
Ven
##yua
Mabe
##gekuwa
Japo
imekwisha
comments
##cheo
Kwahiyo
Hekima
Mfanyakazi
##andama
Chamwino
kuachwa
##cks
waanze
homoni
##FP
ujambazi
##BUNI
KUZI
##tozwa
NDIYE
wacha
Vikao
mlolongo
Samaki
iv
Mabo
kuwazuia
##rekta
Stadi
Chuma
Gal
uvu
kubu
kuihariri
Sub
##cing
huleta
kumwona
##ONGAMANO
KUBORESHA
AT
##ishika
KUSHU
Myanmar
##gio
Kisumu
Mbinga
Master
##sindikiza
Acacia
Ufunguzi
Nkurunziza
##gika
Siman
130
pango
mwamuzi
##MAMIA
kupitwa
##rthday
##ufanya
##bishi
kuzua
kupokelewa
##kataliwa
Rostam
petroli
akip
Mwanzoni
Kardinali
##isomea
Gairo
##inaf
imetenga
vinne
watoe
mgawanyo
Kamera
##funguo
Robo
Asa
MSHA
anatoka
ziarani
##maanishi
Vichwa
kujiendeleza
tumesha
kutuliza
Ushahidi
uchaka
##atangazwa
wanazi
##solewa
Mchana
##sue
##RID
Nasema
KAMILI
Cong
##tv
Kinyerezi
##feso
##mwengu
Seleman
##anyamala
Mgi
penzi
lililoandaliwa
amp
350
Agizo
walifanikiwa
Kako
##ishindia
Heroes
Kate
##TOKA
wakina
##dhibiwa
Tegeta
##zikia
##farijika
Piga
##ltan
Spa
mpate
nyasi
Esc
kuufanya
vika
JIWE
##mana
Kombo
Watumia
Uchambuzi
uenyekiti
imechukua
herufi
masafa
Kishapu
mabwawa
SOKO
##LC
##USI
DSM
##ambwe
FAMILIA
Sorry
ikifanya
unaye
##hakimu
kutambuliwa
##fanyie
download
Kidini
mwenu
Tekn
##unifu
##LIMA
##wiji
tutawa
yai
##field
COM
Mpwa
##ketaji
Johanne
wakoloni
##BOOK
wanadaiwa
sintofahamu
JULI
##lifanya
mtupu
##PER
kufufuka
kuchezwa
Tunaomba
Amir
##hadija
Shaaban
kuwaunganisha
##dadisi
mkwe
##met
wakishangilia
kuijenga
usiri
##erra
Ow
Mapa
inahitajika
ulioanza
##KILE
Fc
Sec
TAZARA
Jerry
##fricans
PC
Kikanda
zilizowekwa
kupeleleza
jumatatu
##guruni
2030
##mwaga
Nilipo
Brigedia
##wada
Warsha
Manda
imesababisha
haliwezi
utandawazi
yanayotolewa
MPEKUZI
kudhani
Nakala
##IDS
Khamenei
Kondoa
##chie
waliingia
##ENDELE
zinatarajiwa
kugeuka
kuogelea
if
##shtaki
Homa
##IKA
MATAJI
itaweza
hakija
utovu
penye
Staa
chagua
linahitaji
ghadhabu
waliyonayo
Makka
Mzazi
##changanyikiwa
##sliga
Mogadishu
wanachoki
Bang
majumba
##indikaji
kumuaga
Eric
inaruhusu
inayoitwa
VITUO
##ineo
Inspe
wasafiri
##ties
ameteuliwa
Takriban
##tore
zinazopatikana
180
kuyakabili
APOKEA
Biha
Gaud
##annel
##labani
KANU
ameelezea
Kongwa
LANGU
Kuingiza
walishiriki
##eneta
unategemea
kuchanganya
##jemi
Mashtaka
##bis
##buniwa
##gando
##hamis
Costa
mmojawapo
Wakiwa
Kusoma
Harakati
##amitindo
##ZAL
##dimu
##anjari
wamo
##milika
CSEE
##94
waandaaji
##rity
kujenge
##rious
koo
akilakiwa
##liona
##salimu
##andy
umeendelea
umetoa
Laur
ulazima
mahesabu
##pore
kujisikia
Ongezeko
Jumba
mrithi
##vai
LAKINI
walioteuliwa
mipa
nikam
PROF
1970
shambani
JNIA
Ungependa
batili
out
NAKILE
##munisti
Erdogan
Bule
ilionekana
##beli
iliyochezwa
DM
##UT
inaelekea
Marekebisho
Bya
risiti
##88
##lution
umem
##cess
mwanaharakati
Ado
##onyaji
##ZALENDO
kuhusisha
hichi
akielekea
utakatifu
agenda
##hulu
##atuliwa
kumpenda
kimkakati
CD
##tor
##sey
kumjua
##linga
##athbert
##GHU
fikiria
##spel
942570
##kim
Halisi
vijavyo
##lite
tembelea
Khadija
##kamishna
Masogange
Max
ikisema
kulipiza
kuwakaribisha
##REE
TPDC
mihangaiko
##hofu
##TANGAZO
KIKOSI
dk
##feli
Njema
minane
mabomba
KONGAMANO
kuyat
mahubiri
##PS
##zuoni
moon
##heshimika
imepiga
Rajab
Aziz
##hai
##faidi
##russia
Kufikia
##TARI
Communi
Matiang
kuandikwa
Niko
zinakuwa
##CHANGIA
ACP
RFI
##ENU
kubonyeza
NGOs
Kigogo
kufanyakazi
Ualimu
Kiir
##13
Jaribu
uadui
kushinikiza
MATANGAZO
channel
Oscar
##onja
##ondoe
kufungiwa
amebainisha
Muslim
##lya
##nis
##jambo
WATAKIWA
ATE
Jun
##tiri
Wazo
muongo
Channel
Pembe
Genk
HAKUNA
##ank
##siliamali
wakiimba
ASANTENI
Oce
janja
SPORT
##toroka
dau
Bure
##SHIMIWA
Kisiwani
##cus
Des
##fornia
walijitokeza
yakiendelea
Chile
kubana
Ronald
##LD
mabanda
##lipi
inayofanywa
##uh
##hena
TANRO
Mnyeti
##bakar
luku
kwaya
yanakuwa
Aslay
Wolper
Simanjiro
Tendo
##urce
mnavyo
Bundesliga
Mie
Freemasons
##77
kuwaita
Alphon
##juu
##ritrea
Khati
Ufili
##SWA
kugusa
Rio
walipokutana
Uwe
##wakata
ilitokea
##ZIRI
MwanaHALISI
1991
UWA
kujikimu
kumuombea
##pamb
nitawa
Mshitu
Wae
kumkabidhi
##BL
##anunuliwa
##wio
RAHISI
BUKO
Treni
##ulia
##ZAO
skuli
##paresheni
Mut
wakishuhudia
yanaonekana
##ambukizwa
mtiririko
theluthi
linatarajiwa
yasiyokuwa
Mfululizo
CITY
panda
Maulid
##pozi
Gali
Zake
Misungwi
wateule
Toyota
kuepukana
Kamusi
Rungwe
##MR
##rest
kitandani
mataji
debe
Ulega
Uzazi
kuridhika
##orodheshwa
uweza
kikristo
toba
Unahitaji
Abdi
WALIOPATA
##ZINI
##gubikwa
Wajasiriamali
timamu
smart
Salamu
kuzuka
mapacha
elekezi
Mwishoni
##yanyasa
Mtera
Ada
Nata
Tay
ubishi
Corpo
Bama
Dhana
##rud
Kusema
##ulika
##omen
Isaac
RIPOTI
UFALME
NYAMA
ac
anywa
Hop
kusimamishwa
##takaye
Mwananyamala
Hans
##tos
##burini
Kushiriki
ukiukaji
Majimaji
Leaders
upotoshaji
inapata
imeonekana
kupuuza
Buku
Drama
Song
kor
Singapore
mon
wanajamii
##surika
##tti
##angaa
uliochezwa
##terres
kufurahisha
##seji
waliona
##ingizaji
NAMBA
Oc
tuliwa
onyesho
kushauriana
makutano
Marafiki
Ci
Edu
GONGA
##lom
##rahisisha
##likipa
pasipoti
Msalaba
Acade
mziki
kuza
Yajuwe
Vincent
ilitangaza
##drick
##achana
mir
muumini
JANUARI
Kimara
aliyonayo
MAANDALIZI
Hasunga
Bulembo
##someka
uendelee
Siwezi
chimbuko
CHANGAMOTO
Nafikiri
##ones
yaliyofikiwa
Ambayo
##ghala
inayohusu
##llardayo
zilizopigwa
DU
Gambia
Stu
##kafu
inatumika
##stro
nyuso
hayakuwa
Aug
##shangao
Mgh
Kuelekea
KUONGEZA
Uhai
##zoeleka
that
JULIUS
##hivyo
wanaopata
zinazowa
limeanza
##umbuliwa
mchache
mari
waovu
GI
##tan
wakin
##bikia
##angua
Mwamba
Mtama
malisho
Guterres
mpambano
kumsimamisha
##vement
Alfred
##jikaza
##MBAZI
too
nilim
YALIO
matofali
##pingwa
anakwenda
110
Mambosasa
Amazon
##II
kijacho
Kuratibu
Khal
Aunt
Eritrea
kujitambua
Pitia
Shamba
Msama
Blo
##jinia
##unduzi
MAONYE
Walemavu
Finland
sampuli
CN
##pasi
alichaguliwa
anani
kiangazi
##RAHIS
inai
##ENGU
wajinga
Mpinga
uchache
##apa
##hudumiwa
Urambo
mida
JUMLA
##sira
kujisa
haoni
wanatokana
##INUA
tunatoa
haziwezi
Timotheo
Pl
ikiwezekana
##itikio
##sayo
##tuliza
Niger
MAONYESHO
wasemaji
##llen
Asso
alijua
Bashe
##76
yaweza
wakicheza
Inasemekana
hazita
##99
msisimko
##bul
alionyesha
TAWALA
mateka
1979
UFAFAN
Mpendwa
ufukwe
Cal
SF
walipewa
##fereji
UFAFANUZI
AWEKA
##KISHA
##TRA
uliowa
kukusan
Time
mtego
Alipoulizwa
Masanja
Tal
##fana
##ings
Islam
##har
yalianza
UGANDA
wakandarasi
##yuoni
kuwekewa
##boa
Mubarak
makontena
ufanya
##tupwa
193
Zipo
Wen
mwamko
Raymond
KUMBUKUMBU
imedhamiria
ZAWA
inayotarajiwa
mtawala
kukabiliwa
VIWANJA
##ima
##vutano
Street
Kitila
MITIHANI
##cts
Kutekwa
nimeku
kuchoka
walikuwepo
##andikishwa
Mg
pumzi
##yd
KIJ
zinazotokana
kifamilia
##ject
##COM
ASU
Fifa
##mkabili
mizozo
TIGO
Majuto
wakenya
imeelezwa
Naona
kusafiria
##DHIBITI
##GHULI
##HITI
zilizoendelea
blo
Ruta
MPI
##ambieni
uandikishaji
maharage
nyanya
toa
hatujui
zinatumika
Mshahara
Ngono
##rad
jiko
Ameri
yanatarajiwa
Qaeda
OFA
midomo
MWANAUME
Agg
MASHABIKI
Reginald
##ungura
MADAWA
Humphrey
kichapo
##onia
Rajabu
##ongee
itaku
kansela
Kibamba
NBS
Sum
kuhani
matamko
BUKOBA
CHI
##MEJI
##julikanayo
##GANYIKA
Forodha
Mkongwe
Ushuru
CECA
Aliwataka
##sikilizwa
Mach
akiuliza
HIVYO
Miliki
pote
##onjo
Mda
Niki
kumsikiliza
Java
##baraka
Sp
AfDB
tamati
CECAFA
##goda
##entensi
California
ifanye
##heni
##atima
##ching
TAFA
ikitoa
FAO
##RUFUKU
can
katu
wamekufa
##chuo
Maarufu
nitaku
Kidemokrasi
Mel
amemuagiza
MARUFUKU
##SHINDA
##GIA
Kuya
##motion
zinawa
kuwahakikishia
Kiwanja
##fic
iliyowasilishwa
Yasin
punguzo
Msafara
PAC
999
plu
##pani
##wandi
imepita
Dotto
Biko
##atika
Bas
##pange
Vingine
##nah
muwe
SIFA
TUMEKU
Uongo
##cela
##ssport
Wamiliki
Mili
azindua
mhanga
##tar
MAFUTA
meya
tunatakiwa
Travel
Watumiaji
Label
Bob
AMBAYO
##MAJI
Yona
kimu
nasibu
IMANI
KRISTO
##qui
mripuko
##bino
Kilele
Kukuza
mtarajiwa
##pangia
mche
##kisimu
kuwata
Intaneti
mtaalam
Leseni
##guru
##tes
##anufaika
##GENE
##KANO
##ray
##uman
kikwete
0754
##kera
##hakika
mnao
Abdullah
##hera
WAWA
Kif
KUANZ
##SILIANA
ameonyesha
alizozi
tus
makafiri
MGENI
Endapo
##lome
muktadha
mliyo
Happy
MAON
wamekubaliana
Mafinga
wanakutana
inafanyika
##pino
##lines
##yarisho
##llenge
Company
uonevu
madhaba
PEN
bweni
van
##matu
wabaya
##mero
waliokamatwa
nguli
zinazotumika
alipokea
kitamaduni
##atanisho
Esther
##ugua
##dama
huria
Bashar
Wenyeji
##tawazwa
##jala
zitatumika
inayomkabili
walipofika
akiishi
mashairi
walikwenda
##LILI
##ishiriki
Borussia
muhtasari
##box
mwanahabari
##zimisha
Sout
kufaulu
amu
machungu
changa
##UNA
Pori
140
##000
noti
samani
##meni
wanunuzi
##enusurika
Los
likiwemo
##laki
unapokuwa
tai
wakielekea
amewaomba
##safisha
##andarua
nazi
wengineo
Shilole
mashuhuda
Karama
##tered
Pazia
Emir
Ox
ubabe
Walikuwa
Mteule
hekalu
Digitali
##itwao
Josephine
##fundishaji
Escrow
##mbulia
Tri
hima
utakuta
ASKOFU
Dhahabu
University
inayotumika
tulizo
MHESHIMIWA
Kiembe
pacha
utoto
nahisi
##wasihi
Mpwapwa
FLE
kuripotiwa
Buguruni
IT
Tit
wanakuja
akicheza
Conte
Vene
uliye
betri
BARABAR
havina
kumteua
kuipata
utofauti
MAWAZIRI
Mashauri
washabiki
apewe
ukandamizaji
##tosa
wangekuwa
##angami
Mode
SAMATTA
PIGA
##ongido
Spe
wanariadha
Tunduru
Oly
kondo
##atel
Migi
wakiangalia
wachambuzi
##ink
##witi
Tafiti
akamatwe
##tainment
Ocean
Fil
Ayatu
wakiishi
##mbiu
wanaotoka
##kutakia
HERI
kukatika
##bour
TANGANYIKA
##kubaliki
malori
amezaliwa
poa
Wanaom
kujilinda
iliyofanywa
lilifanyika
zilizochukuliwa
watumie
kujiua
160
##mai
TAYARI
Padre
Band
##mit
Alphonce
kuwatoa
seti
TEKNOLOJIA
BARABARANI
Manyanya
VAT
Mgimwa
gu
kupindukia
gwaride
##ym
Sara
mwanadada
MWL
kuende
##angamia
njo
msajili
kuunganishwa
Haj
Mwenendo
vilio
Alexis
Kisima
kujitetea
etc
mshangao
##riti
Kuomba
##DUMU
##sem
SFNA
Plan
##ongoze
views
wakaanza
itahakikisha
nikasema
Azania
##LP
##89
MAWE
##dex
halikuwa
ninaamini
noma
TZS
Kupokea
##anzishe
LAPF
Fuoni
Akwili
Kiny
story
##PONGEZA
Amour
ametaka
##ridge
alilazimika
WAU
Kida
KIUME
mratibu
##ishie
wanaopenda
mwenyezi
kizimbani
Visa
imepokea
kujipima
yametangazwa
##fuatao
Beyon
KUFANYIKA
Chamazi
mizinga
kujisajili
upole
ufasaha
##rifiwa
madi
alipokwenda
hotel
wanaojihusisha
##kaririwa
asinge
mp3
WFP
waya
##kwajuni
kuahirisha
DAWASCO
inayomilikiwa
Mateso
lol
mashoga
567
matoleo
Mdo
WAJUMBE
wanatafuta
Meza
TGNP
##lipo
wanaanza
matamanio
Ponda
##KRA
amerejea
Muro
Aden
KIJIJI
##das
Magi
ujana
upili
##shtuko
Aji
uratibu
kuhukumiwa
##llam
ambamo
##aturu
Muimbaji
##shirikiane
ubatizo
##juwa
Akifafanua
##limwa
SHEMEJI
KIGWANGA
HTML
RT
##yanyua
##samaki
KAMISHNA
kwe
fimbo
WACHE
walidai
##onewa
Chacha
namshukuru
kumuuliza
foramu
MLIMA
kusaidiwa
Ulio
Umati
##ikolojia
Shabab
wakipiga
##CU
MAONESHO
pake
##mike
anaanza
helikopta
AFRICA
EM
wafiwa
##badhi
##INZANI
##thubutu
##inaadamu
Jarida
Europa
Hashim
inajulikana
magazetini
inavyoonekana
kumba
##meka
makuhani
aliteuliwa
kujit
Matunda
Biharamu
Longido
MISI
umeni
##YEMBE
lukuki
tuanze
amekubali
inayotoa
BMT
mawi
##nadi
amekwisha
MAMIA
Poli
Life
##ogope
SDG
Kuimarisha
Mtafiti
unafaa
ukeketaji
yani
SULUHU
##udhi
FEBRUA
TEC
yasema
kuifungia
rejea
amewaambia
Mmiliki
mjukuu
Waingereza
koko
Hakikisha
mabaraza
##raham
LUGHA
##RAHISISHIA
kuwaza
kujivua
umekuja
Teh
##farisayo
##kingo
##LY
kuongezwa
##lor
kusitishwa
Tehama
Hatuna
##luni
##choni
paundi
##juka
nikawa
5000
Premier
MWAKYEMBE
##ULIWA
muhanga
usukani
Kile
##shinde
info
kejeli
##REJE
##dishaji
pita
YALIOTANGAZWA
##chnolo
##ishawishi
MACHI
Kujifunzia
UCHUNGU
walion
Mwang
Kova
Tibai
TUMEKURAHISISHIA
kufanana
kujiongezea
NYINGINE
Malecela
mzaliwa
Mashi
alishiriki
aliongoza
KUJADILI
Arubaini
##gum
kuongezea
kipenzi
##wamini
unaonesha
##thili
Ndoto
##ppo
kuwaongoza
APRI
nilivyosema
wakishirikiana
unaowa
Nyang
Ndiki
uwindaji
linapokuja
kujihami
##kadhalika
##wakatare
UVU
##GILI
##fanyikazi
Mtaalam
##TENGENE
Telev
ustaarabu
imetu
kukifanya
Mamia
mzalendo
Hizo
mchambuzi
##jiweza
Wayne
##KILISHI
wakfu
kutanguliza
Kiyahudi
Imekuwa
River
##MILIKI
afunguka
sanjari
##ADS
Mipaka
wakitoka
zinahitajika
aliyewa
weza
MBINU
hatimae
NISHA
point
Makalla
kinye
##GIWA
chukua
Masi
kitambaa
Syste
##daa
hop
##stitu
wamejitokeza
media
Ambapo
##ZUIA
upangaji
##fidhina
##wila
kufadhili
##tumbua
andika
ndizi
TBS
##dangan
##was
Kupunguza
MASA
##puter
yanatokana
Mpoki
kuilinda
Aisha
Ufu
##yaa
Kuanzisha
##utube
Msuva
zinafanya
Khalid
##MAVU
wameingia
##fanyiwe
zilizopatikana
kuteswa
##SAINI
Maryland
##uality
##toza
NAC
HARA
Karagwe
menejimenti
##kuwemo
uhamasishaji
##shasa
Caro
MFA
riwaya
Socie
Bashiru
Kiembesamaki
kuwasha
wameweka
Tus
##GIZO
kutilia
Alama
##teria
Chunya
jeuri
stahili
##fanikiwe
Nkasi
Oba
mkeo
washambuliaji
##kozi
wataanza
##ding
##rota
Padri
Youtube
Tenga
##rist
Byakanwa
Biharamulo
Mun
Waebrania
tuseme
##dimir
Mita
MITAA
zinam
forodha
wahandisi
Kuendelea
Kada
Nassor
##zation
anamu
kusawazisha
Dis
atakuja
limejaa
##jisa
##lade
##rem
kuyaona
waliyokuwa
##SHINDWA
Ivo
Ninyi
PM
KIU
Diaspora
Kizazi
KUWE
unazo
UWEZO
Labels
zenyewe
Associ
FLEVA
walilo
inayojulikana
Migiro
Makanisani
NIME
##attle
kuwafukuza
##lolo
wanaosoma
Manyoni
nimekutana
aliokuwa
ametaja
nilipata
Ramo
##yia
umefanya
Fadhi
makumbusho
##yarishwa
##LIAJI
zinatakiwa
featu
TANROADS
##THA
##yer
wamebeba
##KARIBISHA
##rikina
##reta
Sierra
kunyo
kufaidika
YANAYO
PASAKA
AIBU
uchukuzi
KITANDA
Katabazi
Watafiti
ASP
Uru
##sikitika
Wak
Kutengeneza
KUTEKELEZA
tafakari
iliyosababisha
Mwanri
inaelezwa
##ZALI
##tis
Theresa
Mkuchika
Plus
AIC
iliendelea
##UNDE
Johannesburg
utekaji
##buka
YAPO
inani
aliiambia
Emirates
##rejee
FARAJA
kupotosha
##yoosha
Mashine
mwenzangu
vipodozi
Bella
MJA
article
yapata
##lada
Mav
Mahitaji
##fadha
hutu
##pashe
tumepata
pic
##tonyama
Mpa
kuisimamia
Mwanadada
Nanenane
Multi
Bwawani
Wanga
walin
kuiti
Rudi
KISU
taharuki
DStv
A7
UTE
##60
Khalfan
Thi
wanasubiri
mnaweza
Valent
Inspekta
##nie
love
Jonathan
KIGOMA
ulimi
Kwangu
ATAKA
##cno
alipigwa
umekwisha
Susan
msalabani
Leso
Mapunda
UWEKEZAJI
Ky
UJU
kumtoa
Mtaturu
Ununuzi
Mkoloni
gizani
Pu
azi
##ddy
##inishaji
ati
##isionari
mshtuko
amezungumzia
web
Anuani
##HAMAS
KUJENGA
Iko
cathbert
##eleweke
vifungo
wanastahili
mnakaza
usipojikaza
inapatokana
cathbert39
##didi
yaliyoandaliwa
tukawa
kusambazwa
##tomi
hayati
Fikiria
Gard
##GM
##ront
##RONI
##FAUTI
##vunjaji
##pendanao
SBL
mshitakiwa
##fikiana
Copa
yaliyoandikwa
##inufaisha
Sea
##anganyiko
AHUDHURIA
Liber
##fanywe
hatamu
kubainika
applic
tathimini
Majadiliano
amekataa
##HABARI
##kwao
Jason
Madaraka
##ketezwa
Bor
Udiwani
25571
##anunua
##zuela
Dereva
nimesha
kilichoandikwa
mabavu
##EMBA
Ass
WACHEZAJI
Urithi
Ungana
mashauriano
MGOMBEA
anya
car
Leone
kuliwa
##yororo
MAHU
Rapha
unadhani
Kasema
Fel
MASH
KWAMBA
Toto
kuhalalisha
akiruka
MAZAO
Br
MJ
WASILIANA
Mme
duku
##ole
##janja
##TOAJI
##bomolewa
##DHUI
kuokolewa
NISHATI
Mkenya
mcha
mfungaji
##FIC
wanali
Business
##womba
anaongoza
##purs
##less
Kamili
##ribisha
LINDI
Huria
SIO
Burkina
##tunuku
Galilaya
##80
Edgar
kifurushi
##HRC
##endeni
##YOYA
##poteze
##rm
##geuzwa
mwenzao
Nyakati
tamu
kitufe
kusindika
Far
##ingatia
Nyaraka
##jawa
walipoteza
##kumbushe
##kitini
million
walioathirika
Akitembea
Matibabu
itoe
Joachi
TEME
nitoe
##llahi
##UAWA
Mghwira
ukuu
Mabi
##KUA
kusikitishwa
UTOAJI
##honi
amechaguliwa
hodari
MAUDHUI
ameingia
kutinga
Mbarali
##ONEKANO
kumbi
hupatikana
mienendo
##sol
UNAWEZA
VODA
##ponya
AND
linge
Wahitimu
utaifa
##ADHIMISHA
KCM
yanaonyesha
ULE
##amsho
##BUHI
linavyoendelea
Ufufu
twende
##kuambia
kuwafunga
Coo
##VER
Entertainment
ona
yapi
##hisa
##gos
shabaha
mkombozi
wanama
Nawe
ILIY
##uio
kupendwa
##zungumze
mtetezi
maigizo
kufuru
Rec
Joachim
Ef
uitwao
Mwingi
##MAMIZI
##CHANA
aliliambia
CIA
##IRO
aliagiza
uliowekwa
Kinshasa
vidonda
Tom
##MBUA
mbeya
Msekwa
##pingi
amekufa
##336
ASUBUHI
ASHIRIKI
##pongeze
Kuhusiana
Mlinzi
huchukua
yanaanza
kutengwa
your
Inadaiwa
waafrika
##tega
kuamka
thread
Andika
Lesotho
Camp
kuhimili
huonekana
kiutawala
yatakayofanyika
Solo
Austria
##tayarisha
Mabaraza
##LOU
Ufahamu
Kijeshi
##DALA
Meatu
Nyaka
GS
##bie
##ishangaza
kizungu
Bakh
Tunam
##JUKUU
Chartered
Aggrey
Lungu
TBA
##tekeleze
ingiza
Vladimir
Ari
kugoma
##eople
Victor
HAYATI
ushabiki
Kiteto
##bepari
hui
##shikwa
anachoki
imezi
yanapaswa
Oli
ufundishaji
washukiwa
Kigiriki
anali
tafuta
Mkononi
Ayatullah
##FIKA
MAPATO
##ptop
utakavyo
wakutana
kombo
yaliyopita
ungekuwa
amua
misamaha
kiho
limem
Mathe
Upasuaji
##FM
makamanda
##tius
KUMU
##MBEZO
Georg
mgongano
hawato
##tupia
Paro
Anton
alivyofanya
iliopita
iliyowa
Fredrick
ALIPO
##peperushi
Official
Raphael
lilianza
Uzamili
ugani
Washirika
sifuri
ameuawa
shehena
mkristo
##OM
majaribu
akiongozana
nyuzi
Hedhi
Dhidi
Kya
yaweze
##umande
##dufu
TOLEO
kiutamaduni
CHOMBEZO
##bb
Wagonjwa
umefikia
Injinia
mbioni
Hospital
kunakuwa
Bustani
##fikirie
UMWA
##tukuka
##Ha
yaja
##sudia
kitaalam
magoti
Huruma
Kubenea
kuw
##riend
##lace
Nipashe
##henga
##jalia
ameki
Nakuru
MAKAZI
pam
uhujumu
##dya
waheshimiwa
natoa
Msasani
KCMC
lilio
Hosea
##pige
##beza
kuikomboa
##MIZA
##itikia
Samo
##INO
TMA
ilibidi
##tambui
Vol
Makani
wanaingia
##ambaza
yanam
JOSEPH
ILIYONYESHA
##mata
##gascar
Halo
katekisimu
kusomea
WAM
Sege
Harambee
unyama
##chuliwa
Hong
Sendeka
dhabihu
Comoro
Child
free
2021
Kiche
##WASA
##azimia
KWETU
##dian
analo
Kibanda
kishirikina
Hua
Kong
##sso
wamu
SARE
Show
Beatrice
gra
KESI
imeshinda
kugawana
ilii
tuliona
KISIMA
Upanga
kuzingatiwa
inaji
##chuana
VITENGE
Olasi
waone
##wizi
##smo
umeonyesha
wanaotafuta
posta
ujasusi
MISH
##yoteuliwa
kususia
kuitoa
page
maziko
Madina
Mramba
kuwatambua
inayotokana
Meck
##ombee
##kwi
##tukia
umeongezeka
wasiopungua
Utajiri
akaji
udi
##lish
##umin
##chapwa
halita
##DIWANI
Islami
Benj
UBUNGO
##hra
Ram
##bike
Watangazaji
Lushoto
WATEJA
Kifedha
Akitangaza
mhimili
##pot
inaamini
SAR
SARA
makofi
Venezuela
##zusha
##FUU
shtaka
Chika
Platinumz
Atangaza
kuwafikisha
WAJA
##SIKI
kuuwawa
itatu
Aweso
Maishani
Rights
Hamza
##yange
##vanny
MTE
akijaribu
kumtumia
Ibn
anafahamu
inayofanya
viazi
##gs
nitam
##doo
##ary
Ukitaka
ngano
##ataja
Vikundi
kuzuiwa
Uv
Mapigano
YAME
megawati
##FUATA
tarakilishi
Mpogolo
Mwanamume
Mki
udugu
##come
##berto
SIMULIZI
kuharibiwa
##tibiwa
##villa
nyayo
Madagascar
##tunga
wau
##yanyaswa
##MADUNI
Kuboresha
unaom
##mwakilisha
Imeandaliwa
LILI
uende
##TINDO
yaliyopatikana
Sultan
Imeelezwa
##tenganisha
kufungana
Land
##yar
Kikwajuni
amekuja
anayejiita
MUJIBU
Lilian
MTANDA
uchu
meseji
255755
Bundala
hellip
image
tujue
waliokuwepo
##UNDA
TOFAUTI
mkiwa
kushukuru
##fichwa
MAF
Murang
php
Mazao
Kiso
maskani
Ufisadi
maghala
kuwaokoa
##kazia
##3965
table
##vivu
wamekutana
unatu
##MWENGU
kulindwa
itakua
##EST
MABASI
##3363965
UMWAGILI
LHRC
sk
kifanyike
##timua
Maudhui
hawajawahi
UT
ijulikanayo
but
##angote
UMWAGILIAJI
wikiendi
lililoko
Kurasini
##ali
##rishe
Tuwe
##MES
vitalu
SUMA
ninawa
Wasafi
Benjamini
Via
##rto
##sifika
kupin
GEITA
akamatwa
kuguswa
Alidai
uzio
pu
##asisi
kukwama
anafaa
##luck
##yuka
vitani
##SOMAJI
NACTE
##zisha
Maele
amefika
MATIBA
##pers
Tecno
##sukumwa
ZAWADI
Olasiti
MISHONO
##sya
wavu
wanaostahili
isipo
Haiwezekani
LEA
Malalamiko
##turu
Ukiangalia
Angelina
iliyoandikwa
kimazingira
##wandikia
NZURI
Kuchukua
kuzimu
Tibaijuka
Kidogo
Nidhamu
Domini
Ly
jumbe
sys
##fatilia
##sul
KAWA
nilicho
##takiwi
unavyoweza
##wona
MATIBABU
imebaini
##KIZA
##layhi
ugeni
##jis
kuingiliwa
##ister
kuutumia
soda
Angeles
kongwe
iliyom
atahakikisha
alipomtembelea
nan
Dokta
##elebri
wanapewa
dhamiri
MUHA
AWALI
Ec
kuhofia
##cher
waliotajwa
utoro
Ene
MENE
liweze
atakutana
##dhania
Kakamega
kupandishwa
EFD
Mario
##stone
##MBANA
kinam
aliyoifanya
fed
##susia
wakizungumza
amempongeza
RUKWA
##kono
##fue
KUOMBA
wameonyesha
##thibitika
Trust
Aonana
##atambu
Nayo
Ngao
KIGWANGALLA
##tunukiwa
##84
kununuliwa
Kelvin
itacheza
akimpa
kiukweli
##laiki
MAZO
inayopatikana
Iramba
YALIYOJIRI
##tendeka
##kumi
juisi
kujifanya
album
1967
Ter
way
MAL
Jacque
Galaxy
kiholela
Mwendesha
ukiwemo
List
OC
##Sc
kumzuia
comment
Chagua
UKIWA
YALIVYO
nc
ufunuo
Sidhani
iliyoanza
104
NGUMI
haifa
##roma
RED
ameliambia
Sch
##TUMIA
wahadhiri
nukta
Dangote
Off
Thu
##Store
ilisha
Central
MZUNGU
ngoja
Kilosa
Aza
kukusudia
##engeneze
Ripota
kufuni
##atellite
USHINDI
mchuano
##enguliwa
##llywood
Range
##gae
alizungumzia
Aliendelea
##andike
Angellah
##4953
##ANDAA
MWANAMUZIKI
##tikisa
simanzi
Spi
MAG
Justin
Gospel
Kitwanga
1974
Zama
mizunguko
mwanaye
##fufuka
Khalifa
mdhamini
Malima
##HAPA
akai
Dec
kato
##main
##hoto
kujumu
PROGRA
Rayvanny
##lasius
hataweza
Mkandarasi
##sie
Kuelewa
Kwake
##shirikishwa
Kamishina
ameiambia
NGOMA
##274953
Kijitonyama
255713363965
255755274953
Waita
USD
featured
Mavoko
##pungia
kuche
kuridhia
##sab
alikubali
##MAMBO
day
Mwanzilishi
atai
USAID
Mahafali
Love
##somesha
hakuwahi
Cli
Tum
nakumbuka
##pera
Women
adhimu
##late
hawapati
##fahamiana
##kha
amechukua
Nation
salam
alipowa
lililobeba
UKUMBI
walikuja
nilipokuwa
##SEA
wapigakura
##jina
inakadiriwa
Hos
##thilia
tumewa
##LLI
kuipatia
Met
Kabudi
vidonge
rumande
waliokaa
Octoba
walikubaliana
Mwam
##rance
kinachoweza
kuchangisha
##FANIKIWA
Ts
##very
tutafanya
##97
kuendeshwa
WAWILI
Mkwasa
dukuduku
week
kiimani
Asanteni
view
miamala
unazidi
imeongeza
lilim
alimtaka
Mato
mkweli
##onywa
Kagoma
##MBIA
##mwomba
##ens
Isaka
haiko
MISITU
uandaaji
ushirikina
alitakiwa
amekaa
Unamfahamu
##WURA
Bis
EWURA
PF
QU
kuhujumu
Mafia
1962
Mvo
uanzi
alitaja
wanaoingia
##jumla
##unja
##rao
##rare
imepanga
stendi
kukimbi
Inaonekana
Burn
ISI
wamekwisha
wameuwawa
##ondolewe
Kutangaza
MBI
Isack
Uhifadhi
##vate
##ines
mapafu
Maige
VIJIMAMBO
##Times
##ambukiza
kufaidi
Mauritius
##teseka
YAJI
kumtumikia
##ventista
Anglikana
sitini
Mangula
trans
Nicho
super
Uajemi
Than
mf
wafariki
Kuendeleza
##kurupuka
aliyeko
Alhamis
kinachotakiwa
Stashahada
Uweze
umbi
##kisa
##mic
ukumbu
##iwakilisha
Matu
Ty
kudhamini
##RURA
Laurent
Pengo
list
kuila
kujificha
Andrea
Sand
Salome
##badilike
inayotekelezwa
linakuwa
yaliyoko
ukimuona
PIN
wajukuu
akipeana
Kuzingatia
SHAMBA
Christina
kusomewa
Op
than
make
##isikiliza
wanategemea
KUSA
##undaji
MFALME
WALA
umepata
Kinyume
##kupenda
kalamu
uvunjaji
akijadiliana
linaloendelea
haupo
KODI
adabu
TASWIRA
zikiwamo
##lilia
kibarua
new
wangeweza
alikuwepo
Toka
1985
hayuko
Slo
##kwani
##roba
matunzo
##hakikishie
##ANZIA
##lis
##tary
##guso
Kupiga
mapambo
kujaa
Irak
wanufaika
KILE
TCU
wakongwe
##redi
Kisu
Toure
Mhando
UMMY
ENG
pensheni
Chikawe
unaote
Waefeso
Kerry
punda
##bn
YASI
inahusu
Christ
mchafu
##OKO
Waha
sentensi
##saf
##chora
imepangwa
umesababisha
##minika
kupepe
##barikiwe
kuwaombea
FURAHA
UPI
kubebe
kibi
##GAWA
Lucy
##ahidiwa
Congress
Corporation
##fande
ilieleza
##endani
usim
kizuizi
unakuta
Willy
uwaziri
BIBI
Angel
COSTE
WAI
ameongozana
Mose
aingie
vyuoni
kushikamana
##amin
##DAY
##ambue
Faso
Bamaga
kuwaunga
MSIMBAZI
kuchukuwa
Alo
##muomba
##rote
tabasamu
kujiwekea
Kwe
Sky
alijikuta
inao
Badru
##guli
Boy
mawimbi
##lumiwa
##hel
##bias
##rahis
Gates
MICHA
##panua
Col
Marga
##quare
imekua
kujiletea
Mahenge
wanamu
##zungumziwa
hawapendi
utegemezi
nakusogezea
Abiria
imeanzisha
rada
ufunguo
##RK
Tah
Anti
ghala
JELA
Kapteni
Croatia
fisadi
##sign
sikio
kujiona
##biliwa
Duh
Abubakar
##INALI
##sindikizwa
##bag
miamba
Dharura
uchovu
jangwani
kukanusha
##lady
kifisadi
akajibu
Busara
misuko
uvumbuzi
Carlo
kuwavutia
akijua
ameachia
dhima
##74
##jiridhi
Verde
##pora
Manabii
Mvomero
##cil
##unaji
Bridge
Ufufuo
wanashikiliwa
Mwingine
limeacha
Yaliyoteuliwa
ECO
masan
##inal
DALILI
HATIMA
ving
zilitolewa
aliowa
inawafaa
mzaha
Venance
##shutumiwa
SALAMA
Gelasius
SHUGHULI
mjomba
unapenda
##atembelea
Flava
##gawiwa
Maumivu
kuahirishwa
zisizokuwa
Ufilipino
##rag
iliamua
kupan
waliowahi
##anyika
451
ulisha
##bela
wanaosema
##ondosha
Sote
waanzilishi
imeonyesha
Jopo
PlayStore
bro
inaongozwa
alienda
badili
##angali
Annan
Segerea
waanza
##sure
##SOME
StarTimes
millioni
holela
Ujamaa
issue
Vyanzo
ZAMANI
Fasihi
Kivuko
fun
Seattle
aliwaomba
UPINZANI
waongo
##angaze
##KATA
unahitajika
Lager
AFARIKI
##enyo
##yal
Kingunge
Machakos
kuchin
Hapi
ametawazwa
zinahitaji
Tajiri
3000
USHIRIKA
##ef
nahitaji
##siti
##tolewe
unakwenda
jeraha
mnyonge
##tafsiriwa
pungufu
Utasoma
vilivyotolewa
mgahawa
##MBULISHO
haijulikani
reja
##SHIKI
##ENDESHA
##pic
muelekeo
akaamua
walo
mwanao
Islamic
COSTECH
Vina
pua
kuwajulisha
Society
mjasiriamali
Akielezea
##IK
migomo
ameonekana
wamefikia
##CTA
dimbani
usindikaji
UCHUNGUZI
Gil
futi
ughaibuni
##lize
high
nyavu
maporomoko
101
##guay
nikaona
ustadi
##LIN
imetokana
kuibiwa
wasiwe
DMV
Uzuri
miwani
anakaribia
Papo
Tunajua
Ninacho
1978
##TTO
##guta
Waswahili
barafu
##sheheni
FACE
hardnews
serious
ZARI
##chekesha
OS
yawezekana
viboko
Sefue
##pelekwe
1963
madhabahu
Dami
zuio
##laji
##tema
##isiana
imepewa
hawaj
teh
atakavyo
kibaguzi
Diego
qu
walifariki
##bishara
Vinginevyo
##KW
##lous
##kwata
UTATA
Mstari
tumu
##pal
Kigwangala
VODACOM
chaneli
mpyaHAPA
##changie
##aal
##pandi
##pendezwa
panapo
##tekoste
##ruru
##chomwa
Abraha
##tting
Mawakili
yatangaza
Wapinzani
Dara
SOMO
##under
##WT
wanadhani
KUONDO
Kawawa
wakionyesha
unaoweza
##CHUKUA
##atiza
kuchuana
##endawili
Haruna
##kinzana
##SHERIA
adimu
##amrisha
##timize
Ombi
##ij
##enyana
KAHAMA
FAINALI
Upo
##AC
##mil
heka
Shelu
HUTEMBELEA
kumuondoa
kuachiliwa
##dventista
##tafutwa
kumfuata
Koe
best
##yatt
##MBULIAJI
Utakuwa
##ibuliwa
##chingwea
Dro
tenda
inayotumia
niliona
SER
kuyafanyia
kuchafua
##hy
nipate
Wai
ikiongozwa
kujumuika
tegemeo
tunu
kukataliwa
MTAKATIFU
Kom
azungumza
wameli
Kutana
ufanyaji
ze
##wis
##kalia
TETE
UPENDO
VITABU
##mche
##MEN
##koromo
##yong
alikokuwa
##iwezesha
kujitahidi
waliofanikiwa
Bil
kukatisha
Lowasa
##MANU
mwenzetu
kuongo
imeshuka
utapeli
book
Shabani
from
##HAN
waislam
kupingwa
Muislamu
MWENGE
##sherekea
kusainiwa
YAANZA
##vuma
Chrome
Wanasema
Mwanachama
kushuhudiwa
WAPI
imefika
Matiro
iji
utakayo
aliposema
Hou
TFS
BINAFSI
##GANA
##ency
##sitishwa
litakalofanyika
Milanzi
DIRA
Tajwe
Mwembe
YAKABIDHI
##amily
kuteka
##llan
Images
Hana
##ffa
watakavyo
kujichukulia
tumeamua
##rch
##shitaki
##LINE
kuiunga
MAKUNDI
##uta
yaendayo
Shonza
rubani
##stian
Mojawapo
Louisiana
Waitara
kupamba
Mere
watatoa
Youth
washitakiwa
##kai
makwao
WAKUTANA
ins
kitambo
##pandwa
Yusufu
vifurushi
Tajweed
kuheshimiwa
unaotokana
Cont
MABALOZI
TTB
##ace
najiuliza
zaka
Hadhi
Hague
Miraji
##ambat
Jumaa
kuishauri
Tehran
flani
ushoga
##sababu
wanachi
##round
##otelini
kushtakiwa
Uzoefu
paa
hip
Madu
bango
##kki
##ponda
##sham
Salam
imefungwa
wanaoshiriki
kutuletea
Upungufu
kuchangamkia
sing
##ibia
##tufikia
##gement
Rajai
ID
awasili
hulka
imetoka
linazidi
mkanganyiko
Dama
waliobaki
kamishna
BOTS
Marco
VU
Davis
Kununua
Didi
TM
##back
##MBAJI
kuzifanya
matayarisho
##ulizia
ujira
##zenu
tajwa
Muha
kumshambulia
tunakuwa
##wasilishaji
##ANGILIO
IPO
hun
play
Nachingwea
Kah
mapanga
##kadiria
kifikra
Malindi
##enna
Kumaliza
##malize
BOTSWANA
Meno
MAGONJWA
akiwasalimia
BARANI
JAP
Upatikanaji
##sana
anazungumza
kupang
tunaishi
Chumba
tunatarajia
Harry
##MANUEL
kujiendesha
Movement
Zako
##vies
nakuomba
cla
uangalifu
kuita
olewa
pendo
##tumaini
huishi
wanaku
##dhihiri
##stazia
yamesha
MPANGILIO
tezi
##sambar
ameya
##batilisha
hawakuweza
EZE
##ike
viweze
unafuu
kununulia
thawabu
system
ianze
tuya
inchi
##FALI
kijinga
UKAGUZI
MIUNDOMB
Tambwe
genge
akifuatiwa
sec
KUZALIWA
Subira
mbeleni
mlemavu
KUSHIRIKIANA
SARATANI
Art
Ukia
muimbaji
Wanasayansi
Theo
STASHAHADA
imen
Mafarisayo
##vern
kumwomba
MZUNGUKO
pri
tsh
sabini
akiwataka
##MEA
Mzumbe
MIUNDOMBINU
Amb
afadhali
huongeza
Fan
Mashin
kumfanyia
TAK
akaja
itatolewa
atembelea
usanifu
mikwaju
matamasha
##tland
unene
Unaona
Itakumbukwa
Albamu
Dj
LINA
kueleweka
Maskini
kipawa
EL
Mf
Uto
Ukatili
uingizaji
##jja
Thobias
UAE
Uk
kuonyeshwa
##hewa
YATA
Kito
mwonekano
Gui
MASTAA
##ziba
huitwa
WASHIRIKI
lilo
##umuisho
Title
NG
ak
##pton
##koko
Part
##beberu
Zimehifadhiwa
Smart
Ulanga
walilazimika
##kunda
##WEZE
kudownload
naunga
##angushwa
##rgan
mashiko
MCHEZAJI
UTEUZI
Majini
house
magamba
Burnley
##isaa
imeandaa
niliye
zimehitimishwa
MSHAMBULIAJI
Udhamini
##hujaji
Kula
##AMINI
##toshwa
kiislam
WAJI
ameambatana
##takabadhi
Hija
Abrahamu
kusimamiwa
zinazochukuliwa
##ICA
Iwe
mchawi
Diana
Network
##utumia
Kuhakikisha
inatolewa
Rock
mvulana
akubariki
Musyoka
HAYO
##gency
Waliochaguliwa
Natu
Port
kukosoa
yakawa
##onee
wakae
##stant
##chekeshaji
Taliban
EZEKI
KARA
KIPA
##GUU
misukosuko
Eme
Riadha
kubomoa
Tafakari
PEMBA
##kanyaga
Cather
HD
lebo
miwa
##zungumzie
##ell
Tana
atatoa
##RTH
kuitikia
Mina
halaiki
Full
SHANGA
AMA
mfuasi
uvimbe
TRL
##shwi
ncha
sama
mashirikiano
uliotokea
Marine
Mra
fundi
##waka
kuwakutanisha
103
Manunuzi
MKONO
Tetemeko
himaya
FEBRUARI
nichukue
Nyeri
##habarisha
HATARI
mmea
wanashiriki
MAKUU
##ult
Vivutio
Yeremia
VIFO
zitachukuliwa
Wasiwasi
##oooo
General
MATATIZO
Namshukuru
hitimisho
poli
Utangulizi
##gemeana
Academy
Nta
ar
zinazohitajika
##jengeka
8211
tuliyonayo
alichongea
bluu
imekubali
shuhu
Stam
##SHENI
walivyokuwa
Mgomo
##26
wapendanao
ulim
utagundua
Pop
Coun
ninaweza
litafanyika
kuvamiwa
karanga
##changanuo
Pasifiki
inayoshiriki
Pay
Festi
kichocheo
kulenga
laha
##gondogo
almasi
kiingilio
kimbunga
##domoni
Sauli
kuifanyia
pasaka
##potee
wakufunzi
Natoa
##RIO
wamekaa
zinazozalishwa
lililotolewa
tekn
Innocent
Alizaliwa
##KWATA
shoka
Walter
QT
karibia
Seba
Hisia
##gri
105
1989
##BEBA
Khatib
itaji
hasha
##hueni
full
kukubaliwa
Camb
waba
Rudishwa
anayejua
anayedaiwa
Uhasibu
Gongo
##ruba
##chal
imejaa
zichukuliwe
Niyon
##kweni
1982
Act
Hyatt
abo
zilizofanywa
450
URUSI
wayahudi
waliendelea
anaongea
Sammata
Walipo
va
walishinda
kutulia
asije
SHAHADA
RPC
kuandaliwa
kugeuza
inayoonyesha
Daftari
Jacqueline
##zio
wamejipanga
vitano
Digital
mwambao
pin
##rian
##KODI
##castle
360
VYEO
Nyuki
Pote
Rho
##waza
wanasoma
Lubu
Bendi
tengeneza
Mabao
##subis
kusalia
mamili
RANGI
##ruzi
TAJI
240
FACEBOOK
##hma
kuwasikiliza
Wajerumani
##laikum
mitaala
mioyoni
Kutokan
amemaliza
##funge
##KUFU
MAAFISA
Ea
kuin
Os
Wazungu
wanaon
kuuwa
WAKULIMA
SSRA
Jukumu
Waangalizi
Wafili
walitoka
uponyaji
wakiwasili
##FUNZE
umwagaji
##uge
##vance
unakuja
yupi
yakionyesha
kurudishwa
anamiliki
waliotembelea
##toshi
##sed
will
##uarez
Abel
zinazoikabili
kutubu
Masenza
hazikuwa
##zuizini
##zano
Luga
tumeanza
##TATUA
##KATILI
Samson
amefafanua
vyako
Bagh
##zwagi
KIELE
atatu
Akamatwa
FFU
mfungo
ur
KUE
mwanza
tulipokuwa
kugongana
Catherine
zinadai
protini
kuhifadhiwa
##egesho
##leans
wanako
##beti
Ukionacho
FOMU
##lton
##kumbatia
kuwaaga
anaki
kuiondoa
Tim
##chapakazi
YAKUINUA
kiteknolojia
MAWEUSI
##29
##angamizi
utafanya
Ndikilo
uimarishaji
produ
ATUPIA
tisini
##MBONI
Stein
Santos
kimila
##vation
##bilia
Make
amekanusha
muwa
Yao
nilizo
Hekalu
Barca
linaloshughulikia
Geofrey
Eliya
Nj
KUANZIA
##angamano
##sherati
Amesisitiza
mabonde
zikiendelea
fre
inaleta
##ined
men
UTAMADUNI
kidete
##sheherekea
wakii
Uhandisi
##DHILI
##raa
Kibo
Kubadilisha
unafikiri
matundu
Kamwe
Bugando
##rez
Mikoani
KAVU
vilivyokuwa
BIN
Mtiki
majiji
mbavu
AKAGUA
##wajibisha
EZEKIEL
KAMBANI
kutimua
kuambukiza
##ER
nako
##KUAJI
index
##REJEA
PROGRAMU
MAHITAJI
ukifika
Kane
kuenzi
unani
##dhulumu
GB
mfanya
##jaliwa
mionzi
walihudhuria
##ambulia
##wangalia
uimbaji
iliyopigwa
ukienda
mnazi
Chemba
UPAKUAJI
mpo
Ras
zinatolewa
ILIPO
Imamu
Bakhresa
ukam
189
amewaagiza
Station
##zidisha
##vier
pabaya
amewasihi
walipom
Era
##hur
MACHAGU
##tuni
##bre
KUUA
kujitangaza
Jioni
##subisya
MACHAGUO
Ford
Athuman
##emo
vizuizi
iliyopewa
##kungu
kilichoko
Maelekezo
alitoka
WATAA
##isafi
Cambridge
SG
kuwatangazia
inasikitisha
jikoni
hawaoni
LAZIMA
Usisahau
MENGI
Wasomaji
Kijijini
wameeleza
Kosa
115
Wakatoliki
single
Wavulana
akihojiwa
iliyojengwa
uliokithiri
Akisoma
##luhisha
mzungu
WASOMAJI
anako
wamekusanyika
wanaosadikiwa
Newcastle
##dorora
katuni
Suarez
##hadhara
##hemia
##ukuma
kujisomea
Petroli
Eb
kunyakua
watakuja
kinasema
##kunjo
babake
goti
KOREA
kuchapa
kuokoka
Nondo
arusha
##nd
wakamatwa
kufiki
##reja
kupumua
unaotakiwa
Syl
##hututi
kupora
zitatolewa
Nasibu
kuichapa
##pur
Hots
Mabibo
sex
##tumii
Beyonce
##tage
##ketwa
tunakwenda
watengenezaji
Wanaharakati
KARIBUNI
TLP
##VEN
WAZINDULIWA
limefanya
inapotokea
Orleans
Lubuva
atakayo
yanayotarajiwa
Riya
##achiliwa
kuchakata
Majira
Makamanda
madhambi
##fisini
##Com
##amue
muhogo
##bet
doa
MAHAFALI
ufufu
Benedict
##tumbukia
Monica
Uhalifu
##Bo
Mashe
##art
kutatuliwa
kikoloni
AKIFANYA
KAIMU
Niyonzima
Emanuel
##tishe
##hampton
yameelezwa
Amekuwa
Shahidi
itakuwaje
asiwe
litaendelea
Kushinda
mwendesha
##kwaza
ikifuatiwa
kutimia
MT
aliya
akipatiwa
imezidi
Pol
Gaudence
ameipongeza
Udaku
##waidha
Lipuli
ZU
##lation
Mobile
##kariri
Buzwagi
##fox
files
rohoni
mwepesi
ajue
##tumiki
makonda
##ondia
Vizuri
##tereka
MADIWANI
ulicho
Mifano
wasiojiweza
mumeo
EMMANUEL
Garden
Georgia
ipate
kiiti
yanawa
unywaji
gawio
##laiti
iweje
Waadventista
Elisante
Kwimba
Wasomi
##ategemewa
usaliti
##tokanazo
upembuzi
##yimo
Bulyan
Bodaboda
EX
SHO
Urafiki
kristo
##DL
wameu
BENJA
Ambaye
##SANYA
takataka
##rahisishia
Mkulima
##NLOAD
kuelezwa
kumshauri
kutamani
BAKWATA
Walisema
Kisukari
ap
wanafikiri
Lee
waajiriwa
fisi
kuzidisha
Machar
##HITIMU
##jitoa
itakayokuwa
##pale
ndovu
TUHU
##shambulizi
##UFI
kudanganya
##dhma
Takribani
Usu
##konge
Inasikitisha
MAHUSIANO
##ak
##karisti
ZITTO
Ubaguzi
GANI
##toro
kig
kutoridhishwa
##pavu
TPSF
Mathew
maradufu
limetolewa
kinyu
##telekeza
MATAJIRI
##husuyo
zitokanazo
kumtia
Ulisubisya
ITI
Ibilisi
jino
##shion
NAO
Bakwata
watakiwa
kukufanya
yametolewa
AUN
##rong
kuumwa
##atini
##zim
wanakosa
Alim
tunafahamu
##sisite
linadaiwa
##xim
afungua
##tania
kumchukua
Chombo
BINGWA
ee
##dier
waliokosa
##eron
kunyongwa
ten
uje
uzao
##RN
inaendeshwa
wamekuja
tunalo
Huawei
Gaal
##IL
##iga
kufichua
uliwa
watakutana
waliojitolea
##yamwezi
MIKATABA
DES
##OL
amesimama
##anguzi
##LAM
mapatano
Holl
Lub
Abraham
vilivyoandikwa
##ZINGA
Minja
MUHAS
tushirikiane
Joe
170
mkato
NYOTA
katoriki
Didier
Yam
##stanbul
IPP
##kopesha
##jiamini
wanaokwenda
fitina
kondomu
Ivoire
TUHUMA
kutengenezwa
karafuu
ilipokuwa
##RUGU
BIRTH
KANUMBA
satellite
MAAMUZI
matope
##potosha
aliwasili
##zesha
mwishowe
##tishaji
##ways
imeanzishwa
Bocco
mabwana
Deni
##WAHI
##fora
Franco
##TD
ameshika
kuainisha
##shewa
mtakuwa
MAKAO
##ndi
Ball
vifaranga
NBA
Nditi
casino
kuzuru
Mtaji
Open
Kuzaliwa
porini
Fabi
Nehemia
tukubali
kuamsha
mkwa
##ism
tutakapo
##HUHU
zinazojitokeza
Promotion
profesa
kutozwa
##board
Mikumi
aliyefanya
Andy
admin
Kuyaruhusu
Samora
Bale
##mann
Zitanunuliwa
Yanunue
cli
##kwan
wanaoendelea
##NEC
Augustino
MAZOEZI
ufufuo
kudhihirisha
wataku
inayolenga
UHUSIANO
mwenzio
iliweza
anachukua
matumbo
kujishughulisha
Makongoro
quo
wadaiwa
kuwaka
##ensia
Wafalme
days
Passport
##UFA
##lieni
##babishia
linapaswa
Mkemia
##punguzwa
KIWANDA
Mall
##sers
Nassa
Shige
wakatoliki
Mkalama
MAKATIBU
Lwan
alia
wanafiki
ameonya
linatokana
Bit
Ombeni
anatafuta
Sh1
Hemed
kuombea
kuchora
WAKUBWA
Publishe
Lyimo
##ibiwa
kusogeza
ndogondogo
Ngazi
RUVU
Wes
##CP
akienda
akishirikiana
##isilamu
##tengewa
##yoya
Fergu
Jomo
jumatano
##taba
Health
Water
Danieli
Mashamba
RAISI
Tasnia
Malezi
wanapiga
Kwaya
TAWI
mkoloni
oparesheni
ilisababisha
muujiza
Masaki
##komaa
BIRTHDAY
##STER
##deration
TUNDU
aliki
##ojaa
akiendesha
kujizuia
wananfunzi
mjinga
##bagbo
##chonacho
Migori
kutatanisha
inayohusika
alinukuliwa
tende
kukwamisha
Vivyo
zinafanyika
kuuona
kuagwa
marejeo
PHP
Energy
mkao
Tech
Tumekuwa
zitakazofanyika
asiyejua
##yataka
nii
aliishi
uliopigwa
##orya
shada
ushirikishwaji
Muumini
waliotoa
ukarib
Cote
Swi
vitakuwa
MAADILI
vyandarua
amemshukuru
Deogr
##tinga
kumali
haijalishi
kuapa
yanatokea
##forafricans
Ade
Gbagbo
##os
##bubu
tutam
##sota
waliofaulu
TAR
108
MTAANI
Ac
kuathirika
kuandikisha
Kushindwa
##vuru
wamefaulu
kupakia
##wanyika
##linde
kuiomba
nimem
Antony
wahakikishe
sep
Mashambulizi
ILIVYO
##limba
Wajua
Der
##fahamike
mapokeo
mkanda
##Ba
##enyi
##yoko
kigogo
##semea
MAKINI
TAG
pakubwa
1976
##FC
##teketea
alisimama
Tunapaswa
vibanda
aliuliza
YASAINI
Kwasababu
nasikia
Zuberi
Vipimo
Kondo
PRE
wanawe
Kutafuta
##albino
Sofia
Rombo
System
akikabidhiwa
inayofanyika
kutarajia
wafanyikazi
Kuondoa
Jiwe
walaji
keshokutwa
Amali
Atom
mhandisi
vishawishi
##sau
amewasilisha
Yeyote
##staaja
miss
##tanguliza
MOROCCO
itu
yaanza
madola
##bir
wametu
##ruali
##ents
hospital
wameona
tunakutana
Mkali
kuvuja
Ndumba
waigizaji
Kuandika
##amiati
##sanyiko
PS3
Hisabati
Cameron
##visha
kuhesabiwa
##chimbwa
imekamilika
Nikki
MCHANA
Bulyanhulu
CLOU
kizuizini
Kikubwa
##lliam
Banglade
mizani
kusomwa
muheshimiwa
amewapongeza
Nawashukuru
##kosesha
Scotland
unatarajia
##injilisti
KUANZISHWA
M23
##iweka
##umlisha
##heha
amesaini
anaingia
Pasc
Suzan
Casino
bata
##zine
Kipo
ameku
yanayom
Apo
Bai
Ester
mshi
##jelea
##KALA
Living
matabaka
UHAKIKI
##hisia
##vil
mapepo
uchumba
Evarist
Ferguson
Oti
gamba
kutumwa
##die
##mbwi
zilizomo
SIDO
UTAWALA
uvunaji
mdada
dr
##34
kiuno
kumshikilia
watapewa
limefanyika
Awards
wachunguzi
##dokezo
Torati
SDGs
Kiele
##YOTE
VIPI
JIPYA
kuoga
##UNGUZA
Ngassa
USIMAMIZI
##funikwa
ICT
ugunduzi
AY
Erick
mhe
kilisema
Shirikishi
haifai
GHARA
mkia
##LIM
##soko
Brother
##dget
Firefox
AUNTY
##SINI
##anange
mabara
anajulikana
account
ver
mkesha
##ahirishwa
kuonya
mahututi
##yes
mikuu
##ELEKA
iPad
finyu
kuboreshwa
##ful
##uliwe
Tunaku
good
##terest
##atengeneza
##gelo
1975
GHARAMA
imo
##laza
##kes
Pauni
mashua
ANAYE
Wanaoweza
Mia
gir
##sig
wanajaribu
uliomalizika
##POKE
FAIDA
ANGE
Bosslady
Hall
BUR
##encia
wanaenda
Challenge
majumuisho
digital
##WIMU
Madeni
Kondoo
kimem
USAFIRI
Ou
inatosha
##BIRI
funguo
CHANZO
HURUMA
ALA
##base
MAHAKA
unapatikana
ujamaa
wajitokeze
Seneti
AAGIZA
##ctive
Nandy
kuongelea
Kusaidia
WASIO
asim
kutokwa
kulisha
Dhambi
CLOUDS
Kiebrania
kunyimwa
##pigwe
1988
##stola
##OOH
BAN
Uzalendo
kutoza
Mwanaharakati
Press
Barnaba
##rif
kutofautisha
Beth
065
kushughulikiwa
##ins
##raika
inajumuisha
HIKI
##SILISHA
polepole
##kr
unaenda
inatoka
Bour
Teule
kusumbuliwa
Wasio
screen
KASKA
Link
Istanbul
mv
##ULE
kupandi
Baby
kudhu
kushamiri
WAFARIKI
walimwengu
amekabidhi
Laonekana
kuutangazia
mapishi
Palace
haimaanishi
Manso
Ushiriki
##kindo
kufundishwa
##atiro
##futi
##zese
##GUE
##inue
Waasi
wajane
ninam
##PATIKANAJI
REDDS
##pumzika
wati
aliyeuawa
Vicent
bondia
##qi
alikutwa
Mill
Barrick
Key
Association
akishangilia
inayoendeshwa
Matakatifu
RUSHWA
UCHI
UPATIKANAJI
ugali
##hwa
mwam
Wizarani
RUNG
kawa
mwitikio
View
akatoa
Kolimba
diary
Halotel
amejiunga
Ileje
Fundi
Front
tan
unalo
TAFUTA
##puo
magerezani
##underland
akipewa
##chefu
unaitwa
##puliwa
JIFUNZE
linalogusa
aliyoya
uporaji
1986
PB
##amburo
Rome
kiitikadi
Ndes
serekali
##ondeni
mweupe
There
##epushe
Pikipiki
DCI
hasimu
amevaa
Bal
wakila
125
Lug
##wadiwa
akitia
wakitokea
yanayowakabili
##Script
OMR
##ijua
##laykum
usanii
uzinzi
imethibitisha
wametoka
kumlinda
ulioi
year
MAALUMU
hotelini
nali
##kopa
kaburini
kumtembelea
hawajali
##DIES
nilikutana
mipakani
##hura
huchangia
baby
##zungumzaji
BASHI
sharia
Amen
KUPIGA
CWT
##tag
Madi
kuwatembelea
wanachuo
KIVU
Mtawala
Arena
mmo
##dust
inachangia
##RAJI
INOOH
Asilia
VYETI
pampu
Mswada
##vuliwa
wakionesha
KIZAZI
yalitokea
Ud
##aminisha
##dith
##lote
anasoma
Anfield
zitumike
Regency
ADA
Dream
##ito
##eny
##chen
##roup
mabati
Sunderland
muuzaji
Vigezo
iliyopangwa
##UNUA
102
Pascal
KASKAZINI
Muna
UC
##VUNIA
##BATI
##thy
kwisha
akiondoka
##patazo
home
##chokisema
##ganjani
Goodluck
wape
##rir
##gombe
kamari
KUDHIBITI
##HIHI
Wanam
TOP
##welwe
arudi
##dhoofisha
##cu
Mahojiano
##bua
SACCO
KUPAMBANA
##UL
##chan
kuwaachia
swt
KAWAIDA
##elebrity
LADIES
SAW
##isubiri
##SHIKILIWA
kla
##zayuni
ILO
Tenge
kuwajua
##rupu
Deus
DOWNLOAD
MAHAKAMANI
stakabadhi
Kibe
##endane
Kay
kuiwakilisha
off
SALAMU
Hamisa
##CHWA
UMA
cal
mni
##suru
inaenda
wanani
KUANGALIA
wametangaza
Yapo
##dhalilishwa
very
##rima
##halifa
##shani
musta
Cos
kumuacha
Jinping
##diriki
##ruti
zilizotumika
Wete
code
##zawadia
fadhili
wingu
washindani
alipiga
##GUKA
mashambani
##kamilishwa
France
Engine
kutambulika
Lan
##rig
Kamwelwe
hawatakuwa
Mtindo
ufinyu
Ndesamburo
mahari
##dic
anaenda
mahaba
mkufunzi
Ona
kujamii
JavaScript
Men
Upimaji
mibovu
linafanya
Ini
Erasto
SONGEA
Profes
aliwaeleza
##scus
Massawe
Mang
##bongo
kuwaongezea
Shida
Msiba
LTD
isema
nyanda
TAJA
VITI
fikira
kulaumiwa
Amini
Ren
aliwasilisha
kufuga
LIST
##kuti
##ojali
just
wametumia
yalisemwa
Unacho
share
Kato
Mdau
ichukue
##LWA
wasema
wachawi
Laki
Mede
Itifaki
Avi
##wanufaisha
##bes
walioamua
wakiweka
##kwambie
##bility
MIL
##cou
Sebastian
ok
##teketeza
YAI
imeisha
0767
tujifunze
Kheri
##au
##64
kuhamishwa
kuwasaka
tumefanya
##sheleza
Temu
KISHE
Unawezaje
Kiufundi
DHAMBI
uchapishaji
walikufa
##tumba
umewahi
koro
##umbwi
Kemia
YAWATAKA
##zunisha
Drogba
MCHA
wacheza
mlivyo
Kih
ameondoka
##jet
kuimarishwa
wanaotuhumiwa
spam
KITENGO
WAUGUZI
##zitumia
kilipo
BARUA
kuletwa
kimtandao
Watakatifu
Premium
MASHINE
yaliwa
kulin
Colle
NGUO
mafaili
visingizio
NJO
Smi
Vyeti
##hayo
Racing
##rando
yametokea
kusikika
##POTEZA
TAKWIMU
MHA
##GWE
kumtaja
##FISADI
Out
walitakiwa
udahili
kuongezewa
##mudu
##pokeaji
YEYE
machimbo
UVUVI
##daaji
Waendesha
##vez
wakaguzi
rudi
Petersburg
kumaanisha
hutoka
walioingia
##REEMA
SIMI
yasio
wakwanza
##yonyaji
Twaweza
UPIMAJI
Duru
##lda
##rer
kaulimbiu
##2018
Cry
Lamu
##ajiri
##fini
kuvua
Kuona
MAGEREZA
wakijua
Niwa
watambue
hope
##patiwe
##sogea
kupunguzwa
kombora
Swazi
##sudi
hoi
vilivyomo
COA
BURUNDI
boy
akauliza
##REVA
kuambukizwa
Gama
kuia
##karabati
kumhukumu
hawafanyi
2556
Mercy
Manaibu
##atumai
##REEMASON
Tezi
hapakuwa
box
OFF
##RINI
MAJUKUMU
yanga
##RWA
watulivu
Chaguzi
inayosema
pazuri
ngao
kukodisha
ingeweza
HELS
Kimaro
kinyuklia
hatakuwa
angependa
kihalali
DNA
Uwepo
kujifunzia
alipoingia
Lam
##yya
##rina
kuwapokea
imeahidi
##merce
Rit
Yenye
mipangilio
##pital
##gawanya
ILIYOTOKEA
##VUTIO
kujiimarisha
birthday
Furahi
kubebea
Ndumbaro
##jitolea
KUPOKEA
imebainika
Kitivo
wanafahamu
ameishukuru
##LIKANA
radi
MASWALI
Alhaji
##thibitishia
MICHAEL
##sein
MKAZI
##sahaulika
usuluhishi
##uwezo
##tengenezea
kukut
##sel
##shang
amepiga
kuipongeza
inatekeleza
unata
Nokia
MKOPO
WATEMBELEAJI
sallam
##umber
matakatifu
INTER
yumo
kupaka
Mwamun
yamebainishwa
hatukuwa
JEMBE
uchelewe
##ference
RUNGWE
Cru
##lfa
kuchunguzwa
##tazamo
##ilin
Sakramenti
wakipita
KISIASA
level
Kabul
Dorcas
plug
Kij
aliwashukuru
CHF
Bungo
hufanywa
##unguka
1950
kutele
##zeeka
Anaripoti
zitaendelea
kuwanufaisha
Monaco
KUDUMU
Res
golikipa
##ungwaji
nawaomba
Ukodishaji
##SHUKURU
Damascus
HELSB
Akutana
##sper
alijaribu
zinaonekana
Tausi
Tulikuwa
akubali
##amlo
tundu
Ahlu
UPO
Uamsho
madu
Sitaki
yanasema
wanaodai
HOJA
##inafsisha
ir
##kijiji
wakiamini
Pembeni
##peration
Ubingwa
TAJATI
SIMIYU
TSH
iti
uhandisi
Nimeona
yanatu
Utukufu
ilipofika
imeni
Aba
waliou
nimewa
tegemezi
KUWAHI
Democrat
##rouk
##solata
##shtua
Taka
##ICHO
kitendawili
kutupatia
havija
Southampton
KISHERIA
kuwaruhusu
chambuzi
viwe
Dae
chemche
Majaribio
Bangladesh
vito
Martine
##gate
vipeperushi
##sege
ALIVYO
Mengine
ahueni
Mikakati
mamilion
Klo
##tayarishwa
##onas
1972
urasimu
don
##saga
##post
##pitiwa
Nancy
Uwazi
##87
##jazwa
inajiandaa
KUTATUA
##tial
UFUGAJI
Pugu
##rane
akitembelea
likawa
kumhusu
Ngozi
##rk
waishi
michakato
kinamama
##SHIKA
Nyoso
Swalla
KTN
##haya
maegesho
alizeti
##piamlo
Eu
kutamba
Sudani
mikate
Tumbo
akafanya
##walipa
Utafutaji
kiutu
AFISA
asipo
Kitongoji
kuwanyima
KUNDI
KUFUNGIWA
huhitaji
amelala
kuk
##wers
kihalifu
kuwafanyia
iliku
kumwezesha
waliozaliwa
wakijaribu
Chiku
Thabit
amezitaka
cu
kumjulia
Mwele
Nji
##atiti
husababishwa
WAUAWA
##star
##chukulie
kuzifanyia
kinachofanyika
tutapata
usisahau
alipelekwa
Sahihi
Yes
awape
AWATAKA
Magdal
Badiliko
CDU
##ingana
kupaa
Nyongeza
##zitaja
kutok
kuniambia
Mohammad
Michelle
sli
##ou
##kizia
##mulia
BODA
Shayo
hawajapata
##rekodiwa
##kimbizwa
Uga
##rtal
##gree
##amriwa
Kashi
zipatazo
##fufuliwa
##nesty
##wema
mwongo
##umuishi
atuka
udaktari
Rangers
swa
Saruji
##stru
aliyefika
busy
Tunai
wasinge
Herman
Damian
PDF
kuis
amefungua
linajivunia
utha
awaye
tutakua
Philli
Upa
Kufuatana
##LES
Mabeyo
mutu
ukataji
##umbuli
220
Chirwa
##PESA
lenu
MITINDO
BOMBA
wajanja
anatuhumiwa
Kivuli
KUSHUKA
ASEMA
alionao
ilitokana
Kuepuka
inaingia
wamefika
iliyofuata
aliyesema
mnono
##EE
akija
walipiga
##zeli
KIKAZI
wanaoamini
hakum
tumeweza
##rudiwa
Sergio
ubovu
kubanwa
kumwo
##konko
inakuwaje
waratibu
Wafu
##jisifu
Koeman
Puma
watakayo
yahusuyo
mafi
Boti
##tambulishwa
Mgaya
Mwamunyange
TCC
##ite
Kimi
anashikiliwa
linaonekana
magendo
kuhi
Wasimamizi
##juavyo
Unapokuwa
Consolata
SENSA
Baghdad
UBORA
##PG
##kanga
kizalendo
tutumie
Mwanangu
shina
Swaziland
Duni
Ikawa
hutokana
aliyetaka
SAHIHI
Watuhumiwa
ECOWAS
MTO
Uislam
akini
##Bonyeza
masika
##ANDE
Nasha
Nile
##tiaji
makalio
##athibitishwa
Ish
Zul
kufaa
Mapya
kafara
wanaongoza
Kuzi
zinazofanya
##saidiana
Hon
TPL
##xel
maf
Likizo
FULL
##eeee
Swan
Umar
WATATU
Alicheza
shangazi
matapeli
##eleweshwa
Florida
KINGUNGE
HATIMAYE
wakikabiliwa
zilizojitokeza
##UNGUA
Azungumza
Dji
geni
##bya
wamen
kutom
Hit
aliyejulikana
MUONEKANO
##zidiwa
Amnesty
##fundishe
Uruguay
##KONI
##hir
##gombana
##tekele
wanazuoni
WATENDAJI
##rojo
MACHO
Babeli
akapata
USAILI
##pingika
Gumzo
city
kom
uchezaji
kuisoma
##zili
walioweza
aondoke
##rid
##dir
Haja
##TWAA
uanzishaji
Pra
##uble
ukiona
Conne
HEDHI
Uso
##iry
wasambazaji
##ror
unaamini
kumshawishi
##UNDWA
misikiti
INDIA
Uhamisho
aliibuka
imepungua
Tahadhari
Mwamb
zimeendelea
##hala
Castro
##chezewa
Posts
LILILO
##lang
aliyeni
kutayarisha
hatutaki
UFUNGUZI
Mtikila
wahuni
tumeshuhudia
Nzo
##ril
iliyotumika
UNF
alimpa
lililofanywa
akupe
Kundu
ovu
##hen
##ainisha
walikua
Mitano
chenga
iliyobaki
Ingia
Faraja
##DHARA
WALIOTE
zitaanza
##damina
LISSU
GU
Rorya
kuangaliwa
kuwaleta
inakua
##pindua
##SABU
##tical
Florence
Festival
Marufuku
##TAJWA
lilifungwa
SAFI
Watatu
kumwamini
Jubilei
LUKU
##dro
##RPO
matrekta
Mtatiro
Analy
Willibrod
MNEC
brow
##laumiwa
Milima
mamba
##rki
kubo
##rudie
Lwandamina
wani
Kahawa
mbunifu
Zao
akaniambia
##ishanga
Mlipuko
quot
Waombaji
##andizi
kandarasi
NJEMA
mrejesho
##pewi
torati
Week
mfugaji
MTILAH
LOVE
Vyote
##tengua
##zai
hazito
zitakapo
watai
##julikane
ALIYO
imekumbwa
##WANDA
bak
##choshwa
limesha
##ribiwa
mawaidha
##nal
kutasaidia
MAJENGO
Mvungi
Fumbo
uham
##AT
kichekesho
KUZUIA
Shaban
google
Gerson
KABWE
##elekeze
kuwatawanya
scho
kihisia
Makete
wamesimama
kuoana
smartphone
##RTI
Wapi
inazungumzia
##RIBI
aliwapongeza
MPIRA
##faruku
aliyefahamika
Tunapenda
mameneja
##chochewa
MTANDAONI
##zatiti
wakipinga
itaongeza
mode
##kubaliani
Inaelezwa
##hando
sub
Duka
##enezwa
wanavyofanya
kusudio
ningekuwa
KUIMA
AICC
uigizaji
##vitaka
##yusa
Mm
##imarika
Hiz
MIMBA
kufyatua
##elezewa
kuwalea
siamini
zinazotoa
##lance
usiokuwa
kujamiiana
aanze
Muli
uteng
Manzese
kusita
Telack
UNAHITAJI
##tumbukiza
Albino
Resort
##dius
akionekana
walini
##TEL
##swi
##hing
##kaliwa
##ual
Kimbari
Kajala
here
majungu
FT
MZAZI
##ampo
Kuweza
anajaribu
##milifu
UMRI
##sinde
mpenda
kuwajali
kuwatetea
KUTEMBELEA
Tukutumie
kubakwa
##angamizwa
##kavu
inazo
##mboa
inavyotakiwa
##fakara
status
Public
Ave
nanga
##broad
kifani
Mkusanyiko
gridi
wanalipwa
bada
Nillan
demo
##ttle
##letewa
Nditiye
SW
Zid
##andoa
laptop
Waandamanaji
kumfukuza
RAMAD
palepale
jasiri
kuhangaika
##ingii
Naweza
zilizotajwa
SHANGAZI
DESEMBA
##fy
uainishaji
Nyange
uvutaji
##GB
##hodhi
MIGO
Shar
Hamdu
vimehifadhiwa
##istry
##bakwa
Mwenda
Nassari
Cata
Tel
know
##ishano
Tuhuma
tunatumia
wangependa
##peperusha
Tekno
MJOMBA
fedheha
##rei
aliyei
aliyevaa
anayehusika
atakae
ingawaje
Silaha
tulionao
Mbingu
uongofu
Museru
Lw
ametoka
over
Kigeni
KUBA
mwanajeshi
unachoki
Mwando
Newala
##FUNZA
1971
Linaweza
ML
Masika
Wapili
wameshinda
Kofi
kuwahimiza
anawasili
KIJANA
dawati
SANAA
Ill
Mma
ukahaba
##ONGORO
Arn
haba
imekamilisha
HABARI24
##muua
sahani
##FAHAMU
party
uimara
IPA
##boli
##enereta
fulana
kisera
akimshukuru
tunategemea
kushangaa
0717
Mlipa
##elim
##THE
##inah
imepigwa
wanaopinga
Alpha
mnapo
Av
Aishi
DUME
Uaminifu
##word
##rr
kuwakumbuka
Haiti
kupendana
paul
Buhari
mtunzi
Usiwe
nawashukuru
wanacheza
kulifanyia
##ssic
kuchelewesha
##OMBAJI
Pendo
dhehebu
mdomoni
KIKU
haipaswi
Exim
##MATWA
wameonekana
palipo
Utatu
aliitaka
Maxi
ilin
Kipya
Anastazia
##andamwa
kipofu
shari
SACCOS
makamishna
##mid
anaomba
kuvin
Mafundi
##enyeza
Selous
##moza
inte
inatokea
##zingirwa
mirathi
Eph
##TINI
wanaita
Poly
##mwagiza
JAMBO
ZIPO
KUSISI
mwanamme
Kenneth
##RIDH
kunyoa
Wauguzi
Kifua
##vuja
mwandaaji
Farao
##kasirika
##hitajia
##rishwa
Lusinde
lililofungwa
aliyofanya
##ELEZA
##mbilio
Jim
hours
Shinikizo
##ering
kuzuiliwa
uvivu
kuvutiwa
HIZO
divai
BIDHAA
##atius
##changa
tafauti
kumshinda
TAMU
kuondosha
linaloweza
tunaa
TPB
afisi
##fra
##zanzibar
Migogoro
##tegemewa
Haroub
Omo
ONE
UTENDAJI
##pro
kuwachagua
KUHA
Kaguta
Page
limeendelea
##lyn
CS
wauaji
##kuba
##atimia
alisoma
alirudi
mihogo
inahusisha
Sikonge
##kurdi
Wafugaji
anatajwa
##endewa
hakiki
akaona
##HUA
makambi
##juza
ninaomba
Misingi
##bakiza
##sirishwa
KOSA
tungekuwa
UONDO
##zzo
##babishwa
hayato
alianzisha
kilichom
##FANO
TUCTA
mashimo
Akina
utapiamlo
kugongwa
achana
##xit
WAMA
life
hema
walivyofanya
kuhudumu
KUFU
KUBEBA
wanaogopa
##vester
liliwa
Institu
Dee
146
kinachoonekana
##inyima
TOA
anatamani
AGIZO
alipaswa
iliyopelekea
kulelea
##IDIZI
minara
##RONIKI
Cel
del
akiimba
wanaotarajiwa
Utamu
AMBAYE
##rodhesha
Clement
Ijue
##kozy
kuwakomboa
##haribia
##angirai
linatu
Salman
##venture
KUITAZAMA
kimuziki
FBI
##wuliza
Madereva
Miili
Asse
linatoa
TBC1
MZU
##atumikia
Upi
Yor
diari
##teza
kumlipa
##TEKO
Abdel
videos
##gamboga
kulalamikia
Mauki
kuidhinishwa
Misha
ukwe
Waja
kumtambua
wakipanda
Matamko
1965
MANYA
##UZITO
##JERUMANI
tamthilia
##thu
lau
##wanyima
##ituni
##HUDI
##biliano
Togo
Comments
##ZINGATIA
Ifakara
Isdor
##jumuishwa
dhulma
UJAUZITO
PBZ
mikiki
Royal
Marie
##lonia
whi
##SAN
maangamizi
##inusuru
alimpongeza
Isitoshe
Mlandizi
Imara
napata
mahakimu
##ilika
##reat
##amuomba
##urity
##ISTA
##RALI
##vinyo
##otball
LEAGUE
NB
Vu
kujeruhi
MAR
ulitolewa
kupingana
kuteketeza
##urudumu
Dennis
dukani
kupeperusha
Ekaristi
PU
SUA
kuipeleka
##jaalia
##rekebishwa
bun
##chinga
EATV
kidedea
kuzorota
Zidane
Ura
yaendelea
kushughulika
wanakufa
litakapo
wiza
LAKE
Tukiwa
Mitambo
Langu
hafai
ilionyesha
Doris
Daud
##joa
Tony
##fasiri
Team
##ENDEKE
Alia
SWAHILI
naam
##susa
ulifanywa
manjano
kujinufaisha
ngamia
marupu
yajayo
luninga
kuwataja
Waamuzi
Bungoma
JKU
ukisha
Kutakuwa
bastola
##umie
##katazwa
Sur
vitamini
Kaliua
waliojeruhiwa
Mwaliko
075
##ONAL
about
Blat
Lwakatare
Mjengwa
##lsafa
yafanyike
##bagua
##jificha
alirejea
mihimili
wanalo
computer
Walawi
Gar
mswa
have
Maya
##part
Bahi
isivyo
kuota
Williams
Kibondo
mwenzie
Tandale
funzo
saikolojia
Kipi
##FOTO
apata
nukuu
##reti
##ishara
Husein
Yoshua
Marwa
##yarwanda
MANYARA
anapewa
zilizobaki
Serbia
0712
kuumiza
migo
inasimamia
nilitaka
Uboreshaji
aliishukuru
viza
jiografia
shati
tujiulize
aliniambia
##orodhesha
kujina
yamesababisha
UNAPO
Janet
kidijitali
##ingiliana
aliyejitambulisha
Rwega
##medi
##chari
Tabianchi
tigo
##cep
makato
wasaa
Sarkozy
vocha
UONDOSHAJI
Jonas
Uchi
##egemea
kufiwa
kuridhishwa
##poromoka
wakaenda
##hihisha
Zubeiry
Uhakika
waliotambulika
wakisikia
116
mwekundu
Tsv
CV
hais
Mail
hua
Bulaya
diplomasia
mawingu
mwamvuli
Beni
##uze
##jitegemea
Raundi
Kapu
kumtangaza
matha
angu
##yonyesha
kusambar
aongoza
##unjo
kiganjani
##amagamba
##takaa
NAE
alimshukuru
##BIWA
##ZWE
##RITHI
Zacha
Version
Services
Yatoa
kupaza
kidigitali
uoga
##inyo
Kichwa
kupangwa
##aland
##GOMBEA
##kunjombe
Fis
##amaria
imepoteza
inayozungumzwa
meta
Kumjua
KRC
nakubaliana
amepozi
VIZURI
big
##RIAMALI
Bumbuli
##kyo
kiwandani
##sus
##katiza
Kaj
kukithiri
##MBELEA
##ngu
ametuma
Mulamu
waliokuja
107
##ANDIKWA
Brexit
oksi
uking
##kerwa
##atafsiri
alikaa
Sel
kunukuu
Shia
##salimiana
Mwigizaji
Wolf
0786
limefanikiwa
nimefanya
CSSC
##chelewesha
ilizo
KUONGOZA
##minal
ASIMAMIA
##hingya
VINA
spi
##raf
##kuuliza
Dakar
MASHU
kutawaliwa
NJOMBE
UNFPA
Illumin
tru
uislamu
vol
##zolea
wanavi
waliomba
Hollywood
##urse
Bat
Msan
##twisha
Wapendwa
ameacha
Kadhi
wakienda
114
kumuenzi
Chebu
##heshimiana
kuangamiza
##take
akipanda
##otembelea
112
kusifu
Wester
Mchanganyiko
stu
alimaliza
Kufurahia
wamekosa
hakiku
kukodi
kukomaa
##cio
Ulikuwa
KUSISIMUA
Ukuta
Zambi
ameona
william
Rekodi
star
USIYOYA
awezaye
##tual
##ropo
wanaoi
inayowakabili
Wilfred
Blatter
Ska
##ea
##onder
akitowa
Bukombe
Gide
EURO
Massachu
EP
pingu
wauza
kuchaka
##ationi
##meh
miiko
KIJUKUU
uhasibu
Kevin
##lanta
Mashinji
Ballon
RUVUMA
AH
##piku
WILLI
Elisha
##IT
##DISHA
hupewa
kuwafahamisha
kunyang
iweke
Ninawa
Nawaza
wanadiplomasia
tunali
kufuatwa
##UNGANA
Mhasibu
Onesmo
Federation
##letee
Pence
Ul
swahili
kuhamishiwa
kupongeza
Djibo
USIYOYAJUA
TISA
kuamuru
##kifanya
ameongoza
Mawe
matatani
aliyemaliza
hazij
UNAZO
magunia
malkia
Mediter
##shamra
Akam
Mane
##ksa
##kizaji
iliundwa
imepanda
Insha
some
##meier
Hilal
niende
##HUSU
yaliyom
kinatoa
AD
Sia
kufahamika
mababu
hupunguza
uasherati
Filikunjombe
Mlango
hivo
karamu
Kiini
amepongeza
Nah
Nit
##TURE
inayotumiwa
unaofaa
BIMA
Publishers
isemayo
azidi
ubadili
kubali
##angaziwa
MITANO
Mission
ZIMA
##ZALISHAJI
kichina
halipo
##lisikia
119
MSISI
MWIGU
BANDARI
akichukua
imelenga
Anaandika
Mawakala
tanga
##vyuo
##EA
kuwahoji
##picha
anatambua
Rou
TSN
Silva
uthabiti
BMG
Ushindani
â€
walinda
jiulize
yamewa
aliwapa
majaliwa
imewataka
##jiridhisha
mfungwa
hija
walili
ndimi
##HIFADHI
kuipigania
Riziki
linalowa
nitaendelea
Evans
Tro
TRU
winga
wanakaa
mtangulizi
Fid
POSTA
marupurupu
niji
wanafun
##fungue
Amewataka
akisalimia
Enterpri
kinu
Miongozo
kumsifu
kumweleza
Joti
##stjet
MIGUU
Church
##steli
Rodrick
CHEKI
Lugalo
##zari
##chon
ulizo
##MAINI
Chapa
##zba
##lib
##rite
##ission
Shija
Sule
kufurahishwa
##formation
Kiambu
tutaji
yanalenga
Mithali
wamechaguliwa
Juba
Tunguu
Vera
##CT
kucheka
##rude
ilitoka
itakusaidia
mabondia
Usikose
Ahma
mlangoni
kuburudisha
TAFAKARI
kushikiliwa
akiwapungia
haiba
##changam
ukifanya
##wazimu
lea
alichokuwa
Tsvangirai
Dhi
wamoja
ulianzishwa
Mgalu
Sri
wasim
Waandamizi
Haza
amefikishwa
kumweka
ilivyopangwa
aliiomba
Chebukati
##FLA
##buda
##LISHA
KUUNDWA
imesaidia
##LAA
aliyetoa
Metho
kuchapwa
kufeli
NGOR
Kanada
Ujiji
panga
unafanywa
Japokuwa
Akihutubia
##BER
NGORONGORO
mpole
##ondi
wamekubali
##WEZI
awabariki
Uvin
juni
##im
##himba
Kuangalia
amepoteza
##ength
inayounganisha
##lease
##NET
Goli
Unatafuta
##batiza
iliopo
##ijm
Osama
kurefu
amecheza
Laden
ikishirikiana
mtafiti
Tripoli
Children
ALE
MM
##gamano
imekabidhiwa
kujipa
135
zinatoa
mabovu
Pluijm
Ful
Tuji
Imetolewa
WAFANYABIASHARA
tuache
Ice
janua
uungwaji
NAYO
wamekua
kiasili
Ruka
kutimu
Akwilina
Eco
seneta
utumbo
##ishwi
Tazara
##fikishia
Ameeleza
Emme
AIR
Education
##biwe
aliyepigwa
##andikiwa
Robin
tunatambua
klabuni
UUME
wahitaji
WAKALA
linamshikilia
SEND
Uhakiki
##WS
##32
NAFUU
kuliona
asiyekuwa
applicationi
Afariki
STO
waliomaliza
155
Usharika
SGR
Nja
af
masu
##baliani
##panya
wakitazama
Zealand
##turujia
kujumuisha
BASHIR
alafu
Kigoda
itachezwa
kusindikiza
MON
lis
##SSA
hapendi
mwombaji
umeingia
kutengua
Allan
HUKU
inavyofanya
FIKA
##setts
America
ilihali
WAFU
Kiwira
uliom
hakiwezi
wasipo
##chunguze
kuzipata
ninao
ufukweni
Kumb
##issi
KIB
zilizotangulia
Boe
##FUNGA
tuweke
tunazi
Liwale
kutabiri
##gharimia
Change
##sifiwa
nilisha
TUTA
kimeanza
zitasaidia
inavyojulikana
MISRI
Zai
kuwashauri
ilichukua
wanablogu
##END
Karanga
##shtushwa
Massachusetts
Km
Pil
wanakula
yanazidi
Jeff
##gongwa
Msikilize
1987
##RANSA
Watoa
##RB
##GT
walizonazo
umepungua
inayoonekana
kuteseka
##dharauliwa
Msitu
##tanguliwa
WAWAKILISHI
kuote
##ats
##bor
inaitaka
Kabe
inayosababisha
WITO
##lalamikaji
Kujitegemea
Margaret
Aman
##kuwe
ilifanikiwa
amepigwa
Rachel
shuti
Apr
##phy
##wajibike
Applicat
Razaq
##ingoni
migongano
Kakonko
nilitegemea
1973
Fol
Tshi
bank
Kuunganisha
kumng
##MBAZA
mpasuko
Kutekeleza
##husiani
watatumia
##ssion
shuhuda
##tofautisha
MAFU
##ukubali
anayependa
Maslahi
Gorge
Mulamula
Pongezi
Sungura
##usa
##47
##66
##jiona
wanazidi
##pendaye
kusaga
amewashukuru
aliloli
mabeki
NIA
##zamani
ilitakiwa
linalofanyika
kimkoa
mashetani
##jishindia
Kailima
linawezekana
117
Nyanza
itakayochezwa
bakteria
op
uwasilishaji
##anti
##kamavu
atatumia
hujasikia
Allaahu
Fern
Usambazaji
KUVU
yaliyojitokeza
mtanange
ameiomba
##vestment
##jisha
##him
##taraji
anayemaliza
##latini
Hollande
People
ole
##koro
Mush
AFUNGUKA
MWIGULU
Zana
kinge
lkn
vichache
Wapiganaji
sikuweza
iliyochapishwa
zimetengwa
TGGA
##sport
kudharau
Manuel
Fauzia
##joy
kuomboleza
##KUTWA
Mkombozi
##dent
kuwana
aliitwa
Amewa
mnajua
vinavyounda
CUP
yaB
kuwatafuta
Kaisa
umetokana
yanakwenda
bio
ilivyoelezwa
Shujaa
PASI
##injilishaji
milki
AJ
##uch
##ancial
Wakam
iliingia
Faki
##kufuru
UTARATIBU
usiopingika
##vernment
##qing
##hudia
Labour
##kamilike
Owino
Lama
Mpita
UJERUMANI
yazindua
akiwania
wandishi
KUZINGATIA
Kolo
##KWAMA
Hunga
user
##sk
kitoto
wanalazimika
Killer
Kulinda
##choko
utasikia
kunatokana
inayosimamia
Leopa
REJA
##samehewa
Valencia
##lmshauri
sapoti
Vifo
KIM
linafanyika
kamilifu
Vision
youtube
IKIWA
##mvu
##Hizi
##lola
Deru
celebrity
huathiri
Pas
Abdala
Kaitaba
Daesh
Hy
Spurs
##RGE
kio
Morgan
##SIKA
akaendelea
113
aliyoyafanya
Bongo5
uraisi
KUIMARISHA
Emmerson
Mhubiri
##lawa
KUSAIDIA
Ndulu
Makambako
##chezeshwa
##terem
Denis
minajili
Swai
kuendelezwa
##umbura
Mnyamwezi
muasisi
Nuhu
uhamishoni
ATM
nta
##kondoo
power
##erti
JIONI
ijapokuwa
AMKARIBISHA
Brow
Cri
akazi
mpe
nbs
##LPER
walikusanyika
Rapa
ikibidi
Buj
mtawa
watakaokuwa
Mzozo
##LANI
Kichu
Mwendo
TANZIA
upatanisho
ilivyotokea
Ambazo
month
Dra
atangaza
plan
kito
##shike
Kubahatisha
TAMWA
Anza
zinat
MAJIBU
UFARANSA
##andikishe
KCSE
ush
kul
Kuhifadhi
wanaozaliwa
Elfu
##friend
amali
itumike
kon
kibo
inauzwa
watasema
Umaskini
wapambe
Communication
##Go
WAG
kutenge
Kalenda
dhifa
Gun
##atul
akaingia
dot
nyaya
Aku
kha
wapa
kugharimu
madudu
##rauni
huoni
##zeeni
anazungumzia
NAMI
##wika
umeshindwa
yaliyoanza
Ninaamini
Kamuzo
kutengana
IFM
MZURI
alayhi
upesi
##dou
sakafu
##more
##ANYI
##jem
nywila
##potezea
Fun
Kumu
##ratasi
##gati
##kaidi
nikwambie
chapisho
aliyechaguliwa
aliyetembea
##hakikiwa
mepesi
ukuzaji
Matata
rutuba
Ris
idhaa
MP4
Nyamagwa
kijiografia
Mcho
UZAZI
kambo
wanaojua
##rant
Bonanza
Valentine
##DISHO
walionyesha
SACP
kushirikishwa
kinatarajiwa
alivyokutwa
TEZI
##farakano
oksijeni
ukingoni
unakutana
Laure
jazba
kudhibitiwa
kuenda
##himizwa
Mawili
maharamia
Azaki
ARS
ILE
MIN
akiu
anasisitiza
anayejulikana
##fafanuliwa
1983
Nyoni
Square
air
##jiwa
##led
kuwakabidhi
anan
anti
hawaji
##ologia
Mwanahabari
Ukarabati
Uwezekano
pinzani
nbsp
UKATILI
akata
kusanyiko
##razi
WASHA
Kibiashara
Usawa
Kaijage
Mdahalo
Fene
ZENYE
##ojaribu
muhuri
##yamaza
atapewa
yaliyojiri
ukiongozwa
Kandoro
Shambulio
itatumika
##staajabisha
Maru
109
zinazoongoza
Luhu
Ameyasema
Benz
FIKRA
##temba
KIFUN
jedwali
mamake
Abbasi
##DHARI
Kinywa
kuyumba
##ENDELEZA
huamini
Rage
##SIRIAMALI
Roberto
Mweusi
Shamsa
##pambanua
Oka
##lebela
Maambukizi
kuwasihi
Mount
umeamua
bize
MAKAMBA
Ih
zingatia
amekwenda
##isikie
alipoanza
kukaribisha
ukijua
Cheyo
Mbadala
##uhongwa
yaBuhongwa
##bane
Wastaafu
##rov
anacheza
hesab
mkaguzi
Msafiri
CP
Songo
UMIS
##ikumba
hufika
tukumbuke
jalada
TEF
Fadhili
Arnord
CPC
fai
##fes
naendelea
kutojua
Muhando
##MAR
unatekelezwa
kusaf
kuchota
Pentekoste
Mhol
kuuma
##far
WAISLAMU
ametajwa
MADE
dozi
pipi
Houston
Steinmeier
Mgambo
tulim
tukiongelea
jumanne
SPORTPESA
YASAINIWA
wizarani
ionekane
vikombe
##chiwa
notisi
YAJIVUNIA
##zawadiwa
hutaki
mikusanyiko
sipendi
Kukosa
##funuliwa
uliodumu
miswada
mwangaza
wenzie
madirisha
##grii
kuambatana
##atra
kwayo
143
Mtawa
##galatia
Lwenge
##xx
##gogi
Alibainisha
hakufanya
mlikuwa
gurudumu
Roli
##chiki
walivamia
MWINGINE
Unavyo
PALE
SAMAKI
Mutungi
Grand
aseme
##isri
##bic
Joto
Inc
unaojulikana
Mwesi
hayatakuwa
headlines
Magdalena
Mwandosya
Pin
waathiriwa
Kuhamasisha
KUZUNGUMZA
umetoka
##TUBIA
##RUDI
##twara
##inoa
update
kukusanyika
##lling
MAGO
kusiko
mfukoni
Sadiki
ugavi
##jisajili
##maza
##rage
anaondoka
RITA
KUFAHAMU
OP
KUMP
Billion
zimetumika
nitafanya
KANUNI
##honga
natamani
##amisha
Maro
##miwe
anazi
Chezea
##somewa
bilionea
Amea
This
uzee
unaotolewa
kutufanya
Goma
itat
wanapofanya
##weo
akiongeza
amekua
kumkashifu
porojo
Manga
Sino
Kufunga
wanaocheza
ninaye
right
kusua
CNN
Carlos
Uvinza
Jang
Les
etu
ikia
##Mungu
##chunga
##gale
aliy
wamezi
##fungamano
Stans
mtoano
HOTE
kuiacha
Wachambuzi
haifanyi
nguvuni
Tille
Get
kuwaonyesha
Kime
Jaf
short
kufunika
Hazard
Derulo
##uki
kuwabaini
Kur
wamegundua
kukawa
mnataka
NEEMA
##UNGAJI
Nawaomba
kuyatumia
KCB
Application
Methali
Sanifu
##MBANO
111
Nawatakia
##zamivu
Kunduchi
Tunge
##oh
##cca
kugundulika
##gues
wanahusika
##endawazimu
KUJUA
##atozwa
kujitafutia
MeTL
atali
##wacha
##guuni
waliu
waliwahi
Hill
mbogamboga
##raim
Equ
Kho
##IF
kuzia
##aaa
waliouwawa
zinatokana
Udhma
##furu
##ISE
Muhidin
HISIA
Magogoni
UNAZOWEZA
Ving
##tin
##umza
Kupatikana
##fiana
mwovu
##ungali
wakosoaji
##inukuu
Maagizo
zikitolewa
yatasaidia
ndg
Plaza
WILLIAM
Epuka
##antu
karo
##fiwe
kujitawala
zinazofanyika
NIPA
dizeli
kutambulisha
njoo
haisongi
##iki
SAWA
AFUNGA
MWANANCHI
Girl
Nar
mfadhili
##inion
mithili
ilikuja
anakaa
ikifika
yamekamilika
##bidhiwa
teule
MPINA
##okona
##voc
Etihad
##cum
nitakapo
amefurahishwa
Lagos
watenda
Mtoni
144
Weah
kinachotokea
UFADHILI
Bujumbura
kiwa
KUCHE
##YAPATA
usikivu
##FUNGWA
Junior
##monyoko
Itilima
AKU
wanaotajwa
Yasi
##indwa
kutenganisha
Crystal
mkwaju
##gisha
wazanzibari
sabato
Say
Will
Zabuni
uhaini
uharamia
UFAHAMU
Bayport
script
BANK
TCA
ikumbukwe
##dar
##endeleze
ataanza
Tillerson
Zar
cor
##zra
##yago
imeleta
Vienna
Jammeh
MWEMA
ileile
210
Luhuye
OA
res
##fleva
##atiliwa
##tubu
amerudi
##mikwa
Utabiri
Tunaona
Inapo
Mkwawa
##onyo
mwajiriwa
##oneka
wanaou
##trol
##eleweki
Sonna
Zinazohusiana
kandamizi
##KEZA
wasiwas
kushangazwa
wameni
itawasaidia
Mpoto
bundala
Atakaye
Mcha
##NG
kumruhusu
Mkatoliki
vinavyoweza
##ishutumu
amejiuzulu
Safiel
Stanslaus
wawasiliane
mahujaji
saana
KADI
Shauri
##isee
alinunua
##op
mivutano
Nipo
zilizotokea
zinazotumia
zinazotumiwa
kiuongozi
kudhoofisha
Wasaidizi
Ujio
bana
KUTE
imeli
majarida
071594
Televission
Kamuzora
ajibu
umu
yataka
##chungaji
##fuku
Halali
MAZURI
Serekali
lilitolewa
Ufara
##gumwe
Rwegasira
0715942570
Oh
Vila
##shasta
inali
makinikia
KUZIPENDA
vunja
##cla
yanakuja
##ingapi
Deogratius
Mshiriki
##cra
##400
##ojadili
##rehemu
##ghar
Naitwa
##TEA
KUTOLEWA
##ssira
NDOGO
Tandahimba
ale
Made
inakusudia
ulizwa
Diplomasia
Tokomeza
Mwakasege
tunat
vyuma
##waalika
Qi
##ggi
##pongezwa
kutopata
APRILI
girl
kuume
##unes
hit
Waganga
sekretarieti
UHAMIAJI
kumuapisha
Asema
##kechea
##lou
Kurudi
watafanyiwa
kurushwa
Mbarouk
Yaliyotumwa
Platinum
JENE
NINA
Wawekezaji
##shushwa
Michel
Hanang
Bili
##fication
imeonesha
itawezesha
inayokwenda
colle
Tunatoa
zinatoka
magodoro
Mtigumwe
Kikomunisti
group
##zagaa
##gope
Kubuni
inadai
kujijengea
iliyofikiwa
##siache
jembe
Mboto
Akhera
Acc
LICHA
##kelewa
Wachina
Kijuu
HARUSI
Kabati
Wasifu
##FER
DOWLOAD
Adolf
Ako
ima
kubatizwa
##ammar
saw
##ungani
unafahamu
Nakubaliana
makabiliano
fiti
1981
##ZUNGUMZIA
milenia
Bunju
kutumbuiza
Makabidhiano
pass
shitaka
##yonye
amewahakikishia
wamenusurika
Kalambo
Rum
kuwarudisha
Kuwepo
##unganiko
##subiria
Tale
atakwenda
ILIYOYAPATA
part
Mutua
##TAKAYO
Alexand
JANUARY
Mashitaka
Dhamana
Alianza
kuihama
wanaokuja
##furahie
magogo
Kujitolea
ukumbusho
rejareja
##pambwa
makuzi
##futwe
Wagalatia
insha
usije
133
hisabati
PINDA
##BANI
kuwashambulia
##ANGE
mwadilifu
search
wamepokea
umehifadhiwa
inan
##coin
kuondokewa
##SETA
Isiyo
Tahrir
##ULU
##28
yaadhimisha
mafungu
1200
vinavyotumika
Freddy
KISUKARI
pub
kimbilio
anazozi
Moh
UDAHILI
Continue
achukue
Wahandisi
waliuwawa
See
Najem
Yale
kimaumbile
ubavu
##komesha
kujifungulia
123
yanayofanana
hawakupata
aan
##lad
Maw
walikataa
MAZI
weupe
DAIMA
185
isinge
Ngoni
Production
Adui
IA
MSU
Sti
Utambu
dai
##fam
mihadhara
##HADI
##RIKO
weze
mlimani
##ruhusiwe
##pitie
WOLPER
Queens
Roman
MAFREEMASON
unaotekelezwa
Stamford
Bwawa
JB
VISI
mvinyo
wanahisi
inasababisha
Simoni
real
KUKAGUA
kuvinjari
achilia
##lz
##GIZAJI
WALIVYO
Micheweni
Solomon
Clau
RWANDA
Wassira
WASHINDI
walizozi
##ZIDI
makamo
Lusaka
yanatakiwa
##6938
asanteni
##WSA
SALMA
anayefahamika
Chochote
Yon
kuchafu
ilishindwa
Kuhudumia
ukipita
Tip
suruali
##kando
vilivyowekwa
##undwaji
Yordani
##tsi
##ETI
Haruni
##pasua
##jisifia
wajua
Mapokezi
mbichi
Lukaku
ukwepaji
NIPASHE
wino
walipaswa
KUKI
Unao
Msalala
Chemsha
##elimika
Thuita
Jr
Pande
anaelezea
##KEE
linakuja
kwelikweli
VYAKULA
wavamizi
Dur
Vis
kuyata
##atibiwa
##jalo
Nazi
Hamid
##riends
BC
NF
prin
kuwadhibiti
ilimu
##horuba
Nadir
Mnyama
Ubatizo
MFUPI
aila
##mie
inatia
Heche
staha
HOMA
tuachane
mauwaji
##BLE
warudi
Millardayo
Jembe
zilizojengwa
yameongezeka
nimekuja
jaza
Serge
Wakasema
kuelim
Boeing
Jairo
##rose
Usikilize
vyenu
##pportuni
Palamagamba
itapata
##enufa
vitunguu
##stic
PAUL
##sekela
Francois
Tangaza
africa
waza
Maduka
yaliyowa
UMISSETA
LINI
##tula
Wafungwa
walioni
imejikita
##sty
##ondokana
shingoni
1966
MABAO
international
TEMESA
CON
##kaguliwa
nashindwa
##teswa
hupelekea
MAPE
##ENAL
API
vifuatavyo
Sevilla
walioshindwa
106
choko
##hio
##isifu
imetumia
wameya
KILO
wosia
750
Bla
Fungua
IR
wal
Kipengele
wamedai
kutungwa
Redd
Tutaendelea
Zotekali
##langyo
Hama
##clu
kupenya
##silimu
iliyosomwa
kuliongoza
vimelea
NDOTO
Ephraim
Pindi
utiaji
##iita
Kuliko
Hoima
Tiketi
Lugo
##thing
##MBOZI
kumwacha
##telekezwa
##kelezeka
kusomesha
##kimbiza
Ahlul
Zungu
uingereza
##tege
hujulikana
Kik
imeandaliwa
kumwita
wakisa
Inabidi
ukiacha
MJUMBE
kuwashinda
Kikatiba
Harare
unakua
kuziweka
Akiwasilisha
Guardian
kukerwa
Mandai
##rudishe
Swansea
Fatuma
##tishwe
##kuwezesha
palikuwa
Mp3
Tendwa
wavivu
##yed
##ongereni
Lay
##JAA
##HOGA
##quired
kokote
ENGLAND
##HUHUDA
iangalie
##kite
mapori
YATI
utakua
utatoa
kujin
wakaamua
JIUNGE
chenyewe
Asas
millardayo
aliyeteuliwa
majo
BINTI
##WO
kuumizwa
KUTI
umemalizika
##ology
tulipata
TPC
Express
tarakimu
Mapacha
VURUGU
Dc
Naa
##hang
##rofi
##vio
##onavyo
iliyozinduliwa
##endela
itai
Almasi
Baadae
Ameir
Milenia
kupandikiza
MDA
kilitokea
unaoitwa
Werema
##julishe
zitafanyika
Giza
##gug
kuponya
Poul
yaliyowekwa
MUHE
wapole
ALICHO
##2017
Mkude
mmekuwa
ualbino
##pendele
##kiwe
waliamini
tunaanza
zinazoshiriki
224
nisinge
##FICHUA
Institute
nn
wanaya
Kupenda
##dukuzi
sehe
imechukuliwa
Kabo
##vian
KWANI
shoga
KAMPA
Service
MBIO
masanduku
anashindwa
##ENDWA
ZAKO
##HUDIA
offi
Namtumbo
Management
Klopp
uzeeni
##63
unaishi
##lus
umetu
Dah
Peace
wakafanya
kuyafikia
waliyopewa
Livingstone
##95
wataingia
Today
##hiriwa
IB
haji
MAPI
hakita
Lime
zinazoonyesha
Ingiza
ZIME
Ugavi
MFANO
PP
imetajwa
kuthubutu
watashiriki
Ankara
upweke
##LOG
Stendi
##SHANGA
LED
Ujasiriamali
waliobobea
##ender
##ESS
Records
Dal
wapangaji
##pite
Hay
Bahra
iliyohusisha
##wahimiza
##fishaji
##tangula
Nkinga
##kiona
Kuchagua
walichukua
wamelala
waliomo
aliyeshika
kiujumla
sabasaba
##CHESTER
Hamu
SUFI
ushujaa
##aven
wahubiri
wakipewa
##UNGI
##ners
Lucky
mikali
HISANI
hujikuta
kuwafariji
##hadaa
kifuani
VIJIJINI
Samahani
Hiari
##dikwa
kumtambulisha
umelenga
Hor
##kibu
Walla
Kiiza
jiunge
Rebe
yanayopatikana
SEK
Tumeona
##ONGOZO
##kusanyia
akamtoa
Mariamu
Atashasta
##ffih
manga
##DY
waliolazwa
inamu
Mtuhumiwa
alimfufua
wakimtunza
MANCHESTER
MABAYA
KINYAMA
Cze
MENO
Stoke
imebaki
kumsaka
##atembea
##zingatiwe
Nyanja
jf
washika
##KAJI
Viji
Mbeki
Obado
SUFIANI
Fungu
Trilioni
gunia
Karo
##somo
##fikishe
##BURI
Wetangula
kututumia
##fed
USHUHUDA
kijiko
Djibouti
##kuri
alifikishwa
mikoba
##bio
Kadhaa
##konya
kulizungumzia
Proje
##fungwe
Mapishi
utakapokamilika
kificho
Zacharia
Wine
Yame
ob
kuwaji
site
Mwafrika
watacheza
##vers
akamjibu
wavumilivu
yaongoza
kuchanganyikiwa
aliyen
##fie
KUTANGAZA
##ambukizo
##itung
unaolenga
##hudhurio
Aj
mkamilifu
##rius
Naza
##TERS
mlevi
NUSU
TCAA
pun
##yumb
akilia
Sihaba
umezinduliwa
##sheki
Capital
Tuliyo
manaibu
Mkopo
inapendekeza
Alitaja
tunaambiwa
Shika
kimakosa
wasiojua
hauto
Italy
unachotaka
Tusker
standard
##atha
iliyofunguliwa
kamisheni
##onyeshi
Rug
3G
Vurugu
##anasi
kasha
inashika
Buhi
Dire
kulaumu
NEMC
Ndungu
Laurean
nondo
##200
##kela
##atory
Michango
Jimmy
required
Upd
MALIPO
##ANZISHA
Talib
##WASSA
CE
Sande
##ken
wakata
##isamehe
imeona
Uadilifu
kuhuisha
Uber
nono
ulia
kuhamishia
limeitaka
Ninaweza
Opera
mtwara
##bichi
##mikiki
##MAIL
##giri
matamu
kunawa
Para
bikira
anayewa
Mbweni
angalizo
ETHI
bonge
##mla
##zimia
hab
walieleza
##TOKEZA
anayeitwa
Mwakalebela
ukomavu
akimtambulisha
kimewa
1968
Ngoja
GEO
miga
Kukusanya
inasisitiza
kinaitwa
walalami
Web
kumuoa
Riek
EAGT
KINYWA
Kyerwa
##lipiwa
MAFURIKO
##kto
hahaha
hiyohiyo
##eneti
majangili
##SOMWA
LOWASSA
Kakobe
AMUA
YAHU
Haba
##moon
##MAFOTO
kulipuka
Tuka
SUFIANIMAFOTO
Janga
##fina
YAA
KUB
##anzila
wameomba
Viumbe
wakijiandaa
wanaounda
pozi
kufuatiwa
zinatu
Pallangyo
MUHEZA
Afande
Uendelezaji
mhudumu
##fault
Mika
kutengenezea
Project
VIVUTIO
##tokayo
132
Karne
Mlele
pat
##liwi
yafanya
aliongea
##wang
imejengwa
wameungana
misiba
KUPUNGUZA
Account
Mmb
pm
sti
viwa
Wales
Airport
aliipongeza
sijaona
LETU
Tunawakaribisha
ATC
Idi
Mzuka
TD
iku
ushambuliaji
kipuuzi
waliondoka
audio
iliyoongozwa
hawaamini
##MOA
uagizaji
ilimradi
ARSENAL
Mhifadhi
amwamini
##OPIA
##himi
iliyojaa
##MURU
Amefanya
kusuluhisha
Chanjo
trick
uundwaji
##VUN
##kuyu
kuwarejesha
wanaweka
Kirusi
tuwasiliane
wanatambua
##KETI
##mbikizia
watakwenda
##gonja
mwanariadha
WALIOTEULIWA
Mzanzibari
##thia
Tower
makongamano
Nicolas
Zulu
##isse
Jedwali
128
kujishindia
atatakiwa
Nguo
bias
##matullah
FDL
milio
upin
inaashiria
Utapata
AWAA
##PANGA
##war
waelewe
kiun
##jembe
anaendesha
wameshiriki
wakipokea
umepangwa
tunaji
nilianza
Nou
Zab
CAR
udhalimu
Amber
Tumbaku
##qua
##waona
Kilatini
watachukuliwa
mtafaruku
##amalizia
vyangu
##uzwaji
mikikimikiki
ETHIOPIA
kuangazia
##rik
wanafu
wanaunga
##SIANA
umen
ukoma
Mwiru
MWENYEWE
##sser
KUNUNUA
MSISIMKO
wac
##yoga
hiko
##shio
##bihi
Afro
##pping
mitego
sawia
##mbeba
Muammar
##MICO
mnunuzi
Chifu
##saidii
4000
Chuwa
##MS
##kul
alionya
alikanusha
Hau
KUWEKA
imeibuka
kulitumikia
Jahan
Nec
##ooo
ISP
##HARIRI
SUALA
wamelazimika
wakiomba
Benson
wakubali
##shamu
Tag
kunisaidia
Kisanga
Ruth
##ppy
KUJIFUNZA
kurehemu
Olympi
Tani
alaikum
##revu
ilipokea
Kuhani
Baha
zimebaki
##itiative
##hesabika
Ferdin
HADITHI
amenukuliwa
##Vi
wanaj
multi
##takasa
rapa
Taarab
Wanawe
147
Wallace
Humo
Uovu
aishi
##iro
##lies
nyani
wamechukua
zilitumika
AKILI
##waliwa
wakweli
##ziwi
inakupa
JUHUDI
SIKUKUU
kusuasua
Bahrain
##change
Makon
##pert
RAI
upumbavu
##HOJI
misemo
##FIWA
kuzusha
kichaa
McC
Gideon
Munga
kufungia
Maz
##TANGU
Tukumbu
##PUKA
Linah
##bus
walionao
kumfikisha
##ondoko
kuogo
uliyonayo
Germain
Iyo
mlinda
##yid
Sioni
kutaniko
kukosolewa
##mpongeze
niliwahi
##troniki
katik
kujikomboa
umefanywa
REKODI
Riyadh
Assemb
Cele
Twanga
akishuhudia
itakuja
source
GESI
SIN
##yanga
##tzer
##MPI
##wata
MATUN
akafa
kimetolewa
mwembamba
Rodrigues
Shariff
Aleppo
udikteta
##ão
nay
##mora
inayotu
MITA
unayotaka
ulivyokuwa
Falsafa
##shangiliwa
ia
wapalestina
##wed
hawapaswi
148
tulivu
##ulette
##kisiwa
Ghou
ZFA
YAFICHUA
HASA
kutunukiwa
kise
ataondoka
Tutumie
Promosheni
stress
hawataweza
##laaniwa
##rdo
unahusisha
Doro
anayoi
YAKABIDHIWA
ailaze
Myahudi
Tenda
uche
##In
##xon
yatu
##halisi
nitaji
NAPE
##peshwa
zinazotakiwa
yaliyosababisha
team
##FID
MBU
##100
kusheherekea
##jibiwa
##tures
##tural
kuwaandaa
Mobe
title
##ZETINI
kuvuliwa
##lonike
Kiukweli
iende
##gne
kuhabarisha
YAKIWA
##oteknolojia
Sahel
##vice
kumhoji
kumkumbuka
Mwamuzi
##juta
mwenzenu
TASWA
##lona
yatakapo
##mbati
walijaribu
MARY
inayojengwa
##ffer
##fuatiliwa
MR
##timuliwa
yes
kuteketezwa
sur
##takaowa
Kasesela
MTEULE
SUMATRA
mshukiwa
WAZO
Kusisimua
wamepiga
interest
Makaburi
##vadi
##RUKI
GAIRO
Aloyce
##enufaika
BW
Tua
alihukumiwa
chakavu
waliotaka
kunena
##valiwa
Weusi
Mnono
Dawati
Eto
UKE
ate
##ining
##nasa
kumpinga
iliyotengenezwa
iliyoachwa
##MBWA
##kwere
atakayekuwa
wanavyoweza
Ghouta
Mzalendo
##arifu
Wafanya
iliyopitishwa
##ulisha
SILA
angeli
##jengewa
ARV
jumuishi
##fyatu
Warembo
##rula
akisumbuliwa
Rafa
Save
imefungua
imeundwa
povu
kutetereka
##manini
Mja
WAGONJWA
inaunga
##vusha
##endako
uliokuwepo
MICHUANO
Kennedy
Mmbando
##umkini
MIPYA
kumuita
INI
CHANNE
diski
Ferdinand
Aja
NIC
##lipuka
hawam
hayaj
DCP
Wilbroad
YOU
##drack
skrini
Zulmira
Kajuna
Jee
Phile
##HARAKATI
click
Utambuzi
##VENT
##anoni
kuwezeshwa
##ateni
Mastaa
wanaangalia
Nafsi
Msongo
unampenda
Gr
##MANA
waondoke
madhi
inaweka
sebu
imehesabiwa
wamepanga
portal
favo
##ccos
UBUNGE
Sinodi
SWALA
kuchekesha
##kesha
kuwauliza
##gere
##dhaifu
ulitokea
hawat
wanaomba
##lair
mabishano
Wiper
lilisema
Wanaweza
##FANYI
atat
Masele
nawaambia
Kharto
##goo
Kii
##stara
akaondoka
Ahly
ANNA
Mwegelo
Upigaji
##embe
##khari
##yasikia
##stra
##pakaa
##urces
MAFUNDISHO
kuhukumu
##raza
##mbania
unaoendeshwa
amwaminiye
320
OMBE
Wangwe
##chuaji
Kihispania
akiku
Kalu
italeta
alipoteza
hautakuwa
##ONGEZI
haujakamilika
Carolina
ilini
anakula
pas
yameendelea
Zifuatazo
alimueleza
Nany
MAPEMA
Uchimbaji
ushu
##wambie
akisha
walitu
muhusika
unazi
kungo
MAGAZETINI
Majani
Ngomba
Gord
Spoti
hongo
mchoro
waweke
##kike
##mele
zilifanyika
kunyanyaswa
red
kimetoa
Khartoum
Cat
mafua
##dah
##siwa
##yale
ameonesha
wakishindwa
akae
Football
kurekeb
yakiwamo
kufidia
lindi
olimpiki
wanapinga
inatekelezwa
bomoa
SAKATA
Mwanawe
##VAA
Siriel
##RIDHISHWA
Illuminate
GHA
JS
Kona
##hn
akiri
fuata
##zuki
Indust
##chukizwa
##DHAMINI
Cheka
Benin
Majisafi
##oneymoon
##HAMASISHA
##NDA
wanasikika
Mutha
KITI
dire
##okoe
##cific
aliupenda
Bukuku
Dume
wanaCCM
Kufa
wakichukua
Hicho
lililowekwa
Kumbukizi
MANA
glasi
songea
##ime
##share
wakibadilishana
kuzuwia
Hajj
USHA
miza
amejibu
kuitambua
Tokyo
kuaminiwa
now
km²
WAMETAJWA
##ica
Waku
kumtakia
Mudavadi
Uyu
tungali
waliosalia
##MUHURI
yaliyokusudiwa
msituni
kutuhumiwa
mnene
hauj
Gul
##mati
##lian
WASA
inaaminika
zilizon
atashinda
Youqing
AJABU
KATAJWA
samahani
Yatima
##chaa
##isara
zimamoto
kumtii
jawabu
Eden
##frija
Kichere
GGM
Hatma
Kyi
wachukue
wanalalamika
kilivyo
kinachorushwa
ACHUNGU
##mud
inaelezea
##MAS
kumkuta
Lau
makaratasi
SUGU
Kibongo
wasap
Maujanja
Econo
Ns
mlipa
##jensia
##jah
viovu
##pie
kutoshiriki
Kaga
TAWA
ikim
##MBER
Terry
Uenyekiti
##Swa
##here
##hamishika
hajapata
##dhulumiwa
AKWAMA
Ozil
funga
ieleweke
aliyepewa
Kilimani
Mnadhimu
Mbuzi
wanatamani
Wangabo
MZALENDO
ilo
Mahakimu
Kilango
akiahidi
akitolea
##KIZO
270
Tarimo
Mishahara
ATANGAZA
akan
gwiji
ushe
##FRIKA
mahudhurio
wife
##puta
Temba
Wekundu
JAMUHURI
mhadhiri
mkwamo
kudorora
YAENDELEA
anaumwa
##ONES
##KOSE
nilifanya
vilivyoko
UHAKIKA
ACHUNGUZWE
##tazamwa
kutotumia
tuzi
unakumbuka
Nim
manung
forum
Gigy
ATEUA
itifaki
kingereza
##urt
##90
nashauri
##diria
aliacha
walevi
anayesimamia
7270
karakana
Mungano
came
jp
##wazo
kuketi
##ISHE
Chambe
wanaotu
zilizofanya
##yatenda
YOYOTE
kupuuzwa
Tayyi
WAUAWAWA
FREE
ifike
mchanganuo
halfa
##otes
KUADHIMISHA
Bakr
Utunzaji
watakaobainika
Anayeweza
ombaomba
Mtoa
TW
aone
pres
Mapo
hutuba
kuwainua
##anzani
tulicho
digrii
Waaandishi
kumwondoa
inatangaza
Uwajibikaji
727062
ARA
Bwi
kuwauzia
kuwaondolea
##rejelea
##rudishia
Mukanga
rah
##rumia
zimekubaliana
##undwe
default
Onyo
MKALI
MSAIDIZI
posts
magufuli
##couver
fanyika
Maboko
vii
##hofiwa
Nagu
koti
atarudi
MIKU
kuosha
kukoma
Mbasha
337
mtaala
AKAMIWA
IOM
Mtumiaji
msuko
##lemwa
kichama
kutosheleza
akijiandaa
anahisi
Muuguzi
utajua
MWENYEZI
nakupenda
Woinde
Huna
JANE
Jones
VIS
mlalamikaji
##ngi
ameketi
##kiomba
tunaelekea
##cking
Nilim
##changanywa
##tendo
##FANA
wakunga
Hawana
##unguti
anahusika
KUMALIZA
yalifungwa
inayofaa
MAJIRA
CHANJO
wakitafuta
##GAI
pilipili
DAY
kumwabudu
College
Dam
##tathmini
##fin
##unze
Habi
Mandhari
Ludo
##MAMOTO
ugavana
thi
##iao
hay
Kupanda
tukam
##shoggi
##shirikishe
Pasto
vinaendelea
##sson
Ibrahimo
Kikatoliki
Tukumbuke
Uuguzi
##IKO
imebadilika
##ZEA
Mitindo
Community
Mgongo
Mapitio
nimejifunza
rufani
##bank
Financial
Mchu
nju
##fye
##bayo
ilipewa
Kad
##anguliwa
MWE
yanayotu
##yango
ALLAH
##TENGENEZA
Fr
Saada
kusherekea
##rizi
kuwalazimisha
alifungua
taf
waliotoka
Kilaini
TEMBELEA
VITENDO
Olym
jenerali
waangalifu
nashangaa
aliyefunga
zilizotengwa
Tuwa
Akifungua
##ulture
Mayanga
MCT
##tendewa
zimfikie
version
Tunda
UU
ukata
sielewi
Sao
tunako
VILE
##atiliaji
ZIFF
kinyesi
GSM
Kielektroniki
chemchemi
##ribe
analipwa
wamewahi
##GUMU
niliamua
Diploma
first
##mwagia
Ukiona
FUPI
alichokifanya
Girls
##bab
Waroma
anarudi
unatoka
aliyotoa
Ongeza
Saad
Kunywa
tohara
tunaya
##inus
Sharo
JIBU
ZIMAMOTO
msururu
jengine
opportuni
kuchezesha
MAK
##choice
inayotakiwa
Bos
##GERIA
kuzisaidia
Agency
##uguza
##mission
mazoe
kuwatunza
alikumbwa
ameiagiza
tumem
##JUE
Brit
dhoruba
##patana
mashuka
##onti
##tional
Mafisadi
##wangu
Kalenga
VIKAO
##thibiti
LULU
wanashirikiana
ulichonacho
Miri
kumcha
Peru
kutuwezesha
wajasiliamali
kubofya
Dating
Mpangilio
##atizaji
kiliwa
Kaza
iliyokuwepo
zilioko
Judith
kuyaweka
Figo
itakavyokuwa
Council
##RAJIWA
Fatima
mcho
##fyatua
##Que
hukutana
inaongezeka
imezinduliwa
aliyeshinda
Jahazi
188
Diva
Shoga
ANGELA
usome
##dana
aliamini
akipita
Kuundwa
##gongoni
koloni
kumuweka
Fizikia
Chief
upofu
Mchembe
septemba
Aa
KT
Zlat
nishani
uundaji
kugu
kafariki
imechangia
tikiti
##puuzwa
Kilindi
mishale
aliekuwa
Hellen
Rouhani
WW
cry
wachukuliwe
Kav
Mwenyeji
##simisha
TACA
mkabala
JC
uzamili
##kosolewa
amevunja
Michoro
majipu
got
##JULIKANA
##FIRI
KUITWA
REAL
Gym
Natumai
kuso
MAI
muuaji
##ded
inayopendekezwa
bus
Sharon
MKEWE
Browsers
ADHA
MEYA
Zena
tafa
Hufanya
##UNGAN
Matarajio
CHETI
Vancouver
##ggz
kuchukulia
Mafa
##fananishwa
kukuambia
Magazine
dikteta
##chinja
ulingo
mustak
JICA
Kipindupindu
KUCHUNGU
wamejikuta
kilichofanywa
Smith
Jaffo
KAMPALA
Tayyip
TACAIDS
Tattoo
##tre
kuheshimiana
Nasa
matini
##lula
zimepita
Nyaru
424
Natal
Assenga
Rh
##falsafa
##search
kujihakikishia
mwanamitindo
CHAMPI
hakujua
alipokagua
kuombe
Kwandikwa
alimweleza
hamjui
ASTA
Ngongo
alizokuwa
wanataaluma
MAANDAMANO
Mgawan
ureje
waendeshaji
waliweka
##dhilifu
Kavu
##ishinda
Jabir
unaoongozwa
kuombwa
amempa
##yooka
Kujieleza
Abou
Silaa
Uraia
dhumuni
huya
ukisema
Usaidizi
Watalii
SPORTS
##umana
Madh
Milla
waliosoma
inatajwa
zilizowasilishwa
##rissa
yanatoa
ulaghai
linawashikilia
Opinion
school
aonyesha
##ski
##windaji
lala
Mire
enyi
kinawa
TEMBO
walichoki
tusubiri
inazi
wameandaa
wameanzisha
##ater
haiwa
yamefungwa
Waajiri
kubashiri
majuto
##abu
##iss
akisubiri
Kukabiliana
ujulikana
Ingekuwa
##ANGIWA
Otieno
ab
YAFANYIKA
##TILIA
##SAFA
Magufu
##kweta
ono
##achie
Mkulo
upekuzi
UZALISHAJI
##LAN
##wamba
huzi
wamemaliza
umepita
##ONDA
KONA
Lame
MCC
##titi
kuwapunguzia
##mbley
muzuri
waliohojiwa
majimaji
Recep
mtoni
asipotee
Ellen
##ENCE
Kind
XX
iyo
##rend
##mus
ilipaswa
inahusika
wasije
##ebrua
themanini
yakifanyika
wameiomba
##kandamizwa
Zuhura
tableti
Mrakibu
Poulsen
CHANNEL
natafuta
Kuja
Hakuwa
unaotumika
VYAKE
aliyowa
Mtulia
mshairi
Khashoggi
ASTASHAHADA
Atembelea
Yatangaza
bw
ukwa
Malewa
##WAGA
##sovo
Vikwazo
Modi
tunaandika
Makakala
2011na
ubaba
likitokea
##isome
Paroko
URL
adai
kuwaonya
##HAT
Rosema
##ctions
ashiriki
##kota
##gereza
alipongeza
##dhibitisha
##amulia
##zungumzi
kilabu
kuipinga
Shibuda
##jufu
STAMICO
KINANA
aache
YULE
UJUE
Lanka
Phillip
mgambo
Masihi
Wauza
Kufuatilia
lijalo
walioi
Initiative
Oxfam
mmomonyoko
januari
Ngombale
Uimarishaji
aendelea
##bah
##sikie
kupongezwa
HAS
kuifikia
Las
uthubutu
limesababisha
Juan
hauko
MWANASHERIA
linatakiwa
patakatifu
shamrashamra
CBE
Zen
kur
##rari
alituma
wamefikishwa
##TES
magavana
Zilizotembelewa
NGURU
##SHUA
Nature
Maharage
##losai
Alifanya
Bibilia
walala
Abuja
Ministry
##shtuka
maridadi
MENEJA
Letu
Mila
hiyari
kiweze
##chake
##KUTA
Moyes
umeji
Chongo
149
kingo
Aub
Abdulla
vimeanza
WAREMBO
mwingiliano
##lingo
waliotu
aliyekufa
Jeremia
##tumizi
##fungamana
kukumbukwa
KUSIKILIZA
TETESI
Vunjo
kuupa
mei
yaliyotokana
Awadh
KORO
UNAO
Kutongoza
##owataja
akipongezwa
KILELE
Ibrahimovic
Zlatan
NZIMA
##hongwa
##BISHWA
kizima
ikiwepo
ikishinda
Utd
tutaona
div
Rice
amewapa
ULIMWENGU
##ingilie
kisichokuwa
ASILIA
kimombo
GRO
UFISADI
##rl
KERO
##angaliwe
##deme
Coc
Forest
##istiza
Zubeir
Kichuya
Ika
Haina
HALISI
Nice
##GAR
akau
126
yanayoi
nimesema
##mwacha
##FANYWA
Watetezi
Mkenda
machin
Mfaransa
akikabiliwa
julai
wakimu
tunau
kisanii
UTAKAO
UTAMBULISHO
Welcome
Panama
Civil
Vigogo
umeelezwa
KIGA
vinapatikana
230
##lamishi
##hoofika
Mahadhi
Umasikini
Mwanamwema
KIWIA
##furaha
kulitumia
Jimboni
Kanye
##jaaliwa
Pretoria
kihafidhina
Mererani
Czech
brand
iliyochukuliwa
uniko
watatakiwa
SIM
##ONDON
##phosa
kortini
weekend
booking
Mshambulizi
##tory
##tewa
kuwashughulikia
wanalipa
wakiandamana
undugu
haihusiki
kinondoni
Eno
##tegemei
Stanbic
Hosni
##Book
Ushe
##tali
alihudhuria
wanachukua
zilisema
##ONGWA
masumbwi
Hope
Shangwe
##BARIKI
ujerumani
maho
##gul
kutojihusisha
sii
Hatahivyo
Nimepita
Mhashamu
inamilikiwa
##pungukiwa
##lisheli
kuendeshea
IKI
usema
udereva
##ltani
##fumbia
##reketwa
ameachiwa
Mwinuka
hawajulikani
jeshini
kilichobaki
ongeza
WANAHABARI
ZITA
REU
interview
Diary
Aston
LONDON
wameonesha
##link
umeona
##engoma
Wembley
kimefanyika
Sadick
Ramaphosa
Magic
Kipolisi
Pilato
fc
##hurumia
145
##olf
SABASABA
##KTABA
YOHANA
anakutana
##IAL
##tokanavyo
kinachom
degree
yanatoka
inawapa
MSAJILI
Nkurlu
Atakuwa
length
kwakweli
##tiliwa
walikubali
##juaye
yanayofanya
MUWSA
matairi
Ubongo
three
NYINGI
KUFUNGA
ULEMAVU
Bitcoin
SEKRE
Natumaini
##yatumia
maria
akitazama
Kasa
akiwapa
MWEN
Mwakyusa
Akawa
Kaisari
ABI
Mani
##mila
Sekretari
Kala
akatoka
akarudi
ikionyesha
Shiv
JIKONI
chekechea
Sulemani
Beno
Mge
São
same
##piwa
MAKTABA
waliochangia
maasi
##atega
##malizie
mtayarishaji
alimteua
stars
Philippe
TAHADHARI
uho
##uia
##gga
KAT
ikitolewa
##juki
POA
TIJA
waliojiandikisha
##hhh
Fitr
Ija
dondoo
wamechoka
wakionekana
wanaowania
Report
kibinaadamu
DFID
IMA
##adhibiwa
waTanzania
##dhama
Njoo
Enterprises
BV
##jutia
DEG
fanyeni
kumbaka
WAGENI
Kufungua
anaonyesha
Namanga
MADRID
Spain
Vilabu
Mutharika
Family
Wili
fumbo
ifanyike
##LLO
huadhimishwa
##rui
wanajiandaa
kuliweka
kistaa
msamiati
ataapishwa
mwanaadamu
geti
##cious
##ctroni
##berry
bonanza
FTNA
Akubali
##popo
ulikua
alipoona
##REJA
ukitumia
msikitini
##welezea
vipofu
##STAL
wezeshi
Ext
uhuni
##gence
mabunge
mahangaiko
ilianzisha
Kwata
kumpoteza
##yamazisha
kilichowa
Ndug
##UFAIKA
Theresia
Brand
##ibwa
##kipa
##huzuni
WAAD
Kijani
Taji
zinazom
Investment
yaliyotajwa
nampongeza
tulizonazo
##sisitizwa
kuweko
Mchechu
##riginal
Abdalah
##VENTISTA
RICHA
amepanga
muuguzi
hawai
mamboleo
inayokuja
Mathalani
Utume
uuzwaji
##cted
##kiukwa
Sikuwa
EALA
787
PTA
##ground
##vini
##kila
##onwa
Makamishna
##kotoka
imeagiza
wanaotakiwa
Shigella
Wonder
wasome
##pofika
##eleeni
KUINGIA
inayoonesha
MOCU
Vitengo
imgtag
##yunko
Uongofu
REJAREJA
Uyui
##ero
##LLE
##MIN
wadada
Kenyunko
nimegundua
##rgen
material
Ishengoma
##pire
##thee
Scholarship
madhila
WAADVENTISTA
ikam
##baa
##komea
kunufaisha
rec
vinywa
Wakolosai
##AJIRI
UWEZE
falme
kinyemela
##bat
##mala
##dioni
kutotoa
Lil
kusifiwa
wananufaika
kijasusi
maudhi
kujengewa
Chai
kulifanikisha
wataona
##kwea
Tupigie
kusababishwa
viapo
##attara
VICTORIA
1958
uchakavu
Catalonia
##Query
CDA
Pyong
acheni
kuumbwa
nimpongeze
Mafuriko
##tero
kuwatisha
##pac
Kuhitimu
But
anayoifanya
SEKRETARI
mzizi
##opo
vitokanavyo
Wacha
Hale
wameahidi
zinazosimamia
kitabia
unaofadhiliwa
SEIF
##BII
UNION
##ANUSHA
REUTERS
Bree
##engenye
matanga
Kampasi
136
Forbes
677
Morsi
vipato
MASAUNI
kufahamiana
kuwatakia
akizi
inajenga
KUFIKIA
Virg
waliopita
Nianze
##mbua
kungekuwa
kukaguliwa
kutuambia
utakaochezwa
ujulikanao
Ufanisi
##rija
uweke
MADARAKA
kusindikizwa
KCPE
Oran
##arifiwa
kuishukuru
##iser
##resi
tuungane
##peri
##ISINI
kumsa
tunashukuru
key
chooni
Shadrack
tutafika
itawawezesha
Jaydee
mkristu
Mutalemwa
ajiri
cd
gl
kuitetea
umewekwa
TAW
watarajiwa
Boa
wakaja
WANAOANGALIA
Mkwakwani
Taiwan
RICHARD
##ore
##jumlisha
Mwaminifu
##GULIWA
TUKU
Shaffih
Files
Haile
Zucker
DEGREE
FUN
Uhamasishaji
glo
##riji
##pokee
waliandamana
CHAR
shairi
##lingani
SERIKALINI
JAMANI
Sinai
Esta
GLO
##kwimu
##KM
Rey
Absa
kuzidiwa
ILALA
theluji
Furahisha
Aveva
tone
vibarua
Kidi
anadhani
wik
##fikishwe
kuulinda
mamla
cont
Mpenda
far
##vard
yamo
alikaririwa
##shida
Kuongezeka
Salaa
##ongezwe
kuifuta
Revie
yanayosababishwa
Ninapo
##lando
##cket
Cyril
MZUMBE
MKWA
wanahisa
WAOMBAJI
akisaidiwa
Movies
134
##undika
alhamisi
Blogger
kuvumili
MSIKITI
##dney
Nassi
Ruzuku
Div
##kuacha
Wanataka
akimtwisha
##changanuzi
##carp
Fabian
Uti
Uchafu
alipatikana
Sem
Sakaya
Hold
Coco
kinachodaiwa
kinachohitajika
KUHUSIANA
##ANGANYI
onesho
Oil
##sult
##silishwa
Jicho
haioni
ukungu
lililowa
vyengine
##menia
UAMUZI
LIVERPO
##vertise
Winnie
LIVERPOOL
Atoa
Chili
Ipi
Mkuru
kujibiwa
##endekeza
BAHARI
comp
Nyatega
kutimuliwa
Airways
WALEMAVU
Photo
alihusika
##RIDI
imekaa
##vita
##onaji
zikawa
Birthday
##DHALI
Masaju
ENDE
##MZITO
Wahenga
##unit
utaokoka
Lita
Papi
##vae
tukifanya
##punguze
SARUNGI
ALEX
Hambu
IM
UONGO
WB
cre
ewe
##blo
##labo
amefikia
hawafahamu
Hud
technolo
Mtaguso
Haijalishi
##cience
1948
Wanaomjua
616
Ian
MD
##penyeza
##unusi
kilianza
zimekwisha
##dishiwa
kumuwezesha
ubadhilifu
MJAMZITO
MLANGO
KUCHUNGUZA
mkun
##tara
##jid
##LIFU
waliopotea
walioajiriwa
unyonge
alipokua
##boreshe
kieleweke
Wodi
VIJIJI
steroid
Abid
##winda
yazidi
mirefu
ulisababisha
Nyami
mfupa
Mahindi
Nasri
kugombana
##lenge
##TUMI
tumechapisha
lililom
Mwekundu
576
Yasiyo
Mle
Var
wafuatao
kwaku
saumu
##anzishwe
##TOKANA
Niku
Yawezekana
Rex
Inaongoza
Fuata
kibiblia
Leopards
mazoezini
Cus
kanzu
##imarishwa
mifereji
christian
##FANYE
waarabu
Sami
##kilia
Makungu
kuwawajibisha
YASOME
##par
##chaguliwe
uliotukuka
hero
vitamin
KUKUZA
Sijawahi
uokozi
##cka
##tusi
vibaraka
##dolwa
Saed
watashindwa
unye
para
Bird
kukariri
wakatoweka
HUKUMU
Belle
Gam
itolewe
alikana
##shikana
anasumbuliwa
Kazini
##shindo
wakikagua
##tumikie
Tufuate
154
Shah
MAUKI
KUOKO
Taylor
Rising
YATIMA
Ezra
Generali
najisi
MARIA
anaongeza
unayem
yalitolewa
##ambulika
Mema
##MOYO
unaohitajika
##usse
260
##sogezwa
kujisalimisha
##gugumizi
Rosemary
Pame
kukurupuka
##funulia
Bible
Rohingya
shehia
##ridhiwa
hazipo
##tamkwa
Force
anachojisikia
Kadiri
##SIKII
Akothee
ZSSF
##sive
##yaku
##paza
waliotangulia
Yaya
limeripoti
##engee
kiuta
Unga
linalotarajiwa
Faustin
NDUGAI
anakupenda
OUT
wano
amejikuta
Alice
Jiandikishe
moro
kutegemeana
zimefanyika
mnyororo
WIZI
Andengenye
Janabi
Wamesema
ZILIZOSOMWA
JENERALI
msukosuko
Madhumuni
##manda
kiv
kuwahamisha
Kuchunguza
ulisema
waliosajiliwa
##HIRI
shuka
hayapo
mwanasoka
##POLE
zitapigiwa
state
MARAFIKI
AAMURU
MGOGORO
browser
md
kustaajabisha
##tazamiwa
Wadada
##wandui
shupavu
limekuja
yanayotakiwa
stashahada
TIB
UBINGWA
##MINIKA
Zainabu
Thanks
ITAKAYO
avance
##wasa
##tas
##nap
waliofukuzwa
taarab
wakapata
akimnadi
TIKETI
Afanya
TY
Uf
atua
##nukuu
##ozi
##huli
aligundua
##doka
see
kumjibu
Himid
tunashindwa
akatu
zimeeleza
Luther
INGAWA
Rashidi
##IDE
wafuatiliaji
akipenda
unabaki
Afunguka
kumtukuza
##pukia
##ameyang
ninaku
Government
kudangan
MAZIWA
##cles
yaa
inafikia
##depend
##RIPOTI
tutaku
##hanna
##BODA
kuchuja
ZILIZOPO
Polycarp
##fedhehe
mhubiri
##utoa
##guni
Maboresho
kuwawekea
##HAU
BAGA
ajaye
sheri
##Commerce
Ouattara
BODABODA
Mvu
Ukuu
##VICHA
Mayai
ilikadiriwa
Kujadili
##endeke
##zingiti
Nembo
Magesa
##pumzike
KIJESHI
Pyongyang
Ster
##zane
##lehe
wakijadili
##luki
Wizi
waoga
Tax
unamu
Chaneli
##fikiaji
HUSIKII
Shaibu
alichofanya
hayataruhusiwa
Buhigwe
BLA
OVYO
cent
##jipa
aliongezea
ilibainika
MABO
##ingize
light
mean
yataanza
Matawi
SEKRETARIETI
wafike
kuelekezwa
kupumzi
zinakuja
kuitekeleza
UPATE
Jersey
tumuombe
HASUNGA
Sang
##gezi
##patika
nilisema
kimetokea
kufili
machachari
ICU
camera
ulitokana
wakikata
kinafanya
0777
##elina
kasumba
Wamisri
KUSIMAMIA
Sayyid
Reviewed
##tatu
##4C
kuwas
Kudumisha
Lite
BAVICHA
VITUKO
vitamu
mnam
Food
ANG
Mwaipa
DTB
use
huishia
sakramenti
Naj
Kadama
ulioongozwa
##gongana
MUSOMA
ampe
##kinolojia
wasamaria
##sadikika
0787
##SHANGAZA
Friends
ilifungwa
##ilaumu
Kwale
##kelele
yohana
##rudika
Intern
##hesalonike
alijiuzulu
mathalani
ambu
nchin
maambukizo
##futilia
Kuchaguliwa
##HUS
kuzipa
yasiyofaa
COASTAL
wawapo
##kuzuia
alimw
Kosovo
kutembelewa
UKOMBOZI
kuungua
Halmshauri
##dhihirishwa
ameokoa
Mim
HARU
uliojitokeza
##atest
Bosi
mashakani
Dimani
ucheleweshaji
Kijinsia
NFRA
GEORGE
IWE
money
##skari
##ikia
kuhariri
##fundo
umeweza
##biliana
Luoga
Technolo
Heka
amewaasa
Msamaha
##mwita
##kisiko
alishawahi
Gordon
Aubameyang
avancemedia
Ew
##iomba
##light
##tiago
Nimepata
database
kupotoshwa
alichokiita
Itigi
UWEZA
##ize
##walo
naanza
##pime
Kizayuni
##chero
##dude
much
wamethibitisha
changia
kitabibu
Sh3
elektroniki
STEP
Sylvester
Nyongo
Org
TIN
hakut
Mase
walijua
imepelekea
kumsikia
walioshuhudia
##luti
##TUMIKA
##badilishe
##changanyika
Hatujaribu
Engineering
Price
atoke
jQuery
##hangi
KUZINDUA
##peini
ray
Taha
met
118
updates
##HAMASISHWA
##inafsishaji
UDP
##VIC
##kole
##pact
wamevaa
KIME
##zuu
Shisa
Buy
Kilifi
##sisitizia
##ringo
unyanyapaa
Kunusuru
##kisio
Wafilipi
Q400
##ola
KUAM
KUSHINDWA
kuitembelea
##rakasi
bubu
Gerezani
##jitayarisha
Sumatra
Are
Maiti
##dhihaki
##WAPO
inafanywa
aliyoyapata
Mndolwa
##guero
NILIM
British
khofu
ilihudhuriwa
##vick
kulijenga
##aminiwa
Fuatilia
Mbappe
##asisiwa
kubomolewa
##melea
Hasira
Kapo
wanaojiita
akali
127
Forums
wakamwambia
##rency
##152
Nyuklia
Connection
Ug
Halma
imetengenezwa
tunasubiri
Farid
yametokana
187
##MBOLE
Maraga
Msumba
WANYAMA
USHOGA
anampenda
kivitendo
Kaseja
HARUSINI
##riko
##wee
Wakubwa
##rushia
##miki
##mbeli
hawaelewi
faru
##vaana
road
##pitiliza
Wood
SERENGE
migahawa
Yaa
waingie
##gusu
Wastani
wanapatikana
Hardnews
amelaani
KUSH
##beu
mapendo
##thirika
NITA
kurudiwa
nawapongeza
utimilifu
Kristu
kuishinda
Omog
Shisael
BUNDI
zaid
miondoko
iliwahi
salio
tuku
Serie
##RITA
unatafuta
##itwe
prote
WALIMWENGU
yakitokea
DOLA
##yanyaso
Upya
Ushawishi
uh
##CAN
huingia
alifanyiwa
KUCH
wamefunga
Possi
hawawa
Fashion
138
##unded
vipawa
kiharusi
Uchangiaji
gene
mdudu
kukandamiza
##zalia
inapokuwa
ulifanya
##stz
Mhina
Wanamuziki
##ille
Geoff
alichosema
uchomaji
German
SILAHA
Bani
##mat
Sab
##MBWATA
Med
Nimefurahi
LIMBWATA
##ANDISHA
KUPINGA
Vitongoji
kuwaapisha
AKINA
Hamburg
inaongeza
BARC
PRODU
alioutoa
##TANGULIZI
Zuckerberg
Article
Mfumuko
Tran
##anki
##mulizi
walikaa
Sadaka
imemu
zilitoka
Mwambe
hakuja
hosteli
ukosoaji
goo
Olo
mapito
##well
kumtetea
tunaenda
wanaoku
129
Mwanakondoo
Salmin
Kisiwandui
Colours
Herode
uozo
Kuaji
Mjasiriamali
jambazi
name
Hafidh
##ongelewa
wanaoendesha
Bobi
RASHI
kukaribia
MATOKEOOO
temp
aliyoyatoa
NYASA
Kagasheki
Edi
Gur
uya
##ers
##tizama
##faham
alihamia
##hoi
kuulia
##ambazaji
Jussa
gazetini
##ONEKANA
Aguero
SLAA
##llingi
##Nkoromo
ilifikia
##cheko
anaya
umeonesha
wanamiliki
Mbuga
DHARURA
Chakechake
FIN
Mine
gramu
iT
##jipatia
##yakulia
huj
tuhakikishe
inakaribia
aliyeongoza
Lav
Mtafsiri
1969
tungependa
MCHUNGAJI
APRIL
kuchinja
Lameck
hukaa
waliokwenda
KITAA
ziliz
nilijua
Firauni
theNkoromo
Haramu
Santiago
Mgo
NJ
uchwa
##bc
Mulu
##ENGWA
hakupata
124
atakayekiuka
uchokozi
reading
Vingunguti
##TISHWA
##halalisha
##ked
huto
##ungama
ameshiriki
##INSIA
yanafanya
Peponi
itatumia
BET
Hump
Subha
SERENGETI
Honeymoon
mkoba
huonyesha
walifunga
KUENDELEZA
##jiajiri
Tesha
tulifanya
ilivyoripotiwa
minyororo
##danganywa
umbizo
Alaykum
UTANGULIZI
tangia
##yeyu
vioo
amesikitishwa
##bwaya
##vika
##TUKIZA
BongoSwa
anaowa
##FESA
BongoSwaggz
Jaa
apa
ll
alitekwa
##pikwa
##uziwa
morali
hos
JAY
kutokujua
MLINZI
NGURUWE
mg
ter
##LSEA
##unyi
##umishwa
##eleo
mwambie
zitolewa
kukaidi
mfuatiliaji
Usahihi
angali
##cius
##ancer
advertise
nikupe
IKO
Natambua
katego
tumi
usisite
##OT
##cision
wadi
kudhalilisha
kigugumizi
walitiwa
##LIE
Mikel
KICHWA
haitaki
atachukua
##fikiriwa
Nawapongeza
[...]
